▁।	44393
▁है	30807
▁के	27656
ी	25835
▁में	23924
े	22357
▁	19459
▁,	19435
ा	18446
▁से	18250
▁की	17475
ों	16635
▁का	13225
▁हैं	12089
▁को	11157
▁और	9155
▁-	9055
▁पर	8276
ं	7294
▁भी	6595
▁इस	5477
▁हो	5340
▁एक	5095
लिए	4839
▁कि	4054
▁यह	3851
▁ही	3830
▁.	3819
कर	3584
▁कर	3496
▁'	3469
▁तो	3393
र	3362
▁रोग	3303
ित	3303
▁व	3243
ने	3218
जाता	3189
▁नही	3052
ता	2839
▁होता	2729
न	2661
▁या	2519
▁न	2479
▁वाल	2442
▁यहाँ	2353
ई	2204
▁ले	2169
▁तक	2164
क	2154
▁तथा	2147
▁होती	2009
▁होने	2004
▁करने	1993
ओं	1986
▁साथ	1874
▁जा	1856
ल	1821
▁जाती	1813
▁जो	1798
▁दूर	1798
▁एव	1788
▁था	1760
▁मंदिर	1755
▁इसक	1712
(	1701
▁)	1701
▁कारण	1641
▁ने	1617
▁किया	1582
▁कम	1547
▁कुछ	1543
सकता	1542
ियों	1541
▁पानी	1498
▁समय	1480
▁शरीर	1474
▁चाहिए	1462
▁स	1424
▁बाद	1422
में	1403
▁आप	1396
▁गया	1394
▁उस	1346
▁बहुत	1308
▁दिन	1283
▁अधिक	1268
▁स्थित	1264
▁सकते	1264
▁लोग	1261
ें	1259
▁अपने	1216
एँ	1201
▁इन	1180
▁बड़	1163
▁आदि	1162
▁किस	1127
▁द्वार	1122
▁रूप	1118
▁बार	1117
▁`	1113
तरह	1089
▁करते	1077
▁दो	1074
▁कई	1074
▁जिस	1064
▁पहल	1063
▁होते	1062
▁करें	1060
▁लगत	1057
म	1050
▁जाने	1039
▁हुए	1035
▁जाते	1032
▁स्थान	1031
से	1008
▁जब	999
ए	992
स	985
▁दर्द	962
ाँ	955
▁अ	945
▁आ	943
▁करना	910
▁लग	903
▁मी	894
▁सबस	879
▁हुआ	877
▁ओर	872
▁बना	871
▁रक्त	869
▁रहत	864
▁क	848
्स	831
▁किलोमीट	831
▁ज्यादा	826
यदि	821
▁प्रकार	821
▁स्थल	821
िक	810
▁पूर	804
त	802
▁उसक	800
▁सकती	792
▁ऐस	791
▁शहर	791
िंग	779
▁क्षेत्र	776
▁प्रयोग	769
▁हर	766
▁पर्यटक	764
किन	764
▁ह	761
▁जैसे	759
▁नाम	748
▁ग	742
ियाँ	742
▁वह	733
▁मात्रा	729
▁हम	722
▁बीच	722
▁उद्यान	721
▁व्यक्ति	720
▁थी	719
▁तीन	718
▁अपन	715
ते	714
▁थे	713
▁पास	713
▁दूसर	710
▁आत	707
ीय	695
▁उनक	693
▁ब	691
▁राष्ट्रीय	686
री	684
▁बढ़	674
▁रंग	673
▁महिला	665
▁देखन	664
▁वर्ष	663
ना	662
▁भोजन	659
▁फिर	659
▁कभी	659
▁झील	650
ार	649
▁रहा	649
▁त्वचा	645
▁भर	642
▁हाथ	640
▁मिलत	636
▁चार	628
▁अन्य	628
▁बच्चे	623
▁जहाँ	616
▁पेट	611
▁रहे	610
▁गई	610
▁जल	609
कि	604
▁भारत	593
▁ये	591
भग	581
▁देश	580
▁आँख	580
▁सूर्य	578
▁जगह	575
▁:	574
▁सा	568
▁हुई	568
▁लें	567
▁जाना	564
▁हमार	562
▁बन	561
▁बच्च	559
▁मुख्य	554
▁सेवन	553
▁आपक	552
▁नदी	552
▁आपको	548
▁पैर	545
दिया	545
▁कहा	544
▁भाग	541
▁सी	538
▁करती	536
हाँ	525
▁तेल	523
▁मार्ग	523
▁काम	522
▁साल	521
द	521
▁ऊपर	520
▁गर्म	517
▁पर्यटन	517
▁बात	516
▁अगर	512
▁दोनो	508
▁सभ	507
▁होना	506
▁हृदय	502
▁प्रति	500
▁ऐसे	499
▁रहन	499
या	498
▁आज	497
▁प्रभाव	492
▁इसी	490
▁आने	488
▁घाट	487
▁लक्षण	485
▁पार्क	480
▁पूर्व	478
ू	478
▁खाने	477
▁विशेष	474
▁बाहर	474
▁प्राचीन	473
▁अब	471
▁लाभ	470
▁अलाव	470
▁मिला	468
▁समस्या	467
▁२	466
▁कैंसर	466
▁क्यों	462
▁ठी	462
▁बीमारी	461
▁म	456
▁ए	454
▁प्रमुख	453
▁३	452
▁जाए	451
▁काफ	444
▁रहती	440
▁दवा	440
▁कमी	440
▁तेज	436
▁संबंध	436
▁निर्माण	434
ती	433
पुर	433
▁रही	432
पूर्ण	432
ली	430
▁ऊँचाई	430
▁थोड़	430
तः	430
▁लगा	428
▁दौरा	424
▁वे	424
▁गाँव	424
▁अलग	421
▁मह	421
▁अनेक	420
▁दें	419
▁जरूर	415
▁मिल	415
▁अनुस	413
▁प्रसिद्ध	413
▁कहत	412
▁बाल	408
▁प्र	407
▁उन	407
नी	406
▁चिकित्सा	405
▁मन	404
▁दूध	404
▁अच्छ	403
▁स्थिति	402
ट	402
व	401
▁पुरान	401
▁आग	401
▁अथवा	399
ण	398
▁फल	395
▁खास	395
▁पर्वत	394
▁प	394
▁प्राकृतिक	394
▁उत	393
▁धीरे	391
ंत	390
▁रखें	390
▁आम	389
▁अत्य	389
हीं	388
▁सुंदर	387
▁जीवन	387
ज	386
▁देख	386
▁उपचार	386
▁सिर	383
▁जंगल	383
▁१	382
▁यात्रा	382
▁उपलब्ध	382
▁६	380
▁खूबसूरत	380
▁नीचे	378
▁औषधि	377
▁द	376
पन	376
▁दाँत	375
▁ध्यान	371
ब	371
▁३०	369
▁लाल	369
▁राज्य	368
▁मल	368
ीन	367
▁रात	364
▁देने	364
▁यही	363
▁पहुँच	363
ौर	362
▁मीटर	361
▁स्वास्थ्य	361
▁विटामिन	361
▁होटल	360
▁बने	359
▁५	356
▁देते	356
िया	355
▁उन्हे	353
▁अपना	352
▁केवल	348
▁दिखा	348
▁बस	347
▁लेन	346
▁इसकी	346
▁जिसक	344
▁इलाज	343
▁उम्र	343
▁पदार्थ	343
▁गुफा	343
▁उपयोग	342
▁देत	340
▁१०	338
लिया	336
▁उत्तर	335
▁पड़ता	335
▁साफ	334
▁दिल्ली	333
य	332
▁पैदा	332
▁मौसम	331
▁डाल	331
▁सामन	330
▁सामान्य	330
▁त	330
▁विश्व	328
▁सड़क	327
ुबह	326
▁छोटे	326
ाई	325
▁घर	325
▁सब	323
▁दक्षिण	321
सूस	319
ः	318
▁करके	318
?	316
▁पहाड़ी	315
▁दी	315
▁तैयार	313
▁जान	311
▁मरीज	309
▁तब	309
▁विभिन्न	309
▁शिशु	309
▁इस्त	308
▁किनार	308
ेमाल	307
प	307
▁देन	306
▁घंटे	304
▁बंद	303
▁वजह	302
▁पता	301
ि	300
▁अंदर	300
▁खून	300
▁४	300
▁खतर	300
▁रास्त	299
▁राजा	298
▁पाय	297
▁रस	296
▁बचा	296
▁मध्य	296
▁विकास	296
ेह	295
रिक	295
▁प्रदेश	294
▁वन	294
▁अंग	292
▁निकाल	292
▁देवी	292
▁महत्त्व	292
▁होगा	290
▁शुरू	289
▁सह	289
▁शक्ति	287
▁मधुम	286
▁हों	284
मान	284
▁छोटी	282
ासन	282
▁प्राप्त	281
▁फूल	281
▁पश्चिम	279
▁स्वस्थ	279
▁महल	278
▁फुट	276
▁क्या	276
▁जाँच	276
▁बढ़त	275
▁स्टेशन	274
▁इतन	274
▁तट	273
▁नगर	273
▁आई	272
▁बनी	272
▁कार्य	272
▁ग्राम	271
▁विशाल	270
▁गोल	270
▁कान	270
▁२०	269
▁वजन	268
▁देती	268
▁आराम	267
▁ई	267
▁समुद्र	266
▁किले	266
▁भगवान	265
संख्य	265
▁चलत	264
▁वि	264
▁सीध	263
▁पाँच	262
▁प्रतिश	262
▁सुविधा	262
्पन्न	262
▁रह	261
▁रखने	260
▁संग्रहालय	260
▁भारतीय	260
▁कमजोर	259
▁जी	259
▁बीमारिय	259
▁संक्रमण	257
नियमित	257
▁तरफ	256
▁बी	256
▁बिन	256
▁पीने	256
▁पत्थर	255
▁आकर्षण	255
नींद	254
▁सं	253
▁नामक	252
▁हजार	252
▁दर्शनीय	252
▁पहुँचा	251
▁दुनिया	251
िस	251
वीं	251
▁आसान	251
▁मैं	250
▁माना	249
▁जैस	249
▁आती	248
▁वर्ग	247
▁पहाड़	247
▁डॉक्टर	246
▁लगान	246
▁मुँह	246
▁अच्छा	245
▁केंद्र	245
▁माँ	244
दार	244
▁रेल	244
▁प्रकृति	244
▁करीब	244
▁ठंड	244
▁खाना	243
▁मानसिक	242
▁रखत	242
▁बज	241
▁आहार	241
▁१५	240
ो	240
▁नष्ट	240
▁सूजन	239
▁बर्फ	238
▁जोड़	237
▁१८	236
▁बच	236
▁कला	235
▁जन्म	235
▁पुरुष	234
ेश्वर	234
▁पान	234
▁मिनट	233
▁देखा	233
▁शामि	233
▁भूमि	233
▁नजर	233
शारी	233
▁मूत्र	232
गढ़	232
▁२००	232
▁सैलान	231
▁ना	231
▁वैस	231
▁राजधानी	230
▁सफेद	229
▁लेत	228
▁चेहर	228
▁आवश्यक	227
का	227
▁हवाई	226
▁आना	226
▁श्री	225
▁१२	225
▁टी	225
▁जाएँ	224
▁पहुँचन	224
▁विधि	224
▁काल	224
▁आकर्ष	223
▁विदेश	223
ला	222
▁दे	220
धिक	220
▁मस्तिष्क	219
▁चिकित्सक	219
▁प्रवेश	219
▁रेलवे	218
▁मदद	218
▁हाल	218
▁आवश्यकता	217
▁माह	217
नाथ	217
▁देर	216
के	216
यों	216
▁द्वीप	216
▁खाँस	215
▁शाम	215
▁राजस्थान	215
▁बारे	215
▁आनंद	214
▁चाय	214
▁हिमालय	213
▁सौंदर्य	213
िए	213
▁भीतर	212
नगर	212
▁यान	212
▁जल्द	211
▁मूल	211
▁तनाव	211
▁पी	210
▁वृक्ष	210
▁निर्म	208
▁अनुभव	207
स्थापित	207
▁शिकार	207
सी	207
▁सार	206
▁मालिश	206
▁खेल	206
▁मन्दिर	205
▁पड़	205
▁जिले	205
▁निकल	205
जी	205
▁आँत	204
▁रख	203
▁मूर्ति	203
▁अवस्था	202
▁बेह	202
शन	201
▁महा	200
▁गंगा	200
▁चला	200
▁७	199
▁कोशिका	199
ंतु	198
▁मौजूद	197
▁र	197
▁सर्दी	196
▁बल्कि	196
▁बौद्ध	195
▁दृश्य	195
▁स्तर	195
▁धर्म	194
▁दृष्टि	194
▁सन्	193
्य	193
▁दर्शन	193
गत	193
▁दिल	193
कारी	192
▁केन्द्र	192
▁चल	192
▁व्यायाम	192
▁विकार	192
▁हिस्स	191
▁जरूरत	191
▁पार	191
लिये	190
▁वायु	189
▁खा	189
▁अड्ड	188
▁जानकार	188
▁लगे	188
▁पेशा	188
▁बुखार	188
▁चुक	188
ायें	188
▁ऊँची	187
▁कार्यक्रम	187
▁मि	187
▁पेड़	187
▁स्नान	187
▁फैला	187
टी	186
▁बाजार	186
▁महीने	185
▁तरीक	185
▁अध्ययन	185
युक्त	184
गी	184
▁बैठ	184
▁बनाने	183
▁कब्ज	183
▁प्रदा	183
▁परेशान	183
▁पूर्ण	183
▁वस्तु	182
ग्रस्त	181
▁साँस	181
ेक	181
▁८	181
ंड	181
▁पीड़ित	181
▁अतिरिक्त	180
▁सर्व	180
▁शिव	180
▁घूमन	180
▁सरकार	180
▁पक्ष	180
▁असर	179
को	179
▁भव्य	179
▁भ	179
▁राम	179
▁चोट	179
▁दर	179
▁इमारत	178
/	178
▁क्रिया	178
▁मे	177
▁सौ	177
▁नील	177
▁श्वास	176
▁खुद	176
▁प्रत्य	176
दिन	175
▁किरण	175
चा	175
▁हवा	175
▁राज	174
▁ज	174
▁दस	174
▁मैदान	174
▁चीज	174
▁डी	173
न्तु	173
▁बनाया	173
▁प्रतिमा	173
ड़	173
▁आस	173
▁संभव	172
▁सोन	172
▁तौ	172
▁रखा	172
▁सु	171
▁शिमल	171
▁परिवार	171
▁तत्त्व	171
▁जु	170
▁श	170
िन	169
▁ल	169
▁पाए	169
▁निकट	169
▁ऐतिहासिक	169
▁याद	168
▁क्षमता	168
▁१९	168
▁सिर्फ	168
रा	168
▁रहें	168
▁अवश्य	167
▁छोटा	167
▁पीछे	167
ह	167
कुल	167
▁दीवार	167
▁तुर	166
▁प्राय	166
▁काली	165
▁घिर	165
▁खड़	165
▁नाक	165
▁जलन	164
▁भवन	164
▁पक्षी	164
▁आयु	164
▁मूर्तिय	163
▁सब्जिय	162
▁पड़न	162
▁इतिहास	162
▁माध्यम	162
▁खान	162
▁लगाता	162
▁संभावना	162
▁छोड़	162
▁मान	162
▁लाख	162
▁बेहतर	161
▁निकलत	161
▁आकार	161
▁उच	160
लिंग	160
▁इलाक	160
▁सीमा	160
▁जैसा	160
▁हड्ड	159
▁आधार	159
▁गोवा	158
▁छात	158
▁झरन	158
काम	157
▁पा	157
▁करान	157
▁४०	157
▁च	157
▁ताकि	157
▁ऑफ	156
▁ठहरन	156
▁व्यवस्था	156
ेशनल	156
▁जन	156
▁मु	156
▁दस्त	154
ंग	154
▁ताप	154
▁हरे	154
▁आए	154
▁किला	153
▁जीव	153
▁आयर	153
▁कुल	153
▁शैली	152
▁तल	152
▁उच्च	152
▁मील	152
▁नमक	151
ु	151
▁१६	151
▁युक्त	151
▁मांसपेशिय	150
▁कमर	150
▁गर्भ	150
▁पर्वतारोह	150
▁५०	149
▁कितन	149
▁पाता	149
▁माता	149
▁गंभीर	149
▁जैन	149
▁पहाड़िय	149
▁सलाह	148
▁हाथी	148
▁स्थापन	148
▁वन्य	148
▁दिमाग	148
▁जिनक	148
▁होगी	147
▁प्रक्रिया	147
रखना	147
दान	146
▁फैल	146
पूर	146
▁बसा	146
▁सप्ताह	146
▁शह	145
▁महत्व	145
▁बिल्	145
▁गरम	144
▁धूप	144
▁पड़ती	144
▁निवास	144
▁आधुनिक	144
▁वातावरण	143
▁स्त्री	143
▁देखत	143
▁स्राव	143
़	143
ले	143
▁कपड़े	142
▁ला	142
ॉल	142
▁पहचान	142
▁संस्कृति	142
▁विशेषज्ञ	142
▁शिकायत	141
▁खूब	141
ड	141
▁घुटन	141
▁धार्मिक	141
▁रोज	141
▁यू	140
▁एस	140
▁सैर	140
▁शताब्द	140
मेशा	140
▁चर्च	139
▁खुजली	139
▁पशु	139
▁सुरक्ष	139
ति	139
▁बताय	139
▁धूम	138
ाप्त	138
▁सके	137
▁आर	137
▁पसंद	137
▁मामल	137
▁बाग	137
वासी	136
▁मनुष्य	136
र्जरी	135
▁जुड़ा	135
▁ऑपरेशन	135
विकसित	135
▁हरी	135
▁समान	135
भर	135
▁जिन	134
▁वृद्धि	134
ाया	134
▁शांत	134
▁डॉ	134
▁बनत	134
ग	133
▁करवाय	133
▁हिल	133
▁चलने	133
▁तप्त	133
मी	132
▁चम	132
▁अद्भुत	132
श	132
▁भारी	132
▁सात	132
▁बच्चा	131
▁१४	131
▁कै	131
▁अभी	131
▁बर्फ़	131
ाँकि	131
▁अति	131
▁पर्य	130
वा	130
▁लोकप्रिय	130
▁जितन	130
▁१००	130
ऋ	130
▁खराब	129
ेट	129
▁रोक	129
▁जिनमे	129
▁बोतल	129
▁पूजा	129
बू	129
▁दिशा	128
▁अंग्रेज	128
▁नुकसान	128
न्त	128
गये	128
▁सफर	128
▁९	127
▁उत्तम	127
▁नव	127
▁खाद्य	127
▁सरस	126
▁सर्दिय	126
ेतु	126
▁मोटाप	126
▁किस्म	125
▁गर्भावस्था	125
▁गुण	125
▁उन्ह	125
▁ज्यादात	124
▁पाचन	124
▁विभाग	124
▁गुदा	124
▁चट्टान	124
▁आया	124
▁चित्र	123
चीनी	123
▁चक्र	123
▁फीट	123
▁रोड	123
▁२५	123
▁चार्ज	123
▁नजार	123
▁दिख	123
▁नस	123
▁भाषा	122
▁लम्ब	122
▁उदर	122
▁विहार	122
इंग	122
ंबर	122
▁ट्रेन	121
▁इत्यादि	121
▁बुद्ध	121
▁वक्त	121
▁प्रथम	121
▁आठ	121
पोर्ट	121
▁भूख	120
▁बनाए	120
▁सहायक	120
▁घाव	120
▁मजा	120
▁रोशन	120
▁लगाय	120
▁पश्चात	120
ियम	120
▁तीव्र	119
▁लाइन	119
गले	119
▁अमेरिक	119
▁तकलीफ	119
▁ज्वर	119
▁पैद	119
▁नजदीक	119
▁बसे	119
▁मश	119
▁नि	119
▁मृत्यु	119
द्वार	118
कल	118
ट्टी	118
▁स्वयं	118
▁चाहत	118
▁पवित्र	118
▁क्षति	118
▁पौष्टिक	118
▁योग	118
▁पीठ	117
▁जम्मू	117
भी	117
▁पहुँचत	117
▁बदल	117
▁मै	117
▁कार	117
▁अस्पताल	116
▁रोमांच	116
▁एच	116
▁चीजे	116
▁मेला	116
▁हरिया	116
▁वैज्ञानिक	116
▁ऑयल	116
▁मुझ	115
▁पौध	115
ढ़	115
▁गो	115
▁जमा	115
▁चिड़ियाघर	115
▁बल	115
▁नियंत्रण	114
▁सिंह	114
▁चूर्ण	114
यर	114
्पत्ति	114
▁पड़ा	114
ड़ी	114
▁औषध	114
▁जानवर	114
▁ताज	114
▁खोज	114
▁पीड़ा	113
▁हिस्से	113
र्दन	113
▁अक्स	113
▁स्की	113
▁रुक	113
▁जिन्हे	113
ाबाद	113
हूर	113
▁परिणाम	113
▁कफ	113
▁सदी	112
▁नारिय	112
▁गैस	112
▁कुल्ल	112
▁निकटत	112
▁आधा	111
▁शांति	111
▁धो	111
▁कश्मीर	111
▁दौर	111
▁निकलने	111
▁हिमाचल	111
▁बाँध	111
▁आध	110
▁प्राण	110
▁चढ़ा	110
▁स्त्रिय	110
▁ऊँचे	109
▁कहन	109
▁गाड़	109
▁पीस	109
▁अर्थात	109
▁सेब	109
▁शराब	109
▁गर्भाशय	109
▁अधिकांश	109
▁ट्रैक	109
▁हानि	109
तम	109
▁भू	108
ेशन	108
सपास	108
▁हाउस	108
▁अन्दर	108
▁लंब	108
▁नदिय	108
▁सेवा	108
▁११	108
▁लोक	108
्रपा	107
▁लाय	107
सर	107
गर	107
काल	106
▁रुप	106
▁जोर	106
राष्ट्रीय	106
▁धर्मशाला	106
▁योनि	106
ीज	106
▁मुख	105
▁कैसे	105
▁बहत	105
▁चुका	105
▁उपाय	105
▁एसिड	104
▁भ्रमण	104
▁उपयुक्त	104
▁मानव	104
▁मिले	104
▁स्तन	104
▁देव	104
▁नीं	104
▁योजना	103
▁अल्सर	103
▁इन्हे	103
१	103
▁मासिक	103
▁ऊर्जा	103
▁टेस्ट	103
्	103
थ	102
▁फूड	102
▁एनिम	102
▁गुजरात	102
▁नया	102
▁समूह	102
करण	102
▁प्रेम	102
▁ब्लड	102
▁लगी	101
▁भरा	101
ाइड	101
▁ऊँचा	101
▁तालाब	101
▁आयोजन	101
▁वायरस	101
▁सुगंध	101
▁आदत	101
▁सहाय	101
त्व	100
▁तीर्थ	100
▁५००	100
लैंड	100
▁गाँठ	100
▁तिब्बत	100
▁कैलोरी	100
▁कारणों	100
▁नियंत्र	100
मेर	100
▁पाई	100
▁पुल	100
▁जिगर	100
▁संगीत	99
▁शाह	99
▁आर्थराइट	99
▁काला	99
▁भरे	99
▁आयुर्वेद	99
▁६०	98
▁दाल	98
▁ग्लेशियर	98
▁संगम	98
▁घने	98
ालय	98
▁बढ़ा	98
▁पथरी	98
▁मेले	98
▁प्रवाह	98
▁तुलना	98
▁भूटान	98
▁मात्र	98
रिया	98
▁इच्छा	98
▁दान	98
▁पड़े	97
फल	97
▁लगाएँ	97
▁लंबा	97
▁आयोज	97
▁सुन्दर	97
▁प्रोटीन	97
▁मुक्त	97
बिक	97
▁स्मारक	97
▁मुगल	97
▁निम्न	97
▁पिछल	97
▁१३	97
▁शिखर	96
▁अगल	96
▁शुद्ध	96
▁प्रयास	96
▁युवा	96
▁उठा	96
▁एन	96
▁तकनीक	96
▁मेर	96
▁थीं	96
राबर	96
तु	96
▁रुपय	96
▁यौन	96
▁समीप	95
▁खुल	95
▁ली	95
▁शीर्ष	95
हूँ	95
▁संरक्ष	95
ताल	95
▁गति	95
▁ढलान	95
▁थकान	95
▁चोटी	94
ैलेस	94
▁बढ़ान	94
▁लकड़	94
ंस	94
▁जयपुर	94
▁सुरक्षा	94
▁जाएगा	94
▁अन्तर्	94
▁स्वाद	94
स्वरूप	94
▁प्रजातिय	94
▁विश्राम	93
▁गर्भव	93
▁प्रसव	93
▁एशिया	93
▁बीज	93
▁श्रद्धालु	93
▁सर्वा	93
▁फेफड़	93
▁स्कूल	93
ँ	93
▁भय	93
▁आइस	93
▁लाभदाय	93
▁पित्त	93
▁शोध	93
▁सिद्ध	93
▁मुत	93
▁पटना	93
▁उतन	93
▁मिर्च	93
▁१७	93
▁यात्री	93
▁सोच	92
▁पाते	92
▁जाएँगे	92
▁विकृति	92
▁विष्णु	92
▁साधारण	92
▁गार्डन	92
▁उल्ट	92
्मच	92
▁अर्थ	92
▁फ	91
▁खाएँ	91
▁अवशेष	91
▁धर	91
▁जम	91
▁डाइट	91
नाक	91
▁टैक्स	91
▁शासक	91
▁सूख	91
म्बर	91
फाई	91
▁पोलियो	91
▁मिली	91
▁सेहत	91
▁सहार	90
▁म्यूजियम	90
ंस्कृति	90
▁हड्डिय	90
▁गहर	90
्म	90
▁इ	90
▁वापस	90
▁स्रोत	90
▁नृत्य	90
▁सक्रिय	90
▁आवाज	90
▁हल्का	90
सूर	90
▁इनका	90
▁अधिकत	90
▁जुड़ी	89
मा	89
▁बिहार	89
जूस	89
▁श्रृंखला	89
▁समझ	89
▁खोल	89
▁डे	89
▁उत्पाद	89
▁मजबूत	89
ड़ा	89
▁इंडिय	89
▁०००	89
▁वसा	89
▁जर	89
हट	89
▁केरल	89
▁बूँद	89
▁अभियान	88
▁लंबी	88
▁समाप्त	88
▁लेक	88
▁मोट	88
▁स्तूप	88
▁खेत	88
▁तीसर	88
मन	88
▁गयी	88
कारक	88
▁व्यापार	88
▁साब	87
▁मोह	87
▁माश	87
दा	87
ल्शिय	87
▁सो	87
▁लेती	87
▁पहुँचे	87
फ	87
▁अन	87
▁बनवाय	86
▁परिसर	86
▁प्रारंभ	86
▁चाव	86
▁पुन	86
▁शुरुआत	86
▁संतुल	86
▁४५	86
▁देखे	86
िटी	85
▁स्वर्ग	85
▁चाहे	85
वायु	85
ढ़ी	85
▁घास	85
ख्यात	85
मेंट	85
▁सवार	85
िश	85
▁जुड़	85
▁गुर्दे	85
▁पिकनिक	85
▁गलत	85
▁डायबिट	85
▁दरवाज	84
▁पुर	84
▁सामान	84
▁आसन	84
ालू	84
▁निश्च	84
▁हार्ट	84
▁दुकान	84
▁निचल	84
▁भीड़	84
▁दू	84
ुंब	84
▁लेप	84
सास	84
▁खुराक	84
▁उड़	84
▁मर	84
▁महीन	84
जात	84
▁कोशिश	84
▁अर्क	84
▁संचार	84
▁दबाव	83
▁शर्	83
▁बैठन	83
▁ठहर	83
▁शीघ्र	83
▁अवसर	83
▁छाल	83
▁सिरदर्द	83
▁बस्त	83
▁युद्ध	83
▁खाली	83
राहत	83
▁कठिन	83
▁मस्जिद	83
▁कमरे	83
▁जूत	82
▁राय	82
ष्ट	82
▁अपेक्षा	82
▁१९७	82
▁शासन	82
▁सागर	82
▁चिंता	82
▁दबा	82
▁गुलाब	82
र्स	82
▁मिलेग	82
▁तंत्र	82
▁गहरा	82
▁बोट	81
▁दुर्लभ	81
▁एम	81
▁मान्यता	81
▁ओ	81
▁बदलाव	81
चर	81
▁बाव	81
डर	81
▁क्षय	81
▁रोकन	81
▁आकर	81
ृत	81
▁सर	81
▁भिन्न	81
▁देखी	81
▁फायदे	81
▁दाग	81
▁भूल	81
वाएँ	81
▁ढक	81
▁दुर्ग	80
▁तमा	80
▁समुद्रत	80
२	80
▁यूनान	80
महादेव	80
▁फीसद	80
ाल	80
▁एयर	80
▁मगर	80
▁संक्रम	80
▁जैसल	80
▁मार	79
▁एलर्जी	79
▁गिर	79
इटि	79
▁ताल	79
▁देवता	79
▁परिवर्तन	79
▁कच्च	79
▁बेचैन	79
णा	79
▁बाघ	79
▁सूरज	79
▁नमून	78
▁आरंभ	78
ढंग	78
▁मकान	78
▁कॉफ	78
▁तंत्रिका	78
▁पचा	78
▁वास्तव	78
▁कल	78
▁चले	78
▁नाल	78
▁पद्धति	78
▁फायद	78
▁अभ्यास	78
▁जड़	78
%	78
मार्ग	77
▁प्रातः	77
▁शानद	77
▁मिश्र	77
▁फैट	77
▁रोम	77
▁नेत्र	77
▁रखी	77
षित	77
▁अँगुलिय	77
▁सुन	77
▁रसायन	77
▁२४	76
▁अंतर्	76
▁योग्य	76
▁वर्त	76
▁उठत	76
▁अनूठ	76
▁रि	76
▁प्रतीत	76
▁चौड़ा	76
ीढ़	76
मंद	76
▁तत्व	76
▁मछली	76
▁अचान	75
साज	75
▁पोषक	75
▁गतिविधिय	75
▁इनक	75
रंगी	75
▁घी	75
▁अंत	75
▁जमीन	75
वन	75
▁प्रजनन	75
▁फैलत	75
▁बंगाल	74
▁हल्के	74
▁अभाव	74
▁जिंद	74
▁कोलकाता	74
▁पीन	74
▁वाहन	74
▁धमनिय	74
भाल	74
▁उ	74
याँ	74
ंद	74
पहर	74
कोट	73
▁सोत	73
▁मच्छर	73
▁टीका	73
▁दमा	73
▁टूट	73
▁स्प	73
▁हरा	73
▁मुश्किल	73
▁८०	73
यम	73
ाम	73
▁खत्	73
▁अशोक	73
▁शिवलिंग	73
▁विषय	73
८	73
▁कक्ष	73
▁अवसाद	72
▁चाँद	72
▁माल	72
दम	72
▁एक्सरसाइज	72
▁समुद्री	72
▁बतात	72
▁बाई	72
▁कुंड	72
▁काटन	72
▁निगम	72
▁उद्देश्य	72
▁कष्ट	72
लपुर	72
▁मूत्राश	71
▁खुले	71
▁सदस्य	71
▁कहलात	71
▁मौक	71
▁९०	71
▁मनोर	71
पान	71
▁शब्द	71
▁छत	71
▁छह	71
▁रो	71
▁मठ	71
▁रात्रि	71
▁हर्निया	71
▁हालत	71
▁प्रकाश	71
▁परंपरा	71
▁चढ़	71
▁प्रतीक	71
▁अज	71
▁सतह	71
▁गिरन	71
▁लगना	71
▁हरि	70
▁मणिपुर	70
▁ड	70
▁स्वच्छ	70
आ	70
जन	70
▁छ	70
▁दही	70
▁पचम	70
▁त्याग	70
▁बह	70
मस्त	70
▁१९८	70
▁आइ	70
▁डि	70
▁होंगे	70
▁स्वरूप	70
▁परीक्षण	70
▁पत्त	70
ाकार	70
नीय	69
▁गुरु	69
ग्राम	69
▁रक्षा	69
▁तय	69
▁जून	69
टर	69
▁उप	69
▁लौट	69
▁चलन	69
▁डिग्	69
ंतिम	69
▁उतर	69
असल	69
▁३५	69
▁गिरत	69
▁बा	69
▁रोगिण	69
▁विशिष्ट	69
▁सम्राट	68
▁पत्ते	68
▁डिप्रे	68
▁लुत्फ़	68
▁पीत	68
िदान	68
▁जीवाणु	68
▁मिश्रण	68
▁निज	68
▁साधन	68
▁नौ	68
▁दल	68
▁अह	68
ौल	68
▁मोड़	68
▁गढ़	68
▁ठंडा	68
३	68
▁वर्षा	68
▁लिंग	68
बंदी	68
िमोनिय	67
▁नौका	67
ोली	67
▁आशंका	67
▁चक्कर	67
▁बैक्टीरिया	67
▁शेर	67
▁उठान	67
▁गांधी	67
▁जिला	67
टूब	67
की	67
▁बुग्याल	67
▁मई	67
▁दाने	67
ड़े	67
▁असम	67
▁कृमि	67
▁अंतर	67
▁एक्स	67
▁सस्त	67
▁खात	67
▁बियाबान	67
▁शिला	67
▁दुर्घटना	67
च	67
▁सेंट	67
▁रोमांचक	67
▁फोड़	67
▁बोल	66
▁किराय	66
ीत	66
▁संग्रह	66
▁प्रणाल	66
▁सफा	66
पूर्वक	66
नुसा	66
रूप	66
▁लद्दाख	66
▁अक्	66
▁डर	66
▁घट	66
▁बंगल	66
▁बिस्तर	66
▁निर्भर	66
▁उत्सव	66
▁आश्रम	66
▁आगर	66
▁नर्म	66
▁मौत	66
▁भक्त	66
▁वस्त्र	66
पर्क	65
लाद	65
र्वती	65
▁पोषण	65
▁केदार	65
▁अम्ल	65
▁छान	65
▁खरीद	65
▁विशेषता	65
जा	65
▁यकृत	65
▁अवस्थित	65
▁जख्म	65
▁काले	65
▁२२	65
▁फर	65
▁अप्र	65
ैल	65
▁बता	65
स्थ	65
ाव	65
▁धन	65
त्मक	65
▁औरत	64
▁फैले	64
▁चीन	64
▁निशान	64
▁पर्यावरण	64
▁शोथ	64
▁साहस	64
▁उबाल	64
▁हॉल	64
▁स्नायु	64
गीर	64
▁बर्तन	64
▁मा	64
▁शोधकर्ता	64
▁गाज	64
▁रानी	64
▁भाँ	64
▁मानत	64
▁चू	64
▁घंट	64
हित	64
▁ज्ञान	64
▁क्रीम	63
▁प्यास	63
▁निर	63
ंतर	63
▁हनुमान	63
▁चौड़	63
▁मना	63
पर	63
▁आबाद	63
▁पे	63
▁चाहें	63
▁अंड	63
जूद	63
▁कु	63
वृत्ति	63
▁खो	63
देव	63
▁मानो	63
▁शीश	63
▁७०	63
▁शुरु	63
▁उदाहरण	63
▁महान	62
नुमा	62
ोसिस	62
▁नाखून	62
राम	62
▁रोजा	62
▁विकलांग	62
▁अनु	62
▁जाये	62
▁एंटी	62
▁मांस	62
▁प्रचल	62
▁इन्ही	62
▁चढ़न	62
▁हद	62
▁पकड़	62
०	62
▁शाय	62
▁अरब	62
▁रक्तस्राव	62
▁बगीच	62
ानी	62
▁चाहिये	62
▁सुना	62
▁शिक्षा	62
▁बे	62
▁बेहतरी	62
ेस	62
▁बैठे	61
▁स्थापत्य	61
▁टूरिज	61
▁मोर	61
▁ब्रिटिश	61
▁छुटकार	61
▁साबुन	61
ाएँ	61
▁महाराजा	61
▁सामाज	61
वर्ष	61
वरी	61
▁संस्थान	61
▁जलप्रपात	61
▁विज्ञान	61
▁आत्म	61
▁ऑक्सीज	61
▁हवेल	61
▁प्या	60
▁मोटर	60
▁भोज	60
▁दर्शक	60
▁करवान	60
▁हाई	60
▁धोन	60
▁मर्ज	60
प्रद	60
अप	60
▁अभ्यारण्य	60
▁घोल	60
▁चमक	60
▁प्रपात	60
▁अनाज	60
४	60
▁नगरी	60
▁सकें	60
िमा	60
▁किय	60
▁नंदा	60
▁जीप	60
▁द्वितीय	60
▁गंगोत्	60
ेशर	60
▁विचार	60
▁खजुराहो	60
▁उत्तरी	59
ायक	59
▁ख	59
▁स्कि	59
▁देवदार	59
▁दिव्य	59
ौन	59
▁जिम्मेदार	59
▁अटै	59
वर	59
ात्मक	59
▁उठन	59
टल	59
▁उद्योग	59
▁कंप्यूटर	59
▁देखें	59
▁स्वतंत्र	59
▁विकल्प	59
गुना	59
▁जहाज	59
▁वही	59
▁दार्जि	59
वीर	58
ढ़े	58
▁वाटर	58
▁नाश्त	58
पाल	58
▁करोड़	58
▁गर्भनिरोधक	58
▁आदम	58
ोपाल	58
▁आवास	58
▁खंड	58
▁हार्मोन	58
▁राजमहल	58
▁शु	58
▁वात	58
▁बहने	58
▁उपस्थित	58
▁थ	58
▁तिल	58
▁मलेर	58
ोत्तर	58
▁मनाय	58
▁सभ्यता	58
▁गड़बड़	58
▁सावधानी	58
▁कठोर	58
▁चौथ	58
▁सिक्किम	57
▁नीम	57
▁हल्दी	57
▁मनोहार	57
▁रेक	57
▁ट्रेक	57
▁पीला	57
▁खड़ा	57
घर	57
▁घटना	57
जनक	57
६	57
▁बढ़ात	57
▁सफल	57
▁उतार	57
यें	57
▁वंश	57
ख्या	57
▁ग्रंथि	57
▁विजय	57
▁समाज	57
▁एड्	57
▁महाराष्ट्र	57
▁सित	57
▁नवजात	57
▁कारग	57
▁सौन्दर्य	57
गंज	57
▁हिम	56
▁खुला	56
▁हिरण	56
▁मस्त	56
▁लो	56
▁रू	56
▁अहमद	56
▁स्मृति	56
▁सुल्तान	56
▁छुट्टिय	56
▁टिक	56
▁१९५	56
▁यमुना	56
▁मनाली	56
▁वनस्पति	56
प्रदेश	56
▁सिटी	56
▁पड़त	56
ाशय	56
▁जायें	56
वास	56
▁न्यू	56
▁नाग	55
▁गढ़वाल	55
▁पड़ी	55
▁भिगो	55
▁पिता	55
▁शौकीन	55
▁पहन	55
▁बजाय	55
घाट	55
▁स्व	55
▁बिरंग	55
▁भावना	55
ियल	55
शाली	55
ाइल	55
▁पल	55
रण	55
▁धरोहर	55
▁तुलसी	55
▁सम	55
▁प्रारम्भ	55
▁कराएँ	55
▁संगमरमर	55
▁भाव	55
▁सरोवर	55
▁रेत	55
▁बुरा	55
▁विमान	55
▁बूँदे	55
▁ग्रंथिय	55
▁नियम	55
▁कुंभ	55
▁सच	55
▁घबरा	55
▁गणेश	55
▁गुड़	55
▁कोट	54
▁खुश	54
▁अमर	54
▁रा	54
▁कदम	54
▁सुख	54
▁अधिकता	54
▁कीटाणु	54
कालीन	54
▁अत्याध	54
न्नार	54
▁इं	54
▁प्रक	54
▁नहान	54
▁जनव	54
▁इंस	54
७	54
हत	54
▁कार्बोहाइड्रेट	54
बल	54
▁इंजेक्शन	54
▁देहरा	54
▁श्रेणी	54
चना	54
▁बाक	54
▁सुधार	54
▁स्नो	54
▁२६	54
▁चौक	53
▁कंपन	53
▁फोर्ट	53
▁शिल्प	53
▁हाँ	53
▁नागा	53
यान	53
▁हु	53
राज	53
▁लेट	53
▁पाती	53
▁फिट	53
▁तम्बाकू	53
गा	53
▁काँच	53
ओ	53
▁नक्काशी	53
▁युग	53
वी	53
▁पि	53
▁गुजरत	53
▁पका	53
▁घूम	53
▁एकत्र	53
▁सहन	53
▁समर्प	53
▁संरचना	53
▁सूखे	53
▁कप	53
▁मुम्ब	53
गैरह	53
▁मसूड़	53
▁जय	53
▁परत	53
▁तत्काल	52
याग	52
▁राइड	52
▁यूरोप	52
वाद	52
▁प्रशिक्षण	52
परहेज	52
▁यात्र	52
▁चिन्ह	52
▁मनोरंजन	52
▁एल	52
▁सफलता	52
ुलिन	52
▁स्टे	52
▁बैंक	52
▁खर्च	52
सिंह	52
▁दौड़	52
मात्र	52
▁उपकरण	52
▁एडवेंचर	52
दून	52
▁मार्च	52
▁कुदरत	52
▁दुर्बल	52
▁पिलान	52
▁एनीमि	52
▁औषधिय	52
ौंग	52
▁दिक्कत	52
▁लक्ष्मी	52
▁मुकाबले	51
काशी	51
धर	51
▁हफ्त	51
▁गुवाह	51
▁पुत्र	51
▁गाय	51
िल	51
▁शौच	51
्त	51
▁घात	51
कार	51
▁क्रम	51
लीवर	51
▁सौं	51
▁श्वसन	51
▁चरण	51
▁करवा	51
शाह	51
▁विस्त	51
गाँव	51
▁सेना	51
▁आश्चर्य	51
▁वीर	51
▁मानन	51
▁आँवला	51
▁विपर	50
मठ	50
▁पिला	50
▁रिस	50
▁फिल्म	50
▁मेल	50
▁संतर	50
▁ग्लूको	50
▁घोष	50
▁मनयार	50
५	50
▁पुण	50
▁अनुमान	50
▁प्रदर्श	50
▁दर्ज	50
▁फॉल	50
▁मानस	50
▁भविष्य	50
▁वास्तुक	50
ंता	50
▁मनमोह	50
▁लहर	50
▁पसीना	50
▁आपस	50
▁कृत्रिम	50
▁धारा	50
▁समझन	50
▁मंजिल	50
▁गिलास	50
ल्स	50
ेनिया	50
▁फुंस	50
ाटर	50
▁खरीदा	49
▁फट	49
▁निकटवर्	49
▁लाइफ	49
▁फ्लू	49
▁सेंटर	49
▁१९९	49
बीन	49
▁नाव	49
▁स्वर्ण	49
लायम	49
बॉडी	49
▁जाएग	49
▁सन	49
वल	49
▁गौरव	49
▁बागान	49
▁शुष्क	49
▁पाँव	49
▁दवाइय	49
▁पंज	49
▁गृह	49
▁कठिनाई	49
▁कोलेस्ट्र	49
▁विकृत	49
▁अवधि	49
▁दम	49
▁मेरी	49
▁व्यवहार	49
▁गठि	49
▁हल्क	49
नाशक	49
▁प्रवास	49
सन	49
▁रूम	48
पुरम	48
ेड	48
▁गोद	48
▁नाड़ी	48
▁वनस्पतिय	48
▁यंत्र	48
ान	48
ाना	48
▁जुला	48
▁वो	48
▁टम	48
▁प्राथमिक	48
▁सारा	48
▁सूक्ष्म	48
▁३००	48
▁कॉलेस्ट्र	48
▁मीनार	48
▁उठ	48
▁आरोह	48
▁नैनी	48
ीसा	48
▁समा	48
▁अस्थ	48
▁बदलत	48
▁प्राणी	48
▁घंटा	48
मल	48
दय	48
लाने	48
क्त	48
़ा	48
▁शीत	48
▁बाबा	48
▁इटली	48
▁चबा	48
▁चॉकलेट	48
▁ग्रामीण	48
▁टूर	48
वाड़	48
▁बीमार	47
ूम	47
्रैंड	47
ोत्तम	47
▁बीचों	47
ास्त	47
▁करेंगे	47
▁जड़ी	47
▁इनसे	47
▁ब्रोंका	47
▁मुद्रा	47
▁हँस	47
▁वन्यजीव	47
▁करा	47
▁पट्ट	47
▁ब्रे	47
▁चेक	47
▁कह	47
▁स्तंभ	47
▁लह	47
बन	47
▁गेट	47
▁पेश	47
▁विस्तार	47
िका	47
▁अरुण	47
ाचल	47
▁रखे	47
▁अलक	47
नंदा	47
▁दोष	47
ाते	47
▁जीभ	47
▁पहने	47
▁सब्जी	47
▁बन्द	47
▁गहरे	47
▁मकबर	47
था	47
ँकि	47
▁अपच	46
▁संक्राम	46
▁चली	46
▁मवाद	46
न्ह	46
सिस	46
▁मछलिय	46
▁चेन्न	46
▁४००	46
▁बर	46
▁औल	46
▁चीड़	46
▁ऐ	46
▁आर्ट	46
ग्रहण	46
सुन	46
रे	46
▁सहयोग	46
▁गैंड	46
▁बुर	46
ूर	46
▁ऑ	46
▁छटा	46
्फ	46
सा	46
▁२१	46
▁कण	46
वार	46
▁उदयपुर	46
▁कैंप	46
▁हिंदू	46
गो	46
▁उत्साह	46
▁चि	46
▁प्रतिरोधक	46
चरण	46
▁परामर्श	46
▁लिहाज	46
▁अंक	46
▁सिगरेट	46
▁उत्कृष्	46
▁०	46
▁अधिकार	46
▁दमन	46
▁गाइड	46
चित	46
▁विश्वविद्यालय	46
▁अंदाज	46
▁रेस्तराँ	45
▁क्लब	45
▁२३	45
▁फेफड़े	45
कांग	45
▁डा	45
▁ऊँट	45
▁बाज	45
▁निर्धार	45
▁लै	45
▁छोर	45
▁संतुलन	45
▁घेर	45
▁तोप	45
▁बाय	45
▁सपन	45
▁शनि	45
▁ईटा	45
▁गौर	45
▁पेचि	45
▁स्पर्श	45
▁श्वेत	45
▁नाभि	45
▁शेष	45
▁तोला	45
रोहण	45
▁अमृतसर	45
▁सि	45
▁आभा	45
▁सम्बन्ध	45
▁बहन	45
▁परिच	44
धार	44
हिमा	44
▁दुष्प्रभाव	44
▁उभर	44
▁जवान	44
▁कपड़	44
वश	44
▁दुर्गा	44
▁मिलन	44
▁स्थिर	44
▁बीस	44
ऊ	44
▁कृष्ण	44
▁पाउ	44
▁पौ	44
▁राजमार्ग	44
देवी	44
▁ब्रह्म	44
टिक	44
नियम	44
▁चंदन	44
▁१५०	44
गे	44
▁नमी	44
▁दिस	44
▁पालन	44
▁व्यापक	44
▁सीढ़िय	44
▁गेस्ट	44
▁मत	44
९	44
▁जोखिम	44
▁रहेग	44
▁डल	44
▁दीव	44
बा	44
र्क	44
▁मधु	44
▁वैशा	44
▁गर्भगृह	44
▁द्रव्य	44
▁मसूर	44
५०	44
▁कर्	44
नाटक	44
▁अल्प	44
ोत्सव	44
▁चर्बी	44
▁दिखाय	43
निया	43
▁कंध	43
▁धाम	43
▁इलाहाबाद	43
▁आये	43
थेरेप	43
▁काज	43
▁मेडिक	43
भोग	43
हांग	43
▁आँवल	43
▁चंडीगढ़	43
मतलब	43
ट्स	43
▁ड्राइव	43
▁बितान	43
▁आखिर	43
टन	43
▁अनोख	43
ँची	43
ख	43
▁जनसं	43
▁वयस्क	43
▁साम्राज्य	43
▁काट	43
ेंगे	43
▁घूमत	43
कुण्ड	43
▁नेहरू	43
▁छिद्र	43
▁रेगिस्तान	43
▁सूर्यो	43
▁अर्	43
रोग	43
▁हँसन	43
▁घरेल	43
ांग	43
▁खुश्क	43
▁उल्लेख	43
▁नीला	43
▁पाये	43
▁टीवी	43
▁अँगूठ	43
▁पहुँचात	43
;	43
▁कथा	42
▁क्रमश	42
ायाम	42
वाले	42
▁बुक	42
▁बलगम	42
▁टूरिस्ट	42
टिस	42
▁चंद्र	42
▁ताजे	42
यन	42
▁संकेत	42
▁औरंग	42
▁सदा	42
कोप	42
▁मीठ	42
▁बेट	42
▁प्रचुर	42
▁रुकावट	42
मिया	42
▁मुल	42
▁वैभव	42
▁वैक्स	42
▁तरल	42
▁दोस्त	42
धी	42
ुल्क	42
▁क्रोध	42
▁नेपाल	42
▁अदर	42
▁एक्सप्र	42
▁पेय	42
▁समृद्ध	42
▁नलिका	42
▁गंग	42
्रश	42
वाली	42
▁जीवनशैल	42
▁असामान्य	42
▁धड़कन	42
▁आर्थिक	42
▁गुस्स	41
▁इंसान	41
▁पौराणिक	41
▁तारा	41
▁पंजाब	41
▁प्रतिरक्ष	41
▁निकलन	41
▁आयोड	41
▁माइ	41
▁कूट	41
बारा	41
िस्ट	41
▁य	41
▁बरसात	41
▁अनुकूल	41
▁रासायन	41
▁बहु	41
ंश	41
गंगा	41
▁अस्थि	41
▁कलात्मक	41
▁टाइगर	41
क्षम	41
▁होम्योपैथ	41
ैनिक	41
▁सुरंग	41
प्रसिद्ध	41
▁भार	41
▁तुम	41
▁शाहजहाँ	41
▁प्रो	41
▁गल	41
▁सालों	41
▁लापरवाह	41
नर	41
▁भेज	41
▁त्रिशूल	41
▁डालत	41
क्षेत्र	41
म्मा	41
▁झलक	41
▁फूट	41
▁उतरन	41
००	41
र्ग	41
▁मोटा	41
▁प्रबंध	41
▁संवेदनशील	41
▁माँग	41
▁सहज	40
ही	40
▁ढ	40
▁वैल	40
▁गर्भपात	40
▁कस्ब	40
▁बारह	40
▁भल	40
▁हे	40
▁टिकट	40
▁उध	40
▁उठात	40
▁सजा	40
काऊ	40
▁पोर्ट	40
▁तप	40
▁खिल	40
▁फाइबर	40
▁जटिलता	40
▁अंडमान	40
▁सघन	40
▁समारोह	40
▁मार्क	40
▁स्वाम	40
▁चिड़चिड़ा	40
▁चीत	40
▁लड़किय	40
▁सीट	40
▁कागज	40
ांगण	40
पेट	40
▁हिन्दू	40
ासिल	40
▁प्रदर	40
▁विश्वास	40
▁एड़	40
लाई	40
▁धारण	40
▁भीम	40
▁अंतरा	40
▁तथ्य	40
▁जिम	40
▁ईसा	40
▁एंड	40
▁सख्त	40
▁प्रस्तुत	40
राव	40
▁असल	39
▁इन्फेक्शन	39
▁थक	39
▁ब्रेस्ट	39
C	39
▁नजल	39
▁इंद	39
सागर	39
▁भयानक	39
▁सम्पूर्ण	39
▁चाँदी	39
▁शोर	39
▁शीतल	39
रम	39
िकल	39
वेंडर	39
पा	39
▁कराई	39
▁दिलचस्प	39
▁फेस्टिव	39
▁पतल	39
▁बढ़न	39
जल	39
▁महँग	39
▁चा	39
▁मानसून	39
▁दाद	39
प्रथम	39
▁प्रदाह	39
▁जरा	39
▁जायेग	39
घात	39
भूमि	39
▁अन्तर	39
▁पत्तिय	39
बाग	39
▁जेल	39
▁स्वाभाविक	39
▁उपर	39
▁व्य	39
▁अतिस	39
▁पक	39
निद्रा	39
िडनी	39
▁अफ्रीका	39
▁धातु	39
▁व्यंजन	39
▁भरत	39
ावस्था	39
▁लचीला	39
▁कुमाऊँ	39
▁जनपद	38
▁प्रदर्शन	38
र्ड	38
▁सैकड़ो	38
▁आकृति	38
▁बेहोश	38
▁पपीत	38
दैव	38
▁स्वागत	38
▁हिसाब	38
▁विविध	38
▁नित्य	38
टकर	38
▁विरासत	38
▁कलाकार	38
▁गोर	38
▁जगन्नाथ	38
▁पाषाण	38
▁साहित्य	38
▁पृष्ठ	38
कड़ी	38
▁कर्मचार	38
चू	38
▁वाक	38
▁पक्क	38
▁मंद	38
▁गर्भधारण	38
▁आनन्द	38
नशे	38
निक	38
▁पेन	38
हन	38
▁डैम	38
▁छाया	38
वाला	38
ेश	38
▁लामा	38
▁खींच	38
▁अनुप	38
▁अकबर	37
▁अगस्त	37
्ड	37
▁मूँग	37
िला	37
न्स	37
▁छूत	37
▁पीले	37
▁शक्कर	37
▁प्रमाण	37
▁हट	37
▁बनात	37
▁खसर	37
▁नशा	37
▁यूनिवर्स	37
ेज	37
▁रचना	37
▁सूचना	37
▁दि	37
▁अप	37
▁वृद्ध	37
▁बिखर	37
▁मास	37
▁पलक	37
▁झिल्ल	37
▁प्रोस्टेट	37
▁होली	37
▁३२	37
▁घोड़	37
▁परि	37
▁औसत	37
▁खनिज	37
▁चमत्कार	37
▁भागीरथ	37
थाम	37
▁सीता	37
▁टाप	37
गार	37
▁किशोर	37
ंगड़ा	37
▁खट्ट	37
▁बनाये	37
▁इकट्ठ	37
ेरी	37
▁संस्था	37
▁लौह	37
▁दाहिन	37
्ण	37
▁सरल	37
▁चोटिय	37
▁पूछ	37
▁शौक	37
▁६५	37
▁पैकेज	37
▁आदर्श	37
▁श्रेष्ठ	37
▁दशा	37
▁चीर	37
▁ताँब	37
धाम	37
▁ताकत	37
▁भूर	37
▁बरतन	36
▁शॉप	36
कम्प	36
▁सिस्टम	36
▁दशक	36
ाता	36
▁कल्पना	36
▁अनोखा	36
र्जी	36
▁ओरछा	36
मतल	36
कुंड	36
▁पांडव	36
▁यथा	36
▁अनुसंधान	36
▁बोध	36
▁कुपोषण	36
▁कुण्ड	36
▁२८	36
िड	36
कावट	36
▁दवाई	36
▁श्रम	36
ाजमहल	36
▁७५	36
▁ट्यूमर	36
▁मस्स	36
▁सोलं	36
▁नारायण	36
▁द्रव	36
▁उत्तराख	36
▁फोन	36
▁आसमान	36
लेज	36
▁मोतियाबि	36
▁बादाम	36
▁गील	36
ारी	36
▁वीर्य	36
▁बेस	36
▁जोशी	36
▁सद	36
x	36
▁रे	36
▁संचालि	36
▁समु	36
▁खाड़	35
टाइट	35
ापुर	35
▁जात	35
ारा	35
▁पेरिया	35
▁गुनगुन	35
▁कर्ण	35
▁नर्व	35
▁दिखत	35
नाल	35
▁ग्रस	35
▁रिसर्च	35
▁पोट	35
▁बारीक	35
▁पारंप	35
▁एलोपैथ	35
वान	35
▁तैल	35
▁गाँ	35
▁गंद	35
"	35
▁फै	35
▁वास	35
▁अर्द्ध	35
▁भुवनेश्वर	35
च्छ	35
▁बेल	35
▁पड़ेग	35
▁हुय	35
▁बो	35
वेट	35
▁नैरो	35
▁फ्लोर	35
▁सम्मिल	35
▁समझा	35
▁वॉटर	35
▁अवशोष	35
▁बोझ	35
▁सुरम	35
▁तर	35
▁जापान	35
▁मंत्र	35
▁नतीज	35
▁लड़ने	35
वाल	35
▁बाधा	35
▁ब्रेक	35
▁शिविर	35
▁तीर्थंकर	35
▁फ्री	35
▁लॉज	34
▁किलो	34
▁महज	34
▁दुर्गंध	34
▁आमाशय	34
ीरंगा	34
▁व्यस्त	34
▁अंश	34
▁ज्योति	34
▁अहम	34
फा	34
▁गोलिय	34
ये	34
▁नवीन	34
▁सीम	34
▁शंकर	34
▁संसा	34
क्ष	34
▁चिपक	34
▁फिश	34
ंच	34
भूत	34
▁मुँहास	34
िनी	34
षिका	34
▁नैसर्गिक	34
▁अनुभूति	34
▁ऑटो	34
▁करेग	34
▁तेंदु	34
▁विद्य	34
▁प्रशासन	34
▁२५०	34
वाई	34
▁देशी	34
▁बर्फील	34
▁निभात	34
▁फ्रें	34
▁डॉल	34
डी	34
▁पुदीन	34
▁जूना	34
▁यद	34
्यपि	34
▁बंदर	34
▁लोहे	34
▁भूलें	34
▁झारखंड	34
ग्रीवा	34
▁आकाश	34
▁हस्तशिल्प	34
▁बोर्ड	34
▁लीजि	34
हार	34
▁स्तम्भ	34
▁स्वीड	34
▁पतला	34
▁ऊन	34
▁अफ	33
▁राधा	33
रोटी	33
▁स्थली	33
▁भा	33
▁बूटिय	33
▁भंडार	33
▁आरामद	33
▁अमरकंट	33
▁बैग	33
ग्रेन	33
▁पड़ाव	33
▁प्वाइंट	33
बाएँ	33
▁अनार	33
▁माम	33
प्टिक	33
▁टाँग	33
▁बिजली	33
▁पद्म	33
▁जमाने	33
ाहट	33
चक	33
▁हिचक	33
कुलम	33
▁इंच	33
ादित	33
▁१८०	33
▁लोशन	33
▁बाँट	33
▁बगल	33
ण्ड	33
▁पाल	33
▁दिवस	33
▁ग्रा	33
दर	33
▁खजूर	33
▁जीत	33
▁विविधता	33
▁गोपाल	33
▁बिल	33
▁स्तनपा	33
▁चित्रों	33
▁कब	33
▁अल्मोड	33
▁रुचि	33
▁त्योहार	33
शक्ति	33
▁गंदग	33
▁दुख	33
▁नवाब	33
▁कॉपर	33
▁लगेग	33
सू	33
▁कुरु	33
फी	33
▁अँगुल	33
▁माने	33
▁ठण्ड	33
▁मूड	33
▁कैस	33
▁उड़ान	33
टोक	33
▁५५	33
▁ढेर	33
▁हिस्टी	33
▁गुलम	33
निका	33
▁विद्युत	32
▁शक	32
▁पत्न	32
▁क्रूज	32
ल्दी	32
▁ग्रीष्मकाल	32
▁सामग्र	32
▁समुद्रतट	32
▁लि	32
र्ट	32
▁पर्व	32
▁श्रीलंका	32
ीरिया	32
▁गैलरी	32
▁सुखद	32
▁कड़ा	32
बटन	32
▁हेल्थ	32
▁ज़्यादा	32
▁खंडहर	32
▁कंधे	32
ॉयल	32
▁अग्नि	32
▁थैली	32
▁गु	32
रहाट	32
▁ढाल	32
▁पार्लर	32
▁रॉक	32
▁कैम्प	32
▁तोड़	32
▁टॉनि	32
▁पालक	32
वारी	32
▁नज़ार	32
▁टिका	32
▁ब्र	32
▁पत्तन	32
▁लखन	32
▁शल्य	32
▁जिनसे	32
▁कीमत	32
▁कोमल	32
▁जाँघ	32
▁आलू	32
▁डिस्क	32
▁रसौ	32
▁सुकून	32
▁सभा	32
▁ट्रीटमेंट	32
▁गुप्त	32
▁भाई	32
▁झाँ	32
ज्म	32
▁अंकुर	32
▁पुरातात्व	32
▁पू	32
▁छेद	32
काय	32
▁सेंक	32
▁बोलन	32
▁खुशी	32
▁पुस्तक	32
▁चादर	32
▁लगाए	32
▁मिर्	32
▁कटर	32
▁मकर	32
▁पोर	32
▁प्रतिक्रिया	32
▁निर्णय	32
▁आक्रमण	32
गाम	32
▁चन्द्र	32
▁परिस्थितिय	32
▁रिजर्व	32
▁ज्ञात	31
▁महाराज	31
▁चमड़	31
▁उद्गम	31
▁श्रद्धा	31
▁दशहर	31
▁शीतकाल	31
जमेर	31
▁फु	31
▁खुशबू	31
▁दीवान	31
▁रोका	31
▁कट	31
दीघा	31
ेगा	31
▁अकेले	31
▁पुजारी	31
ाइट	31
▁गर्भाधा	31
▁दातुन	31
▁आदिवास	31
▁पठार	31
टिव	31
▁कन्या	31
▁मसाल	31
▁घुल	31
▁रिज	31
भाग	31
▁प्रसार	31
▁अन्त	31
▁वास्तविक	31
ठ	31
▁रिसॉर्ट	31
▁६००	31
ेशिय	31
▁ऊतक	31
न्द	31
▁झुक	31
▁सुन्न	31
▁क्रीड़ा	31
▁परिश्रम	31
▁व्यास	31
▁उत्तेजना	31
▁कुर्स	31
षिक	31
▁कार्यालय	31
▁अधूर	31
नारायण	31
ीदा	31
▁लघु	31
▁चिकन	31
▁परिवर्त	30
▁स्वभाव	30
▁पाकिस्तान	30
▁परम्परा	30
▁गिरी	30
▁कैमोम	30
▁खर	30
▁रियासत	30
▁मातृ	30
▁झुंड	30
▁हिप	30
▁शुक्राणु	30
संभव	30
▁हैदर	30
▁घिस	30
▁माथे	30
▁बसाय	30
कला	30
▁औ	30
▁अल्ट्रासाउ	30
कूल	30
▁रमणी	30
▁गिरि	30
▁कालका	30
▁भैरव	30
नाइट	30
▁सेक्स	30
▁उष्णकटिबंध	30
िव	30
▁कुमार	30
१०	30
▁पकड़न	30
▁छ्	30
▁कॉर्निय	30
▁बहरा	30
▁लार	30
▁निष्क्रिय	30
▁बांध	30
▁सिकुड़	30
▁छाप	30
▁सँकर	30
▁भूस्खल	30
▁चय	30
▁शाकाहार	30
▁प्रजाति	30
▁मैल	30
▁ग्लिसर	30
▁निकले	30
▁कंडीशन	30
▁सैनिक	30
धान	30
कृत	30
▁छा	30
ूनी	30
▁बुद्धि	30
▁गुल	30
▁२९	30
्र	30
▁राष्ट्रपति	30
▁विष	30
▁आरम्भ	30
ग्नि	30
▁सल्फ	30
▁२७	30
▁जौंग	30
▁१९६	30
▁स्केट	30
▁चूसन	30
▁ग्रेन	29
▁शास्त्र	29
▁माउंटेन	29
▁नितम्ब	29
▁बढ़े	29
▁शिरा	29
▁डिस्	29
▁पीप	29
ईलैंड	29
िवेश	29
▁१४०	29
ाने	29
ाइटि	29
▁अंगूर	29
▁आएग	29
▁धूल	29
▁धारणा	29
व्यू	29
▁डायबिटिज	29
▁डिसऑर्डर	29
▁नजारे	29
ोन	29
▁गला	29
बाद	29
▁म्यूनि	29
▁चबूतर	29
▁००	29
▁१२०	29
▁सूप	29
▁गुर्द	29
▁ज़रूर	29
कुमार	29
▁परिव	29
▁एक्ज	29
▁घटान	29
स्थल	29
द्वीप	29
▁मिनरल	29
▁एन्टीऑक्सीडेन्ट	29
▁अनुम	29
▁डूब	29
ुआल	29
▁पथ	29
▁छोड़त	29
▁प्लेस	29
▁स्टेम	29
▁दा	29
▁४८	29
चाल	29
फर	29
वरण	29
▁लौंग	29
▁नकारा	29
▁तमिलनाड	29
▁ट्रिप	29
▁भेंट	29
लवाड़	29
▁कराती	29
▁तार	29
खंड	29
रबूज	29
▁विराज	29
▁मुक्ति	29
▁जगत	29
शील	29
▁सिं	29
▁बाँस	29
▁रूट	29
▁वा	29
सार	29
▁लगायें	28
ोलिक	28
▁बिगड़	28
▁पुर्तगाल	28
लिख	28
▁हितक	28
▁वाइल्ड	28
ोर्ट	28
▁चलें	28
▁अलस	28
▁देग	28
▁फ्रैक्	28
▁मोनास्ट्र	28
▁प्रेर	28
▁कालीन	28
पुत्र	28
ंतरिक	28
लेवा	28
▁एफ	28
▁स्पाइन	28
ेंशिय	28
लिव	28
▁नेत	28
▁लड़क	28
▁कोर्स	28
द्रास	28
▁छींक	28
हद	28
▁इन्जैक्शन	28
▁शुरूआत	28
कोण	28
▁भली	28
बी	28
▁पढ़ा	28
भारत	28
▁माउंट	28
▁टि	28
हीन	28
िम	28
▁आस्था	28
िल्ली	28
▁बचात	28
▁खासियत	28
▁स्ट	28
▁मशीन	28
▁फैलने	28
▁लेजर	28
ंट	28
▁३१	28
▁इंतजाम	28
▁वर्णन	28
▁स्थाय	28
▁नाश	28
▁पट	28
ॠ	28
▁ईसवी	28
▁ऑफिस	28
▁निवार	28
▁सुजा	28
▁रु	28
▁स्नैक	28
▁थक्क	28
▁छात्र	28
▁ट्री	28
▁उन्ही	28
फिन	28
▁डाय	28
▁पंच	28
ग्रीन	28
▁सोम	28
▁हर्ब	28
बाई	28
सज्ज	28
नेस	28
▁अली	28
▁नाथ	28
▁जला	28
▁ग्वालिय	27
▁नाड़िय	27
▁खिलान	27
▁यूरोपीय	27
▁व्यवसाय	27
▁दिलात	27
▁फँस	27
▁अस्तित्	27
▁टुकड़े	27
▁पैक	27
▁कसरत	27
▁चहल	27
▁फोटो	27
▁मेथ	27
अर	27
▁पिपर	27
▁चर	27
ाइन	27
▁पसीन	27
पास	27
▁क्षण	27
▁इंतजा	27
▁मक	27
रोध	27
▁कूद	27
▁सोडा	27
▁अनजान	27
▁वेग	27
शा	27
▁एह	27
▁अधीन	27
▁मैन	27
▁हिरन	27
▁चट्ट	27
▁शहीद	27
▁गोविंद	27
▁प्रार्थना	27
▁जगद	27
ायड	27
▁प्लास्ट	27
▁जर्मन	27
▁संपन्न	27
िसी	27
▁झुर्रिय	27
▁मणि	27
▁उष्ण	27
▁छूट	27
▁मेव	27
▁पूर्ति	27
▁सक	27
▁यादगार	27
▁पढ़न	27
ढ़ा	27
▁लाई	27
▁कार्बे	27
▁लक्ष्य	27
▁अख	27
▁सिरे	27
▁लुभात	27
▁पत्र	27
३०	27
▁ब्यूटी	27
▁नम	27
▁फॉस्फ	27
▁ध	27
▁जाइए	27
▁झाड़िय	27
▁टाइप	27
षि	27
▁प्लाज	27
▁मंडल	27
▁समाधि	27
▁होंठ	27
▁बीका	27
▁बुढ़ाप	27
▁प्रसन्न	27
कूट	27
▁अनिवार्य	27
▁कच्छ	27
▁जग	27
टा	27
▁पिरामिड	27
▁मिठा	27
▁बैठें	27
छ	27
▁कुष्ठ	27
▁बाण	27
▁बनावट	27
▁स्पोर्ट	27
ीटर	27
न्तर	27
▁यात	27
ायात	27
▁समूच	27
▁पसल	27
▁३६	27
▁प्रदूषण	27
▁शिवाजी	27
▁टिं	27
▁तीस	27
▁सपाट	27
▁लिख	27
▁आशी	27
▁शिलालेख	27
▁बिता	26
▁बुजुर्ग	26
▁अल	26
▁मुनिय	26
▁खिंचा	26
पात	26
▁हिस्ट्रोस्कोप	26
▁लुभावन	26
▁रहेंग	26
▁ऑन	26
▁मिस्	26
▁माण्ड	26
मय	26
▁स्टेट	26
्वाद	26
▁जटिल	26
▁इंद्र	26
▁बाज़ार	26
▁गैर	26
▁वर्क	26
▁शैल	26
▁लाइट	26
▁क्यू	26
▁प्रताप	26
▁पृथ्वी	26
▁इम	26
▁मसाले	26
ाइकल	26
▁फी	26
▁वाघ	26
▁त्यौहार	26
▁मीठा	26
▁सावधान	26
▁टाँक	26
▁ग्लैंड	26
सोल	26
▁जमैक	26
▁साद	26
▁धब्बे	26
ीबू	26
▁सिख	26
▁अतीत	26
▁फटन	26
दिरा	26
ज़न	26
▁अत	26
▁छिलके	26
▁हस्त	26
▁चर्म	26
टीडी	26
▁वज्र	26
▁स्	26
सेल्स	26
▁बूढ़	26
▁पीक	26
सेस	26
▁लक्ष	26
▁जरुर	26
▁कोणा	26
▁कीजि	26
मती	26
▁लैंग	26
हाल	26
▁मुस्लिम	26
▁अभि	26
ाली	26
▁चाहता	26
▁दीर्घा	26
▁नम्बर	26
▁कारक	26
▁मसलन	26
▁नेत्रहीन	26
डिंग	26
▁पाएँगे	26
णी	26
ंडोम	26
▁सेल्स	26
▁पर्द	26
▁छून	26
मेरी	26
▁प्रसाद	26
▁गाव	26
▁नय	26
▁बहुताय	26
▁कल्याण	26
▁गर	26
ुका	26
▁डेंट	26
▁मांड	26
यानि	26
▁दब	26
▁टीके	26
▁लगवान	26
ै	26
▁अँधेर	26
ोंग	26
▁पार्श्व	26
ूद	26
▁सीढ़ियों	26
▁संगठन	26
हरी	26
िष्ठ	26
▁नशील	26
▁दलदल	26
▁समेट	26
▁कलाकृतिय	26
▁असह	25
▁सूज	25
▁डच	25
▁गाथा	25
▁काशी	25
स्ट	25
साधारण	25
▁समाप	25
लियाँ	25
गैर	25
ेडू	25
▁पुरातन	25
▁फेंक	25
▁बजाए	25
▁प्रशिक्ष	25
▁मनोवैज्ञानिक	25
▁गुजरन	25
द्वितीय	25
▁अनुयाय	25
▁प्रेरणा	25
▁क्रि	25
▁गाढ़ा	25
▁पत	25
▁कलर	25
▁जैव	25
▁क्षीण	25
▁आएँ	25
▁सूची	25
▁झाँक	25
▁चालीस	25
▁युवतिय	25
▁निर्देश	25
▁कारखान	25
जयगढ़	25
▁अरुं	25
▁वादिय	25
स्त	25
▁घड़	25
▁गम्भीर	25
▁पहनने	25
▁बचन	25
▁घण्ट	25
▁जंक	25
▁औद्योगिक	25
रत	25
▁जरुरत	25
▁पेस्ट	25
▁चुना	25
▁संत	25
▁चंद	25
▁लकव	25
▁हैपेटा	25
▁अव	25
▁१०००	25
श्रेष्ठ	25
▁जाति	25
▁७००	25
▁दुर्गम	25
▁ऑस्ट्रेलिया	25
▁गज	25
तीत	25
▁ब्लैक	25
लों	25
▁जे	25
▁ढल	25
▁इंस्टीट्यूट	25
▁डेंग	25
▁मिजो	25
पाती	25
▁मांसाहार	25
▁मौज	25
▁गरीब	25
लांग	25
▁रेशे	25
▁नर	25
▁चश्मे	25
त्र	25
वात	25
▁बिंदु	25
ीपुर	25
महल	25
▁अनुपा	25
▁पाट	25
▁उकेर	25
सीर	25
▁प्रिय	25
▁इफेक्ट	25
▁ईट	25
▁बंध	25
▁नागरिक	25
स्थान	25
ुर	25
▁पांडिचेर	25
र्जुन	25
▁देगी	24
▁ढील	24
▁अराव	24
▁कॉलेज	24
िक्र	24
▁समझत	24
▁गुरुद्वार	24
ंभर	24
▁टै	24
▁पर्वतमाला	24
▁सीजन	24
▁तन	24
ंसद	24
चेरी	24
▁इंजन	24
▁कमल	24
▁सुचार	24
▁साँप	24
क्रीम	24
मद	24
▁टावर	24
ांचल	24
▁परशुराम	24
▁वर्जि	24
▁पै	24
▁उगा	24
▁लाएँ	24
ैंट	24
▁आध्यात्मिक	24
ौली	24
▁चाहती	24
▁सूखा	24
▁जरिय	24
▁सोना	24
ाराण	24
▁पत्ती	24
▁मक्खन	24
▁स्टैंड	24
पर्य	24
▁एड	24
▁डायर	24
▁दरबार	24
▁झूल	24
▁झड़न	24
▁भस्म	24
▁कोलन	24
▁नीलगिर	24
▁बुर्ज	24
▁प्राइ	24
▁मो	24
▁सीढ़ी	24
▁भौगोलिक	24
ट्रीट	24
▁महात्म	24
▁शो	24
शिला	24
▁गौरी	24
▁छिप	24
▁डकार	24
▁मेमोर	24
ुक	24
▁प्रगति	24
▁टेबल	24
ेरिया	24
▁फ्रूट	24
▁पिन	24
▁जाल	24
जबान	24
▁भ्रूण	24
▁बंदरगाह	24
▁बादशाह	24
चित्र	24
पूर्व	24
▁दाई	24
▁लौटत	24
▁स्वादिष्	24
रोट	24
▁आट	24
पूर्ति	24
ंटीग्रे	24
▁हाइपर	24
▁आँगन	24
▁गोमुख	24
▁साइड	24
ियोजन	24
▁स्था	24
▁ग्रीष्म	24
ंडी	24
▁दीर्घ	24
▁छुट्टी	24
ुमार	24
▁जिन्ह	24
जुक	24
▁फे	24
िष्ट	24
▁सुनहर	24
▁आकृतिय	24
वत	24
▁धमन	24
रकु	24
▁रहेगी	23
▁हेपे	23
▁बद्रीना	23
फ्फर	23
▁आजाद	23
ावश्यक	23
िस्तान	23
▁ईंट	23
ियर	23
▁ऑस्टियोपोर	23
▁भट्ट	23
र्किट	23
▁हथेलिय	23
ेदिक	23
▁छिलक	23
▁टाटा	23
▁पेंटिंग	23
▁अस्	23
▁अद	23
▁१९०	23
▁नार्थ	23
▁दर्शात	23
▁असंतुल	23
▁शर्बत	23
ंगे	23
▁सुखा	23
▁उतरत	23
ूली	23
▁मर्क	23
मूल्य	23
▁जागरूक	23
▁तृतीय	23
स्टर	23
पितु	23
▁सरलता	23
▁साइकिल	23
▁मजबूर	23
▁सकार	23
▁नहर	23
क्षित	23
ुलर	23
▁रथ	23
▁फर्	23
माता	23
िहाई	23
▁बदबू	23
▁अंधा	23
▁जुलत	23
ैंड	23
▁नियोज	23
एल	23
▁श्रेय	23
िधि	23
▁ब्ले	23
▁डिजाइन	23
▁भ्रम	23
▁अवरोध	23
▁बादल	23
▁तलाश	23
लियों	23
▁बेशक	23
▁ऊट	23
▁कौस	23
वाँ	23
▁ब्रह्मा	23
▁निखार	23
▁गेम	23
वुड	23
▁शर्म	23
▁व्रण	23
▁बाह्य	23
ियत	23
▁राजपूत	23
▁फाल	23
ियस	23
▁कोच्चि	23
▁साउथ	23
▁इला	23
▁वर्म	23
बाड़	23
▁कालिमप	23
▁पच	23
ख्याल	23
स्फी	23
▁बहार	23
डेरा	23
▁क्लाइम	23
▁बेजो	23
धारा	23
▁पाप	23
▁पोदीन	23
▁अस	23
▁अंडकोष	23
▁दुरुस्त	23
▁अग्र	23
▁पंछ	23
▁प्रचार	23
▁जाम	23
रानी	23
▁एलो	23
▁नन्हे	23
मस्कार	23
ौला	23
▁५२	23
▁जुब्ब	23
▁सम्पर्क	23
जिंग	23
▁फैशन	23
▁तैरत	23
▁फौर	23
▁वै	23
ळ	23
▁अंडा	23
▁सितार	23
▁खीर	23
▁डिस	23
▁पोल	23
▁रेस्ट	23
▁लिवर	22
▁गंध	22
▁मुज	22
!	22
▁शान्त	22
शूल	22
▁दायी	22
▁चीतल	22
▁मणिकर्ण	22
▁दर्शनार्थ	22
▁कूल्ह	22
ुडु	22
▁मल्टी	22
▁अजीर्ण	22
▁थाई	22
्यूट	22
▁जमशेद	22
▁जमी	22
▁तरोताज	22
▁जीन	22
▁रिक्श	22
▁सिस्ट	22
दरगाह	22
▁कोयल	22
▁ब्लू	22
वें	22
्फाल	22
▁खर्राट	22
▁मेहराब	22
▁आरोग्य	22
वती	22
▁दावा	22
▁यूकेलिप्ट	22
▁प्रोजे	22
▁बोन	22
▁सिस	22
▁रिजॉर्ट	22
▁मैग्न	22
▁अतिशय	22
▁ड्रिंक	22
▁तात्	22
▁सका	22
▁तंग	22
▁कब्र	22
▁क्रै	22
▁आलस	22
▁रेस	22
▁भोग	22
▁थका	22
▁फर्श	22
ूबर	22
ांश	22
▁लवण	22
▁बढ़ाते	22
▁कुतुब	22
▁रानीखेत	22
गिरि	22
६०	22
▁तैरन	22
▁चाल	22
▁भग्नावशेष	22
▁वास्तुशिल्प	22
ध्या	22
▁दर्रे	22
▁बरस	22
▁गोप	22
▁विभाज	22
▁आज्ञा	22
▁मोती	22
मंदिर	22
रोपव	22
▁टुकड़	22
▁ब्लै	22
▁रुई	22
▁डेज	22
रू	22
▁अनियमित	22
्या	22
▁विषाणु	22
स्वाम	22
▁मिनी	22
▁लक्ष्मण	22
▁कोढ़	22
फ्त	22
शों	22
▁अफ्रीक	22
▁प्लान	22
▁पुष्टि	22
ेमिस	22
▁प्रतिरोध	22
▁चित्रकार	22
डीह	22
ोग्राफी	22
▁किंग	22
▁पड़ोस	22
▁राष्ट्र	22
▁जंघा	22
▁मराठ	22
▁दंत	22
▁पील	22
▁स्टाइल	22
▁ध्वनि	22
▁विलास	22
शाला	22
▁करवट	22
▁बिछा	22
▁मसल	21
फली	21
▁पुनर्	21
▁बनवा	21
▁पतले	21
▁पावन	21
▁हीमोग्लोब	21
▁गिरना	21
▁३८	21
▁स्मरण	21
डोली	21
▁फास्ट	21
ेक्ट	21
▁सुअर	21
▁बनारस	21
▁मरोड़	21
▁पुष्प	21
▁सती	21
९९	21
▁कम्प	21
▁टॉव	21
▁पसलिय	21
ाचार्य	21
▁हेक्टे	21
▁खुर	21
नम	21
▁वेट	21
पू	21
▁दर्शा	21
▁मेह	21
ँदी	21
२०	21
▁महानगर	21
▁मोब	21
▁ठिकान	21
पाद	21
▁६४	21
▁मुरब्ब	21
पत्ता	21
▁उलट	21
▁चमकील	21
[	21
▁गीत	21
▁रेड	21
▁अजवा	21
▁बाइक	21
▁प्रांत	21
भाप	21
▁धीम	21
▁धार	21
▁ओवर	21
▁जॉ	21
▁ग्रुप	21
▁भेड़	21
▁सूत	21
▁लेख	21
▁विषैल	21
सिया	21
▁लिखे	21
▁गली	21
▁दीर्घकाल	21
▁घायल	21
▁क्रियाशील	21
ांक	21
▁कहें	21
▁सेन्क्चुएरी	21
▁ऐंठन	21
▁खिलाएँ	21
▁नरेश	21
▁अकस	21
▁साँच	21
▁हाव	21
▁मध्यम	21
▁रांची	21
▁घुस	21
▁फ्रिज	21
▁सैल	21
न्न	21
▁गुणवत्ता	21
▁वरन	21
▁प्रतिष्ठ	21
▁प्लेन	21
▁पंद्रह	21
▁निरोध	21
▁लाग	21
▁आराध	21
ची	21
▁डाक	21
▁झुर्रियों	21
▁वर्ल्ड	21
▁सड़न	21
▁टाइम	21
नों	21
बद्ध	21
वे	21
ाश	21
तंत्र	21
▁हस्ति	21
▁जलाशय	21
▁सबको	21
▁स्वप्न	21
▁पुलिस	21
अ	21
▁छत्र	21
▁हेरि	21
टेज	21
ूँ	21
▁जाली	21
▁संचालन	21
▁रोजमर्र	21
▁जुलूस	21
▁अण्ड	21
▁पुरातत्व	21
▁सोया	21
▁सैलो	21
हिर	21
भार	21
्फू	21
▁कैमर	21
दूर	21
▁पाण्डु	21
▁आर्सेनिक	21
पति	21
न्दा	21
वेश	21
▁पनपन	21
▁छू	21
▁असीम	21
पी	21
ेंस	21
ंडू	21
▁गहन	21
▁ज्यों	21
▁ईस्ट	21
▁सुथर	21
▁वर्ण	21
▁खिड़किय	21
▁शोभा	21
७५	21
▁स्क्रीन	21
ोक्त	21
लीखो	21
▁उबास	21
▁हटा	21
▁पारि	21
▁मृग	21
▁पैप	21
▁उठाय	20
यड	20
क्स	20
▁टहलन	20
▁सुस्त	20
▁निरोग	20
▁गीला	20
▁पो	20
▁देंगे	20
▁नज़र	20
▁जिल	20
▁अमृत	20
▁तख्त	20
स्कार	20
▁स्वीकार	20
▁व्हील	20
▁लत	20
▁जाग	20
▁राह	20
शिया	20
म्मत	20
▁हाट	20
ेक्स	20
▁रसोई	20
]	20
▁खट्टा	20
र्ती	20
▁कैल	20
▁केमिकल	20
▁स्विट्जरलै	20
इए	20
▁शिथिल	20
▁नॉर्	20
वलम	20
▁कुत्त	20
▁सुप	20
मंडल	20
▁परिपूर्ण	20
▁९५	20
▁सुषुम्न	20
ैया	20
▁सड़	20
▁मरुस्थल	20
▁विश्वनाथ	20
ादि	20
▁हिंद	20
शान	20
▁कॉर्ब	20
विश्वास	20
▁गुप्तांग	20
४५	20
▁मुड़	20
२५	20
▁ट्यूब	20
▁उग	20
स्टेड	20
▁बालक	20
▁सुदा	20
्मा	20
▁मेनोपॉज	20
▁साइट	20
ूटी	20
▁छिड़क	20
जू	20
▁तंतु	20
▁सायं	20
▁मेढ़	20
▁होमियोपैथ	20
ावी	20
▁निकालन	20
▁मालदीव	20
▁पिथौराग	20
▁स्वर	20
▁रामपुर	20
रेण	20
▁टॉय	20
मोल	20
▁८००	20
▁जोध	20
▁वाष्प	20
जॉल	20
▁झ	20
▁फॉरेस्ट	20
▁थिम	20
▁सुई	20
▁गेहू	20
डोद	20
▁वार्षिक	20
▁जनजात	20
▁संघ	20
मुक्त	20
▁हारमोन	20
▁स्कूटर	20
ड्रोम	20
लेट	20
प्रेश	20
चट्ट	20
▁बु	20
▁तुम्ह	20
▁स्टी	20
▁एअर	20
▁बिछ	20
▁उत्कीर्ण	20
▁धुएँ	20
▁इंटरन	20
▁अंधे	20
ार्क	20
▁अर	20
▁मंडी	20
▁कारीगर	20
▁बायो	20
▁काठगोद	20
▁पिगमेंट	20
▁खींचत	20
▁साग	20
▁मेहमान	20
▁३५०	19
▁खिला	19
▁लिखा	19
▁बचे	19
▁एकाग्र	19
▁पद्मासन	19
मस्तक	19
ाइज	19
▁प्रश्न	19
▁तस्वीर	19
▁डेस्टिनेशन	19
▁पीपल	19
▁श्रीकृष्ण	19
▁प्रा	19
▁फिसलन	19
▁चमकत	19
न्द्रह	19
▁चिकित्सालय	19
▁स्पॉट	19
लाइन	19
▁पिंज	19
▁निकोबार	19
▁प्यार	19
▁सुहावन	19
▁नाला	19
▁जनन	19
▁मिलेंगे	19
टे	19
▁बेलगा	19
▁सींग	19
क्ट	19
▁स्थूल	19
▁सेरीब्र	19
▁पारदर्श	19
चर्या	19
ाणी	19
ाध	19
▁थार	19
गाय	19
▁उठाएँ	19
▁अना	19
▁सम्मान	19
गिरी	19
▁मनोरंज	19
▁नासिक	19
स्मरण	19
▁प्रस्तर	19
▁पग	19
▁हैजा	19
ोर	19
चीत	19
▁झटक	19
▁श्रवण	19
▁दंडाणु	19
▁पहनन	19
ोरस	19
▁कंचनजं	19
▁हनी	19
मून	19
▁दिलान	19
▁उत्तराखण्ड	19
▁दून	19
▁पूजन	19
कृषि	19
ाइंस	19
▁मादा	19
▁पैरा	19
▁कपूर	19
▁कपड़ा	19
▁गुर्दा	19
▁किताब	19
ोट	19
▁पुकार	19
▁करवात	19
▁पैस	19
▁ड्यू	19
▁खाल	19
▁विवाह	19
▁शौचालय	19
ठी	19
▁मौर्य	19
▁स्ट्रे	19
▁ट्रैवल	19
▁प्रतियोगिता	19
▁नंबर	19
▁शरण	19
हौज	19
▁बेलाडो	19
▁झारखण्ड	19
▁मनो	19
जे	19
▁पिघल	19
▁दृश्यावल	19
▁इंफेक्	19
ाच्य	19
▁हिंदु	19
▁लद	19
▁कतार	19
ाइय	19
▁बेत	19
▁शूल	19
जेब	19
▁नवरात्र	19
▁उठाये	19
▁सू	19
पि	19
▁कैद	19
▁याददाश	19
▁कार्ब	19
▁रूस	19
▁राफ्ट	19
▁याक	19
▁यूरिन	19
टेड	19
वनी	19
▁हिमनद	19
▁गरुड़	19
▁रुद्र	19
▁दिय	19
ज़	19
▁असुरक्ष	19
▁कही	19
▁डार्	19
▁प्रत्यक्ष	19
▁पाच	19
्रिज	19
▁प्रसाधन	19
▁चुटकी	19
▁ओढ़	19
▁ट्रेल	19
▁जामुन	19
▁खंभ	19
▁व्हेल	19
▁आवाजें	19
▁बाँह	19
▁गिनत	19
▁मंदा	19
मीटर	19
▁द्वि	18
▁मॉल	18
▁शिल्पक	18
▁उड़ाने	18
सिल	18
▁माला	18
▁जिनको	18
▁बेकार	18
▁अमल	18
▁एलि	18
▁भुजा	18
▁इंटर	18
▁सम्	18
▁गेज	18
बोट	18
▁संपदा	18
▁महक	18
▁स्टोर	18
▁सवाल	18
▁आभूषण	18
▁बरब	18
▁पिंड	18
▁प्रत्यारोप	18
▁कानून	18
▁फार्म	18
मिली	18
▁मेरुद	18
▁जि	18
▁पित्ताश	18
▁मूल्य	18
▁वीरान	18
गया	18
बहार	18
▁स्पेन	18
▁बैठा	18
▁टूटे	18
ंट्रोल	18
▁ठोस	18
चार	18
रमद	18
म्पन	18
▁रेखा	18
गिंग	18
९०	18
▁सिक्क	18
टिंग	18
▁आँव	18
▁उम	18
▁अवि	18
्रफ	18
गठन	18
▁विचित्र	18
▁साम	18
▁आशा	18
वेज	18
▁रस्स	18
▁ताईवान	18
▁मोजे	18
▁प्रभु	18
▁ढके	18
▁वायरल	18
▁उबल	18
▁शंख	18
ोला	18
▁मंडप	18
▁मीट	18
▁आर्किड	18
ुप	18
▁सिक	18
▁मुर्ग	18
▁खरा	18
▁तीर्थस्थल	18
सिन	18
▁सटा	18
▁सराय	18
▁अयो	18
▁टॉन्सिल	18
▁सर्वेक्ष	18
मेली	18
▁सोड	18
▁जेब	18
▁घुड़सवार	18
ाला	18
▁वीडियो	18
मार	18
▁मित्र	18
▁म्यूज़ि	18
▁लड़ाई	18
▁गंजा	18
जीवन	18
▁दण्ड	18
▁तर्ज	18
▁डालन	18
▁उपरा	18
▁डाइव	18
▁चम्पा	18
वैष्णव	18
डू	18
▁ताजग	18
▁बेड	18
▁अछूत	18
भि	18
बड़	18
▁भेद	18
▁फर्न	18
▁वक्ष	18
▁दाढ़	18
▁जेब्र	18
▁जाय	18
▁तांत्रिक	18
▁पारम्परिक	18
▁क्लास	18
तृ	18
▁मोनो	18
▁भिक्षु	18
▁जीवंत	18
जीरा	18
▁पुष्कर	18
▁मेहनत	18
▁सैरगाह	18
▁बदरीनाथ	18
ैटाइ	18
▁मृत	18
▁पारस	18
▁भित्त	18
ेंट	18
▁रामेश्वर	18
▁पैसे	18
्वाईन	18
▁नाटक	18
६५	18
▁अलंकरण	18
▁गुम्बद	18
▁लोहा	18
▁ऑक्स	18
▁चेत	18
▁लिटा	18
▁रिवर	18
आई	18
▁गणपति	18
▁उल्टा	18
रक	18
▁समिति	18
▁सुनिश्च	18
▁आत्मा	18
▁सकेंग	18
▁राजाज	18
▁हलक	18
ंदर	18
▁अभयारण्य	18
▁पद	18
▁मिट	18
▁इंड	18
▁प्रविष्ट	18
▁तरंग	18
▁पचने	18
फ़री	18
▁क्वा	18
▁साहिब	18
ाप	18
▁चर्चा	18
मिट	18
▁फतेह	18
▁शान	18
▁पेरिस	18
▁पेशी	17
वर्त	17
▁मथुरा	17
▁लु	17
▁कटोरी	17
ियन	17
इ	17
पथ	17
बत	17
टेशन	17
▁इको	17
▁लंगू	17
▁१८६	17
▁निर्माता	17
▁उभरत	17
▁सुझाव	17
▁पिलाय	17
गद	17
▁सुगमता	17
्नल	17
▁सिमली	17
▁प्रधान	17
▁चरम	17
▁उभार	17
▁अरूणा	17
चल	17
▁तन्त्र	17
▁स्फूर्ति	17
▁नाप	17
हा	17
▁यज्ञ	17
▁फा	17
बर्ग	17
ास	17
▁अलंक	17
मैन	17
▁कटि	17
▁होमोसिस्टीन	17
▁माप	17
▁टीले	17
▁छठ	17
▁लालिमा	17
▁मौ	17
▁सौंप	17
▁तपस्	17
▁गणना	17
▁दीपावल	17
▁शही	17
गू	17
रोधक	17
▁इमामबाड़	17
▁शिंग	17
नल	17
ोमिक	17
▁न्यूरोपैथ	17
▁होम	17
▁रोगाणु	17
▁अन्न	17
वच	17
ाधार	17
▁संप्रदाय	17
ाईवे	17
▁बदलन	17
▁स्टीम	17
▁आयाम	17
▁पात्र	17
▁घुमा	17
▁मंगल	17
▁स्प्र	17
▁शेरों	17
▁पिंडार	17
▁बंज	17
गेश्वर	17
▁पति	17
▁प्रोत्साह	17
▁तुगलक	17
▁समुदाय	17
मेदा	17
▁झेल	17
▁पढ़	17
▁मादक	17
▁तिरुवन	17
▁संदेश	17
न्ट	17
▁एग्ज	17
▁विद्या	17
▁व्याधिय	17
▁प्रस्ताव	17
▁मंदी	17
▁प्रयत्न	17
डीग	17
▁आली	17
▁रिंग	17
ाउंड	17
४०	17
▁घुमाव	17
िज	17
ाएक	17
▁संदर्भ	17
जार	17
▁जागत	17
रहम	17
खाना	17
▁पारो	17
▁शाखा	17
▁रज	17
प्पा	17
▁रेस्तरा	17
▁पागल	17
४९	17
▁निराल	17
ष्ण	17
▁कोण	17
▁नेचुर	17
▁संज	17
▁हटान	17
▁अग्न	17
डा	17
यच	17
▁बाड़	17
▁हिमा	17
नार	17
यरी	17
▁ट	17
▁चेतन	17
▁सजावट	17
भद्र	17
▁११०	17
▁कार्टि	17
▁बिलास	17
केत	17
▁दाय	17
त्याग	17
▁रूक	17
▁गड्ढ	17
▁खायें	17
▁कैथे	17
▁रेटिना	17
▁टीम	17
▁एरिया	17
▁समाधान	17
▁रिलैक्स	17
▁हकीम	17
▁बूट	17
्थ	17
▁जीर्ण	17
▁खिड़की	17
▁तब्दील	17
▁जिंज	17
▁टेंप	17
▁भुन	17
कृष्ण	17
▁डिजी	17
▁जकड़न	17
▁सर्प	17
▁सालम	17
▁रास	17
कंड	17
▁विधिय	17
▁घुमात	17
शंकर	17
्रिकेट	17
▁बँध	17
गृह	17
▁उपहार	17
▁रहस्य	17
▁मंत्रमुग्ध	17
▁मोनाल	17
ोवा	17
▁प्रोफे	17
▁फाट	17
ंडा	17
▁७२	17
▁दाम	17
▁मत्स्य	17
▁अर्थराइटि	17
▁गिरे	17
ंसी	17
▁संकट	17
पन्न	17
▁बैल	17
▁चरागाह	17
िराए	17
▁पोंछ	17
▁सिक्जोफ्र	17
▁बै	17
▁आफ	17
▁आनुवांशिक	17
लीन	17
मे	17
श्श	17
▁खिलाड़	17
▁रुकन	17
▁कम्पन	17
▁स्लीप	17
त्त	17
रित	17
▁वास्तु	17
वारिक	17
▁टेढ़े	17
▁मीडिया	17
▁युवक	17
▁वॉक	17
▁बरकर	17
▁शादी	17
▁इन्	17
▁होल्	17
दर्शन	16
्ता	16
▁अफगान	16
ऑर्डर	16
▁आँच	16
▁अधेड़	16
▁बनिस्	16
हर	16
▁पुस्तकालय	16
▁जामा	16
▁थूक	16
▁हास्य	16
▁चश्मा	16
▁भाड़	16
▁लौ	16
▁रिवाल	16
▁फंग	16
▁किन्नौर	16
▁वैष्णों	16
ेस्को	16
डौल	16
▁केश	16
▁चित्रकला	16
▁शुभ	16
▁निहार	16
▁वृक्क	16
पुरा	16
▁रोहतांग	16
ाब	16
▁हल	16
ष	16
फ़ी	16
▁पुष्ट	16
वाब	16
▁सतत	16
▁सिद्धांत	16
▁क्षार	16
िप्प	16
▁लॉस	16
▁इंजैक्शन	16
्रास	16
ायर	16
▁फ्रांस	16
▁चिकनाई	16
कम	16
▁सम्भव	16
▁रुका	16
क्षण	16
▁ढूँढ	16
ोपैथ	16
▁रूखे	16
▁भैंस	16
सीज	16
▁५४	16
▁जिन्द	16
▁दरारे	16
▁जोड़ने	16
जीत	16
▁९८	16
▁ध्वज	16
▁दुबा	16
▁सिंगापुर	16
▁चील	16
▁अनचाह	16
▁आक	16
▁उज्जैन	16
▁बोरि	16
▁जयाबीतुस	16
▁कोल्ड	16
▁चुस्त	16
▁शैम्प	16
▁संच	16
रफ्त	16
▁ऑक्सी	16
▁मुकाबल	16
▁भरमा	16
▁हमला	16
▁निवारक	16
▁रजोनिवृत्त	16
▁एस्ट्रोज	16
▁फेस	16
▁चण्डी	16
र्थ	16
▁अथ	16
▁पटनीट	16
▁तराश	16
▁रेलगाड़	16
▁उम्मीद	16
▁सर्द	16
▁ग्लिस	16
▁श्लेष्मा	16
म्यूज	16
▁धुन	16
ानुग	16
▁वरदान	16
▁सिंच	16
▁नयना	16
लिस	16
▁शेख	16
▁नीति	16
▁उन्म	16
०००	16
बिंद	16
▁वाहिका	16
हवा	16
मुख	16
▁टु	16
▁अखाड़	16
नाड	16
▁दर्र	16
विवार	16
लिक	16
▁हाइपोथर्मिया	16
वस्था	16
▁सार्स	16
▁खुलत	16
▁संतुष्टि	16
तर	16
न्तिम	16
फास्ट	16
▁डाली	16
▁वार्म	16
▁सिंहासन	16
▁कदा	16
▁शूट	16
क्रम	16
▁राजक	16
इय	16
लोक	16
▁लैंस	16
▁नागर	16
रेड	16
▁लोनाव	16
▁काठमा	16
▁वाइन	16
▁खजान	16
▁असमर्थ	16
▁पुरातत्त्व	16
▁मसूढ़	16
▁राव	16
▁तड	16
▁वृहद	16
▁जननांग	16
▁बिर	16
▁न्याय	16
▁घना	16
▁बर्ड	16
▁सुदृढ़	16
▁अल्जाइमर	16
८०	16
▁भूत	16
▁हाला	16
▁उत्सर्ज	16
▁पेशवा	16
साथ	16
▁१६०	16
रअ	16
त्ती	16
रस	16
▁भून	16
▁रखन	16
स्ट्री	16
▁राजस	16
▁शक्तिक्रम	16
▁विद्वान	16
▁पारा	16
▁नॉ	16
▁नहा	16
▁बाह्या	16
▁सिफ	16
ंठा	16
▁निद्रा	16
▁विवेकान	16
▁तेज़	16
▁निर्वा	16
▁गाल	16
चक्र	15
▁पौधा	15
▁करवाएँ	15
५७	15
साल	15
▁बलि	15
▁मेडि	15
▁सीड	15
▁टेली	15
▁रच	15
िना	15
▁कोहनिय	15
▁अल्फा	15
▁कुशल	15
▁नल	15
▁पार्टी	15
▁मजे	15
▁बंगला	15
▁एरोबिक	15
▁रोमां	15
कंठ	15
▁संयम	15
▁एसोसिए	15
ाहन	15
परिवार	15
▁करो	15
▁सर्ज	15
▁सुपर	15
▁२४०	15
▁अभिलेख	15
▁गिना	15
▁टाइफ	15
ीशिय	15
▁कवि	15
▁लिपट	15
मूत्र	15
इन	15
▁नरम	15
▁३३	15
▁लम्बा	15
३७	15
▁हलचल	15
ीमा	15
▁अष्ट	15
र्धक	15
▁मुम	15
▁रगड़	15
▁फाह	15
▁पूर्णत	15
▁कड़े	15
नशील	15
९१	15
▁सिकुड़न	15
▁स्वी	15
▁पूल	15
▁साधु	15
▁थिए	15
▁फेर	15
▁विक्टोरिय	15
▁उत्सुक	15
▁सैड	15
▁तैनात	15
▁स्वा	15
▁स्कू	15
▁तिजार	15
▁आंत्र	15
▁कोरोन	15
स्क्रीन	15
▁बहादुर	15
▁वाल्व	15
▁पिच	15
▁रेट	15
▁यु	15
▁बाँझ	15
ैक्स	15
▁निभा	15
▁वाहिनिय	15
ुधवा	15
क्षी	15
▁४६	15
▁पल्सेट	15
▁सच्चा	15
▁ग्रंथ	15
▁सरव	15
भ	15
▁रत्न	15
▁भंग	15
डेंस	15
▁चे	15
उ	15
र्षि	15
ाय	15
▁त्रि	15
▁जनजाति	15
्वती	15
▁सोख	15
ैठ	15
▁क्रो	15
▁हृदयरोग	15
▁कैम्	15
▁अम्लीय	15
▁मोम	15
लक्स	15
▁होंगी	15
▁उदय	15
▁हेड	15
▁हज़ार	15
▁घुमान	15
▁शक्तिपीठ	15
▁१५००	15
▁कू	15
भाव	15
▁परिस्थिति	15
▁एक्सर	15
▁शिश्न	15
▁पनी	15
▁रत	15
निंग	15
▁सोहन	15
▁ज्वालामुख	15
▁गोल्ड	15
▁बहर	15
▁योगासन	15
▁बनफ	15
नियंत्र	15
बिल	15
▁कस्तूर	15
▁विल	15
राष्ट्र	15
▁नाच	15
२४	15
▁अकड़न	15
ग्न	15
▁शक्तिशाल	15
▁५१	15
▁तौलिय	15
▁शरद	15
ूरी	15
ून	15
▁सेंधा	15
▁माँसपेशिय	15
▁सोचत	15
▁आय	15
▁१७५	15
▁उत्तेज	15
िस्का	15
रेखा	15
२२	15
▁कैंडी	15
▁घनी	15
▁क्लोर	15
▁कद्दू	15
▁उन्माद	15
जीव	15
ोंठ	15
▁विनाश	15
▁स्क	15
िकम	15
तीक्ष	15
▁टू	15
▁दफ्तर	15
हत्या	15
▁सूँघ	15
▁वृत्ताक	15
▁स्ट्रॉबेरी	15
ेपी	15
▁शैव	15
▁गिरजाघर	15
▁टेंपरे	15
ंगा	15
▁जुब	15
▁सतल	15
रेस्ट	15
फाइट	15
▁पुरूष	15
▁एक्टिविटी	15
▁मैथुन	15
▁दरार	15
▁बरामद	15
▁जू	15
गध	15
▁टील	15
▁माई	15
▁गतिविधि	15
▁डेल	15
ांतर	15
▁तं	15
▁धौली	15
ज़ु	15
▁८५	15
▁जन्तु	15
▁चुने	15
▁महामा	15
▁बदन	15
ायी	15
▁बोलत	15
▁मुनि	15
▁दुर्गन्ध	15
▁कलश	15
▁निग	15
▁जेनेटिक	15
▁राशि	15
▁महाबली	15
स्कोप	15
▁इन्द्र	15
▁ख्यात	15
▁दुबला	15
▁जंतु	15
▁पेरि	15
कार्डिय	15
पुट	15
▁सतपु	15
िड़ल	15
१२	15
गोर	15
▁छत्तीसग	15
ुआँ	15
▁पैराग्लाइड	15
▁साहेब	15
बर	15
▁४२	15
▁कराए	15
▁दोहरा	15
हाट	15
▁रमणीय	15
▁१३०	15
पोल	15
▁गंधक	15
▁कूल	15
▁चबाने	15
▁तत्पश्चात	14
▁सँवार	14
▁महारान	14
▁जाएँग	14
▁स्टार	14
▁दोगुन	14
▁जहरील	14
▁दुब	14
धक	14
▁सासा	14
▁माइक्रो	14
▁ग्रै	14
कट	14
▁तहसील	14
ंदन	14
▁आर्टरी	14
▁सम्मे	14
▁डेवल	14
ंजीर	14
▁सिडनी	14
▁फव्वारे	14
्री	14
ुल	14
▁चैल	14
▁फोटोग्राफ	14
थांग	14
▁धुँआ	14
▁बर्म	14
▁खिलौन	14
▁चीज़	14
▁हवेलिय	14
▁ब्राह्मण	14
रंडा	14
वैस	14
यंत्र	14
ोलर	14
▁नुकसानदे	14
▁टेढ़ा	14
▁रेंज	14
जो	14
▁नेता	14
▁४४	14
ंदा	14
भ्र	14
हल	14
▁कुप्प	14
▁खोपड़	14
▁ज़मी	14
▁सकेग	14
▁यून	14
▁उत्तान	14
प्पी	14
▁पशुपति	14
शी	14
▁रैप	14
▁फेल	14
▁सटी	14
▁ज्वाला	14
▁चाह	14
बार	14
श्रु	14
▁बरते	14
▁शिवाल	14
▁नैना	14
णजी	14
▁वाई	14
क्रमा	14
▁पल्स	14
▁टन	14
▁एंटीऑक्सीडेंट	14
यू	14
▁दामो	14
▁कॉटेज	14
▁छवि	14
▁तु	14
सांग	14
▁सिरम	14
▁यकीन	14
मुच	14
▁उपापचय	14
▁कैथेड	14
्रल	14
▁कैमरा	14
▁पवन	14
▁इम्यून	14
▁रिकॉर्ड	14
▁तीर्थयात्र	14
विद्यालय	14
▁दुखन	14
रीन	14
ुद्द	14
▁समंद	14
ऑक्स	14
महेश	14
▁चुन	14
ूस	14
▁बढ़ेग	14
▁फाइलेरिय	14
▁रोह	14
थायराइड	14
▁ज्वाइंट	14
थिक	14
देश	14
▁हॉली	14
डोज	14
झड़	14
▁जादू	14
▁मक्क	14
▁गैस्ट्रि	14
▁कैप्सूल	14
▁विधान	14
▁झपक	14
▁क्लीनिक	14
▁लाड	14
कक्ष	14
▁संतान	14
▁सप्त	14
मोक्ष	14
▁परीक्षा	14
▁खिलाफ	14
गुड़	14
▁पंख	14
▁डांस	14
▁फैक्टर	14
▁३४	14
▁सोलह	14
▁गुंबद	14
्न	14
▁तितलिय	14
▁बिले	14
▁रूखा	14
▁तीखा	14
▁सतर्क	14
▁साक्ष	14
▁अतिथि	14
▁निचोड़	14
▁संक्रांत	14
▁भात	14
▁निकास	14
▁ताज़	14
▁आलम	14
▁सर्जन	14
▁टिश्यू	14
बाल	14
राणा	14
चेत	14
▁प्रिंस	14
न्नत	14
टिया	14
▁सार्व	14
▁रूचि	14
▁विषाक्त	14
▁थाइ	14
▁सजे	14
वध	14
हड़	14
▁कीमोथेर	14
ाती	14
▁मदर	14
▁निर्	14
यात	14
▁सामान्यत	14
चीन	14
ग्रेट	14
ंज	14
▁नारक	14
▁पीढ़	14
सम	14
बूल	14
▁भु	14
्खनन	14
▁द्वारका	14
▁मोच	14
▁तुम्हार	14
बाजी	14
▁कांति	14
बाकू	14
▁सूत्र	14
▁कोलंब	14
ोत्र	14
लुमिन	14
▁मीज	14
▁गूँजत	14
▁सील	14
▁कनाड	14
फेर	14
▁मुहैय	14
▁निरोधक	14
मोहन	14
▁ओत	14
क्सिया	14
गोल	14
▁चेस्ट	14
गिर्द	14
▁आर्	14
▁१७०	14
▁लिफ्ट	14
▁टोपी	14
▁१२५	14
वांग	14
▁संकुच	14
▁चुभन	14
्याय	14
ोचर	14
▁एयरलाइ	14
▁रौन	14
डिसिन	14
▁चिड़िया	14
▁अकेला	14
▁प्रतीक्षा	14
▁लेटा	14
▁घन	14
▁लोह	14
▁कल्चर	14
▁स्पीत	14
▁झुका	14
▁धुआँ	14
▁५६	14
▁ड्यूडेन	14
▁विहंग	14
▁रुके	14
▁मढ़	14
▁भुज	13
▁नाइट	13
▁गुर	13
▁गिरा	13
▁चिप	13
▁लीला	13
युगीन	13
ुद	13
▁दीम	13
▁त्रिफला	13
ॉक्स	13
▁एकांत	13
ावट	13
▁सजी	13
▁मेक	13
▁अम्लता	13
▁चंब	13
▁कहे	13
हू	13
▁चन्दन	13
शोभ	13
▁बाईप	13
ाल्प	13
वाना	13
▁पीरियड	13
▁इसोफिग	13
▁सैंड	13
▁जोंग	13
▁पैं	13
▁फुल्क	13
खाओ	13
▁यादव	13
▁चूह	13
▁महायान	13
अंदाज	13
म्बू	13
ाईड	13
▁विश्वस	13
▁अल्कोह	13
मूह	13
▁कंठ	13
▁नस्ल	13
▁प्रशंस	13
▁लिंफ	13
▁नोड	13
स्तर	13
▁किंवदन्त	13
▁टोन	13
▁स्क्व	13
▁ड्राई	13
▁बाह	13
▁छप	13
▁चैन	13
▁मज्जा	13
्यिन	13
▁बुल	13
▁टेम्पल	13
▁अवयव	13
स्टिक	13
क्षेप	13
▁कमज़ोर	13
▁करायें	13
▁कॉट	13
▁टट्ट	13
▁बैठक	13
कालिका	13
मिंग	13
नूर	13
▁टेटन	13
▁लाए	13
▁वैष्णो	13
▁सर्वे	13
▁लोम	13
▁बुला	13
▁मछुआर	13
▁भित्ति	13
▁बि	13
बीच	13
▁विद्यार्थ	13
▁योगाभ्यास	13
▁अल्जा	13
माइ	13
▁ब्लॉक	13
▁जलधारा	13
▁कार्बन	13
▁टिके	13
▁पठा	13
▁कांची	13
बुद्धि	13
▁बैलगाड़	13
▁चित्तौड़	13
पियन	13
▁आतश	13
▁घोंसल	13
ुआ	13
▁सेरेब्र	13
▁बर्ग	13
▁सम्भावना	13
▁विफल	13
▁इच्छ	13
▁जुट	13
डैक	13
▁प्रधानमंत्र	13
ोप	13
धर्म	13
४७	13
▁कैल्सियम	13
▁रेडियो	13
▁बँट	13
▁कोरल	13
ल्ड	13
पट्ट	13
दी	13
▁फसल	13
▁संध्या	13
▁मूक	13
घूँट	13
रबर	13
▁पीटर	13
▁निगलन	13
▁गुरू	13
▁रुख	13
हाउस	13
२७	13
▁डबल	13
▁गोह	13
▁शाल	13
▁टोप	13
▁खाँ	13
▁संदेह	13
▁निष्कर्ष	13
▁श्रीरंग	13
▁डाक्टर	13
▁दुःख	13
▁जठरा	13
▁विरोध	13
▁मुराद	13
▁आक्सी	13
टेक्स	13
▁धुंध	13
▁डांड	13
▁डिफ	13
▁तह	13
▁अवता	13
▁बकरिय	13
▁अस्वस्थ	13
▁मैमोग्रा	13
▁लटक	13
पित्त	13
▁जकड़	13
▁गुजार	13
जान	13
▁सम्पदा	13
▁क्लाइं	13
▁बिज	13
▁निराशा	13
▁डो	13
▁फिल	13
▁फैसल	13
नपुर	13
▁बीएम	13
▁धर्मावलम्ब	13
▁जंग	13
▁सिनेमा	13
▁पीर	13
▁फुल	13
▁हथियार	13
▁थर्म	13
▁पिण्ड	13
गुप्त	13
ब्ज	13
ोल	13
▁काटत	13
ैशनल	13
१८	13
▁वाप	13
ैर	13
ैंपू	13
ुमला	13
▁५३	13
▁एकादश	13
वासन	13
▁निहारत	13
▁जवाहर	13
▁चूड़	13
दृश्य	13
▁कैलाश	13
▁ओज	13
▁भक्ति	13
ंबी	13
▁चंचल	13
ैला	13
▁रेतील	13
▁लगें	13
▁सर्कल	13
▁टें	13
▁स्पा	13
्रोव	13
▁धरा	13
खिल	13
▁कब्जा	13
भिषेक	13
▁मलयाल	13
ौंध	13
▁समे	13
▁प्रथ	13
▁दाह	13
▁अनदेख	13
ल्ट	13
▁छ्त	13
▁सिक्ख	13
▁पूज	13
लय	13
▁फफोल	13
▁मिठाइय	13
▁ध्व	13
▁५८	13
ाही	13
▁शेड	13
▁बल्गम	13
▁हार	13
ाकर	13
▁पच्ची	13
▁समझदार	13
कलन	13
▁पंड	13
कोटा	13
ाहार	13
▁धौलाध	13
▁ठो	13
मुद्रा	13
▁सीख	13
▁ईसाई	13
▁मुकुट	13
▁सीकर	13
▁शा	13
ॉइड	13
▁आँ	13
▁गुम	13
▁कार्ड	13
▁सर्फ	13
▁पुराण	13
▁जबड़	13
▁फॉर	13
भक्त	13
बंदर	13
▁मौं	13
रदर्द	12
▁न्यूमो	12
▁बताए	12
▁९००	12
▁मेज	12
▁बैच	12
▁एन्टी	12
▁आस्ट्रेलिया	12
छावन	12
▁माथेर	12
▁मॉडल	12
▁पाइन	12
मिना	12
लन	12
▁ग्यारह	12
▁चौबीस	12
▁अंगुल	12
ेनिक	12
▁निगल	12
▁माजू	12
▁ची	12
चुंग	12
▁४५०	12
▁चौहान	12
▁जागृत	12
ुअल	12
▁महाकाल	12
▁अजीब	12
▁टाल	12
झी	12
राजा	12
दौड़	12
▁कबूतर	12
▁प्लेट	12
▁९९	12
▁बया	12
ैपी	12
▁आघात	12
मंत्रण	12
मिन	12
▁थायरॉ	12
ियो	12
▁मोद	12
▁जुजा	12
▁प्लीहा	12
▁रहस्यमय	12
▁निहारन	12
▁आएँगे	12
ण्डार	12
क्षमता	12
▁इनसान	12
▁वश	12
▁आँकड़	12
म्पा	12
▁मारा	12
▁अग्रणी	12
▁चैक	12
द्रु	12
▁बकरी	12
▁मिटान	12
गोश	12
कारो	12
▁दशम	12
▁ताड़	12
▁महाद्वीप	12
▁लिप	12
▁शयन	12
▁लिखी	12
खण्ड	12
लकर	12
▁इज	12
कल्प	12
ुनिक	12
▁पस	12
▁ढाँच	12
▁पाटलि	12
ण्ट	12
▁कामकाज	12
बेस्ट	12
▁सत्ता	12
▁पह	12
▁अलव	12
▁जच्चा	12
७०	12
▁गुजर	12
गण	12
▁नेचर	12
▁मायन	12
▁शुद्धि	12
▁गोदा	12
▁संजो	12
▁संधि	12
दू	12
▁एंजाइ	12
▁नकल	12
्यूल	12
▁हेम	12
▁उदास	12
▁अर्ध	12
लिन	12
▁छोड़न	12
किंग	12
▁लूट	12
▁चुप	12
▁ईश्वर	12
ेटिक	12
ल्सी	12
▁आउट	12
▁ह्वेन	12
▁कीटनाशक	12
▁विस्मय	12
▁मृदु	12
▁चोरी	12
▁कपाट	12
धिर	12
▁ग्रास	12
▁धुँधला	12
▁चौगान	12
▁स्विस	12
▁कोठर	12
▁सेल्यूल	12
हरा	12
▁९७	12
▁अर्प	12
▁बाजी	12
▁बेबी	12
▁३९	12
पीठ	12
▁लेंगे	12
▁भाग्य	12
▁एंडो	12
▁७७	12
▁उगत	12
▁उन्नत	12
▁खबर	12
▁परमार	12
स्वी	12
▁हॉस्	12
▁फ्रांसिस	12
▁सुहान	12
न्तरिक	12
▁सै	12
▁क्षत	12
▁सूच	12
▁बहान	12
▁कोष	12
▁नॉन	12
ॉइंट	12
▁हाज	12
▁इकाई	12
साइज	12
ंचित	12
▁स्पाइ	12
▁पूँछ	12
▁गूद	12
कदम	12
▁विदा	12
लोन	12
▁मिलावट	12
▁तमिल	12
३४	12
न्ड	12
स्टर्न	12
▁जीवाश्म	12
▁कंघ	12
▁राजवंश	12
▁कल्प	12
▁महाबल	12
▁बूंद	12
ेरे	12
खूब	12
ेड़ा	12
▁जहर	12
भिन्न	12
▁सम्पन्न	12
▁बुराँ	12
▁भौतिक	12
▁मंच	12
▁धक्क	12
▁कस	12
हिल	12
पानी	12
▁तादा	12
▁यूरो	12
▁व्यवस्थ	12
▁राजकुमार	12
▁ओबेस	12
▁जौ	12
▁स्पीड	12
▁अध्य	12
▁चूना	12
▁पोखर	12
▁बेकर	12
▁सुगम	12
▁सोचें	12
▁इन्फ्	12
▁जनजातिय	12
▁चैनल	12
गाह	12
▁डुब	12
▁थियेटर	12
▁करत	12
▁स्ट्रेच	12
▁खाज	12
जाइन	12
▁चौंका	12
दोष	12
▁टहल	12
▁जंजीर	12
६२	12
▁अल्ट्रावॉयल	12
पत	12
▁छुड़ा	12
▁बिल्डिंग	12
▁गुंज	12
▁रेख	12
▁निपटा	12
▁नार	12
▁साइटिक	12
सूरत	12
▁आदेश	12
▁मयूर	12
▁विक्रम	12
▁शियाटिक	12
▁गुठल	12
नगढ़	12
▁मदुर	12
▁ब्रिट	12
▁सिरो	12
दास	12
▁निगाह	12
▁टाउन	12
▁अवरुद्ध	12
▁केसर	12
वर्द्धक	12
▁क्वाल	12
▁निरीक्षण	12
▁पाठ	12
ोसा	12
▁लुप्त	12
▁चोखी	12
फीन	12
▁वजउल्	12
▁सत्य	12
▁कुर्क	12
▁दास	12
▁सिंध	12
▁डॉल्फिन	12
▁तैराक	12
र्जन	12
▁नग	12
▁फोबि	12
▁अंगरेज	12
▁गम	12
३६	12
▁गगनचु	12
स्टाइल	12
▁इडुक्क	12
रासन	12
▁लपेट	12
▁रघुनाथ	12
▁दृष्टिग	12
डो	12
▁बुन्देलख	12
▁ऐंटी	12
▁बसंत	12
प्रकाश	12
▁टेरा	12
▁गद्दी	12
▁सिल	12
▁लोकनृत्य	12
गामी	12
पसंद	12
ार्थ	12
वादा	12
▁पृथ	12
▁छाँ	12
▁आयी	12
▁परिधान	12
राबो	12
▁चिंतन	12
▁भगवत	12
▁किश	12
▁फाय	12
प्लास्ट	12
ॅ	12
▁चिकित्स	12
▁सीखन	12
आर	12
एसिस	12
▁मलेशिय	12
गरा	11
यो	11
▁अज्ञात	11
जूम	11
बुल	11
▁तूफान	11
▁स्पे	11
मेल	11
▁मिटा	11
▁बैंड	11
▁नक्श	11
▁हाइड्रोज	11
डोल	11
▁अठख	11
▁नपुंसकता	11
▁असावधानी	11
▁रगड़े	11
▁रुट	11
▁कॉरपोरे	11
▁दर्जन	11
▁एरोमाथैरेप	11
▁झोंपड़	11
ुमथांग	11
शर	11
▁रोमानिय	11
▁अम	11
▁चट	11
▁चिक	11
▁विशुद्ध	11
बरा	11
▁दुग्ध	11
▁पब्लि	11
ंगी	11
प्रभा	11
▁महत्त	11
▁बेचन	11
▁स्पाइस	11
▁प्लांट	11
▁चप्प	11
▁वाइल	11
चार्ज	11
िण	11
क्रियाज	11
▁मात	11
जाऊ	11
▁अंचल	11
▁फाइब्र	11
▁खम्भों	11
▁वैद्य	11
▁गैस्ट्रोएंट्र	11
▁मण्डल	11
▁मिचलान	11
क्षय	11
▁६९	11
ाइवे	11
▁पैमान	11
ारिश	11
▁ज़िल	11
▁पंत	11
▁व्या	11
▁कार्तिक	11
्जरी	11
ोक्ति	11
▁लैंड	11
▁ट्राउ	11
Q	11
▁नन्दा	11
मेट	11
▁शोक	11
▁दिलवा	11
ैन्य	11
▁अकाद	11
▁शून्य	11
रुद्ध	11
▁संघर्ष	11
▁नंदाकोट	11
▁एड़िय	11
▁डोपाम	11
▁दृष्टिहीन	11
▁चिंत	11
▁जिंक	11
▁सच्च	11
▁प्याल	11
▁पावा	11
▁मिलें	11
▁शल्यक्रिया	11
▁कोटा	11
▁कैफे	11
▁सृजन	11
▁बाहुबल	11
▁किंग्स	11
▁गवर्न	11
▁प्रतिबंध	11
▁पसर	11
▁आँतो	11
▁नज़दीक	11
▁जौली	11
ाद	11
▁चिना	11
▁घटा	11
▁कार्यकर्ता	11
▁खिसक	11
▁टकरा	11
ाइए	11
▁रक्तवाहिनिय	11
किर	11
▁दौड़त	11
▁लोथ	11
टॉप	11
▁मूलक	11
▁कोष्ठ	11
पीक	11
चंद्र	11
▁शिष्य	11
संग	11
▁चिपचिपा	11
▁बैज	11
विषाण	11
लभ	11
हाइट	11
▁थर	11
▁कलादीर्घा	11
▁लिम्फ	11
▁अनुसंधानकर्ता	11
▁सचिव	11
▁समर्थ	11
▁कुंज	11
▁मिचला	11
▁कॉस्मेटिक	11
▁टर्मिन	11
▁छिपा	11
तोंग	11
▁रुद्रनाथ	11
सेंट	11
▁टटोल	11
▁बेदनी	11
▁तपो	11
ॉप	11
▁पोलो	11
▁बाँधे	11
▁अर्ज	11
▁शिकारी	11
ोडिय	11
▁नंदी	11
▁लड़	11
▁घ	11
▁सुर	11
▁कूप	11
▁नोज	11
▁सहेज	11
▁प्रौढ़	11
▁हेंग	11
▁पंचम	11
▁एसिडिट	11
▁बारहसिंग	11
▁बैक	11
▁ठे	11
▁बेच	11
▁जवाहरलाल	11
▁धँस	11
▁पार्ट	11
▁बाब	11
▁चैत्य	11
▁निर्मल	11
▁मुट्ठ	11
लीगुड़	11
▁इन्सुल	11
▁हैरान	11
▁सतर्कता	11
▁निर्ज	11
श्त	11
▁शुक्र	11
ूलन	11
▁कोर्ट	11
▁उम्	11
▁पिया	11
▁इंजीनियर	11
यूर	11
▁समर	11
▁लेखक	11
▁झरोखे	11
▁भैंसे	11
▁त्रिपुर	11
▁अशुद्ध	11
▁संस्कृत	11
▁छड़	11
▁मनोरोग	11
▁रेजी	11
▁चेट्टी	11
▁झुकत	11
▁स्टैण्ड	11
▁अगम	11
ेयर	11
▁मैंग	11
▁टेप	11
▁विश्रामगृह	11
▁मिक्स	11
▁इमल	11
▁सरीख	11
ोलॉजी	11
ीनो	11
▁फारस	11
▁बेगम	11
▁सरोगे	11
▁ज़िराफ	11
▁चिन्त	11
▁बढ	11
रदीप	11
▁ट्रौं	11
▁शक्	11
गाड़	11
▁संग्राम	11
▁गिल्ट	11
▁आयें	11
▁गुनगुना	11
▁बहुतेर	11
रूली	11
▁९६	11
▁पाव	11
तिमा	11
र्पण	11
विहार	11
▁प्रसूत	11
ाइब्रे	11
म्फा	11
▁सिंधु	11
▁४१	11
▁इतिहासकार	11
▁स्टॉल	11
▁बिकत	11
▁३७	11
म्मद	11
▁उपलब्धि	11
▁यूट	11
▁निकोट	11
▁लिपि	11
▁आमंत्र	11
रंग	11
▁ज्योतिर्लिंग	11
▁काउंसल	11
ेबल	11
▁बढ़ोत	11
▁भीषण	11
▁खिंच	11
▁२६०	11
रूम	11
▁स्लिप	11
हजम	11
िष्ठान	11
ोलाइटि	11
टिकन	11
▁टांसिल	11
्मी	11
कश	11
ापन	11
▁फेम	11
प्रणाल	11
▁दम्पत्ति	11
▁मंज	11
डाउन	11
▁माघ	11
▁यमुन	11
▁भयावह	11
▁विराट	11
▁एजेंसिय	11
्राउन	11
जागर	11
▁श्रेणिय	11
▁सोमवार	11
▁निदेश	11
▁बरत	11
▁प्राचीर	11
▁विश्ववि	11
▁बाथर	11
▁चप्पल	11
संयम	11
▁रेस्टोर	11
▁हेयर	11
३२	11
▁सँभाल	11
▁तलव	11
▁प्रोत	11
जॉय	11
▁एनोर	11
▁पिंडल	11
▁सिलसिला	11
स्पिरि	11
▁इपिकाक	11
तन	11
व्यवस्था	11
भ्यन्तर	11
ासुर	11
▁मुंड	11
▁इर्द	11
▁मेट्रो	11
▁फासल	11
▁भागसू	11
ंड्रा	11
▁विकिरण	11
▁बोधि	11
▁सूट	11
▁कनपट	11
▁ललित	11
▁पायर	11
▁कदर	11
▁स्कॉट	11
▁शि	11
▁साठ	11
▁दिखाएँ	11
▁उद्घाट	11
▁खानदान	11
▁गौ	11
▁आयत	11
▁एंजॉ	11
२१	11
▁यूरिक	11
▁सौदा	11
▁पुल्ट	11
ाएँगे	11
▁असुविधा	11
▁कुकर	11
▁कृप	11
राना	11
▁चौपा	11
▁दिखेंग	11
▁पोर्टर	11
डु	11
ंजन	11
▁वैग	11
▁अनियमितता	11
▁उपज	11
▁बूढ़ा	11
▁अपान	11
▁मुहम्	11
▁वृंदा	11
▁११७	11
▁हथेली	11
▁लगात	11
बस्ति	11
▁सराहन	11
▁ख़	11
▁ब्राह्म	11
▁छोड़ें	11
▁आकस्मिक	11
▁बर्	11
▁फन	11
▁क्रिस्टल	11
▁वेज	11
▁फव्वार	11
▁पिज्ज	11
▁झूलत	11
▁निकलवा	11
▁स्टै	11
ापचय	11
▁छ्त्तीसगढ	11
१५	11
सराय	11
▁अंबा	11
▁राजनीति	11
▁मजदूर	11
▁चौरा	11
▁उपनगर	11
▁जीर	11
येंगे	11
श्वास	10
▁हिन्दुस्तान	10
▁बागडो	10
▁जीर्णोद्	10
ान्व	10
▁स्पेशल	10
▁चकत्ते	10
▁खिलात	10
गोविन्द	10
क्सीडेंट	10
▁डंक	10
▁घाघर	10
माल	10
▁नाइट्र	10
िक्वि	10
▁घुमक्कड़	10
▁उबटन	10
▁उमड़	10
▁ब्रह्मचर्य	10
िंट	10
ब्ले	10
▁ट्रैकोम	10
▁टिन	10
▁डै	10
▁नक्षत्र	10
▁चोप	10
▁कर्म	10
रियल	10
▁आँकड़े	10
▁तारीख	10
▁संवेदना	10
▁मांग	10
▁चतुर्भुज	10
▁डैड	10
▁मारे	10
ंबल	10
▁जेट	10
▁बल्लभ	10
▁कौर	10
▁६८	10
तवाल	10
रुवि	10
▁साइल	10
▁तरंगे	10
▁न्यूय	10
युद्ध	10
▁सैंक	10
नो	10
्रुम	10
ॄ	10
▁कॉर्ड	10
बोधि	10
▁भित्तिचित्र	10
कोम	10
▁शुक्ल	10
▁श्वेता	10
▁दिगम्बर	10
▁अमन	10
कुछ	10
▁फ्लाइट	10
बन्ध	10
▁दसव	10
कण्ण	10
▁हि	10
▁गिलहर	10
मणि	10
▁पॉजिट	10
▁साइन	10
३५	10
▁हिन्दु	10
इट	10
▁पीव	10
▁समानता	10
▁मदिरा	10
▁वास्तुकार	10
▁गत	10
खान	10
▁गतिशील	10
▁ठ	10
अमु	10
▁स्विम	10
गिनत	10
▁बैंगन	10
▁सोनार	10
टेक	10
▁फिरोज	10
▁सैंट	10
▁उदयगिर	10
▁मरु	10
सीन	10
▁४३	10
राय	10
▁शीतला	10
▁नवविवाहित	10
▁दबाएँ	10
▁आवा	10
थैरेप	10
▁पीता	10
▁साधारणत	10
▁चिड़िय	10
▁चहचहा	10
▁कीर्ति	10
▁मसालेदार	10
▁फेलो	10
▁किन्	10
िमैन्	10
▁गा	10
▁मंजिले	10
लाहल	10
▁झर	10
▁श्रंखला	10
प्रस्थ	10
▁खाए	10
▁खण्डहर	10
ाह	10
▁पाइलोरी	10
नैतिक	10
३८	10
▁सनबर्	10
पैथी	10
▁ऐन	10
▁टिकाये	10
▁जोरो	10
लाल	10
▁रखिए	10
▁चूस	10
▁तरकारिय	10
▁मस्कुल	10
ग्लाइड	10
▁चक	10
▁टीन	10
वेरे	10
▁मनोकामना	10
जोक	10
▁तलब	10
▁गन	10
▁सीखत	10
▁बड	10
ात	10
▁फीक	10
▁गंगाज	10
लक्ष्मी	10
▁यौवन	10
▁सेकेंड	10
▁गेंद	10
▁कलकत्त	10
▁सम्मोह	10
▁मज़ा	10
▁श्रावण	10
लुआ	10
थी	10
ैकेट	10
▁अवध	10
▁मिडि	10
▁पत्रिका	10
▁तीर	10
दराज	10
▁शस्त्र	10
▁हिंदुस्तान	10
▁१०३	10
▁हॉट	10
ेक्शन	10
▁प्रासाद	10
▁जिंदा	10
▁पिलात	10
ग्रा	10
▁फाड़	10
▁नथुन	10
ाऊ	10
▁दायर	10
▁नाई	10
▁मू	10
लौक	10
▁बैले	10
▁ब्रांड	10
▁डेवि	10
▁फिला	10
फिया	10
▁एक्सपर्ट	10
▁अंजाम	10
▁ट्रै	10
ंजोए	10
▁लोभ	10
▁गीता	10
▁डिब्बा	10
बंद	10
▁धागे	10
राइटि	10
▁मर्जीर	10
दर्द	10
▁जंक्शन	10
गसा	10
▁बार्थ	10
म्स	10
▁काष्ठ	10
▁ग्रह	10
▁घोर	10
सिका	10
मेडु	10
▁सजगता	10
▁रावल	10
▁राक्षस	10
▁कैलकेरिय	10
सात	10
▁स्टेप	10
▁असामान्यता	10
▁तने	10
▁गर्व	10
▁वाशिं	10
रि	10
▁प्रोडक्ट	10
▁न्यूजीलै	10
१०४	10
▁मितल	10
तवी	10
▁स्वेटर	10
प्स	10
▁नो	10
कर्ष	10
▁खेलकूद	10
▁मदुमल	10
▁नाइट्रिक	10
▁धीमा	10
▁इमोशन	10
▁पंजीक	10
▁जैतून	10
▁पेपर	10
२६	10
▁सोल	10
ेशिया	10
▁चम्ब	10
▁सन्यास	10
▁पर्त	10
ाद्रि	10
▁सूँ	10
कर्ता	10
▁पर्सन	10
ेनिस	10
▁न्यूर	10
कलौ	10
▁आश्रय	10
▁निकाले	10
▁घा	10
▁व्यावसायिक	10
▁मद	10
फ्रेश	10
▁ज्वार	10
हिया	10
▁टे	10
▁बॉक्स	10
▁नीर	10
ोग	10
▁सुला	10
▁हैंडीक	10
्राफ्ट	10
▁ज़ीरो	10
फ्थैल	10
▁हैरत	10
ूच	10
▁जबरदस्त	10
▁आंत	10
▁बनवाए	10
▁मुसलमान	10
८५	10
▁बैबून	10
▁म्यूक	10
▁शुक्रवा	10
▁भाज	10
ुत	10
▁विजिट	10
▁अजूब	10
हरे	10
वाट	10
▁वातानुकूल	10
▁रैश	10
▁इस्	10
कॉन	10
▁छाज	10
▁जमाव	10
कर्ण	10
र्थक	10
▁समन्व	10
ड्डा	10
▁मनोहर	10
िहार	10
▁संग्रहण	10
▁बनाय	10
▁गार	10
्रोथ	10
▁दालान	10
▁ज्यू	10
▁मल्ल	10
▁डाले	10
▁दीप	10
▁दाँतो	10
▁सिंथे	10
▁रेडिकल	10
ग्रह	10
जीज	10
▁चामुंड	10
▁लू	10
▁चैत	10
▁जॉन	10
▁ल्यूको	10
जवे	10
्यूटर	10
▁स्मोक	10
▁साबु	10
प्लाई	10
शोथ	10
▁बेरी	10
झा	10
१७	10
▁एंटीबायोटिक	10
▁घोट	10
▁सौम्य	10
▁१८००	10
▁अस्त	10
५६	10
▁विशाखाप	10
▁करार	10
▁मुग्ध	10
▁अकड़	10
▁थरोच	10
▁ओक	10
▁पाएग	10
धा	10
▁भगा	10
सम्भव	10
▁गुणा	10
ुभाष	10
▁भ्र	10
▁स्कैन	10
राब	10
▁लोट	10
▁अवलोक	10
▁लाइकोप	10
▁रोजगार	10
▁परोस	10
▁शत	10
सिनो	10
स्टोन	10
▁टेंट	10
▁कुश	10
टेन	10
णम	10
▁ध्रुव	10
▁मास्क	10
▁भुला	10
▁तला	10
▁फुंसिय	10
श्वर	10
मिश	10
म्प	10
फेंट	10
▁आर्द्र	10
▁वेद	10
▁नाय	10
▁बताएँ	10
▁श्याम	10
▁मार्श	10
▁अंधेर	10
ोच्च	10
▁काँस	10
▁घु	10
▁रिश्तेदार	10
▁कुप्रभाव	10
▁मैनेज	10
▁कैविटी	10
▁निष्कास	10
▁सेंटी	10
ायाब	10
▁बिखेरत	10
▁कणिका	10
▁शिल्पकार	10
▁जटा	10
▁न्यूरो	10
▁वरुणा	10
▁बाँज	10
▁हू	10
देह	10
▁बढ़ाएँ	9
्पन	9
▁उपास	9
▁अभिभावक	9
▁जनरल	9
▁दैवी	9
लाग्	9
जाओ	9
▁जोंक	9
▁लगवा	9
▁शत्रुंज	9
ोकस	9
▁चार्ट	9
▁पनपत	9
▁कूड़	9
विज	9
▁उत्	9
▁रोज़ा	9
▁चुनौती	9
▁२७०	9
ोमायो	9
▁मारवाड़	9
▁झाग	9
▁एरोमा	9
▁रिफ्लक्स	9
▁इसोफिज	9
▁शूज	9
▁बेक्	9
प्पिल	9
▁संस्थाप	9
जुल्	9
मिनो	9
▁हँसत	9
योग	9
▁संपत्ति	9
▁बसंतागम	9
▁स्नेह	9
▁डिपार्टमेंट	9
▁ड्रेस	9
▁कान्ति	9
भुत	9
▁मीन	9
▁पनप	9
▁ब्रा	9
▁सोनम	9
ुड़ा	9
▁ड्रग	9
म्मल	9
▁शान्ति	9
वर्ध	9
ष्टार्त	9
्लीन	9
▁थ्र	9
▁परदे	9
▁फिजियोथेर	9
▁एंकर	9
▁स्ट्रोक	9
▁सिनेप्स	9
▁राजभवन	9
गुल	9
▁ज़	9
ैक्शन	9
▁कठिनाइय	9
▁नेल	9
▁पॉलि	9
▁इंट्रा	9
▁कच	9
ोड	9
सीमिय	9
▁पम्प	9
▁वीक	9
एंड	9
सद	9
्यास	9
▁घूमें	9
मिश्	9
▁ऊधम	9
▁ब्लेड	9
▁ग्राहक	9
▁विंध्य	9
हम	9
▁महावत	9
▁ट्रांस	9
▁जॉर्ज	9
▁परिल	9
यात्रा	9
र्म	9
▁रामायण	9
▁वेदना	9
▁काउंट	9
▁साइक्ल	9
▁मण्डी	9
▁ग्या	9
▁मालवा	9
▁लटकत	9
▁उड़ने	9
▁बलव	9
▁किश्तवा	9
▁वट	9
▁हिंस	9
▁१४५	9
ागार	9
▁कीड़	9
▁जन्	9
सकार	9
▁लकीर	9
▁अश्विन	9
▁उन्नीस	9
▁कगार	9
लाक	9
ान्तर	9
▁तबाह	9
▁गान	9
▁वार	9
▁त्रिकोण	9
▁आक्रांत	9
▁चिकना	9
▁आंचल	9
▁पालम	9
▁बनें	9
९२	9
ेंद्र	9
▁मांसपेशी	9
▁झूम	9
▁वॉश	9
▁सबक	9
प्राकृतिक	9
▁ढोल	9
▁ठाकुर	9
स्राव	9
▁देह	9
▁नाइट्रोस	9
▁फाइन	9
▁वास्तुविद	9
▁एचपी	9
▁परजीव	9
▁भजन	9
्ट्रा	9
वचेतन	9
स्टाफ	9
▁गोंड	9
▁गड़बड़ा	9
ारण	9
▁टेनि	9
मंडप	9
▁मूव	9
हाइड्रे	9
▁कोशाणु	9
ल्थ	9
क्टर	9
▁नागराज	9
▁कोरिया	9
नाम	9
▁८२	9
हरित	9
८४	9
▁कटवा	9
▁कॉर्नि	9
▁संतुष्ट	9
▁अवकाश	9
▁पकड़ा	9
ट्री	9
▁एंजियोग्रा	9
▁इन्ह	9
▁तड़	9
▁भक्तजन	9
शांति	9
ट्टाव	9
लाइफ	9
▁मेटाबोलि	9
▁जलप	9
▁सारस	9
ण्डू	9
▁लंग	9
▁माधव	9
▁संतोष	9
▁दिला	9
▁वितर	9
▁आबो	9
▁प्रॉब्लम	9
▁टिप्	9
▁अस्त्र	9
▁मिचल	9
५५	9
▁ग्र	9
▁आधिक	9
ुमाय	9
▁कॉन्	9
▁नंद	9
▁पाम	9
▁आईलैंड	9
▁दरिया	9
तलब	9
▁चलाये	9
ोक्स	9
▁पूरक	9
▁त्रिदोष	9
रकान	9
▁कोच	9
▁हिमशिखर	9
▁निकलें	9
▁शनैः	9
▁मिल्क	9
▁हिम्मत	9
ेसिक	9
▁रेन	9
▁पूर्वज	9
▁संकर	9
जेंट	9
▁बिह	9
ुली	9
११	9
▁जमे	9
▁गंजे	9
शक्त	9
▁सिस्टाइ	9
▁१८४	9
ल्चर	9
डेल्	9
▁८८	9
▁उदासी	9
ाउल्	9
▁पढ़त	9
▁प्लेटफार्म	9
टेंश	9
▁बाइ	9
▁प्रशस्त	9
▁सत	9
▁त्रे	9
▁ईरान	9
दारिया	9
द्य	9
▁बिताए	9
मंड	9
▁कार्	9
वर्सिट	9
▁गाने	9
४८	9
▁पंक्ति	9
▁एंट	9
▁अरह	9
▁भेड़िया	9
▁गैस्ट्रो	9
्विक	9
▁नाहर	9
्को	9
सिंगल	9
▁पंचक	9
▁आशियान	9
▁घोड़ा	9
▁चित्ता	9
▁साक्षात्	9
क्क	9
यटी	9
▁ठहरा	9
▁उष्ट्र	9
ागवान	9
▁वक्र	9
▁लहरात	9
▁अमोनिय	9
▁टूथ	9
▁हीमोफ	9
डांग	9
▁लाहौर	9
ोड़ा	9
▁पुरातात्	9
▁पिप्पल	9
ाकू	9
वर्ग	9
▁सिन्	9
▁मखमल	9
म्मी	9
▁आदी	9
▁विवाहित	9
ुज	9
▁खमीर	9
लाइटि	9
▁सीपिया	9
▁गार्ड	9
ाधिक	9
▁वारस	9
▁मुस्कुरा	9
▁अन्धे	9
बैठक	9
▁गूदे	9
▁भूगर्भ	9
्वैल	9
ाइश	9
▁अधिष्ठ	9
▁एस्प्र	9
▁हॉस्प	9
पल	9
▁एनेस्थ	9
▁औं	9
्लुक	9
▁दमक	9
▁आजमा	9
▁अपनाएँ	9
१६	9
▁रंगबिरंग	9
▁बाँये	9
▁बग्ग	9
्हे	9
▁सिफारिश	9
▁सिंगल	9
▁आरा	9
यस्क	9
▁विली	9
ेंगु	9
▁सायक	9
ंकि	9
▁लिपिड	9
राख	9
▁महाराणा	9
▁संयोग	9
▁बावड़	9
▁नौकर	9
२३	9
▁जलोद	9
▁अद्	9
▁पाद	9
▁गोमत	9
▁मौर्	9
▁व्यक्त	9
▁खुजलान	9
ोबा	9
▁ग्रन्थिय	9
▁कॉम्पल	9
लम्ब	9
ाची	9
▁तीख	9
लिंद	9
▁लॉन	9
गवा	9
▁कैन	9
▁कोट्टा	9
▁तैर	9
▁खुसरो	9
▁फौज	9
शनल	9
▁सँभालन	9
रणक	9
कुड	9
▁ऊ	9
श्रय	9
ॉड	9
▁बदहज	9
▁सेंक्चु	9
रविंद	9
डे	9
इलाज	9
▁फास्फोर	9
▁कनिं	9
घम	9
ृष्ट	9
▁क्रियाकलाप	9
▁शरब	9
▁हाड़	9
▁डिप्थ	9
▁लिमि	9
ंधन	9
▁नासिका	9
▁मास्टर	9
मला	9
▁त्व	9
्ट	9
▁कैना	9
▁पत्ता	9
▁घटत	9
▁सेंचुर	9
▁फि	9
नाग	9
रेटिन	9
▁पैन	9
ांगला	9
▁ऑपरेटर	9
दीपक	9
मंजस	9
वृक्ष	9
राइस	9
▁बिताई	9
▁तोरण	9
एचडी	9
▁सिद्धार्थ	9
▁दृढ़	9
▁लैमन	9
ग्रास	9
▁कब्ज़	9
▁शिलाखंड	9
▁इल	9
र्थराइटि	9
पिट	9
भेद	9
ोन्स	9
▁एओर्ट	9
▁हिदायत	9
▁भुना	9
▁कहला	9
स्टियो	9
▁कुण्डल	9
▁अंतःस्राव	9
▁काफिल	9
▁सन्तुल	9
▁कैला	9
▁स्वाह	9
▁उपदेश	9
GERD	9
▁छपरा	9
▁सिद्धान्त	9
िक्स	9
▁बत्ती	9
▁आपातकाल	9
ाजी	9
▁चक्रव	9
रहाल	9
▁खरीदी	9
भोर	9
▁संयोज	9
▁दलाई	9
▁सिन्ध	9
▁चमचमात	9
▁मालिक	9
▁माच	9
ाटन	9
▁चिर	9
▁कैटर	9
▁गरार	9
स्ता	9
▁डाइ	9
ाओल	9
▁धीमे	9
M	9
ेंच	9
रियन	9
िसिली	9
सभा	9
▁बैसाख	9
▁हिलान	9
▁बॉल	9
▁बूस्ट	9
▁इक	8
▁लेडी	8
पत्थर	8
दन	8
▁फ्लावर	8
ापुत	8
▁जार्ज	8
▁कैसी	8
्रैगन	8
▁पल्लव	8
▁भृंग	8
▁डू	8
गट	8
▁खु	8
▁कचर	8
▁माया	8
▁अपार	8
▁सेक्टर	8
▁टोक	8
▁भोजनशाला	8
▁यूटेर	8
ंबोल	8
▁डिब्बे	8
शय	8
▁टैनि	8
▁चिपचिप	8
▁कॉल	8
▁साइप्र	8
▁कैपिट	8
माशय	8
▁हाइड्रोक्लोर	8
्रेस	8
▁मरा	8
▁होश	8
▁पैडल	8
▁इंप्लांट	8
▁क्रांति	8
्विच	8
▁रक्तदाता	8
शेवर	8
▁पॉपुल	8
अद	8
▁केंचु	8
▁पपड़	8
▁चुभत	8
रेशन	8
अली	8
▁नुस्खे	8
▁एंटीक	8
▁गिनी	8
▁चालक	8
▁टो	8
▁रोलर	8
▁डेल्टा	8
श्न	8
▁व्याधि	8
▁ज़हर	8
▁समृद्धि	8
▁कोहन	8
▁चार्ल	8
▁स्टूड	8
▁पथरील	8
▁कुसुम	8
▁बर्लिन	8
▁कमला	8
▁सिपाह	8
▁सिकंदरा	8
▁ओड	8
▁सद्भाव	8
न्ती	8
धीश्वर	8
त्री	8
▁रोप	8
▁पद्धतिय	8
▁याद्दाश	8
▁फू	8
▁ट्रेवल	8
▁सेक्सुअल	8
▁सफ़	8
ंशल	8
प्रया	8
▁पोलैंड	8
्राको	8
▁आतंक	8
िल्स	8
▁फिसलत	8
▁शिवरात्र	8
निमा	8
▁फाइटोलैक्	8
म्बी	8
▁एनेस्थे	8
ताबो	8
रवि	8
▁समझौत	8
▁पैवेलियन	8
▁नै	8
▁धुर	8
▁प्राणि	8
केश्वर	8
▁कैलोरीज	8
▁बसेर	8
▁चौराह	8
▁चलाए	8
▁एलडी	8
हों	8
▁हेव	8
▁रै	8
ब्रायोनि	8
▁गलियार	8
▁टैं	8
▁दुष्परिणाम	8
स्पर	8
▁श्	8
▁क्ष	8
▁जन्मस्थल	8
▁झोंक	8
विच	8
▁हड़प्पा	8
▁मोहन	8
▁सुगन्ध	8
▁गधे	8
▁बेप	8
नाह	8
▁बख्श	8
▁बोर	8
रायु	8
▁इलेक्ट्रॉन	8
▁डाई	8
न्य	8
▁रण	8
▁संबोधि	8
▁पंप	8
▁पाली	8
▁सुप्त	8
ुनगुन	8
▁अंद	8
▁कैलेंडु	8
्ची	8
▁घुमाये	8
ुम	8
▁आधारशिला	8
ेल्ट	8
▁एनाफ	8
▁सांद्र	8
▁कोट्ट	8
▁विजे	8
▁पड़़त	8
▁नर्स	8
▁म्यां	8
▁संज्ञा	8
▁तंजा	8
▁टेढ़ी	8
लवान	8
▁निः	8
▁रतन	8
▁निश	8
▁परकोट	8
ोफाइल	8
▁सुधर	8
▁हर्ष	8
▁कद	8
▁नौकाय	8
▁रस्सा	8
▁नारी	8
ंधर	8
▁पिछ	8
▁द्वा	8
▁सलीम	8
स्प	8
▁आसिफ	8
▁भविष्यवाण	8
हवास	8
▁निपुण	8
ीचर	8
▁निक	8
ेतन	8
▁पावर	8
▁समग्र	8
सेन	8
ुई	8
▁योद्धा	8
▁दिखे	8
▁लाते	8
भंग	8
ैफीन	8
▁चकाचौंध	8
▁छु	8
▁हॉर्मोन	8
▁जयंत	8
्षण	8
▁कड़वा	8
्रेय	8
यार	8
▁थोर	8
▁दुम	8
बेट	8
▁यूज	8
दीप्त	8
▁नागरहोल	8
▁अग्रसर	8
्व	8
▁२८०	8
ायदा	8
▁आह	8
गली	8
▁गूँज	8
▁ग्लाइड	8
१३	8
साइटिं	8
▁उजाल	8
▁लैग	8
चिल्ल	8
▁राजेन्द्र	8
म्बा	8
▁पत्रकार	8
▁शुतुरमुर्ग	8
▁पोटल	8
▁लाज	8
▁उग्र	8
ेंज	8
▁खण्ड	8
▁साइट्र	8
▁मिलील	8
बूत	8
▁ब्यौर	8
ोलिन	8
▁वेल्स	8
▁स्मरणशक्ति	8
पिड	8
▁अल्ट्रा	8
▁कराय	8
▁पंचायत	8
▁४९	8
▁तत्	8
वाहक	8
▁अंज	8
भीत	8
दि	8
ुवा	8
सुम	8
▁सोसा	8
िड़	8
▁निर्बल	8
▁नहला	8
▁लंका	8
जाघर	8
▁कपाल	8
कीन	8
▁श्वासनल	8
▁गुजारन	8
ल्प	8
▁अपर	8
वां	8
लो	8
गें	8
▁विरेच	8
▁कैप्ट	8
उम्र	8
▁अहिल्या	8
▁कामदगिर	8
▁शिक्ष	8
▁पीछ	8
▁किंवदंत	8
देहरा	8
▁मार्कण्डे	8
घा	8
▁७८	8
▁कामयाब	8
बंध	8
▁पिल	8
▁लाहौ	8
▁संकल्प	8
थित	8
▁गवाह	8
▁क्लॉक	8
▁अदल	8
▁डेंचर	8
कोटी	8
▁स्वाध	8
▁थाइर	8
ांडी	8
▁अफसर	8
▁पुतली	8
खो	8
▁रूमेटि	8
▁अन्वेषण	8
▁हंप	8
▁योगमुद्रा	8
ैली	8
इकोसिस	8
मसर	8
▁लाठी	8
▁योगा	8
▁हाऊस	8
▁निर्धन	8
एव	8
ट्टे	8
▁नक्स	8
▁हब्ब	8
▁बुलबुल	8
▁पूज्य	8
▁कैथ	8
▁वाद्य	8
▁पोशाक	8
▁मसा	8
▁५७	8
▁जवाहरात	8
ग्रीक	8
▁क्रोमो	8
▁सुनें	8
▁रूबे	8
ुए	8
▁हिमान	8
ध	8
▁ठहरे	8
▁खै	8
▁कपिल	8
▁झूमत	8
▁पाले	8
▁पड	8
▁अंच	8
▁उखड़	8
खेसा	8
ोगी	8
▁मल्टीप	8
न्यूरोपैथ	8
▁अड	8
▁जननेन्द्रिय	8
मच्छ	8
▁आयात	8
▁कॉ	8
▁टंक	8
पार	8
पालपुर	8
▁विलंब	8
▁ऑप्श	8
▁अमावस	8
िग	8
▁झाड़	8
▁लसी	8
वर्म	8
▁चोल	8
ाकृति	8
ादेव	8
▁दोहराये	8
▁साँई	8
▁मन्द	8
ाज	8
▁प्रदक्षिणा	8
▁कराये	8
▁पैंट	8
▁ताँ	8
▁खन्न	8
▁शाली	8
न्यास	8
कृति	8
▁यूरोपिय	8
▁हलक़	8
▁नन्दी	8
▁वैट	8
▁ब्रज	8
▁२५००	8
▁६७	8
▁झिलमिलात	8
▁कोलेस्ट्रो	8
ग्नल	8
▁असाध	8
▁साइनस	8
१४	8
बायोटिक	8
▁गुगा	8
▁बहरे	8
▁आंध्र	8
▁गड़गड़ा	8
नभावन	8
▁पुतल	8
▁बाध	8
कोष	8
▁शिकंज	8
▁बीबी	8
▁शाक	8
▁घरान	8
▁...	8
न्या	8
ाक्षेप	8
▁ईमानदार	8
▁लस्	8
▁आईसी	8
▁सामुदाय	8
▁टेक	8
▁पथ्य	8
▁चु	8
▁कुचल	8
▁बर्गम	8
▁कलाकृति	8
▁बाप	8
▁मलावरोध	8
▁गुच्छ	8
▁हिस्ट	8
▁वरुण	8
▁बदला	8
्ज	8
व्याप	8
▁मेड	8
▁पाँचवे	8
▁कॉर	8
ल्लार	8
▁मदि	8
▁दत्ता	8
९३	8
▁जीजा	8
▁भोंसल	8
▁कंजर	8
▁ट्रेडमिल	8
▁१२४	8
टक	8
▁कबील	8
▁कठपुतली	8
▁संसाधन	8
▁बागवान	8
ोई	8
कंप	8
▁चूर	8
आउट	8
▁टहनिय	8
▁जवाँ	8
▁चेरा	8
्मशा	8
▁झुण्ड	8
▁चीज़े	8
▁ज़र	8
▁बाड़ा	8
▁चौकोर	8
▁शैक्ष	8
▁लेटे	8
▁धर्मावलंब	8
▁मीना	8
िली	8
टेल	8
▁रीति	8
▁नारद	8
▁खम्भ	8
▁मोल	8
▁छील	8
मुखी	8
▁तीर्थकार	8
▁पेर	8
▁चिल्	8
ोलिया	8
ायु	8
▁वीथिका	8
ेचक	8
▁सिंघाड़	8
९४	8
▁कम्बल	8
मण्डल	8
▁वराह	8
▁ऊब	8
ोप्लास्ट	8
चकित	8
▁नगीन	8
▁कोडर	8
▁साहब	8
▁माहि	8
▁रुकें	8
खा	8
▁घटक	8
▁जॉन्	8
राक	8
्यूज	8
▁एडवांस	8
▁वासु	8
▁पालत	8
▁ग्रन्थि	8
▁सॉफ्ट	8
वायद	8
▁माले	8
व्रत	8
▁क्राफ्ट	8
▁फॉरेन	8
▁लटका	8
ाणा	8
▁मौलि	8
▁डिव	8
▁गुला	8
▁राइनो	8
▁सोरा	8
बिया	8
▁गठ	8
▁दरवाज़	8
▁शॉल	8
▁जंघ	8
▁निराश	8
क्का	8
▁टर्	8
हावत	8
शिप	8
▁चित	8
▁वंशज	8
▁पॉन्ड	7
फूड	7
त्तप	7
निर्माण	7
▁मार्टिन	7
▁पोष	7
▁एपिस	7
▁शारदा	7
रयू	7
▁खाप	7
ेमिक	7
▁झुकने	7
▁मोले	7
सिंग	7
▁आयुर्व	7
ैद	7
▁नहलान	7
त्थान	7
रसत	7
▁७१	7
▁टों	7
▁सज्ज	7
च्छिक	7
१९	7
्वारी	7
ूला	7
▁प्रतिष्ठा	7
िलो	7
▁पटर	7
▁किल	7
▁गंतव्य	7
▁तवे	7
ग्लैंड	7
▁४७	7
▁पैनी	7
▁चिल्ला	7
▁स्लेज	7
▁वाइट	7
▁रामबा	7
▁केलांग	7
▁सरदार	7
▁प्रसंग	7
९०००	7
▁कड़व	7
▁विश	7
निकल	7
▁शील	7
▁लोब	7
ंगलूर	7
▁कष्टदाय	7
द्ध	7
▁प्रजा	7
▁झगड़	7
▁मछ्ली	7
▁सतना	7
इंजाइम	7
चंद	7
▁जुटा	7
▁लाद	7
▁उल्लू	7
▁पैकेट	7
▁जुराब	7
र्च	7
▁हस्तकला	7
▁कव्वा	7
▁डिम्ब	7
▁अल्ब	7
ोजी	7
▁रीछ	7
▁८७	7
▁सुंदरत	7
▁हीरा	7
ट्टा	7
▁पकवान	7
▁माउथ	7
▁थॉयर	7
▁बहुरंग	7
र्णप्र	7
▁फहरा	7
▁त्सो	7
▁मोइर	7
ुसाइ	7
▁जर्ब	7
▁हेली	7
एच	7
्शन	7
शिय	7
▁अधि	7
▁मक्ख	7
▁दक्ष	7
▁कैब	7
▁तक्ष	7
▁काँटे	7
▁बू	7
▁हॉर्ट	7
▁विज्ञापन	7
कुंभ	7
▁सुनसान	7
म्ब	7
्वल	7
▁जैर	7
गति	7
▁स्वास्थ्यवर्	7
▁उभरा	7
▁छरहर	7
ांजा	7
▁सौभाग्य	7
▁सॉस	7
५८	7
▁मॉइश्चराइज	7
▁हजरत	7
▁तद	7
▁महेन्द्र	7
▁डायट	7
क्षिप्	7
▁अजब	7
▁तज	7
▁बिरह	7
▁अंध	7
▁यौगिक	7
▁अश्वेत	7
▁फिसल	7
▁ब्राइट	7
▁चतुर्मुख	7
चें	7
▁लैन्	7
ुधिया	7
रसा	7
ेशा	7
बाब	7
▁बिताय	7
▁हिन्द	7
लिफ्ट	7
िलीज	7
फुल्	7
लित	7
▁पेट्रोल	7
श्याम	7
▁जाओ	7
▁आस्त	7
▁चूक	7
मारा	7
▁हत्या	7
ंग्ला	7
▁डिस्को	7
▁सरहद	7
▁नक्सव	7
▁रोट	7
र्	7
▁नज़ल	7
▁चित्त	7
▁पंचमह	7
▁छिन्नमस्त	7
▁बेवज	7
रक्षक	7
▁सार्बि	7
▁देहात	7
▁दोरज	7
▁खिच	7
▁मौन	7
▁रीवा	7
▁रुकत	7
▁लाम	7
▁कॉलर	7
स्कर	7
▁धुल	7
▁रिश्त	7
टेक्ट	7
▁मड	7
▁स्वीट	7
▁तांत	7
▁कुरू	7
▁चींट	7
▁थैले	7
ंदोल	7
▁छिल	7
▁पढ़े	7
▁दुर्भाग्य	7
गोला	7
▁बीते	7
▁फोर्	7
▁रंक	7
▁एंटीसै	7
▁गुज़रत	7
मीट्र	7
▁कौ	7
कोच	7
▁६१	7
▁कसौ	7
▁श्रृंग	7
▁बर्फ़ील	7
बेदुल्ला	7
▁अपरि	7
▁छंतोल	7
▁कार्निव	7
▁लुत्फ	7
▁जलस्रोत	7
▁माइक्रोवे	7
सिक	7
▁अध्यात्म	7
▁मसूड़े	7
▁विक्षत	7
▁आँक	7
▁पैरासे	7
बहादुर	7
▁वागा	7
भा	7
▁१२००	7
▁डिलि	7
▁भूखण्ड	7
धुर	7
छुए	7
▁रूख	7
▁छतरिय	7
▁जोश	7
▁पेप्	7
▁मुक	7
▁लाजिम	7
▁कृत	7
र्शन	7
▁बुद्धिजीव	7
ूलर	7
▁मुफ	7
▁हाफ	7
▁डूबत	7
▁टखन	7
▁फफूँद	7
▁लड्डू	7
▁हॉक	7
▁विग्रह	7
म्पोर	7
▁विहीन	7
▁नैपक	7
▁वेशभूषा	7
▁नवे	7
▁कटे	7
ूअर	7
▁लाइसेंस	7
टूर	7
▁ऑस्टियोआर्थ	7
▁अगस्त्य	7
▁नटराज	7
तरंज	7
▁दुश्मन	7
▁चांस	7
बिंब	7
▁अविकसित	7
जंग	7
▁यन्त्र	7
▁ड्राय	7
रोबा	7
गरहोल	7
प्रीत	7
▁मंगलवा	7
▁पीरु	7
▁रबड़	7
टों	7
▁केसरिया	7
▁चौकी	7
▁शास	7
िक्ष	7
▁ट्रस्ट	7
▁घुट	7
तला	7
▁विटामि	7
▁घुम	7
▁भाषण	7
▁आनंददाय	7
▁कार्बो	7
कोलस	7
िर	7
▁ट्राइ	7
रेश्वर	7
▁उपद	7
▁सहस	7
▁फेयर	7
▁कटी	7
▁सर्विक	7
▁कोड	7
▁सामंत	7
▁टॉक्सिन	7
▁बयान	7
▁व्हीट	7
▁८४	7
▁शिक्षक	7
▁मिजाज	7
ॉकेट	7
▁मूर्छ	7
▁जिप्स	7
▁कुक	7
▁भद्रक	7
▁गुब्बार	7
▁कत्यूर	7
▁आक्रमणकार	7
ैण्ड	7
▁ऑर	7
▁स्तनधार	7
▁प्रभा	7
▁खुब	7
थन	7
▁फ्राइब	7
▁इत	7
लस्ट्र	7
▁पगडंड	7
मेंग	7
सह्य	7
कालिक	7
▁धू	7
▁मंगला	7
▁१०२	7
▁चंपा	7
ॉट	7
नेश्वर	7
▁१९३	7
▁पहनाव	7
▁कौरव	7
▁लिपोइ	7
▁बीत	7
▁धनुरा	7
▁नुक्स	7
ॉक	7
▁सिम्	7
▁झूठ	7
▁पित्तज	7
▁१३५	7
▁रक्तदा	7
िंस	7
▁तीर्थस्थान	7
▁मर्द	7
ार्ड	7
▁बैरक	7
▁म्यूजिक	7
ताब	7
एमआर	7
ाड़ी	7
फीम	7
क्की	7
पुरुष	7
तक	7
▁पुकारत	7
न्ना	7
▁महेश	7
▁पोस्ट	7
▁मेगा	7
▁डिय	7
▁ऑरचिड	7
▁मनाए	7
▁ताम्र	7
▁पप	7
वृद्धि	7
▁कुनकुन	7
रिन	7
▁मिस	7
▁भेड़ा	7
▁अध्ययनकर्ता	7
▁विलक्षण	7
ल्ब	7
▁छाँट	7
▁गड़	7
▁परमाणु	7
▁महिष	7
▁उठे	7
▁परिजन	7
खाने	7
▁हिला	7
न्ध	7
▁प्ल	7
▁इग्न	7
▁चौदह	7
ीशियन	7
ंटी	7
▁साबर	7
▁ढाब	7
▁कोल्हुआ	7
▁बदत	7
▁नितंब	7
ोपा	7
▁अव्यवस्थ	7
▁ग्रे	7
▁मधुमक्ख	7
▁थल	7
▁ढो	7
▁कुंभा	7
▁एण्ड	7
▁रेशम	7
विधि	7
▁महि	7
▁जुटत	7
▁जागरुक	7
▁सीब	7
▁पिं	7
▁लुक	7
▁कैटे	7
▁मक्खिय	7
चे	7
▁नुकील	7
क्लोड	7
ाउंट	7
लि	7
▁कँटील	7
▁पंक्तिय	7
र्डी	7
▁मैरी	7
▁डोगर	7
▁अनि	7
ेष	7
▁नन्दन	7
ल्हा	7
डेंट	7
▁भागीदार	7
▁वर्च	7
▁टूटी	7
विन	7
्चर	7
▁जिज्ञासा	7
▁इजिप्ट	7
▁११५	7
▁संवत	7
▁जूझ	7
▁पाइप	7
▁एंथोसाइनिन	7
▁रखेग	7
▁कैंच	7
▁उठाए	7
▁फो	7
▁लैम	7
▁बीटा	7
▁कैरोट	7
▁मद्देनज	7
▁धन्य	7
समस	7
मुद्रिक	7
▁कांग	7
▁आचार्य	7
▁चकरा	7
▁अग	7
▁नोट	7
▁गिन	7
▁उतरे	7
्टर	7
▁उपा	7
▁इजा	7
ट्टनम	7
▁विमल	7
▁अमी	7
▁उतरा	7
▁शख्स	7
▁बिम्ब	7
▁छेड़	7
▁अरुचि	7
▁रोज़	7
शोध	7
▁गुलाबज	7
▁डिंब	7
ीर्ण	7
रीय	7
▁खंभा	7
▁रंगत	7
▁अनुशासन	7
सिटी	7
्वी	7
▁कुक्कुट	7
पिता	7
▁मोनेस्ट्री	7
▁साधक	7
▁स्टेरॉयड	7
▁उछल	7
▁क्रेन	7
▁स्लेट	7
▁श्रीव	7
ैंक	7
▁पलट	7
हंस	7
सेज	7
▁स्वं	7
▁वाणिज्य	7
▁माडायि	7
▁थ्यो	7
▁वॉल	7
▁६६	7
खी	7
घुलन	7
▁बुध	7
फोर्ट	7
सम्बद्ध	7
▁कुपोष	7
्टेंट	7
▁स्ट्रिक्	7
▁टक्क	7
▁अक्षर	7
▁फुफ्फुस	7
▁मार्गदर्श	7
▁रेटिन	7
▁पिनाक	7
▁पादर	7
▁गुलक	7
ातायन	7
▁ल्यूक	7
▁बाँयी	7
▁मुख्यत	7
ियाटिक	7
▁सौगात	7
▁सुलतान	7
▁माथा	7
▁१६४	7
कान	7
▁रवींद्र	7
▁१४७	7
न्युरो	7
▁स्टॉक	7
होम	7
चिह्न	7
गु	7
दे	7
▁प्रमेह	7
टब	7
▁कोला	7
▁अंधविश्वास	7
ंगुल	7
बर्ट	7
▁सेंट्र	7
फायत	7
▁तुमडू	7
शियन	7
▁इटा	7
▁फिन	7
▁नौर	7
खोर	7
▁विर	7
▁कविता	7
▁चो	7
▁ब्रोन्का	7
माइस	7
▁सोरि	7
▁वांगदी	7
तीर्थ	7
ीकृत	7
▁७९	7
▁वॉच	7
▁सिल्क	7
▁दु	7
▁गर्भनिरोध	7
▁भृगु	7
▁अड़चन	7
▁राई	7
▁गिने	7
▁१८५	7
▁व्याव	7
▁प्रदूष	7
ंजार	7
▁सर्वांग	7
▁बुंद	7
▁बेर	7
▁वर्टिब्र	7
▁आम्ब	7
▁खिर	7
ूद्ध	7
▁इनग्वि	7
▁इस्पात	7
गन	7
▁उद	7
▁पाठक	7
▁सबम्यूक	7
▁कैथोलिक	7
स्वास्थ्यवर्द्धक	7
ाध्य	7
▁लोध	7
▁नागार्जुन	7
मत्स्य	7
बिंग	7
▁कामरू	7
▁पाँचवी	7
डिस	7
ग्रां	7
▁मनोचिकित्सक	7
▁चाचा	7
▁सुवि	7
गोन	7
पीन	7
▁जमावड़	7
जेक्शन	7
३००	7
▁उल्लास	7
▁बार्ड	7
वाहिन	7
▁सहस्त्र	7
▁लबरेज	7
▁प्रवचन	7
▁पूर्ववत	7
▁लुभा	7
▁माणा	7
▁कार्न	7
पापड़	7
▁निर्जलीक	7
▁क्रय	7
▁रोजर	7
७२	7
▁अगरबत्त	7
डोर	7
कोय	7
▁लीथ	7
ोट्र	7
िप्स	7
▁भोजपत्र	7
▁एंजाइम	7
▁सुनहल	7
लोरी	7
▁माट्ट	6
ुप्प	6
ट्टि	6
नसेन	6
▁तृप्त	6
▁कोल्ह	6
श्शि	6
▁लॉ	6
मंत्र	6
▁रोहता	6
ओरा	6
▁कॉन्ट	6
▁फीड	6
▁गाढ़	6
▁९३	6
▁क्रियान्व	6
▁जूनि	6
शास	6
मेगा	6
▁सुर्ख	6
▁गड़सी	6
▁प्रॉ	6
ब्ब	6
▁जुल	6
▁फोरम	6
▁स्वै	6
जलि	6
▁चलेग	6
वंश	6
▁सिरका	6
▁फ्राइड	6
ोज	6
▁मैत्र	6
र्वा	6
▁मिआ	6
▁मेद	6
▁डोड	6
ोटे	6
▁मिर	6
▁गाँठे	6
▁शर्त	6
▁बुलंद	6
्वेष	6
ंचुल	6
▁दक्षिणपूर्व	6
▁तश	6
रीफ	6
▁पाएँग	6
▁खामोश	6
▁छीं	6
▁पेच	6
▁उन्न	6
▁रिफ	6
ॉर्	6
बान	6
▁इन्फ	6
प्र	6
▁ढँक	6
▁एड्रिन	6
जीन	6
▁मचा	6
▁जड़े	6
▁पूर्णरूप	6
▁वैशाख	6
श्लेष	6
सिम्हा	6
ांगपा	6
ेनिय	6
▁मुस्त	6
▁शांतिप्रिय	6
▁दोहरान	6
▁जगमगात	6
▁बिस्किट	6
विहीन	6
माइट	6
पक्व	6
▁चलात	6
लरोट	6
रिटे	6
▁नियन्त्र	6
▁सिया	6
▁हकीक	6
यि	6
▁अला	6
▁रखो	6
▁डर्मेट	6
▁घे	6
ंघा	6
▁तना	6
▁चिपका	6
▁जौंख	6
कस	6
▁चपात	6
▁निशा	6
▁त्रिवे	6
▁मेट	6
▁जाड़	6
▁ज़ि	6
▁गार्डेन	6
ियान	6
▁मंडो	6
▁मोन	6
मित	6
▁आदर	6
ंब	6
बीज	6
▁निवेश	6
यता	6
रेख	6
ार्ट	6
ेन्द्रिय	6
▁दोहर	6
▁कौशल	6
▁संख	6
▁सन्दर्भ	6
्मुख	6
▁बर्न	6
ंकारा	6
▁समाचार	6
▁चिकित्साधिकार	6
▁दिग	6
▁गोरख	6
▁चीटिय	6
लैष्म	6
हट्ट	6
▁पिंजर	6
▁रेस्टोरेंट	6
▁गैल	6
▁नह	6
क्रिया	6
▁बाहुल्य	6
▁नरसिंह	6
ख्वाह	6
▁दीदान	6
▁उदासीन	6
▁ऑक्सीडे	6
▁मोहर	6
▁इलेक्ट्रिक	6
▁विभिन्नता	6
▁गौतम	6
▁अम्ब	6
▁अक्षम	6
▁९१	6
मिर्च	6
▁छप्पर	6
ोमीटर	6
्वाइन	6
वारा	6
▁उपेक्षा	6
ेलम	6
▁उर्	6
स्टिस	6
▁लख	6
▁साइबेरिय	6
▁निपट	6
वाह	6
▁डायस्ट	6
▁१५५	6
▁लेयर	6
▁चोकर	6
▁मालव	6
▁साध	6
▁न्यूज	6
▁उछलत	6
▁चर्मरोग	6
▁अन्ध	6
▁कांप्ल	6
▁दौड़ा	6
तियात	6
मीबा	6
▁वृष	6
▁ब्रेल	6
▁७४	6
▁लेमन	6
▁तादात	6
▁उरा	6
▁सूक	6
क्शन	6
पेट्ट	6
▁मटमैल	6
प्रत्यक्ष	6
▁हटाय	6
▁वांगचु	6
८३	6
▁खर्चील	6
▁मृतक	6
स्त्र	6
▁रजो	6
▁मिलेंगी	6
▁बद	6
▁भैरो	6
▁प्रस्तुति	6
▁अश्व	6
▁बाँक	6
खू	6
▁भाल	6
ावल	6
▁एंटीबॉडी	6
▁ब्रोमाइड	6
▁लोद	6
▁फोटोग्राफर	6
▁संग	6
▁चौसिंग	6
▁शेखाव	6
▁गीद	6
▁चिड़चिड़े	6
▁सुहाग	6
हिम	6
▁हार्	6
कारण	6
बेला	6
▁लौटन	6
लोचन	6
▁सवा	6
▁नूर	6
जहाँ	6
▁स्वच्छंद	6
▁उत्पादक	6
▁रवि	6
▁मैगजीन	6
▁बारहव	6
▁मिलान	6
ब्बे	6
▁जागरुकता	6
रॉल	6
▁मचल	6
▁कवर	6
▁दायित्व	6
▁सुपार	6
▁गंज	6
▁ट्र	6
▁लिय	6
लवा	6
▁फ्रे	6
▁बुझा	6
▁बिन्दु	6
्का	6
▁चाइना	6
टाउन	6
▁चाट	6
ंडर	6
▁लैंडस	6
रो	6
ोगे	6
▁बताये	6
▁जम्ब	6
रामतल	6
▁ठाक	6
मण्	6
भाँ	6
प्रतिम	6
▁पोर्	6
▁तोहफ	6
▁विसर्ज	6
▁कुशलता	6
▁फ्रा	6
▁इण्डिय	6
▁उद्ध	6
▁धाग	6
लोड	6
▁ग्लास	6
▁ताओ	6
▁तोंद	6
▁ग्लाइको	6
लोर	6
▁पदम	6
ज्वर	6
्जिया	6
▁कंफर्ट	6
▁बटे	6
▁पॉट	6
▁गद्दे	6
▁चांग	6
लू	6
्पा	6
▁गोपालपुर	6
▁सिकोड़	6
▁बेग	6
▁जह	6
न्जा	6
▁सेवक	6
▁आँखे	6
फिक	6
▁मधुकर	6
▁फुर्ती	6
▁बीचो	6
▁फेरम	6
▁डिस्ट	6
▁ऑड	6
ूर्न	6
▁लावा	6
बग्घ	6
▁धड़कत	6
▁रौ	6
ेस्ट	6
▁स्टिल	6
लर्जी	6
▁झरोख	6
▁फाउंटेन	6
▁पैल्वि	6
हेली	6
▁झड़	6
▁पादांगुष्ठ	6
▁मदन	6
▁कैमल	6
▁सफ	6
▁सिमट	6
▁फॉस	6
▁अष्टधातु	6
रेंस	6
▁नृसिंह	6
▁सुनन	6
▁नायक	6
▁कंचन	6
▁सुवर्ण	6
▁ग्रंथी	6
▁परिभाष	6
▁लड़ाक	6
▁हाईड्र	6
ारोहण	6
द्दी	6
ीजन	6
▁विक्र	6
▁सैन	6
ोर्न	6
▁अजायब	6
▁जेम	6
▁मेडिसिन	6
▁खच्चर	6
▁बतलाय	6
▁बत्तीस	6
▁२२०	6
वासा	6
▁ओस	6
▁फ़	6
ंसार	6
स्थली	6
▁खाद	6
▁एंप	6
▁सर्क	6
रणवि	6
ोकन	6
्यासन	6
जेंस	6
्राईन	6
डम	6
▁कुंठा	6
▁स्ट्रेंथ	6
शंस	6
▁चाटन	6
▁इंफैक्श	6
लूप	6
स्य	6
▁कंट्री	6
▁ड्रॉप	6
▁८६	6
▁ब्री	6
▁जनक	6
▁फिज	6
▁वेणु	6
्रेशन	6
▁बोग	6
▁क्रास	6
▁वाहिन	6
▁विद	6
प्रिय	6
▁रोन	6
▁बुख	6
त्सा	6
बीसी	6
▁बंग	6
▁गलीच	6
मदेव	6
▁अबू	6
▁कलेज	6
▁मिर्जापुर	6
▁हरकते	6
वाइज	6
▁राइफल	6
▁पीड	6
न्नु	6
▁डोल	6
राज्य	6
ंशिक	6
▁समोसा	6
▁टीक	6
▁महाशिव	6
▁स्पोण्ड	6
▁नगाड़	6
▁समझे	6
िराफ	6
▁मीरा	6
▁कांके	6
▁बैठत	6
▁वुड	6
▁इंस्टिट	6
िनिन	6
र्रा	6
▁क्राइस्ट	6
▁अपंग	6
▁प्ला	6
▁अपराध	6
ंबू	6
▁बुद्धिमत	6
थल	6
▁रक्तवाहिका	6
▁लहलहात	6
▁रियायत	6
▁एस्टेट	6
्योत	6
▁ऑर्ग	6
▁काटें	6
▁ग्ल	6
▁दफना	6
है	6
▁रणथम्भ	6
्यूमिन	6
▁रिड	6
▁चौब	6
जीब	6
▁जैम	6
टोली	6
▁जगा	6
▁अभिषेक	6
मूल	6
▁क्लिनिक	6
ट्रास	6
▁मुर	6
़री	6
▁हरित	6
▁सादगी	6
▁कोलार	6
▁खदान	6
नवरत	6
▁ताशी	6
व्य	6
पो	6
▁गुप्तकाल	6
▁लाहुल	6
॥	6
्सेंट	6
▁रोल	6
▁प्ले	6
ेहरा	6
▁चटा	6
मुष़	6
▁चिह्न	6
▁छँट	6
िटोरिय	6
वर्स	6
▁एमजी	6
▁खरीदन	6
▁अटक	6
▁अवर	6
▁कॉम्प्लेक्	6
विद	6
▁बैन्जो	6
▁मट्ठ	6
▁मुं	6
▁कोस्ट	6
▁घूमा	6
...	6
▁शी	6
भुल	6
तरा	6
गों	6
▁जोधा	6
▁कढ़	6
▁टार	6
▁पिए	6
▁धाव	6
▁दमदम	6
▁अविवाहित	6
ण्य	6
▁थम	6
ंट्री	6
▁हरकत	6
▁पवित	6
▁डिब्ब	6
▁लौटे	6
▁मेजबान	6
ुणगा	6
▁समायोज	6
▁कैन्	6
▁कुंभस्वाम	6
न्यूरि	6
▁जसवन्त	6
तिहासिक	6
▁दौलत	6
▁१५६	6
▁देवराज	6
▁उलझन	6
▁डुलन	6
▁नाकाम	6
▁बहुल	6
जोल	6
▁लेटन	6
वेष्ट	6
▁तिरुप	6
जि	6
त्त्व	6
▁क्वीन	6
कोजी	6
स्नान	6
▁जाट	6
▁प्रण	6
▁फाइव	6
▁ड्र	6
▁न्यूट्रिशन	6
▁तिरछे	6
र्ष	6
▁प्लेटलेट	6
▁अप्सरा	6
रजत	6
▁नुस्ख	6
ढ	6
वर्धन	6
राई	6
▁डेन	6
सु	6
▁क्रेज	6
▁प्रेस	6
▁पहुँचें	6
▁तकिया	6
▁नागवंश	6
फोर्	6
▁डिजिटेल	6
तून	6
▁पेंट	6
▁अठ	6
▁सब्ज़	6
नियन	6
लखा	6
ैरी	6
▁बिगाड़	6
▁छुपा	6
ेमाइन	6
▁स्टार्च	6
रीज	6
▁संबध	6
▁चढ़ाव	6
▁मोतिया	6
▁अटलांट	6
ल्लू	6
७६	6
▁शिरो	6
मत	6
▁स्कायर्	6
सफल	6
▁नोक	6
▁८३	6
▁मल्ह	6
क्काड	6
▁६२	6
▁शानो	6
▁निखर	6
िसार	6
▁थोड	6
▁इमेज	6
▁जज्ब	6
ूत	6
▁पतन	6
▁ताली	6
▁सोरिय	6
▁कोंकण	6
▁हीमोसिड्र	6
▁अश्मरी	6
ीनियर	6
रांग	6
▁बुन	6
▁अनंत	6
टेस्ट	6
▁मैदा	6
▁सुनी	6
ज्ज	6
▁हाँफन	6
श्चर	6
ेलंग	6
▁हुक	6
लबाल	6
▁कोलोन	6
यंत	6
विदा	6
▁सत्कार	6
स्टेस	6
▁शव	6
▁दीक्ष	6
▁सेनान	6
▁कैन्थर	6
▁पब्	6
▁बैट	6
▁तलवार	6
पीटी	6
द्वा	6
टवाड़	6
ोच	6
▁पंजा	6
▁वैराइट	6
लंग	6
▁बाँ	6
कटिबंध	6
्रुश	6
ैस्टर	6
▁स्टलेग	6
▁सुम	6
▁कुरी	6
▁चौरास	6
▁नीच	6
श्य	6
्लव	6
▁मेघ	6
▁क्रा	6
▁बँटवार	6
▁लाइम	6
▁कुन	6
▁बग	6
▁गण	6
▁हौज	6
पूँ	6
▁तीरथगढ	6
दशा	6
थुन	6
▁चटपट	6
▁अन्नपूर्णा	6
▁रिन	6
चनजंग	6
्पो	6
▁दुरु	6
मीन	6
▁पार्श्वभाग	6
़र	6
▁सिखा	6
▁सयाजी	6
स्पा	6
ॉयड	6
▁फ़ायदे	6
मौर	6
▁गन्न	6
▁तितल	6
▁मुला	6
कात	6
▁भीष्म	6
▁उज्ज	6
प्रदर	6
▁बेड़	6
▁पेल्वि	6
▁त्यो	6
▁कड़क	6
ाश्त	6
ृप	6
▁धब्बों	6
▁प्रान्त	6
▁ठिठुर	6
▁हौद	6
▁सलाम	6
ॉर्ड	6
▁पवित्रतम	6
▁टायर	6
▁निर्द	6
▁फार	6
▁उखाड़	6
टरी	6
रैक्ट	6
▁स्पॉ	6
▁रेडिय	6
▁महुआ	6
ैंस	6
चड़	6
▁डोर	6
एफ	6
न्टिस्ट	6
▁फिल्टर	6
हस्त	6
▁स्के	6
▁आर्क	6
ंगल	6
▁रूब	6
▁नियत	6
▁शाप	6
▁चोर	6
▁पॉप	6
▁मन्दार	6
▁तेनज	6
▁दंपत्ति	6
▁सदृश	6
चर्च	6
टेबल	6
▁सिहर	6
▁सूजा	6
▁पांडुलिपिय	6
जर	6
िडे	6
▁बाहु	6
▁अल्ट्रासोन	6
▁साड़िय	6
▁सांग	6
५४	6
२९	6
▁कर्सिया	6
ीले	6
्सू	6
▁साक्षर	6
▁एप	6
▁गजर	6
▁नुकसानद	6
▁बागा	6
▁भोट	6
▁३१०	6
चेन	6
▁सांगा	6
▁देवस्थान	6
▁सिखाय	6
▁अखाड़े	6
▁मार्	6
ेन्द्र	6
▁फिजिकल	6
फ़	6
▁वाद	6
▁जादुई	6
▁एण्टीक	6
▁आदिम	6
▁मिटत	6
▁१७६	6
▁अणु	6
ेग्रि	6
लेंट	6
▁एजेंट	6
▁चिल	6
विक	6
▁सागरत	6
र्न	6
▁मेरु	6
▁बेंगलूर	6
▁चंग	6
्ट्रल	6
८६	6
▁स्काई	6
▁सौर	6
▁बॉट	6
ौड़	6
▁ट्रे	6
▁चको	6
▁ओबे	6
▁तारीफ	6
ीयरस	6
▁मट	6
▁प्लाट्ज	6
शास्त्र	6
▁उमड़त	6
▁मल्हार	6
पट	6
फैलो	6
▁पहचाने	6
▁फ्ल	6
▁स्म	6
▁एन्जाइम	6
▁बाबू	6
▁पाक	6
▁पैंटी	6
▁जिसमे	6
एक्टिव	6
सदी	6
▁हुसैन	6
▁टेल	6
▁छ्त्र	6
▁योगिन	6
ेमी	6
▁सत्व	6
ह्वा	6
▁लचील	6
▁थुलथुल	6
▁मुहान	5
▁गांध	5
▁क्रान्ति	5
▁आविष्कार	5
रावत	5
▁छीन	5
िक्क	5
▁श्रीमु	5
▁गुज़र	5
▁गन्ध	5
▁टनक	5
▁अंगो	5
डाइक	5
▁सैंक्चु	5
▁चौ	5
▁एडे	5
्राव	5
▁पूछे	5
▁जुआ	5
▁तेरह	5
▁हथकरघ	5
▁भावुक	5
▁प्रेग्नें	5
▁रामदा	5
▁मेन	5
न्जाइ	5
▁फर्स्	5
वाण	5
▁लिन	5
न्यूब	5
▁नाइट्रोज	5
▁कम्पाउ	5
ाष्ट	5
इस्को	5
युग	5
▁चुम	5
▁पु	5
www	5
▁विशाखापट्	5
▁पकड़े	5
▁खिन्न	5
ट्रिक	5
▁नवल	5
▁काटे	5
मक	5
लेस	5
▁बुट	5
▁सेक्श	5
फंक्शन	5
▁सम्पत्ति	5
▁भांग	5
E	5
▁टोकोफेरोल	5
▁पैंत	5
ालीस	5
▁खांड	5
किला	5
▁छुआ	5
▁जेस	5
लिस्ट	5
▁सहा	5
▁झंझट	5
▁रिकार्ड	5
▁हिस्ट्र	5
मूव	5
▁इक्क	5
▁गुग्ग	5
एस	5
▁करेगी	5
▁कूच	5
▁पाएँ	5
▁खस	5
▁प्रचंड	5
ानन्द	5
▁बर्ब	5
▁असाम	5
ोपरा	5
▁वहम	5
▁तालु	5
▁रेज	5
▁नंदन	5
▁साइनो	5
▁टोकर	5
▁शै	5
▁फल्	5
▁दस्तान	5
▁टॉ	5
▁होनोलुल	5
▁सेण्ट	5
▁एंटीआ	5
▁अभ्य	5
लॉन	5
नारी	5
▁विध	5
▁दृष्टिप	5
▁सैम्	5
▁म्यु	5
▁ताम्रपत्र	5
▁जबर्दस्त	5
▁काकड़	5
दंपति	5
▁पुरातत्ववेत्ता	5
▁कुहन	5
▁जिद	5
▁मुंह	5
▁रिज़	5
▁ख्वाब	5
▁वृतांत	5
▁कुटी	5
ट्यूड	5
▁पदक	5
▁स्कै	5
▁एस्ट्र	5
▁गंगाधर	5
▁प्रिवे	5
लिन्द	5
▁पोटै	5
▁अमरीक	5
▁फुहार	5
▁९२	5
▁दश	5
कायक	5
खाती	5
▁अरे	5
▁भूमध्य	5
्कल	5
▁भौं	5
िन्स	5
▁वास्त	5
ोंटे	5
सामान्य	5
बॉय	5
▁दबाए	5
हरलागु	5
▁देखेंग	5
▁भुगतन	5
मुण्ड	5
▁कारोबार	5
▁छो	5
किंसं	5
▁स्वेद	5
▁वोडयार	5
▁मेहता	5
▁दमकत	5
▁टपकान	5
▁गुच्	5
मुद्द	5
▁ख्वा	5
▁विचरत	5
▁वार्ड	5
▁गोला	5
▁सर्कुल	5
र्व	5
ापू	5
▁अस्वच्छ	5
▁१४४	5
▁उपलक्ष	5
▁भरप	5
▁उँगल	5
▁सेरीब	5
▁ऐच्छिक	5
▁जुनून	5
एलपी	5
▁धुंधला	5
लॉक	5
निवारक	5
रोग्य	5
▁वेलक	5
▁दया	5
▁पोली	5
िये	5
▁सनक	5
▁फ्रेंक	5
▁गुड	5
वधि	5
▁पहुँचेंग	5
▁ठहाक	5
भाड़	5
जिप्ट	5
▁न्यूरोट्रा	5
ऊद	5
वुर	5
▁प्रे	5
▁एन्टीबायोटिक	5
▁एक्	5
▁वायसर	5
लग	5
▁पाखान	5
लोम	5
▁इशार	5
▁लैप	5
▁बसन्त	5
वक्त	5
दायी	5
ाजत	5
▁अक्ष	5
मात्रा	5
▁फिलीप	5
राजय	5
▁जायके	5
मोट	5
▁धीर	5
▁चाइल्ड	5
डिशन	5
▁पश्चिमोत्ता	5
▁तिरू	5
णों	5
▁कूर्मा	5
▁उमा	5
पारा	5
▁मुड़े	5
▁नलट्रैक्स	5
हिये	5
▁१८७	5
▁छुप	5
▁शस्त्रा	5
▁कन्	5
टाइड	5
ंचल	5
▁मिशन	5
▁वैश्व	5
▁भाईचार	5
ियोटा	5
▁अम्बाला	5
▁बेल्ज	5
▁क्रांतिकार	5
▁दौड़न	5
खेत	5
▁टा	5
▁पंचव	5
▁गुड़िया	5
▁जलिया	5
▁उपास्थि	5
▁तृप्ति	5
▁ब्ला	5
▁विंटर	5
सिव	5
▁अकेल	5
▁बुनियाद	5
▁सां	5
ुनी	5
▁आयेग	5
▁जानकी	5
▁कसाव	5
▁वेन	5
▁अखबार	5
ुद्रे	5
▁अठारह	5
वेंट	5
ज़े	5
▁छ्प	5
▁कुर्	5
▁हीट	5
्केप	5
▁कुं	5
▁टांग	5
रु	5
▁अं	5
▁कड़	5
▁बहा	5
▁रूपमत	5
▁फ्लूक	5
▁रोडोडेंड्र	5
▁कत्थ	5
बो	5
ुट	5
▁सिखान	5
जुली	5
▁बालो	5
पद	5
ोआ	5
▁गुन	5
▁व्यग्र	5
▁लम	5
६३	5
दीवार	5
▁लोकगीत	5
▁बाउल	5
ुँआ	5
▁अटा	5
▁एज	5
▁आइटम	5
्किन्सन	5
सल	5
ौक्स	5
र्किड	5
▁ज्वाल	5
▁फील्ड	5
▁मियाद	5
▁टेम्पा	5
७९	5
▁डोन	5
ेटिंग	5
रथ	5
▁चिन	5
ेटीन	5
▁स्पोंड	5
▁गंडोल	5
▁गड्ड	5
▁फास	5
प्रदाय	5
▁एल्को	5
ैक्टर	5
▁रेडियोधर्म	5
रेज	5
▁टूथप	5
▁एंग्	5
▁बुटीक	5
▁सक्क	5
▁स्नेहत	5
▁सिविल	5
▁ऑपेर	5
ृष्टि	5
▁पाठ्य	5
▁अव्यवस्था	5
▁इसोफेग	5
▁तुर्क	5
▁मुखौट	5
▁सुइय	5
▁धनुष	5
म्रेश्वर	5
▁तेजस्व	5
टाउ	5
▁जन्मदात	5
▁शेप	5
▁फ्लोरा	5
ैक्ट	5
▁पेप	5
▁शॉट	5
ट्रेट	5
▁ऊष्ण	5
▁महत्त्वाकांक्ष	5
लोप	5
मारी	5
▁छज्ज	5
▁मानक	5
क्	5
▁साउ	5
रोइन	5
▁स्वरयन्त्र	5
▁बिठा	5
▁थूज	5
▁ट्रेड	5
▁हथिया	5
▁सैलिसिल	5
▁उबर	5
परीक्षण	5
न्देल	5
▁फड़कन	5
समुद्र	5
▁रेग्य	5
▁अम्बा	5
ब्री	5
▁लालच	5
▁बोडो	5
८१	5
मर्ग	5
डुला	5
▁बानग	5
▁रतना	5
ाब्दि	5
▁यहूद	5
९५	5
▁शार्ट	5
रेस्त	5
▁चिल्ड्रन	5
▁उबासिय	5
विकार	5
▁ऐश्वर्य	5
घाघ	5
▁फेज	5
▁देशविदेश	5
िट्ठ	5
▁गुलाम	5
्टीशिय	5
फुल	5
▁झंडा	5
▁२१०	5
▁कहलाय	5
▁सीप	5
रौक	5
नियोज	5
▁कटाव	5
गला	5
▁मर्म	5
▁गोंद	5
▁चंदेल	5
▁कृश	5
▁मिथ	5
जम	5
▁कचौ	5
▁डिज़ाइन	5
▁कर्मा	5
▁मुखमंड	5
▁बेदा	5
▁माइकल	5
▁एडिन	5
▁सांच	5
पोलो	5
▁डिश	5
वलेस	5
९५०	5
▁बैलाड	5
▁नहाएँ	5
िरकत	5
रिग	5
▁एन्ट	5
▁रज्जु	5
▁चुम्बक	5
▁ढलत	5
ेरियम	5
▁हिंग	5
▁दुप	5
▁फरमा	5
िफिक	5
▁राजघरान	5
▁कालेज	5
़े	5
नरघट्ट	5
खल	5
▁कॉलेस्ट	5
▁गरुड	5
ूणे	5
समूह	5
▁ईको	5
टाइल	5
सोम	5
▁लाक	5
▁स्नातक	5
▁निब	5
▁ह्यूम	5
मैक	5
▁शू	5
लना	5
▁नवरत	5
▁रूमान	5
पोरे	5
प्रासाद	5
खनन	5
▁तफरी	5
डिक्कु	5
▁अस्प	5
▁मदार	5
▁आव	5
▁अरण्य	5
▁गद्द	5
रैट	5
ोकोन	5
िज्ञान	5
▁मौल	5
▁कन्न	5
वृत्त	5
▁झपट	5
ानंद	5
▁रीड	5
▁इसमे	5
▁वृहत	5
▁जुदा	5
▁रणव	5
▁पर्	5
▁सर्विस	5
▁वनारण्य	5
▁जुड़व	5
▁वाच	5
ंगाड	5
▁गोपनीय	5
▁बीतत	5
▁चेर	5
ुन	5
▁कार्तिकेय	5
थर	5
▁खांडे	5
▁ईस	5
▁फ्लै	5
एम	5
▁तांब	5
▁कवक	5
▁रेंजर	5
गठि	5
तो	5
▁विशिष्टता	5
▁काँट	5
ग्ध	5
▁शिवालय	5
▁अनन्त	5
माला	5
▁उन्मुक्त	5
▁स्थ	5
▁शिर	5
प्रोब	5
▁ब्लाक	5
▁मान्य	5
▁उद्यम	5
▁दुःखद	5
ुला	5
▁नरसंहार	5
टो	5
▁गिब्ब	5
सेफ	5
▁मणिकर्णिक	5
▁साँझी	5
▁सहस्रार	5
▁कॉकटेल	5
▁आइण्टमै	5
९६	5
▁ट्रेंड	5
३९	5
▁डॉलफिन	5
गै	5
पत्र	5
▁रजनीश	5
▁चौप	5
▁यक्ष्मा	5
▁पदार्थो	5
्टी	5
▁कार्टून	5
▁६५०	5
▁मुस्क	5
▁ढूँढ़	5
ाबाई	5
▁स्तब्ध	5
▁अर्धक	5
▁अध्या	5
▁फंक्शन	5
▁म्यूर	5
▁चं	5
▁चूल	5
ष्प्रभाव	5
▁नैचुर	5
▁बायोकेमिक	5
▁उलझ	5
सहाय	5
▁बॉ	5
▁प्रेगनें	5
▁मिर्जा	5
▁कमो	5
▁उठें	5
▁आगंतु	5
वानी	5
▁अकस्मात	5
▁मेडी	5
▁खरीदे	5
▁रेश	5
▁तीखे	5
िंद	5
▁पदचिन्ह	5
▁हरिहर	5
▁पिछड़	5
▁अंग्रेज़	5
▁डेढ	5
▁राक	5
▁श्राव	5
▁आत्मीय	5
▁उड़ा	5
▁क्लाइम्ब	5
▁योंग	5
ालाचा	5
▁म्यूकोस	5
▁फ्ले	5
▁आख	5
▁गणगौर	5
▁कलाकारी	5
▁भटक	5
▁खज	5
▁खड	5
▁ब्रिस	5
▁ताला	5
▁सँभालत	5
ाईबर	5
▁डिप	5
य्या	5
▁चमत्क	5
▁वायुयान	5
▁आमद	5
▁कुफ	5
▁स्टेन	5
▁लुप्तप्राय	5
▁रेबी	5
▁चुंग	5
▁संगीतमय	5
रता	5
ूरे	5
▁रोहत	5
▁प्रिंट	5
▁हिंसा	5
▁लैप्रोस्कोप	5
▁अभिव्यक्ति	5
▁लखी	5
मपुर	5
जेनिट	5
▁हरपी	5
▁अभिप्राय	5
शिक्षण	5
▁बाथ	5
▁भवानी	5
▁विषम	5
जाद	5
िटेबल	5
▁सिम	5
रपुर	5
▁खदाने	5
▁उच्चस्त	5
▁पटियाल	5
▁वाह्य	5
दगी	5
आक्स	5
च्यू	5
खला	5
भरत	5
रिस्क	5
▁बिस	5
ेरोस्कोप	5
▁चौख	5
शर्ते	5
▁७३	5
श्रम	5
िलिस	5
▁सैय	5
▁तोमर	5
ज्ञ	5
▁कुर	5
▁भोर	5
जर्म	5
▁हाइ	5
६८	5
▁लेंगी	5
ूर्त	5
लम	5
▁फ्लाइ	5
▁फुंसिया	5
▁शक्क	5
▁सुधरत	5
▁जगती	5
हो	5
जिब	5
▁चेयर	5
▁पिघलत	5
▁गेंदे	5
िद	5
गने	5
▁बेद	5
▁डिट	5
र्जेंट	5
३३	5
▁पीड़ादाय	5
▁बकुच	5
▁हल्	5
▁उतरें	5
▁गुह	5
▁लुब्रिके	5
▁पुष्पा	5
ेंटा	5
बोल	5
वि	5
▁डिजाइनर	5
▁सिव	5
▁पश्म	5
▁प्रभाग	5
▁तिलो	5
्टन	5
ाइलिश	5
ंबा	5
कुरुंज	5
▁श्लेष्म	5
▁गोखर	5
▁चैत्र	5
▁भ्राम	5
▁कटार	5
▁प्रतिष्ठाप	5
▁कैमिकल	5
▁मिड	5
सोन	5
▁जैल	5
घ्न	5
टने	5
▁दानदाता	5
▁बैक्टीरियल	5
▁चलेंग	5
▁अस्थिर	5
द्रोह	5
▁फंड	5
▁चख	5
ट्रम	5
▁धवल	5
ष़ा	5
▁लव	5
▁ऑक्सीडेन्ट	5
▁तीर्थराज	5
िध्य	5
पयोग	5
▁तामसि	5
▁पीडब्ल	5
वज्र	5
▁खरीददार	5
▁परमान	5
▁लिपो	5
▁८०००	5
▁शंका	5
▁सम्बंध	5
र्दे	5
पूँछ	5
▁पैड	5
द्धार	5
▁स्पेस	5
▁डुला	5
▁जीरो	5
▁मार्ज	5
थेन	5
▁कुकी	5
▁दुर्	5
▁परिणत	5
जैन	5
+	5
▁झुरमुट	5
जिन	5
▁दंड	5
▁वोल्	5
▁पनील	5
▁मुमताज	5
रन	5
▁हड़बड़	5
ीचक	5
▁बसासत	5
रमो	5
रिद	5
▁बैड	5
▁शिकारखान	5
रूचि	5
चन्द्र	5
▁दांग	5
▁स्मी	5
वांछ	5
्रा	5
लिम्प	5
ोफ्लेव	5
▁२२१	5
▁बराह	5
▁शश	5
▁बदले	5
▁बैक्सन	5
▁अहंकार	5
▁हवाईअड्ड	5
▁फूँक	5
पात्र	5
▁वैभ	5
▁जनना	5
बोर्ड	5
▁बल्लिय	5
मगेल	5
फू	5
डॉ	5
▁धोखा	5
ंष	5
ैट	5
ुट्टि	5
▁धोये	5
▁अच	5
▁दीमक	5
ण्डल	5
▁वाटिक	5
▁थ्रेड	5
वो	5
टि	5
ांत	5
िप	5
▁संस्करण	5
▁इंफ	5
▁कफज	5
्ति	5
▁प्रद	5
▁पोज	5
▁कौत	5
▁सप्लीमेंट	5
▁वेधशाला	5
तिक	5
▁अवत	5
▁बर्द	5
▁यूरोलोज	5
स्ल	5
▁अंडरव	5
्यूजन	5
नौक	5
मर	5
▁मैट	5
▁कार्बनडा	5
▁अंब	5
▁भला	5
काई	5
धनुष्टंकार	5
▁टायफा	5
स्टीन	5
▁गज़	5
▁खेचर	5
ुरान	5
▁प्रतिभा	5
▁आपात	5
▁निडर	5
▁तामडि	5
▁चरित्र	5
▁झड़त	5
छो	5
▁एपि	5
दमा	5
▁वण्ड	5
डोलेसें	5
▁साढे	5
ुच्छ	5
▁जुली	5
मेलिस	5
▁भद्रा	5
▁वेव	5
▁मां	5
सठ	5
▁अंजन	5
▁नर्तक	5
▁मरकर	5
ेक्टर	5
रावण	5
▁दुबले	5
▁टॉफ	5
्रेंज	5
▁पटन	5
▁बाना	5
▁गुण्ड	5
▁कुबेर	5
▁पगडंडिय	5
▁संगीतकार	5
६७	5
▁टकरात	5
▁वर्द्ध	5
▁डेक	5
याल	5
▁महाशिरा	5
ंडोस्कोप	5
▁कैप	5
कुन्न	5
फेन	5
▁मुनक्क	5
▁पकौड़	5
▁अंडग्रन्थि	5
▁गजन	5
ामृत	5
▁चटक	5
▁मर्त	5
▁१२६	5
▁रंगमंच	5
नमार्क	5
▁श्रीरंगपट्टनम	5
▁ब्ली	5
▁वीथ	5
ाइसिस	5
▁वैध	5
▁अश्वगंधा	5
▁संवेद	5
ूप	5
लेक्स	5
▁दफन	5
▁स्पांडि	5
▁कैली	5
▁विरक	5
▁संभाव	5
▁लावण्य	5
▁फतह	5
टीसी	5
रक्त	5
हाबाद	5
▁अभिव्यक्त	5
▁बाट	5
▁ताना	5
▁थैर	5
▁कुम्	5
हरार	5
▁शॉ	5
▁घड़ियाल	5
▁अभ्	5
▁वंडर	5
▁तिब्ब	5
▁कॉर्न	5
टिड	5
बांग	5
िपल	5
लोजिस्ट	5
सूत्र	5
वेरा	5
▁स्पंद	5
▁स्पित	5
▁फटा	5
▁इराव	5
▁बंध्य	5
विध्य	5
भागा	5
▁मेरू	5
▁रक्तपित्त	5
▁मिस्ट	5
गौड़	5
ाथो	5
▁फाइल	5
जोम	5
ौर्य	5
▁किशन	5
▁चुस्क	5
▁मज	5
▁हर्निय	5
दृष्टि	5
▁फटे	5
▁वाइ	5
रेंद्र	5
▁आल्ट	5
▁ड्रेसे	5
प्रभु	5
▁वोट	5
▁एपिड्य	5
▁महास	5
रस्वत	5
▁मिलम	5
H	5
▁पौन	5
▁कांजी	5
▁मशविर	5
▁फिजियोथेरेप	5
▁मॉनिटर	5
▁अंजु	5
▁चकत्त	5
▁रोमांचप्र	5
त्कार	5
चि	5
▁चौर	5
▁खुदा	5
▁बदरी	5
▁शाक्त	5
दुर्ग	5
▁गन्द	5
वीण	5
▁डिम	5
्क	5
▁चौड	5
ोद	5
▁अक	5
लता	5
▁तिरु	5
थान	5
▁एसीट	5
▁टिप	5
▁उपासक	4
▁डेस्	4
▁सुश	4
टवु	4
▁क्ला	4
▁रिहायश	4
▁शक्तिवर्	4
▁मालवाहक	4
▁वायस	4
▁नौबत	4
▁खींचन	4
▁खिंचवा	4
▁पैनोर	4
▁सिल्वर	4
▁तेन्दु	4
▁ऑइल	4
▁मैकल	4
▁मर्दान	4
▁तहखान	4
▁आनन्ददाय	4
▁इक्को	4
▁चिया	4
ड्र	4
▁बकास	4
नोल	4
▁गुलजार	4
▁डोड्डा	4
▁खू	4
बोधित	4
▁एसीड	4
लाइट	4
▁ओपे	4
कू	4
▁जिम्म	4
▁एथलीट	4
पुल	4
म्पी	4
ंप	4
▁जवा	4
संस्कृत	4
▁फ्र	4
▁संथाल	4
▁स्टोन	4
▁राउ	4
कोट्राइ	4
▁ख़तर	4
ल्टन	4
▁रेलगाड़िय	4
▁क्रंच	4
▁हौसल	4
ौती	4
▁नौजवान	4
▁१०६	4
बदरी	4
पु	4
▁हित	4
▁अज्ञानता	4
ाजोल	4
म्यूर	4
▁नोव	4
▁सेप्ट	4
▁हाइज	4
▁भुट्ट	4
मार्क	4
▁खाद्यपदार्थ	4
▁परिषद	4
▁किरकिर	4
▁डब्ल्यू	4
▁ओलंपि	4
▁इन्सान	4
▁बत	4
क्रो	4
▁जुव	4
खस	4
▁शीर	4
▁दमय	4
▁विचारधारा	4
▁मैलिस	4
▁हाइड्रोसि	4
▁कार्यक	4
▁प्रसवोपरा	4
रोप	4
वरन्	4
▁धुँधल	4
▁१५८	4
▁हेलीकॉप्टर	4
च्युर	4
▁चुनौतिय	4
फोर	4
▁२४व	4
▁टेन्ट	4
▁चौंध	4
ऎ	4
▁कंट्रासेप्	4
▁लैक्टो	4
दुर्गा	4
▁फ्लेक्स	4
ाइपोग्लाइसी	4
▁शर्मील	4
▁झोपड़ी	4
▁लैस	4
▁पाबंद	4
▁इकाइय	4
विश्राम	4
▁बगान	4
▁रयूमेट	4
▁काठ	4
▁त्र	4
▁कैं	4
▁सामर्थ्य	4
▁सुब	4
▁चिरा	4
मोन	4
▁उपस्थ	4
▁कल्याणी	4
मेन्ट	4
▁उभरे	4
▁शंखन	4
▁फिदाई	4
▁सिलसिल	4
धिवात	4
▁नोर	4
▁अन्ना	4
▁कांकर	4
▁पय्य	4
पक्षी	4
▁आहिस्त	4
▁बनावटी	4
▁ठूँ	4
▁थपथपा	4
▁बृहत्	4
कता	4
▁फ्रै	4
▁तिथ	4
▁जुड	4
▁दंतकथा	4
दर्श	4
फिज	4
सम्मन	4
६६	4
▁वैद	4
हुँ	4
▁सियालद	4
▁निजा	4
्यार	4
▁धरातल	4
▁क्व	4
▁कल्केरिया	4
क्यूल	4
कार्बोनेट	4
▁कंक	4
्रीट	4
▁त्रासद	4
जिया	4
▁चंड	4
▁ह्रदय	4
▁वाइर	4
▁ईज	4
ीसीज	4
▁टहन	4
▁संजीद	4
▁पतंग	4
▁चिम	4
▁कोटि	4
▁कैपस	4
▁स्ट्रै	4
ुशि	4
▁उस्त	4
▁सज्जन	4
नाश	4
▁रेवा	4
▁मेनोप	4
▁तिथि	4
▁तंदूर	4
▁एलपी	4
पिओ	4
▁फीस	4
▁बेसिल	4
्टीज	4
▁आएँग	4
▁हवाईजहाज	4
▁सुँघा	4
प्	4
▁साईक	4
▁बालिका	4
समीटर	4
▁खोखल	4
ंगपु	4
नि	4
▁नागापट्ट	4
िनम	4
वायरस	4
▁पालीता	4
▁शिलाखण्ड	4
▁डिजनी	4
▁दाँय	4
▁भीमाका	4
ट्रॉफ	4
▁अंगुष्ठ	4
▁अंकु	4
▁इमोश	4
अनंत	4
▁बाम	4
▁लचीले	4
ंटा	4
▁ठु	4
ड्डी	4
▁मेहमाननवाज	4
▁बेखौफ	4
▁सुच	4
▁जोड़ो	4
न्यु	4
▁ट्रक	4
▁लौटा	4
▁७८०	4
▁चालु	4
▁एम्बोल	4
▁ब्रह्मस	4
क्षार	4
ाकिस्तान	4
▁बुरक	4
▁पट्टिका	4
▁रोकत	4
▁उर्वर	4
तन्त्र	4
टर्न	4
▁लालटेन	4
▁डोंग	4
ण्डप	4
▁लॉन्ग	4
▁साजि	4
▁वेल	4
फेयर	4
▁सोचे	4
▁लेप्रोस्कोप	4
फोन	4
▁थमा	4
▁खोजे	4
बेल	4
▁दालम	4
ेटर	4
▁इत्र	4
▁हिचकिय	4
मानस	4
▁मल्लि	4
▁टेड़ा	4
▁महंग	4
▁कछार	4
▁प्रोटेक्ट	4
▁कमान	4
वित्र	4
▁पाओ	4
▁अविर	4
▁चिकम	4
न्टेन	4
▁कैट	4
▁रेंग	4
▁क्रूर	4
दौल	4
रीयता	4
▁मूर्तिशिल्प	4
ड्यूं	4
▁बधा	4
रोज	4
▁लगवाय	4
परोस्कोप	4
▁सिलि	4
▁मंझ	4
▁चिंग	4
▁श्रमिक	4
▁स्टिक	4
▁रचा	4
▁सेचुरेट	4
सोमनि	4
▁बंगलो	4
ार्मिक	4
▁बाफन	4
ःस्राव	4
▁बिस्क	4
▁सूबे	4
गना	4
स्टाल	4
कृमि	4
▁बास	4
▁साक्षात	4
▁दिखेग	4
▁स्वात	4
ोटा	4
नट	4
▁ऊद	4
▁जलराशि	4
▁एग्रीज	4
▁जुटान	4
▁धारी	4
▁चहक	4
▁पतंगबाज	4
▁निसर्गोपचार	4
▁बटोर	4
पहल	4
▁बोमडिला	4
पुड़	4
▁फ़र्	4
खाट	4
ौ	4
लपत्थ	4
▁चोगे	4
▁मिंज	4
सुद्द	4
▁बृहस्पति	4
▁अराइश	4
▁इन्फ्लुए	4
▁कुकुर	4
▁फ्लेक्सि	4
▁खौलत	4
वरि	4
▁पटव	4
▁ठेके	4
मिल	4
▁प्रमुखता	4
सन्धि	4
क्रेटर	4
▁११३	4
▁चुरा	4
जाइट	4
▁पैथ	4
▁सहूलियत	4
शत	4
▁वन्यप्राण	4
इथ	4
रबाग	4
▁झु	4
▁वर्	4
▁बिल्व	4
▁ताश	4
केट	4
▁फिलिप	4
▁यूनी	4
▁सन्धि	4
भद्रा	4
ुनिया	4
▁संग्राह	4
▁चौथा	4
जील	4
▁खोड़	4
▁मंज़	4
▁नीलम	4
▁सज्जा	4
▁इफैक्ट	4
▁वृत्त	4
▁भिलंग	4
पुला	4
▁फ्लेवर	4
▁नवग्रह	4
▁एस्पिर	4
▁राठौ	4
▁पचे	4
▁प्रोटि	4
▁सार्क	4
टॉक्स	4
▁केशो	4
▁हाइक	4
▁इस्लाम	4
इस	4
▁मोटरसाइकिल	4
बिम्ब	4
▁आरक्ष	4
मि	4
▁प्रकोष्ठ	4
डुंग	4
उड	4
▁काकड़ा	4
▁इनसि	4
ैद्य	4
▁कौल	4
प्ल	4
ैन्ड	4
▁स्वेच्छा	4
साइटिक	4
▁इक्कीस	4
रिक्त	4
▁एबडोम	4
▁रेडियोथेर	4
▁निरं	4
▁किलिम	4
▁डायब	4
ॉम	4
▁कृषक	4
▁जर्म	4
शहर	4
▁परिचारिका	4
▁चेन	4
रौस	4
▁मँडरा	4
मेन्यू	4
▁डर्मा	4
▁मछ	4
▁जेने	4
▁सिन	4
▁विशन	4
▁जीविक	4
▁यंत्रणा	4
▁चढ़े	4
▁कृतिय	4
मिश्रण	4
दीप	4
▁१७८	4
ुक्ष	4
ढेर	4
परवाह	4
▁स्कार्	4
▁कन्द	4
▁जंप	4
्थी	4
▁रसील	4
▁खत	4
▁सँजो	4
नपा	4
संगीत	4
▁व्याकुल	4
▁मुरानो	4
ान्त	4
▁उख	4
लोंग	4
▁थो	4
▁नीदर	4
▁कुँ	4
▁पाताल	4
▁एपी	4
▁संबद्ध	4
▁चारागाह	4
▁चौं	4
सकर	4
▁दबान	4
▁उफनत	4
भू	4
▁छोटानाग	4
▁१७४	4
ूमन	4
एंजेल	4
दारू	4
▁कविय	4
रिकार्ड	4
▁मुस	4
▁मानसर	4
▁निखरत	4
▁तरी	4
िएशन	4
िद्ध	4
▁कसब	4
ोनोमा	4
▁फाइब्राइड	4
▁पॉवर	4
▁पारिस्थितिकी	4
▁उपकेन्द्र	4
▁उखड़न	4
▁बतख	4
्कुल	4
▁अड़	4
▁पेड	4
▁संदू	4
▁स्प्रि	4
चुअ	4
स्टल	4
लाप	4
फ्रें	4
▁दुबक	4
ीनम	4
ल्युरिय	4
रात्रि	4
▁बधिर	4
▁फुला	4
▁क्लि	4
रोल	4
▁इच्छानु	4
जर्स	4
▁जूल	4
▁रामलीला	4
▁इराद	4
▁कंज	4
▁गदर	4
▁लिट	4
्ली	4
▁छिट	4
▁आफिस	4
कत	4
▁उद्घोष	4
ज़ा	4
▁कछु	4
▁लाइव	4
▁बुन्देल	4
▁वनवास	4
▁स्टा	4
▁बूझ	4
▁विला	4
▁इंग्ल	4
▁टपक	4
▁भो	4
ोनम	4
▁छुटिट्य	4
▁लांग	4
सेना	4
▁बसाए	4
▁ट्रैकर	4
▁पुख	4
▁दावत	4
▁किसान	4
क्कड	4
निवास	4
▁बियर	4
▁रगड़न	4
▁टैबलेट	4
िस्को	4
▁टपकत	4
▁कैंटीन	4
▁गोते	4
▁संपाद	4
▁एलर्जि	4
▁वास्	4
्वा	4
▁स्वयंसेव	4
▁लपक	4
▁सिरिंज	4
दम्ब	4
▁१३००	4
▁स्पै	4
ियुग	4
▁आचार	4
▁ट्राय	4
िथ	4
▁लिंक	4
रियम	4
▁पीजि	4
▁खुरदरे	4
▁अध्याप	4
पीएस	4
विलास	4
▁डीप	4
▁युक	4
फिल्म	4
▁पॉ	4
▁छतर	4
▁पराग	4
▁निबट	4
▁चौखं	4
▁विस्फोट	4
्नि	4
▁कार्नि	4
एट	4
ित्व	4
▁बिक	4
ट्राईम	4
ेस्टर	4
▁कंप	4
▁पब	4
▁सन्नाट	4
▁पाटल	4
▁घटात	4
▁मुसलिम	4
सुख	4
▁टपका	4
▁प्रखर	4
कुलेश्वर	4
जली	4
मीज	4
ोलांग	4
कील	4
▁मस्क	4
▁अल्ब्युम	4
▁मूर्च्छा	4
शिक्ष	4
▁एंटिम	4
गवाल	4
▁१०७	4
पाश	4
▁बिच्छ	4
▁१०५	4
बदन	4
ट्टू	4
डियो	4
िंज	4
▁ढुंग	4
शंकु	4
▁ब्राड	4
▁११२	4
▁कान्ट	4
थे	4
▁नी़	4
▁विरल	4
▁उगलत	4
मैथुन	4
लियन	4
▁ट्यु	4
पेल	4
▁ट्रेनर	4
▁१९४	4
▁उर्व	4
▁सेठ	4
▁गड	4
▁खाइय	4
▁आक्	4
ेनाइल	4
कुरिंज	4
ंटिनें	4
▁फोरस	4
▁पॉल	4
▁धज	4
▁२३०	4
▁प्रॉपर	4
▁आल्प	4
▁एंजि	4
▁शिका	4
▁लैक्ट	4
यम्ब	4
स्व	4
▁पोलि	4
▁एरि	4
जोना	4
▁इंटरने	4
▁गँवान	4
मोद	4
बेश	4
▁हिप्प	4
▁बोला	4
डेना	4
▁डरावन	4
▁विन्यास	4
अनसैचुरेट	4
▁आर्य	4
षभ	4
▁छिन्न	4
▁मस्तिक	4
▁सांख	4
▁पोस्टर	4
▁नगरीय	4
▁यश	4
नाद	4
▁बीसी	4
▁जीवाष्म	4
▁७६	4
स्तान	4
▁महानद	4
ारम्भ	4
▁कांस	4
▁माफि	4
▁उपजा	4
मोड	4
▁नज़रअंदाज	4
▁काबिल	4
िड्र	4
▁डिग	4
द्र	4
▁३२०	4
त्ति	4
्रस्त	4
▁जगन्नाथपुर	4
▁प्रतिनिधि	4
▁स्वास्थ	4
▁धड़	4
▁खरबूज	4
हैंड	4
▁बल्ब	4
तू	4
▁झी	4
▁चुंब	4
▁खां	4
▁भटकन	4
▁ग्लोबल	4
▁गिल	4
▁खुलवा	4
प्पु	4
▁बेंगलुर	4
▁मोस्	4
हुल	4
▁ड्राम	4
▁लाउ	4
▁आतंकवाद	4
▁रुद्रप्र	4
▁डिस्ट्र	4
तुंग	4
▁हम्माम	4
▁कक्षा	4
▁वेस्ट	4
▁मच	4
तरी	4
त्था	4
▁निस्	4
संदेह	4
▁स्पर्धा	4
सेट	4
▁त्रिकूट	4
▁मज़े	4
छाड़	4
पूजा	4
शत्रु	4
▁पराँठ	4
▁ट्रेडसे	4
▁संकल	4
▁शेयर	4
▁अपक्व	4
▁प्रियजन	4
▁लक्ज	4
▁हेल	4
▁कुलदेव	4
एनए	4
ूल	4
▁त्रियुगी	4
राग	4
▁छटपटा	4
▁उधव	4
▁छ्तर	4
▁शिवगंग	4
▁यदु	4
▁क्लींज	4
▁लड़ा	4
▁जलकुंड	4
▁उष	4
▁अब्ले	4
▁डाँट	4
▁कुछ्	4
टीज	4
▁म्यूको	4
▁आड़	4
▁योजनाकार	4
प्रे	4
▁वॉट	4
▁एम्ब	4
▁लाडल	4
▁साइकोलॉजि	4
ॉलज	4
िष्ठा	4
▁चिल्लात	4
▁कोहि	4
▁गूजर	4
HbA	4
जोफ्र	4
▁टकड	4
ग्ण	4
ोस्कोप	4
▁घोघ	4
▁कार्यकलाप	4
िथ्य	4
▁एनीम	4
▁शुंग	4
▁पायल	4
▁ढूँढत	4
▁फ्रैंक	4
▁त्रिकुट	4
▁प्रैक्	4
▁लाट	4
▁धम	4
▁सहेल	4
किल	4
▁भिल	4
▁कैप्स	4
कई	4
्लाइड	4
जिक	4
▁चकित	4
माइलिने	4
▁जाऊँ	4
▁निर्झर	4
स्मेटिक	4
दिशा	4
▁ख़ु	4
▁कॉर्टिकोस्टेर	4
▁फंस	4
▁सहस्र	4
▁पोंग	4
▁कृष्णा	4
मस	4
शिष्ट	4
शेख	4
खर	4
ढुंग	4
म्बे	4
▁बेफिक्र	4
टोप	4
▁स्प्रिट	4
▁मुह	4
▁खि	4
▁रंगनाथ	4
ँचाई	4
▁बन्ध	4
▁हेमार	4
ाग्र	4
▁ठंढ	4
▁विल्सन	4
▁च्य	4
प्राश	4
▁अधिष्ठात	4
चो	4
▁अवधारणा	4
▁अपमान	4
ारंभ	4
▁कुम	4
▁ट्रांजि	4
जाना	4
▁अदम	4
वित	4
▁तैलचित्र	4
▁अलम	4
▁कछुव	4
▁एं	4
▁डियोड	4
▁रिंक	4
▁डेक्सा	4
कोर्ट	4
▁मनकाम	4
▁गुहा	4
▁कंकर	4
क्रान्ति	4
▁देवदारु	4
म्यान	4
▁सँवर	4
▁कुतर	4
▁कण्डार	4
▁अनुष्ठान	4
▁तिरंग	4
▁वार्	4
सरोवर	4
▁अधो	4
▁सर्पील	4
दुर्	4
▁डें	4
▁ढलुवा	4
▁छ्ट	4
▁बडे	4
णिक	4
▁अतिथिगृह	4
▁परिणामस्वर	4
गरीब	4
▁ब्ल	4
▁मैग	4
सल्फ	4
▁भिन्नता	4
▁ट्रेडि	4
▁माइक्रोस्कोप	4
▁ओस्टियोपो	4
▁चतुर	4
▁श्रेष्ठत	4
▁मुर्दा	4
गंडो	4
▁मोहल्ल	4
▁मेगाल	4
▁वाण	4
प्रोटीन	4
▁रणनीति	4
▁श्रंगार	4
कैंसर	4
▁लुका	4
छिप	4
▁धुला	4
▁अट्टाकल	4
▁पितामह	4
▁बन्दर	4
डोम	4
▁पुनरु	4
▁अधपक	4
▁बेचार	4
▁कटन	4
ल्फ	4
▁तनावमुक्त	4
▁बाइस	4
▁कटोर	4
ंसर	4
द्यान	4
▁२४९	4
▁क्लो	4
लिडे	4
▁टिट	4
▁अंतड़िय	4
▁रेशा	4
बाच	4
मंजिल	4
साइड	4
खम्ब	4
▁मैकलुस्की	4
▁भूलिए	4
▁प्रतिनिधित्	4
▁दरदर	4
▁तसल्ली	4
ंबे	4
▁छिछल	4
६१	4
६४	4
कार्ले	4
▁खट	4
िंदो	4
▁जैक	4
▁झनझन	4
गेट	4
▁जलेब	4
▁सुभ	4
ाक्षर	4
▁त्राशी	4
▁दरख्त	4
लुकप	4
ंडे	4
▁धौला	4
िब्रू	4
▁वृतान्त	4
▁फोद	4
▁जानत	4
▁आर्टिस्ट	4
▁आख्यान	4
▁रिएक्श	4
▁फाँसी	4
▁फास्फोरिक	4
▁भट	4
टोन	4
▁सरक	4
▁टाइल	4
धन	4
▁सिलव	4
▁बख्तियार	4
▁ग्रां	4
ह्यूमेट	4
▁झिझक	4
▁डिजिट	4
▁दिखाए	4
िडन	4
जु	4
▁कशेरुका	4
▁काप्प	4
▁औपचारिक	4
दालू	4
ठा	4
लुवा	4
र्ध्व	4
बाहु	4
ैपल	4
▁रब	4
▁मिथ्या	4
▁बोधिसत्	4
▁बून	4
नुपात	4
ोबेल	4
▁गढ़वा	4
▁संशय	4
हांस	4
▁ग्वाल	4
रेक	4
▁शत्रु	4
▁कलाबाज	4
्यक	4
मने	4
▁हंगर	4
्फिं	4
▁एप्	4
▁उत्त	4
गंधा	4
V	4
१११	4
▁संजोय	4
▁चन्द्रगिरि	4
स्वाद	4
▁क्र	4
र्गव	4
▁लेड	4
▁६३	4
▁स्लो	4
▁साइक	4
▁स्टि	4
▁तालो	4
इड	4
▁पेंग्विन	4
रचु	4
▁चोर्टन	4
▁प्रदाय	4
▁हियर	4
▁कंजक्टाइ	4
▁सिरह	4
▁एंगल	4
▁दौर्बल्य	4
▁सर्वो	4
▁उद्	4
बोध	4
▁रिवाज	4
२००	4
ष्मा	4
▁सेप्टि	4
▁गौड	4
▁टलन	4
▁चौको	4
▁सुझात	4
वाल्व	4
▁धौ	4
▁भालु	4
▁पाँचवा	4
सन्	4
▁छ्ज्ज	4
▁एलब	4
▁चतुर्थ	4
▁११९	4
बाबा	4
गुण	4
▁पिस	4
▁मैक्ड	4
▁शेव	4
▁छिन	4
▁शाक्ति	4
▁तत्प	4
▁मूर्तिकार	4
▁मोतिय	4
टाइन	4
्वल्	4
सेन्ट्	4
किया	4
▁मध	4
▁डर्म	4
▁एंजियो	4
▁अंधकार	4
▁प्राक	4
पाइ	4
▁कुरस	4
▁संभाग	4
लीला	4
लाके	4
ौद	4
▁वनक्षेत्र	4
पाइरी	4
▁विवश	4
▁टोटल	4
▁बैद	4
▁वंशी	4
ोने	4
▁खे	4
▁छात्रा	4
▁डिटॉ	4
▁मालिनी	4
ग्स	4
▁सिवा	4
▁टेन	4
▁पहिए	4
ंठ	4
I	4
▁कबीर	4
मरू	4
पर्ण	4
ोइ	4
घड़	4
मैंट	4
▁मेमोग्रा	4
▁धुँधले	4
▁कैरिय	4
मोशन	4
▁काउंसिल	4
गर्म	4
शोबर	4
▁किन्न	4
▁पदयात्रा	4
▁श्यामल	4
▁सोर	4
▁धंध	4
▁कार्डियोव	4
▁संधिवात	4
▁पैराडाइ	4
शाम	4
▁एट्रो	4
▁कठपुतलिय	4
▁ल्युको	4
ायन	4
▁११६	4
▁आपत्ति	4
▁लाइटहाउस	4
▁रोमकूप	4
▁निरा	4
▁टेट	4
रासाइक्ल	4
ामिन	4
▁रक्ताभ	4
लेश्वर	4
्योर	4
▁गायक	4
▁खदिर	4
न्डला	4
▁शकरकंद	4
▁लाउड	4
स्पीकर	4
गांव	4
▁जीजे	4
लावा	4
▁डाउन	4
▁प्रूफ	4
▁गुस्ताव	4
▁चक्क	4
▁कंसल	4
▁रिप्लेसमेंट	4
▁रीह	4
▁दंग	4
▁मूर्त	4
▁स्नायविक	4
▁सुलझान	4
ामुंड	4
▁सम्भाव	4
▁पिस्त	4
▁एकाग्रचित	4
▁डाल्फिन	4
फ्लेक्स	4
▁मझ	4
▁कुरेद	4
▁गुरसो	4
चूल	4
▁खुजला	4
▁उद्भव	4
▁जै	4
बर्न	4
शाप	4
▁नागद	4
▁विचल	4
▁क्यूल	4
▁ट्रि	4
पारदर्श	4
▁जायज	4
▁फुर्तील	4
तीय	4
चित्रों	4
मोथेरे	4
दंड	4
ीयत	4
▁बद्ध	4
▁विभ	4
क्रमण	4
▁मानवता	4
▁कमिश्नर	4
▁बाल्ट	4
▁उपभोक्ता	4
*	4
पोस्ट	4
धीश	4
त्तू	4
ाशीर	4
ूड़	4
्रिस्टो	4
ंजाइन	4
▁६९०	4
▁मोर्च	4
▁कंकाल	4
▁एर	4
▁इंडैक	4
़ी	4
्लाइस	4
कोर	4
▁अर्धचंद्र	4
▁अध	4
▁वेबसाइट	4
▁शर	4
ेलिस	4
▁१६३	4
▁एक्टिव	4
▁अपा	4
▁सिडोमोन	4
ॉस	4
▁मंगोलिय	4
▁पुनराव	4
शुद	4
▁लुढ़क	4
य्य	4
ंची	4
तपुर	4
▁कोलेस्टर	4
▁शास्त्री	4
फोम	4
▁इन्ट्रा	4
▁ग्यार	4
७८	4
कण्ड	4
W	4
O	4
थाइरॉयड	4
िप्पल	4
सर्प	4
▁रानिय	4
▁वेल्ल	4
ताखो	4
पोषण	4
टोमी	4
ंगला	4
▁ग्राहम	4
▁सैचुरेट	4
▁चाइन	4
▁काँपन	4
▁गि	4
दांत	4
▁चौमुख	4
▁गँवा	4
▁निर्भय	4
ेमल	4
▁नन्	4
▁चढ़ती	4
▁रक्तस्त	4
सो	4
▁हेमा	4
वाहा	4
रतला	4
▁इजार	4
▁विशेषत	4
▁डाइब	4
▁टॉल	4
▁स्वास्थ्यकर	4
▁दुगुन	4
▁खाट	4
▁असबा	4
▁सन्त	4
संसर	4
टेनिय	4
▁सुस्ता	4
▁हाइपोथायर	4
▁मसीह	4
चूर	4
▁व्ह	4
▁ब्रह्मक	4
श्री	4
▁झा	4
▁नौकुचिया	4
▁ओरियन्ट	4
▁सैंडल	4
कदक	4
ग्	4
थायरॉइड	4
▁कुम्भ	4
▁ज़ॉन	4
▁सीन	4
▁एड्रेनल	4
▁नवरत्न	3
▁गेरु	3
▁शख्सियत	3
▁मैश	3
▁इंत	3
▁मँहग	3
दाब	3
▁मज़बूत	3
वर्तन	3
▁माणिक	3
िलाएँ	3
जाम	3
सिंघा	3
▁प्राणो	3
▁सर्पीला	3
▁४१०	3
▁२९०	3
▁ऐलुम	3
दर्शित	3
▁त्रिभ	3
रिकेट	3
ेहन	3
▁मनप	3
▁हुक्म	3
▁आरामतलब	3
▁विषाद	3
▁कॉस्म	3
ाँव	3
▁बिग	3
छान	3
▁समरस	3
इला	3
▁ड्योडिन	3
▁यायावर	3
▁कंस	3
सपेक्ट	3
▁मेनि	3
▁कोलोस्ट्र	3
ालिन	3
▁अजय	3
▁वासना	3
▁लक्कड़	3
▁लैक्टोज	3
▁सोसाइटी	3
▁पैठ	3
▁मूर	3
ताप	3
वासस्थल	3
▁ओड़ि	3
▁प्रतिहार	3
▁महामेर	3
▁सराई	3
निन	3
संतोष	3
▁उठेग	3
▁नमाज	3
▁सुरक्षाकर्म	3
▁सैव	3
▁सहस्रार्जुन	3
▁राजमंदिर	3
कुम्भ	3
टूट	3
▁बचाए	3
▁जाइ	3
▁डाइज	3
गुरु	3
▁पेल	3
तीस	3
द्	3
ंप्रदाय	3
घ्र	3
श्चराइज	3
वकुट	3
▁देहा	3
मैद	3
▁नाड	3
यिक	3
▁मथ	3
▁कौतुहल	3
▁एक्सपी	3
डीशन	3
▁कैल्सी	3
व्यवस्थ	3
▁लड़न	3
▁जिद्दी	3
▁दरकिनार	3
▁पाऊ	3
mg	3
पीरिय	3
▁दण्डक	3
ड्रिन	3
▁द्रुत	3
▁उजल	3
▁ब्लास्ट	3
▁कुचे	3
▁मछुवा	3
क्सोड	3
ंधर्व	3
▁एसपी	3
▁लम्ह	3
सत	3
ण्डोला	3
रातू	3
▁फुर	3
ंद्रम	3
▁आवारग	3
स्पी	3
▁पैरो	3
▁ट्रॉफ	3
थम	3
▁हाजमे	3
एन	3
▁फेक	3
नंदप्र	3
▁अमे	3
▁गोख	3
▁ढ़ील	3
▁खुमा	3
▁अभियंता	3
▁फौय	3
श्व	3
मेघ	3
भरा	3
धिपत्य	3
ांध	3
ेषण	3
▁रोम्या	3
▁रोला	3
घे	3
हाजो	3
▁रिवाल्	3
रूढ़	3
▁चंद्रक	3
ैत	3
मुनि	3
▁किंचित	3
कलिया	3
ुद्र	3
▁शेरपा	3
▁मेलिस	3
▁वलसाड	3
लियो	3
▁चामराज	3
▁परमेश्वर	3
▁लोले	3
▁फेंफड़	3
▁सूफ	3
खित	3
ोरोथ	3
▁टिफिन	3
धिष्ठि	3
▁सत्	3
▁करिश्म	3
ियारा	3
▁गुद	3
▁खाएँगे	3
हेल	3
छाऊ	3
▁रविका	3
ार्सिनो	3
▁बाक्स	3
▁प्रतिवर्त	3
▁हाइड्रे	3
गर्भ	3
▁आंरभ	3
क्यू	3
▁पांडा	3
्यूड	3
फर्स	3
चेरे	3
िल्ला	3
▁अन्	3
वंत	3
▁पंखुड़िय	3
▁वाट	3
किंस	3
▁मुड़न	3
▁मलब	3
▁अमित	3
▁निर्वि	3
खिया	3
ृद्ध	3
बाला	3
हासिक	3
झल	3
पाट	3
▁बघ	3
▁उत्तरदाय	3
▁उजड़	3
ल्का	3
डिंब	3
▁लीव	3
ेअर	3
ेडाइज	3
याति	3
क्सी	3
भाष	3
▁रजिस्ट	3
गुं	3
▁चूमत	3
णक्	3
यपुर	3
डीन	3
७७	3
▁फॉर्म	3
▁मध्यवर्ग	3
घी	3
▁लाओ	3
▁जौहर	3
▁रान	3
बड़ा	3
रेंज	3
रोली	3
▁अंगूठ	3
▁कंपकंप	3
रिस्त	3
▁सम्मुख	3
▁प्लस	3
▁मित्रता	3
ाखा	3
▁बन्धन	3
▁अज्ञान	3
▁व्यसन	3
▁अपनाए	3
▁असमान	3
ेंगी	3
शिंग	3
िफ्ट	3
▁व्यस्क	3
▁पाँ	3
िग्मे	3
▁ब्रह्मपुर	3
▁झुनझुन	3
▁अंगुलिय	3
ोरिया	3
क्य	3
▁टँग	3
रिष्	3
योगी	3
▁बाजे	3
▁११८	3
▁गुगल	3
ावरोध	3
▁इनस	3
टोले	3
▁कॉमन	3
▁डेड	3
नुवांशिक	3
▁संदेशवाहक	3
▁थिरकन	3
लबे	3
कसी	3
▁पिघला	3
▁अनुशास	3
▁हिचकोले	3
९८	3
▁मैने	3
▁अष्टभुजा	3
▁लक	3
▁लोहार	3
खुर	3
▁रामकुंड	3
▁देशभक्त	3
▁ज्योतिषी	3
▁नामो	3
निशान	3
▁बाग़ान	3
▁ख़ास	3
▁वाक़	3
▁नेवल	3
▁महफिल	3
ख़	3
▁ऑल	3
▁वीरा	3
▁चपट	3
इंडी	3
▁वसंत	3
▁सुंगध	3
▁सरग	3
ाधू	3
▁संवर्द्ध	3
ेदार	3
▁बन्दूक	3
▁झलकत	3
▁माउ	3
▁पायें	3
लामी	3
▁पांचाल	3
▁द्रोण	3
्रास्त्र	3
केसर	3
▁मुग	3
ाग	3
▁गुरुत्व	3
▁सूड़	3
र्दी	3
▁हैंडल	3
▁खुजा	3
▁छि	3
तुइ	3
▁उसमे	3
ूरा	3
▁अनुकृत	3
िब्ब	3
प्टिस	3
▁स्केबि	3
▁चिखलदार	3
ष्टि	3
कांक्ष	3
▁फुदकत	3
▁पिछ्ल	3
▁रैन	3
▁परवान	3
ैनोर	3
▁खुरदर	3
▁भ्रांति	3
▁द्रो	3
▁खड्ड	3
▁नीलूफर	3
▁बाबून	3
रंज	3
▁तंत्रिक	3
लक्क	3
▁परिंदे	3
▁सिम्प	3
▁हाइड्रै	3
नस्टा	3
▁बाइकार्ब	3
टिल	3
▁शाहपुर	3
्रिय	3
▁ज्वाइ	3
▁फ्लॉ	3
टस	3
▁कॉस्मेट	3
▁आँध	3
▁अंडाणु	3
▁घों	3
कुं	3
थमल	3
▁पीरुम	3
▁अनछु	3
स्	3
ेरेट्र	3
▁पैन्ट	3
▁रिसेप्शन	3
्राफ	3
ोपी	3
▁एन्टीऑक्सीडे	3
यंब	3
▁करुणा	3
हिंसा	3
▁डस्ट	3
्यायन	3
▁भुगत	3
▁क्लेरीस	3
ियॉ	3
▁बताश	3
▁दह	3
्लेक्स	3
ोम	3
▁पेटिट	3
रक्षा	3
▁कस्ट	3
डवाना	3
ट्ट	3
▁खुशकिस्मत	3
स्टा	3
▁बकाय	3
▁गड़बड	3
▁पधार	3
▁वॉटरफॉल	3
ायित	3
▁इलेक्ट्रो	3
तुलन	3
▁सहयात्र	3
▁दस्तावेज	3
▁बांदी	3
=	3
मंच	3
▁सहनशील	3
▁काबुल	3
ाँसी	3
▁स्ले	3
लाम	3
▁पुनर्जन	3
मूर्ति	3
च्ची	3
▁कुल्फ	3
▁प्रजात	3
ांत्रिक	3
पचा	3
भूषण	3
▁पाण्डुलिपिय	3
▁१३४	3
वर्ण	3
ांडिल	3
लेंड	3
पैन	3
विग	3
▁झुंझ	3
फ्रांसिस	3
▁कैलिफ	3
ॉफ	3
ेन्स	3
▁कल्	3
्सीफ	3
▁मार्गदर्शक	3
▁जज	3
▁१६५	3
▁मुनाफ	3
▁बुलाय	3
▁कोठ	3
▁अब्दु	3
रोपा	3
▁कोपेनहेग	3
▁भैं	3
▁थेराप्य	3
मुर्ग	3
▁किंगफिशर	3
ूँछ	3
ंध	3
ल्मो	3
ताब्द	3
द्घप	3
▁चंडीगढ	3
▁दूना	3
▁पेमालिंग	3
▁बाईकार्ब	3
▁उजाड़	3
▁पुर्न	3
▁लिम्फो	3
▁२६८	3
▁शरमा	3
तृक	3
गाथा	3
▁एक्यु	3
▁जोरावर	3
▁ल्यू	3
गाल	3
अन	3
▁ईद	3
▁बरसा	3
▁ओरिय	3
▁रोना	3
▁क्रूड	3
▁कैनवास	3
▁ताक	3
▁पैरामेडिक	3
ुरी	3
लाव	3
▁ताइपे	3
▁ट्रैन	3
▁डब्लू	3
▁५८०	3
▁डायरेक्ट	3
▁कार्यकर्त्ता	3
न्टल	3
▁इंडोथैलिय	3
▁गोदीबाड़	3
इमस	3
्यूलोज	3
▁चिथ	3
▁दयनी	3
▁तीज	3
ग्र	3
▁इंफ्ल	3
एंजा	3
▁कपकप	3
▁फोस	3
त्य	3
▁सुराख	3
▁अरेंजमेंट	3
▁स्मृतिय	3
चण्डी	3
▁मर्जी	3
▁यौंगत	3
लवे	3
मोहर	3
▁भैस	3
▁अभय	3
रूल	3
क्षीण	3
्वॉइ	3
िक्कु	3
र्वे	3
▁तुं	3
मरी	3
ंगू	3
▁२२५	3
▁एबी	3
पेंडिक्	3
▁गारस	3
▁सेरेन	3
▁चमचमा	3
▁सँभल	3
▁मायक	3
ीपदा	3
स्से	3
▁ऐंज	3
लिका	3
प्रधान	3
▁च्युत	3
▁नाविक	3
▁क्रमा	3
ीज़	3
▁स्ली	3
▁मैड	3
▁लिटि	3
ंढ	3
▁हादस	3
▁आश्रयस्थल	3
द्री	3
▁बद्री	3
केंड	3
क्श	3
ेटिन	3
६००	3
पस	3
▁केलो	3
ब्बी	3
▁प्रतियोग	3
कौर्ट	3
इन्टेस्टाइन	3
▁पर्ल	3
▁पैंप	3
▁डर्मे	3
पर्वत	3
▁रोगकारक	3
▁एयरलाइन	3
सीलीन	3
▁दस्तक	3
▁रोहड	3
ल्ली	3
▁सासण	3
▁हायप	3
▁वृक्कदोष	3
्रॉड	3
▁एक्वेरियम	3
▁गृहस्थ	3
वर्क	3
▁कहल	3
प्रसाद	3
▁शैशव	3
गान	3
▁हॉर्	3
▁अंग्रेजो	3
मोसिस	3
लाएँ	3
▁भँवर	3
▁चाक	3
▁लेक्ट	3
▁मम्पस	3
▁चंदनव	3
▁चांपा	3
▁कैटा	3
▁भूचर	3
▁परिकल्प	3
▁भाँप	3
▁औपचारिकता	3
▁तंदुरुस्त	3
▁भिखार	3
▁मन्दा	3
ोटीन	3
▁लघुकाल	3
▁जंब	3
बिन	3
▁डरा	3
▁पाला	3
▁पंडाल	3
पट्टी	3
ाधि	3
्रिस्ट	3
फेल	3
▁साइकल	3
▁खाये	3
▁मसानजोर	3
▁गैरस	3
▁लगाये	3
ीवाइट	3
▁स्वास्थ्यकर्म	3
▁पहुँचाए	3
▁लग्ज	3
▁गैंग्	3
▁सहला	3
परि	3
मुक	3
हान	3
▁चूज	3
▁डिज	3
▁मुँ	3
टॉल	3
्टिक	3
कुड़	3
▁फ्रेड	3
▁स्वछ	3
न्फेक्शन	3
▁हुली	3
▁डंडे	3
हिए	3
ोमिना	3
▁तंज	3
▁फ़ायद	3
▁कोंपल	3
▁ग्याल	3
▁जागीरदार	3
▁मैथ	3
टना	3
▁उत्प्रेर	3
रोटोन	3
▁फिनाइल	3
थियो	3
▁स्कर्	3
▁भ्रमणकार	3
▁दन्त	3
▁पांड	3
▁पेरू	3
▁फाल्ग	3
▁वाकिफ	3
जना	3
▁विनम	3
▁परिंद	3
▁संगठ	3
▁पायेंगे	3
▁एमबी	3
कण	3
▁म्यूटेश	3
▁ब्रैंड	3
्याल	3
▁एलाइ	3
▁एथे	3
▁इन्डो	3
फार	3
टैनिक	3
पाई	3
▁नाइग्र	3
डेल	3
▁एडव	3
▁अनंग	3
ंदूर	3
▁साम्य	3
▁दोस्तो	3
▁असुर	3
पादांगुष्ठ	3
तान्त	3
▁खुशहाल	3
कर्म	3
▁फिस	3
चुल	3
▁सिद्धेश्वर	3
▁संकीर्	3
▁मनचाह	3
▁तपोब	3
▁वृत्ता	3
▁विसंगतिय	3
▁यमन	3
स्ट्रोज	3
▁कॉलोन	3
▁हंट	3
७३	3
फार्मेस	3
▁यूरेथ्र	3
सोस	3
ॉ	3
▁ब्रोकाइ	3
धारी	3
▁कलचुर	3
▁नासिर	3
पीड़ा	3
▁जयकार	3
▁ऊर्ध्व	3
▁यूनि	3
▁एडॉन	3
▁शालीन	3
▁सहभाग	3
▁नाट्य	3
िन्यु	3
▁चतुर्	3
दशी	3
▁१३२	3
▁ओश	3
▁उधम	3
▁रूद्रप्र	3
केदार	3
▁लिकोरि	3
मेटाइट	3
लादेव	3
▁स्ट्रिप	3
▁मेहरा	3
दरी	3
पर्व	3
▁कोल्ल	3
▁मंथ	3
गामा	3
बली	3
▁खोद	3
▁खस्ता	3
▁दस्तकार	3
ट्रिप्टो	3
ैनिन	3
ोसिन	3
▁यथो	3
▁खाय	3
लीफेंट	3
र्थी	3
▁हिप्पो	3
झर	3
▁सांस	3
फ्रेट	3
ेप्स	3
▁गुरद	3
▁कोलायत	3
▁बत्तख	3
▁भद्र	3
न्टून	3
▁हस्तलि	3
▁कौटि	3
मडो	3
▁चश्म	3
▁कौशा	3
ुष़	3
▁ओसिय	3
▁एंटीऑक्स	3
▁प्रॉपर्टी	3
▁अदवा	3
सोर	3
▁परिस्थित	3
▁मॉनीटर	3
▁बाँदी	3
▁बेनी	3
तवाहन	3
▁मंजूषा	3
▁फलस्वर	3
टोट	3
मीट्री	3
गोरो	3
अवसर	3
▁प्रोसेस	3
▁यंग	3
▁तिरछ	3
▁ट्रांसम	3
▁उत्तराधिकार	3
रम्य	3
▁१६८	3
ोपचार	3
▁लाचार	3
▁चीखन	3
▁किटकिटान	3
जेठ	3
गाध	3
▁चामुण्डा	3
ॉग	3
▁फ्लो	3
ेन्ड्र	3
स्मार	3
▁एपिले	3
▁आपेक्षि	3
▁तुतलान	3
▁हकलान	3
इटालिय	3
▁अजन्	3
सिफ	3
ुष	3
▁इड	3
▁रोशनदान	3
▁स्त्रोत	3
कुँवर	3
▁नौट	3
▁ऑक्सीडेंट	3
लाज	3
▁चालाक	3
▁लूँ	3
▁गढ़सी	3
▁प्रोफ	3
▁सभ्य	3
▁मौसी	3
▁हाइट	3
फाज	3
▁वैर	3
तत्	3
बीटी	3
्डर	3
़्म	3
▁रेंगत	3
▁कैथल	3
▁फोल्ड	3
▁उल्ल	3
ंघन	3
▁गगन	3
▁सला	3
▁अपेक्ष	3
चुप	3
▁सूइय	3
न्दर	3
▁एमर	3
▁पल्मोन	3
▁गोय	3
ॉलिट	3
ोनियो	3
▁ओप	3
▁मुन्	3
स्या	3
▁टीब	3
ज़्	3
▁साँय	3
बारक	3
दण्ड	3
न्दे	3
म्	3
▁तेईसव	3
▁बोटेन	3
▁उद्दीपक	3
्लेमेट	3
▁डांग	3
जेन	3
तृप्त	3
▁बरह	3
मित्र	3
▁उत्तरपूर्व	3
▁गोनो	3
हाणू	3
▁ओस्टियो	3
▁जुलू	3
▁स्वाधीन	3
▁रैडिक्ल	3
▁नम्	3
▁धत	3
सैला	3
▁शारद	3
▁ध्वंस	3
शमोल	3
च्छा	3
▁पुरोहित	3
▁एक्यू	3
▁किड	3
▁प्रजन	3
▁कदंब	3
ॉलिज	3
▁चैर	3
▁दृष्ट	3
बारी	3
▁दहाड़	3
▁भौंकन	3
▁कटा	3
द्दा	3
▁आर्गेन	3
्सट्रैक्ट	3
चिन	3
▁नाद	3
▁बल्ल	3
▁शोधक	3
▁थ्रिल	3
गित	3
स्की	3
▁ज़रिय	3
स्टीट्यूशन	3
ण्डी	3
▁रसभर	3
▁बघेल	3
टोला	3
न्टर	3
▁बिखेर	3
ेलि	3
वियर	3
ालभूमग	3
▁टेक्न	3
▁नान	3
क्रोच	3
▁एयरवेज	3
पेरोस्कोप	3
▁पंचतत्त्व	3
▁कन्ह	3
▁अमीत	3
▁कालीम	3
▁खूल	3
ोकोक	3
▁रैफ	3
▁तावांग	3
▁११००	3
स्ड	3
्ट्र	3
ष्ठ	3
▁प्रोजेस्ट्रो	3
िनेशन	3
▁जौंक	3
कामयाब	3
राविकु	3
▁ट्रॉपिक	3
▁गहमा	3
▁कलाप	3
सियम	3
बाज	3
टोर	3
न्सिल	3
▁हस्तक	3
रघा	3
ाइबर	3
▁पष़	3
▁कान्तिव	3
▁स्मा	3
इल	3
▁अश्	3
लील	3
प्रोत	3
▁टेम्पो	3
ट्ठ	3
▁कटक	3
▁पद्यात्रा	3
▁उकसात	3
▁पेन्क्रियाज	3
▁इमर्	3
फ़्त	3
▁रक्	3
सौल	3
वाहिक	3
ैथल	3
▁दयार	3
▁शॉर्ट	3
▁विनय	3
▁ग्लूटा	3
▁एमए	3
▁लाइस	3
ज़ाइ	3
▁ऑडियो	3
्यूबर्ट	3
▁वजीर	3
▁पोछे	3
▁बीड	3
▁फफू	3
▁प्रैग	3
▁प्यू	3
▁चौगुन	3
▁पेमा	3
▁थॉ	3
▁मैजिक	3
▁मनौत	3
्नानास	3
▁इलाह	3
▁हर्ट	3
यूनिट	3
ध्य	3
▁पड़ें	3
▁बंगलूर	3
▁पैदाइश	3
गड़	3
ुल्लि	3
भुरी	3
▁रक्तवाहिन	3
डोमे	3
डिड	3
्यों	3
▁ऑक्	3
ेम्ब्र	3
ूज़	3
▁कब्	3
▁संदक	3
ंटर	3
▁आँत्र	3
शस	3
▁मॉड	3
▁दानव	3
▁मुक्ता	3
▁बावे	3
▁पौरुष	3
चाँद	3
हेड	3
▁एण्टी	3
ॉब	3
ल्क	3
▁उबक	3
▁खातिर	3
▁विप	3
▁ट्रॉ	3
▁रामाक	3
▁गंगो	3
▁क्लैरी	3
मेनो	3
▁ट्रो	3
पैठ	3
व्राजक	3
रॉइड	3
▁तुमक	3
▁रिपेयर	3
▁जबल	3
▁साय	3
िक्योर	3
ण्ण	3
▁न्यूक्लिय	3
▁कैने	3
बिस	3
्तरी	3
▁चंपान	3
▁भृकुटि	3
दल	3
्फर	3
▁कुषाण	3
▁मृदभांड	3
▁दिव	3
▁लम्जा	3
ुईनु	3
▁द्वादश	3
▁सुमित	3
▁तुल	3
▁एलीफेंट	3
रेन्द्र	3
▁कारवा	3
▁सजग	3
▁बजरंग	3
▁टैम्प	3
▁आर्टि	3
फिशिय	3
टियर	3
सिड	3
▁एजेन्ट	3
▁टोफ	3
िस्ट्री	3
▁छतरी	3
X	3
▁मातृका	3
▁लैंप	3
▁जलसे	3
मर्स	3
वंशी	3
डार	3
▁आरू	3
▁एकलिंग	3
▁वनभोज	3
ेटिड	3
▁इस्ट्रो	3
▁अलमार	3
▁तिज	3
▁घाघ	3
▁विनोद	3
चेष्ट	3
▁वर्टि	3
▁अल्पकाल	3
▁१६६	3
त्तन	3
▁चन्द्रगिर	3
▁प्रसन्नचित	3
▁गिरगिट	3
जिकल	3
▁आइड	3
▁स्ट्राबेरी	3
▁इन्फ्लेमे	3
▁धा	3
सीना	3
▁वेश	3
▁दानवीर	3
▁स्टैन	3
▁ठप्प	3
▁टिम्	3
मंस	3
▁माइक	3
▁एसिट	3
▁लैक्टे	3
▁नबं	3
क्सिन	3
बेस्टेर	3
▁एल्ब	3
▁शैय	3
मेरू	3
क्रान्त	3
क्योर	3
▁स्वीकार्य	3
▁कँपकँप	3
▁हाय	3
दरंग	3
▁बौमड	3
नीला	3
्रॉनिक	3
▁एक्वा	3
ाजा	3
डियाट्रि	3
▁पेक्ट	3
▁पाइल	3
▁कंदरा	3
▁ख़त	3
सम्मान	3
▁बैक्टिरिय	3
▁गैंग	3
▁न्यूरोन	3
ेलीन	3
▁बारादर	3
ेवाड़	3
▁लौहतत्	3
णक	3
▁डायल	3
यमान	3
▁ईगल	3
▁मवेश	3
टाट	3
ंचर	3
▁हाउसबोट	3
णु	3
▁टिबिय	3
फुला	3
ँवर	3
▁एडिक्	3
▁गवाक्ष	3
ायत	3
▁मल्ला	3
केंद्र	3
▁ऐशमोल	3
▁सुधारा	3
शु	3
▁धकेलन	3
▁टिव	3
बिलिट	3
ज्ञा	3
▁सुराग	3
ोह	3
▁चोरतन	3
▁यो	3
▁नानक	3
▁ताड़ी	3
▁त्या	3
▁नफख	3
▁किलकार	3
वीर्य	3
▁पताका	3
▁जहरीला	3
▁प्रबंधक	3
▁प्रॉडक्ट	3
ाजू	3
चौड़	3
तेनु	3
▁हेलिकोब	3
▁अनाम	3
▁आंकड़	3
▁प्रसंस्कर	3
बेक्टीरिय	3
▁रायस	3
▁यथाव	3
▁ऑर्	3
▁चेरी	3
▁बेका	3
पल्स	3
▁भि	3
▁अप्रिय	3
ोरिस	3
ामूल	3
माया	3
▁मेधाव	3
▁वर्ध	3
शौक	3
अस	3
▁अविष्कार	3
▁नु	3
ब्रा	3
सपाट	3
▁चक्का	3
ोती	3
▁त्रिगुण	3
▁अधिकांशत	3
लास्ट	3
▁चंद्रमा	3
टेनस	3
र्द	3
थो	3
▁नज़रिय	3
पिया	3
▁अंतः	3
▁दिल्लीवास	3
▁घोटें	3
बैक्टीरियल	3
▁कश्यप	3
▁लिगामेंट	3
बूझ	3
▁इमेन	3
▁बौद्धस्थल	3
▁मन्नार	3
▁पैथा	3
▁मुब	3
▁उड़न	3
▁गोपी	3
▁तुंगा	3
▁निबटा	3
▁अरु	3
ंडिस	3
लुंग	3
शाय	3
▁अधिव	3
▁लालकिल	3
मिनिस्ट्र	3
▁लपेटने	3
▁एन्डो	3
▁अनुपस्थित	3
▁बौ	3
com	3
ंतव	3
निर्म	3
ज्ज्वल	3
विंदा	3
▁खगोलविद	3
३७५	3
▁पंचमुख	3
▁कभीकभ	3
▁चटकने	3
ाशी	3
▁गुजरे	3
तिया	3
▁पुरुषोत्तम	3
▁बकु	3
▁बाबर	3
र्ब	3
तिक्रम	3
▁आस्ट्र	3
▁युगो	3
▁गुंजा	3
▁आर्च	3
▁मिनिम	3
▁देविक	3
ैलून	3
▁अत्याचार	3
▁लोककथा	3
▁झाई	3
पलामू	3
घोर	3
क्वे	3
लिग्न	3
▁भरोस	3
▁सज	3
ुकुट	3
प्पू	3
▁आर्कष	3
▁दुरू	3
्रांग	3
▁टूटन	3
▁खिसकत	3
▁स्फ	3
▁छत्री	3
▁बालेश्वर	3
▁सप्लीम	3
▁सैम	3
ॉक्सी	3
तलु	3
▁ढाक	3
▁टोंग	3
▁निखरे	3
▁आर्स	3
▁फेन	3
्रेगने	3
व्यास	3
▁रिच	3
योजन	3
्म्य	3
पथ्य	3
▁प्रोट	3
▁मांडल	3
राइड	3
ईसाइ	3
▁विचर	3
▁वर्षो	3
शीर्ष	3
▁बेशुमा	3
▁गोरखा	3
ॉन्ट	3
▁कॉस्ट	3
लाडो	3
▁प्रू	3
ल्वी	3
▁नलब	3
▁कॉन्सट	3
▁कांगड	3
▁फिजियोथैरेप	3
▁चकरान	3
ीलिया	3
▁मंड	3
ावा	3
यक	3
▁अन्तःस्	3
▁नियास	3
▁देवल	3
▁बागडोर	3
▁०३५	3
▁पढ़ाय	3
▁कटानिया	3
▁फौआर	3
▁लोच	3
▁स्काट	3
डिग	3
▁परख	3
नासा	3
जैसा	3
▁पांच	3
▁पेटिंग	3
▁अन्वेषक	3
कित	3
▁प्रत्यंग	3
▁गलतफहम	3
▁बेक	3
▁एचबी	3
्राइन	3
▁ऐसोसिए	3
▁ड्राप	3
▁कंकड़	3
▁रूपांतर	3
शून्य	3
कॉर्न	3
▁अट्टालिका	3
▁बिश	3
▁चूसत	3
ंपा	3
▁वानर	3
▁देवराजा	3
ओज	3
▁नैतिक	3
▁पैंग	3
▁ब्युटा	3
▁लीथिय	3
ुद्दे	3
▁कांटे	3
▁ट्वाय	3
▁पोटे	3
▁३०५	3
▁रेप	3
▁कोपल	3
▁मिरि	3
▁साँवल	3
▁दैव	3
गवान	3
▁रिफाइ	3
▁कार्ययोजना	3
ारंग	3
▁ज्यामिति	3
▁आच	3
त्	3
ुंग	3
ल्मेडु	3
स्पर्म	3
एसए	3
▁खिलाय	3
▁हंस	3
▁सैं	3
▁पार्टिकल	3
▁सैम्प	3
्ले	3
देवल	3
▁विजुअल	3
ोथ	3
▁विन्ध्य	3
इब्रा	3
▁सिग्म	3
पेटा	3
▁बौना	3
▁भौ	3
ाइक्लो	3
िस्टीन	3
फस	3
▁ओम	3
▁अहि	3
▁अश्रु	3
▁पोंछे	3
▁वांछ	3
▁अपेंडिक्	3
▁गेल	3
▁दोन	3
▁गोम्फ	3
▁गुलजारबाग	3
▁प्रोव	3
ुलिया	3
केश	3
▁पीयर	3
▁सहमत	3
▁रिव	3
▁डिसआर्डर	3
▁वर्तुल	3
मवाल	3
▁मेटाबॉलि	3
▁लंगड़ा	3
▁मुट्ठिय	3
▁ग्लो	3
▁चिन्	3
▁कौशलता	3
्युमो	3
ूक	3
्पिस	3
माय	3
टोसिस	3
▁पाण्डव	3
▁१२२	3
्तव्य	3
र्मी	3
▁अशक्त	3
▁लिखन	3
▁पेनसिल	3
▁१७००	3
▁स्क्रोट	3
शू	3
लॉजिक	3
▁जैरो	3
िकस	3
ठिया	3
▁सीढिय	3
्ती	3
▁सावधानिय	3
▁सीसी	3
▁तापन	3
क्ष्य	3
▁चटख	3
चोटी	3
▁आलोक	3
▁उपनिवेश	3
▁चौसठ	3
▁दवाईय	3
डाल	3
▁संजीवन	3
▁फैक्ट्र	3
▁उस्तूख	3
▁स्ट्र	3
▁चाड	3
▁टर्न	3
▁फौआरे	3
दाह	3
ेन्यू	3
द्रनाथ	3
▁मकोड़	3
ब्राय	3
मचला	3
▁ओय	3
▁ओपर	3
्धांग	3
▁वसूल	3
रोटिन	3
▁घृत	3
प्रम	3
वीड	3
▁फ्लश	3
▁चौम	3
▁उड्ड	3
▁फील	3
▁सरोज	3
▁धातुरोग	3
वेटर	3
स्क्री	3
▁स्नोर	3
प्रीम	3
रियट	3
▁कुरूप	3
▁३३०	3
निम	3
▁सगर	3
▁स्खल	3
▁धरम	3
ैस्ट्र	3
▁फेंके	3
▁काउन्ट	3
▁जसव	3
िनल	3
▁रिह	3
▁बारहसिंघ	3
▁आलूबुखार	3
▁हुक्क	3
▁तर्क	3
जोर	3
▁थैल	3
टीरियल	3
फिर	3
ैनी	3
▁बसाई	3
▁शोभाय	3
पनिवेश	3
रोड़	3
▁दवाफरोश	3
▁ट्यूबरकुल	3
▁अधीश्वर	3
श्चि	3
▁तलाक	3
▁सिंका	3
मर्श	3
▁खामिय	3
ँख	3
▁धकेल	3
▁सदन	3
▁ताम	3
▁कमनीय	3
▁स्वदेश	3
टेलि	3
▁रोएँ	3
▁विघटन	3
▁यशव	3
▁छोड	3
▁मन्नत	3
▁मरीज़	3
िद्दर	3
ॉय	3
▁धर्मग्रंथ	3
वाडी	3
▁लड़ाइय	3
▁मतावलंब	3
क्लिप	3
▁मौरी	3
▁कंगूर	3
ोदर	3
गुलर	3
▁शीशम	3
▁चलो	3
▁संचालक	3
▁विलो	3
▁जठर	3
▁मँगा	3
▁मांडले	3
्यता	3
एल्ब	3
ुमिन	3
्युरिय	3
गोत्र	3
▁भारतपाक	3
विटी	3
▁इलैक्ट्र	3
ॉनिक	3
साइटि	3
ंडन	3
▁निथर	3
ोक्रोम	3
सिमल	3
▁प्रोक्	3
▁पहुँचाएँ	3
दरा	3
▁एंडोमेट्रिय	3
किशोर	3
▁अधिपत्य	3
लीकॉप्टर	3
▁बलराम	3
▁एसिटिक	3
प्रेम	3
▁चोक	3
▁भिन	3
▁अमीनो	3
्रीय	3
▁फार्मूल	3
रक्ष	3
▁डेव	3
▁शिग	3
▁स्टॉप	3
शिखर	3
▁फ्रक्टोज	3
टोनि	3
▁तेलुग	3
▁लॉब	3
▁निवृत्त	3
▁टॉक्सि	3
▁लैपेरोस्कोप	3
▁हडि्डय	3
▁सुषमा	3
▁चट्टानरोह	3
श्रृंग	3
▁बेसिक	3
▁आयोजक	3
कल्लु	3
▁लती	3
वास्तव	3
कौ	3
राम्ब	3
▁वेमबना	3
चंचल	3
द्रता	3
▁मेज़	3
▁बिगुल	3
▁फ्रेंड	3
फोक	3
▁मुण्ड	3
▁हुड	3
तिप	3
▁अनुमोद	3
▁कंज़्यूमर	3
▁संस	3
▁आनुवंशिक	3
▁कामोत्तेज	3
▁शाकुं	3
▁जयद	3
्रथ	3
▁बोरा	3
▁ब्रैड	3
▁स्लिम	3
▁इंस्टिटयूट	3
सीसी	3
कलास	3
▁खींचे	3
▁इडि	3
▁सनस	3
रोमा	3
रुचि	3
▁थपेड़	3
▁ति	3
▁चिमनिय	3
▁वफादार	3
नाज	3
▁प्रियदर्श	3
▁विरे	3
रिडि	3
▁रिकवर	3
▁टेस्टोस्टेर	3
न्धे	3
ुड़वा	3
ब्ल	3
▁चौद	3
▁प्रौ	3
पत्न	3
र्गे	3
िकास	3
मुस	3
ल्ले	3
▁तिनक	3
योन	3
▁ब्लीच	3
▁इंतज़ा	3
▁बलु	3
▁डील	3
▁इलेक्ट्रॉनिक	3
▁मेडिस	3
▁भुरी	3
▁जीती	3
सात्म	3
▁मारक	3
▁शालि	3
▁भिक्षा	3
ैंपल	3
▁यौनांग	3
▁अनंतकाल	3
चिन्ह	3
▁पंचच	3
▁रिसार्ट	3
र्टिब्र	3
▁कार्यान्व	3
न्त्र	3
▁आलिंग	3
यूरिया	3
▁शंकु	3
▁ऐंटीबायट	3
ग्राफ	3
ड्यूस	3
▁आश्र	3
एंट्राइट	3
०५०	3
▁हाइड्रो	3
▁बंदो	3
▁मौस	3
▁चुभ	3
▁सारंग	3
▁बिच्छु	3
पोर	3
क्ति	3
लाजी	3
▁अक्षत	3
▁डायग्नोस	3
▁भरोसेम	3
▁ग्राह	3
प्प	3
▁पहना	3
ल्ल	3
▁अर्श	3
प्रतिश	3
▁मेकल	3
▁बैर	3
स्पर्शी	3
पैक	3
कथा	3
▁जायसवाल	3
▁नीतिय	3
▁ग्राफ	3
च्चा	3
▁कैवल्य	3
▁मॉ	3
पकी	3
प्रतिरोधक	3
▁खालस	3
ानिक	3
▁इलैक्ट्रो	3
५२४	3
▁इण्ट	3
▁राजमा	3
शोधक	3
▁पर्टय	3
▁कहानिय	3
्लानि	3
डांड़	3
सुरा	3
▁बट	3
▁संगीतज्ञ	3
▁झिंग	3
ाड	3
▁फोर	3
▁अंर्त	3
▁टिफ	3
लैस	3
▁ध्यानम	3
▁चन्द्रा	3
लूर	3
पद्मासन	3
▁कन्हैया	3
ट्र	3
▁कहान	3
ूडी	3
▁खुरदरा	3
▁शनै	3
लगंड	3
▁रिलेक्स	3
टाइज	3
फैरी	3
▁रक	3
▁झिलमिला	3
ाणि	3
▁खर्जू	3
राइज	3
कुण्ठ	3
लोकन	3
रायण	3
▁डुबो	3
मोनिय	3
▁अटैच	3
ीठ	3
▁मन्	3
▁कैलाशपुर	3
रिक्श	3
▁वंद	3
▁ओजस	3
तोणिप्प	3
▁कराह	3
▁कलह	3
ुब्बा	3
▁गीज	3
▁प्रि	3
▁पोच	3
▁खोलें	3
▁नंजनगुड	3
▁दरक	3
▁कोलाक	3
▁पैरासाइट	3
▁दण्ते	3
▁अरक	3
▁उड़ेल	3
▁शर्मि	3
▁वेगा	3
▁इज़ा	3
▁एरोम	3
▁टेरेस	3
लपट	3
▁रिफा	3
ोषण	3
▁क्ल	3
▁ड्राइ	3
▁पहरेदार	3
फ्रंट	3
▁चै	3
▁लपट	3
▁आलोच	3
▁माईक्रोस्कोप	3
▁अनारदान	3
▁तिर	3
ण्डा	3
डेक्क	3
भुजा	3
▁ब्राय	3
उद्यान	3
पोलिय	3
▁माय	3
▁देवालय	3
ोरम	3
ीएच	3
▁अमीन	3
दो	3
▁झाव	3
▁पिट्स	3
▁झुर्रिया	3
्गरी	3
▁चाब	3
ोसाइन	3
नवे	3
म्पियन	3
चन	3
▁सुंग	3
▁प्रशांत	3
▁कोलीन	3
सन्स	3
ोनी	3
स्ते	3
▁जैक्सन	3
न्द्र	3
एक	3
▁फिजि	3
फान	3
▁अंबर	3
ज्जत	3
▁पंथ	3
▁ट्राम	3
फुट	3
नावा	3
गेज	2
▁पल्लि	2
वासल	2
्रीन	2
▁सोये	2
▁उपेक्ष	2
▁झोपड़	2
िष्य	2
▁पोटेटो	2
ांगक	2
▁२६५	2
▁स्ट्रेप्टोक	2
▁पकान	2
▁हैजलीन	2
▁सियार	2
▁कांतिमय	2
▁वैन	2
▁जॉइ	2
▁धुलान	2
▁झुलसत	2
▁सेलिब्रे	2
▁सुद	2
ोपॉल	2
िटन	2
टिला	2
शबू	2
कोआ	2
▁मलबा	2
▁फ्लैश	2
▁लिबास	2
▁थिय	2
▁स्क्रू	2
▁मॉनेस्ट	2
▁सांय	2
▁एड्रेन	2
▁ढलुआ	2
▁राजप्रसाद	2
in	2
ज्जा	2
▁सिय	2
कोलॉजि	2
▁पश्च	2
दोहर	2
लिओन	2
▁टेर	2
▁प्रवृत्त	2
यल	2
▁गुर्दो	2
रोपैथ	2
▁पलास	2
▁बेली	2
▁रामस	2
▁ऊँघत	2
▁दिग्	2
▁आर्जि	2
▁कंडक्ट	2
्जे	2
छूत	2
▁लुंगल	2
▁१३७	2
▁०८	2
▁सिट	2
▁चढ़ाइय	2
▁बेन	2
Bio	2
chemical	2
▁सहस्रा	2
्ग	2
ोल्डर	2
▁बेंज	2
घंटा	2
▁टेल्क	2
गोट	2
▁अनुभवहीन	2
ापाम	2
रंगा	2
▁घबरान	2
▁प्रक्षाल	2
▁लुभाएग	2
्रदन्त	2
ीगुड़	2
▁ओलंपिया	2
▁प्रौढ	2
▁सर्वस्त	2
▁तड़प	2
▁एम्प	2
▁समिध	2
सुर	2
▁पिपरम	2
▁आईस	2
ोनेट	2
▁जोहान	2
▁उकता	2
▁डुबोएँ	2
▁गोष्ठिय	2
ंगेश	2
दाय	2
ारण्य	2
▁उस्तर	2
▁चमगादड़	2
▁ट्रेक्कर	2
पत्ती	2
▁तल्ली	2
ेनिन	2
हुड	2
टूरिज	2
▁कलाप्रेम	2
▁बारहदर	2
▁रैडि	2
▁सरप	2
जुला	2
रोह	2
▁ढह	2
▁बेवकूफ	2
रिथ्रो	2
ोटिन	2
▁चाबिय	2
▁असंक्राम	2
▁कायद	2
▁बनिया	2
▁स्नेक	2
ॉर्ट	2
्ल	2
▁विंडसर	2
ोखा	2
टॉन	2
डियोल	2
▁डगमगा	2
http	2
▁दारु	2
सन्ध	2
▁क्योर	2
▁१३३	2
▁निस्तेज	2
चूक	2
▁प्रीमिय	2
ीक्यूटिव	2
▁बागीच	2
▁टाइ	2
▁ऐक्	2
▁अभिलाष	2
ुंचन	2
▁खारदूंग	2
▁सुरक्थक	2
▁दुगन	2
▁द्	2
▁क्री	2
ाणे	2
▁एन्जाइ	2
नंदन	2
▁उपन्यास	2
▁रेंट	2
▁स्कीम	2
र्त्तव	2
▁गोड	2
रूद	2
▁स्वयंसेवक	2
▁पैरासी	2
▁भोगन	2
▁कुल्	2
हाड़ी	2
▁काँप	2
विदेश	2
▁डेस्टिनेश	2
वर्णी	2
▁फ्रान्स	2
▁३२५	2
▁अश	2
र्फी	2
▁प्रतिकृति	2
▁आदिकाल	2
▁त्रिकाल	2
▁मायो	2
दड़ो	2
▁कालीबंग	2
लिटर	2
▁हाँफ	2
लाख	2
▁चौकीदार	2
रांत	2
्रम	2
कार्ब	2
▁बौल	2
▁पनचक्क	2
▁नूरपुर	2
छोड़	2
▁एमीन	2
गोडा	2
▁सर्वसु	2
जेस्ट	2
▁रिफ्लेक्स	2
यक्ष्मा	2
▁फारे	2
रेट	2
डीसी	2
▁बैं	2
क्रोफ्ट	2
ैटिक	2
बस्त	2
▁लाये	2
▁झालरे	2
▁तिनसु	2
▁ऐत	2
ट्यू	2
▁सुरू	2
▁बटालि	2
▁डॉर्म	2
िट	2
▁तवा	2
इये	2
धानी	2
▁कुटेट	2
▁कहलाए	2
उंग	2
▁संदीप	2
▁गुलद	2
▁सांता	2
▁एंडोस्कोप	2
▁कैलो	2
ासुकी	2
▁डिप्	2
वेदन	2
▁होशंगाबा	2
▁पटा	2
▁हिस्टोरिक	2
▁विस्मृत	2
▁निद्रालु	2
▁रेडी	2
मेड	2
▁आभ्य	2
▁सनसना	2
डील	2
▁रिटे	2
वतार	2
राइन	2
▁क्रू	2
▁लखनपुर	2
िथि	2
▁ऐलो	2
▁रक्तस्रोत	2
जोशी	2
▁श्यामवर्ण	2
▁ऊष्म	2
▁निष्कर्	2
▁अंगोछ	2
लॉग	2
ैप्टाइ	2
ग्लीट	2
िविट	2
रामबा	2
▁रातू	2
रोड	2
▁कुँव	2
मोसिड्रि	2
िंच	2
्रैक्स	2
▁दुविधा	2
▁२९५	2
▁०३	2
▁गेर	2
▁सनग्लास	2
▁संयत	2
▁ढोक	2
ैथिल	2
▁अर्द्धम	2
▁हाथो	2
▁महाम	2
▁मायोलि	2
▁लज्जा	2
▁पांडु	2
ठान	2
▁तरीको	2
स्क	2
▁नक्क	2
▁गुड्ड	2
क्कड़	2
विचार	2
केशन	2
▁आइलै	2
्लू	2
स्ट्रो	2
▁सिलिक	2
▁साइडइफेक्ट	2
▁रॉकेट	2
▁ट्रेकर	2
▁भेड़पाल	2
▁साम्राज्	2
ञ	2
थरी	2
क्टोज	2
▁छितरा	2
्गी	2
ुचा	2
मांड	2
कर्षण	2
्रोक्रो	2
▁इंजेक्ट	2
▁नहाए	2
▁मार्त	2
सुब	2
्रमण	2
्यम	2
▁तिरुचिरापल्ल	2
▁बुझ	2
कानन	2
▁कोकोन	2
चकदार	2
▁आर्थर	2
▁ढिक	2
▁अनसेचुरेट	2
▁टेम्प	2
▁टोब	2
▁इक्ली	2
▁बांद	2
▁विट	2
▁कतर	2
▁इडियोप	2
▁समाधिस्थ	2
▁कैरे	2
▁एडी	2
▁घुड़	2
लाट	2
▁वाजीकर	2
▁कुश्त	2
▁तलवारबाज	2
▁निर्ण	2
▁पाथर	2
▁द्रुक	2
▁घांघ	2
▁घमौरिय	2
▁लिंक्	2
▁ट्रीटमे	2
▁६८६	2
▁गाउ	2
▁पोलिन	2
▁सीज	2
▁स्टार्ट	2
शिश	2
मन्ना	2
▁गिरवा	2
▁धर्मशाल	2
▁किवाड़	2
▁बंब	2
▁कलि	2
▁मनोस्थिति	2
▁एशिय	2
वश्यक	2
ोस्को	2
▁फाँक	2
▁साल्ट	2
▁पोले	2
▁सैफ	2
▁भाएग	2
लौंग	2
टैक	2
वर्ल्ड	2
▁मीनो	2
हें	2
▁डिजन	2
▁शाकाह	2
बामैज	2
▁स्वार्थ	2
्थि	2
▁लीग	2
लर्ट	2
▁टौ	2
▁सुकूनदाय	2
एसएफ	2
▁खगोल	2
▁होग	2
▁वॉयल	2
ँच	2
▁खूँट	2
मेला	2
ोल्ड	2
खाव	2
केलिप्ट	2
▁तंब	2
▁अटका	2
▁खल	2
▁ललक	2
▁इनक्यू	2
▁कुड	2
▁कंप्रेस	2
▁स्पंज	2
िलिंग	2
दील	2
फेल्ट	2
हेर्न	2
्डर्स	2
▁एबोर	2
▁फलो	2
हाईड्र	2
▁क्रिस्ट	2
लेक्जे	2
विलंब	2
लाजिस्ट	2
ंसो	2
बुक	2
▁सुध	2
▁इंवे	2
स्टिग	2
▁एचएस	2
▁जिम्मे	2
▁पिण्डिका	2
खिम	2
▁गूँगा	2
वायर	2
▁सहस्रलिंग	2
▁वॉर	2
ाशीद	2
रण्ड	2
▁मनु	2
ज़ाना	2
ायण	2
▁सांताक्	2
लिप	2
▁सुनार	2
▁इमर	2
▁छिपक	2
▁गाबा	2
▁एकाकी	2
▁पराठे	2
यूरेट	2
▁श्रोण	2
यूमर	2
▁इरिटे	2
▁नीरो	2
िजीज	2
ोले	2
▁हिचकिचात	2
▁निम्ना	2
▁रिश्ते	2
▁चांद	2
▁वस्ति	2
त्सु	2
▁बगु	2
आबा	2
▁तात	2
क्लब	2
ज़ी	2
ग्रन्थ	2
▁कहलाये	2
ैलिरि	2
क्सट्रैक्ट	2
▁साफसुथर	2
▁मेरिडि	2
ेज़	2
बाम	2
▁डायफ्र	2
जपत	2
ोत्	2
▁प्रोसैस	2
▁लावण्यमय	2
ँगला	2
व्यवहार	2
ठेश्वर	2
▁०५	2
ेन्द्री	2
▁टां	2
िंगमा	2
▁आब	2
जर्ब	2
माँ	2
▁झुके	2
फ्रेशनर	2
कृच्छ	2
गस	2
▁खील	2
▁विक्रेता	2
▁क्लोज	2
पै	2
▁पिपल	2
▁पोटो	2
ुहार	2
भ्रमण	2
खत	2
थूज	2
▁वेरिसिल	2
▁फ्रेक्	2
▁टोड	2
▁प्लम	2
ूतन	2
▁दुल्हन	2
▁सिसु	2
▁घुमाय	2
वाइस	2
▁दिग्विजय	2
▁नक्का	2
▁सर्विसे	2
▁चूड़ाचा	2
िदा	2
शाकाहार	2
▁तरण	2
्टे	2
▁गुटक	2
▁साहित्यकार	2
▁नवदंपत	2
▁पराक्रम	2
▁हत्था	2
ाभिमुख	2
▁चूमन	2
▁सप्तधातु	2
▁पहाड़ो	2
ख्म	2
▁श्रृद्धालु	2
▁नॉर	2
्छ	2
▁वाइरल	2
▁कवकनाश	2
▁हाइजिन	2
रिक्र	2
▁सुलझा	2
▁जुब्बा	2
▁साह	2
र्सेली	2
▁नेप्ट	2
रीयल	2
▁सींगवाल	2
्रवण	2
▁षड्यंत्र	2
▁०१२	2
▁२७३	2
▁ऑर्गन	2
▁इपि	2
डर्म	2
ँगा	2
▁दार्ज	2
▁घंटो	2
▁साइक्लो	2
र्गन	2
▁कन्दरा	2
▁चक्षु	2
▁मिडिय	2
ौदा	2
▁जाफरान	2
तरून	2
माम	2
बेद	2
▁बनन	2
▁कन्वे	2
▁पदा	2
▁मंकी	2
मुत्त	2
▁ललचाए	2
्मरी	2
▁कराएग	2
▁नक्सल	2
▁टेक्स्	2
र्डिग	2
▁आईआरसी	2
▁क्लाइ	2
होल	2
▁ब्रॉक	2
▁मायोक	2
▁ग्लूकोस	2
▁रिट	2
▁मौर्यकाल	2
स्था	2
▁माधो	2
▁१९००	2
प्राय	2
फाइ	2
▁मूत्रवर्द्ध	2
▁ल्युक	2
एसिड	2
टयु	2
ोव	2
▁लोमो	2
विध्वं	2
शक	2
फूल	2
▁कैपी	2
सोलिन	2
▁चोग्	2
▁ठिक	2
▁नागिन	2
▁उगल	2
ांति	2
▁स्क्रब	2
▁प्रतिष्ठान	2
▁अफरा	2
▁अपराह	2
तली	2
▁बुश	2
पाव	2
ोश	2
यत्न	2
ियाट्रि	2
ोलाजिस्ट	2
ोनैन्थ	2
बेथ	2
▁फूटन	2
▁मंदिरो	2
▁एम्बैस	2
▁नेफ्र	2
निर्वा	2
▁पैल	2
्रेश्वर	2
फन	2
▁निश्छ	2
▁८व	2
▁हेच	2
▁डैनज	2
▁पैलो	2
ाओ	2
ेनॉल	2
गोंडा	2
द्धि	2
▁लोंग	2
रकू	2
▁प्रोटोजो	2
▁जलचर	2
▁पहु़ँच	2
▁कर्ज	2
ोस्पेक्टि	2
कंटिनें	2
दअर	2
कुटिया	2
ुक्	2
▁प्रकृतिप्रेम	2
▁चांसे	2
घन	2
▁चित्रक	2
ालवी	2
▁फ्यागस्	2
स्म	2
▁रत्नागिर	2
पोखर	2
▁ऐसिट	2
ैडिकल	2
▁खोलत	2
जनेर	2
वासना	2
गडिय	2
▁बोम	2
▁जीज	2
पंथ	2
▁पेप्प	2
▁टिप्पण	2
▁जेवर	2
▁फान	2
▁कंपा	2
▁दिवार	2
▁बैन्ज	2
्यूरिया	2
▁फड़फड़ा	2
▁अल्म	2
िय	2
▁प्रगतिशील	2
▁ट्रैंक	2
▁बृज	2
मुश्किल	2
▁ज्वेल	2
रौंज	2
▁देवलटांड	2
▁विलुप्त	2
नेस्थे	2
िंपल	2
▁गाइडलाइन	2
▁३४०	2
▁शिक्षाविद	2
कवि	2
▁कुनकुना	2
दीद	2
वीन	2
चाला	2
▁चैंप	2
ऒ	2
▁क्लीयर	2
वलसा	2
▁परफॉर्मे	2
▁पर्यावरणविद	2
्रव	2
पूजन	2
रियो	2
▁एकाग्रचित्त	2
क्षुण	2
र्तन	2
▁बहम	2
▁लाँघ	2
▁एस्के	2
ण्डु	2
▁सीढ़ीय	2
संगत	2
▁अठार	2
निर्व	2
▁लिनिमे	2
▁नीड	2
▁पैराथ	2
▁कोलोसि	2
▁मीनोप	2
▁सरसरा	2
कलिका	2
▁मानवशास्त्र	2
▁यूके	2
▁कारबॉ	2
ौंक	2
▁रद्द	2
▁बैस	2
▁इष्ट	2
क्युलिन	2
▁रेलम	2
त्स	2
▁व्यपा	2
▁मरुस्थली	2
▁शिखा	2
▁कॉमिक	2
▁चिपकाए	2
▁विशाखापट	2
▁पेरिटोनिय	2
▁मैक्ल	2
▁शोल	2
▁सारि	2
ढल	2
▁इपी	2
▁निःस	2
▁गोबर	2
▁ग्ले	2
▁मुखु	2
मुन	2
▁हित्त	2
▁अपील	2
वर्द्ध	2
▁तपस्व	2
ोस	2
पाली	2
▁बलदेव	2
ीआई	2
▁थोरोस्कोप	2
ोचक	2
गेन्द्र	2
▁गृध्र	2
लकोट	2
न्तर्	2
▁बघनख	2
▁लिनिमै	2
▁मोनास्ट	2
डुप	2
▁होयस	2
ोफेन	2
िल्ट	2
वैज्ञानिक	2
डेर	2
हाई	2
यवाण	2
▁कंफ्यूज	2
जेन्ड	2
▁सुस	2
▁आमन्त्र	2
▁आदान	2
▁ओआ	2
▁डॉर	2
▁कोठरिय	2
इजेल	2
▁रामो	2
्येन	2
▁दाँये	2
▁पथर	2
▁हरीतक	2
▁माली	2
▁मूर्ख	2
▁आकाशी	2
स्कार्ड	2
▁यूरि	2
डोन	2
िब्बा	2
▁परफ्यूम	2
▁सीढ़िया	2
गम	2
▁मोनोअनसैचुरेट	2
कार्डियो	2
▁ब्यूटीपार्लर	2
्पाइन	2
ंदी	2
▁फ़ा	2
सला	2
▁लोगो	2
▁सिमि	2
्यूगा	2
िंदा	2
▁पंक	2
्टर्न	2
क्को	2
▁तल्ला	2
फॉस	2
▁भ्रात	2
कंठा	2
▁एंटि	2
▁बैनर	2
▁चेट	2
मकुंड	2
▁स्पूनर	2
▁ओवे	2
िटेनि	2
प्युरि	2
▁ज्यामिती	2
▁जैनधर्म	2
▁ट्रोप	2
▁मैद	2
▁ओनर	2
▁४२०	2
▁लुटा	2
▁बैलून	2
▁ब्लैकब	2
गणना	2
▁बुलव	2
ायटी	2
▁छिप्पी	2
▁नोंच	2
थिय	2
शैली	2
▁रैप्	2
▁अंडरगारमेंट	2
खु	2
▁कलकत	2
▁सबक्यू	2
▁रुपहल	2
▁शाहजहा	2
वैध	2
▁अनजाना	2
प्ति	2
▁कोडाईक	2
▁हॉबी	2
माई	2
▁सिस्टर	2
▁जोगि	2
बाल्ट	2
ैल्फ	2
ोलॉजि	2
▁इन्हेलर	2
▁स्त	2
▁टुक	2
▁विघट	2
▁सम्म	2
होन	2
सन्द	2
▁नजा	2
फास	2
न्द्राद	2
▁नाइट्रो	2
ग्लिसर	2
▁शरारत	2
▁उद्योगपति	2
▁रईस	2
मेडी	2
▁ताबांख	2
▁वाशिन्द	2
वारण	2
ावत	2
पिआ	2
टॉनि	2
ल्टी	2
रोक	2
▁गिलो	2
्परिक	2
▁रिलेक्सेंट	2
▁ऐल	2
मुद्र	2
▁प्रॉस	2
ंभाव	2
चाली	2
▁घुमंत	2
▁चढ	2
्यन्त	2
माइन	2
▁हिंन्द	2
ब्रो	2
ुति	2
▁लीके	2
▁कल्क	2
्यन	2
▁वेंकट	2
ल्लाह	2
ावशेष	2
▁स्टीमुले	2
ाधिकार	2
▁इठलात	2
▁नुमाइ	2
▁क्रु	2
सिम	2
ंपू	2
ैंडिल	2
ट्टो	2
खौफ	2
हाड़	2
▁अवमिश्र	2
▁बेलच	2
▁सैला	2
हला	2
संग्राम	2
िक्वे	2
खाँ	2
▁औलिव	2
▁डायग्नो	2
▁स्टो	2
▁ज्वलनशील	2
▁खरोंच	2
▁जगाए	2
बयान	2
ागीश्वर	2
प्रताप	2
खड़ा	2
▁रजिस्ट्र	2
धना	2
नडु	2
▁रुमाल	2
ुढ़	2
▁खटखट	2
चौरा	2
▁अलप्पु	2
▁माउन	2
▁बोरो	2
बुद	2
▁पार्थ	2
▁बिगड़त	2
बायोलॉज	2
स्रोत	2
▁मृगनय	2
भवन	2
ण्णा	2
▁शाक्य	2
▁धँसन	2
▁मशीनी	2
▁विलासिता	2
पीज	2
्युलिन	2
▁छाय	2
ल्यूम	2
▁कॉम्ब	2
▁ब्लॉ	2
▁नादि	2
▁पटकत	2
ज्जवल	2
▁जत्थ	2
▁सताएग	2
▁स्पून	2
मफल	2
गह	2
▁कॉलो	2
▁ग्लै	2
▁चमच	2
▁शार	2
▁आंगन	2
▁कौतु	2
गाडि	2
टुक	2
▁कैमो	2
▁हाइपरग्लाइसीमि	2
▁फिस्च	2
▁पेरियोडोन्ट	2
ालिका	2
▁सप्तश	2
योलोज	2
पीएच	2
▁खोय	2
▁नेरचौ	2
ांडा	2
▁कारनाम	2
▁महासंघ	2
ंटो	2
▁पौड	2
▁अनै	2
▁माँस	2
▁अलंकार	2
▁पेरी	2
▁बदसूरत	2
▁पुरा	2
िंजर	2
▁अजीम	2
▁उथल	2
▁फॉ	2
दिवस	2
उच	2
▁साधिका	2
▁नहात	2
जुंग	2
ुंगा	2
छा	2
▁रोमाँच	2
▁ट्रेवेल	2
केन्द्र	2
संपन्न	2
ण्डे	2
BOMBAY	2
▁गुमान	2
टीन	2
▁भुर	2
▁एवोक	2
ेन्ट	2
ल्लपु	2
ैफ्र	2
▁पेलिकन	2
विड	2
▁छ्ठ	2
▁अंडग्रंथि	2
▁ब्राह्मा	2
▁वाष्पी	2
ँट	2
स्तन	2
ाबूद	2
▁सन्तोष	2
▁सिकन्दर	2
▁शटर	2
▁स्कर्ट	2
▁लिंडा	2
▁व्यव	2
▁नागो	2
▁तलछ	2
▁जुड़वे	2
क्के	2
▁कलंक	2
दंत	2
ग्रंथि	2
▁लौरे	2
▁खोड्	2
सिंच	2
▁इरविकु	2
▁मॉस्चर	2
▁१९१	2
ायेंगे	2
▁त्रय	2
▁माध	2
मह	2
▁वांग	2
▁सिलवा	2
दिल	2
ोना	2
माइड	2
५००	2
लमेड	2
▁मेलब	2
▁घुसे	2
▁मदम	2
लिवर	2
▁कास्टिक	2
▁हिचकिचा	2
▁संचर	2
▁सेन्ट	2
▁रूमेट	2
र्टिकोस्टेर	2
ेडनि	2
मेथ	2
▁पंखे	2
नीशियन	2
उद्दी	2
स्टेंट	2
्यून	2
▁नैप	2
▁नल्ल	2
▁अवल	2
▁पुड	2
▁प्लाई	2
कोरम	2
टोरो	2
टाबॉलि	2
▁प्राकृति	2
▁घो	2
▁प्योर	2
▁आरट	2
विग्	2
▁मूर्त्ति	2
निग	2
▁सहय	2
रिसिप	2
टेबिल	2
▁प्राणिजात	2
रीनाथ	2
▁मक़बर	2
्क्युल	2
▁ऑय	2
्टमेंट	2
▁सिंगो	2
ैज	2
▁टिशूज	2
ज़ल	2
रेबिय	2
लेमी	2
पच्ची	2
▁इलिनॉ	2
▁मंत्रो	2
च्चार	2
▁गायन	2
▁हेर	2
स्कल	2
▁नैन	2
तुष्	2
वॉश	2
▁फस	2
शेड	2
र्फ	2
▁लम्हे	2
▁वाइंड	2
मेन	2
▁हेल्	2
ग्रन्थि	2
अटै	2
▁सुल्फ	2
▁सनकी	2
▁डिस्पोज	2
रभ	2
जामा	2
आना	2
रेटोमले	2
्धा	2
▁आँबलो	2
▁ताइ	2
चिकित्सक	2
▁सदम	2
▁खिलनम	2
▁नवा	2
▁व्हिस	2
▁वोद	2
▁अमला	2
▁कार्डियोवेस्क्य	2
▁२१३	2
▁फेरबदल	2
▁बांग	2
▁१६२०	2
▁इक्व	2
▁लिम्	2
पहाड़	2
▁प्रतिकृतिय	2
गैग	2
गिक	2
क्वार	2
ंकन	2
गनाथ	2
▁पात	2
▁दुहराय	2
▁लैड	2
द्रधनुष	2
बिट	2
▁दुहरा	2
शिर	2
▁पानमसाल	2
्युमिन	2
▁चिवड	2
▁कायल	2
्तिमा	2
▁हिं	2
डोला	2
▁कुद	2
वॉल्व	2
▁पुनर्निर्म	2
प्रस्तर	2
तों	2
▁मीडिय	2
▁चौपड़	2
निवार	2
RH	2
ve	2
स्वर	2
▁कार्बोहाइ	2
▁सिड्रो	2
धमन	2
यूष	2
▁क्लै	2
▁साँयकाल	2
▁क्वी	2
▁गोरा	2
▁विवशता	2
▁संघट	2
द्द	2
कार्बन	2
▁आस्ट्रेलिय	2
बन्द	2
▁नखर	2
त्राव	2
इंडिय	2
▁इट	2
▁कर्त्तव्य	2
▁वल्लभ	2
भाई	2
▁मैमो	2
िप्	2
▁बंजार	2
थि	2
▁कुण	2
▁डायटि	2
न्यू	2
ंडाइल	2
▁अर्धा	2
प्रा	2
▁इन्द्रा	2
ेगी	2
गल	2
▁विवेक	2
९००	2
न्	2
▁आर्न	2
▁टेकर	2
▁शब	2
वदंत	2
ुझा	2
▁पैग	2
▁कन्धा	2
यु	2
▁पौली	2
ोरे	2
▁मिताहार	2
▁लिव	2
▁टाक्स	2
▁१११	2
▁सम्बल	2
राइब	2
▁दाँ	2
▁सैद्धा	2
▁सिनक	2
▁बोरे	2
▁अगों	2
पीट	2
खांड	2
▁छतो	2
▁इम्प	2
पेन्ड	2
▁कॉर्	2
दर्भ	2
खड	2
त्यका	2
▁जूझन	2
▁माइको	2
▁लैप्र	2
▁रेखांक	2
▁प्रतिपाद	2
▁मिक्सोज	2
▁ओब	2
ावटी	2
▁ग्रथि	2
▁चम्प	2
▁फ्लैचूल	2
जेनीट	2
र्जर	2
▁अटपट	2
▁तीर्थक्षेत्र	2
▁सियाच	2
वेस्ट	2
▁सैप्ट	2
▁विषक्त	2
▁जम्बू	2
▁भोटिय	2
▁स्वर्गारोहण	2
▁दीख	2
▁कार्यशाला	2
▁फुलका	2
कु	2
ाहर	2
▁मिजि	2
गिन	2
दु	2
▁सम्प	2
▁विनि	2
ौड़े	2
▁लॉग	2
▁मग	2
फिश	2
▁दुश्चिंता	2
▁माचे	2
▁पुनर्व	2
▁ओट	2
▁अचेत	2
▁अनभिज्ञ	2
▁रैस्ट	2
पतन	2
गुन	2
▁इम्यूनो	2
▁डेफिशि	2
▁बकरा	2
स्टिग्म	2
निस्क	2
▁लेटर	2
▁इलियो	2
▁चन्द	2
▁बुर्चेल	2
▁ऑगस्ट	2
लॉजी	2
▁डीएम	2
▁निष	2
▁ब्रह्य	2
▁विनाय	2
▁फुटब	2
▁किश्त	2
▁ओढ़ा	2
संचार	2
▁१८२	2
ंदू	2
▁नवाज	2
वाहित	2
▁ठोक	2
▁प्रविष्टि	2
▁एस्ट	2
▁इंजॉय	2
▁महू	2
प्रति	2
▁पैनीर	2
▁ऑर्थो	2
▁बिलि	2
िल्डर	2
▁फलोद्यान	2
II	2
▁खोता	2
▁३७०	2
▁एमनी	2
▁रेग्यूल	2
▁फाइटो	2
केमिकल	2
▁चेह	2
▁यूरीन	2
▁बुल्	2
गारिया	2
▁परिपा	2
गोह	2
ुओ	2
▁पदमा	2
▁अपार्टमेंट	2
गुला	2
▁अंगरक्षक	2
▁थिर	2
▁रिलेश	2
स्तम्भ	2
ाउड	2
▁न्यूट्रीशन	2
ांस	2
▁डाइए	2
ेराव	2
▁ग्वालि	2
चिंग	2
हायत	2
प्रीति	2
▁रमण	2
थाई	2
▁बहुमंजिल	2
मलिंग	2
▁साझे	2
▁ब्रह्मच	2
सीब	2
▁नयन	2
बावर	2
▁निष्पाद	2
▁प्रसवकाल	2
▁चुगल	2
▁रौब	2
वला	2
१३४	2
लिश	2
▁डीडी	2
▁डायरेक्टर	2
▁भारवाह	2
िस्म	2
रबा	2
▁एल्यूम	2
▁गुजारे	2
▁बायोकैमिक	2
▁हठयोग	2
बाध	2
▁ध्वजा	2
िट्री	2
ीसरी	2
भूषा	2
ाभ्यास	2
▁पाइले	2
▁बारंबार	2
कुटुम्ब	2
▁बंधु	2
गम्	2
▁हारम	2
▁युन	2
▁चटर	2
▁कौम	2
▁अंकोलॉज	2
रमेश	2
गूल	2
पित	2
क्विन	2
मेटो	2
णिका	2
▁जागी	2
▁ट्राइग्ल	2
ेन्थो	2
मास	2
राता	2
टिस्ट	2
▁ज़बरदस्त	2
▁मध्यवर्	2
▁वर्गमी	2
टिफिश	2
▁गुंबज	2
▁मच्छ	2
▁दुमंज	2
टपुट	2
▁केंन्द्र	2
▁मोतियाब	2
्यूम	2
▁प्रोजेस्ट	2
रोन	2
▁०१	2
▁पॉलीथ	2
ाइ	2
ड़ाई	2
▁आर्थोप	2
ैथी	2
▁कर्मठ	2
लवार	2
▁उबाले	2
▁आरम्भिक	2
ुझान	2
शाइन	2
▁न्यूट्रिएं	2
▁स्वाला	2
प्लेक	2
गाई	2
ट्राइट	2
▁दम्पत	2
▁सर्वोत्	2
▁क्रे	2
ोनॉ	2
▁फेस्ट	2
▁डीम	2
▁उत्कल	2
▁छ्टपटा	2
्लैंड	2
न्डर	2
▁नगा	2
▁फौलाद	2
▁मह्त्त्व	2
▁क्लियर	2
प्रूफ	2
▁बदरीक	2
▁७९५	2
▁लवर	2
रिस	2
▁बैरा	2
लाइव	2
▁एंज	2
▁वृषण	2
▁मैक्यूल	2
▁गुंडल	2
जिस्ट	2
▁राजन	2
▁पॉइ	2
▁कुक्क	2
लीडो	2
▁लाईकोप	2
▁टार्	2
▁कन्फ्यू	2
▁थि	2
▁थोक	2
▁बगुल	2
पक	2
▁गणित	2
▁कंड	2
▁सत्यान	2
▁५२५	2
गप्पे	2
▁सालपर्ण	2
पूज्य	2
▁हरगिज	2
▁भूले	2
▁माष	2
वियत	2
संस्कृति	2
स्थापन	2
▁ज़िम्मेदार	2
ल्	2
▁प्रतिकार	2
नल्ज	2
र्गा	2
पाइर	2
डिन	2
▁चखा	2
ज्ञान	2
▁ठुमकत	2
ँत	2
खुद	2
ड़खान	2
▁फूलवाल	2
▁आर्किटेक्	2
▁आँकड	2
▁फैंट	2
▁फॉग	2
्जिन	2
बैक	2
खने	2
▁बीन	2
▁प्राइम	2
▁मैक्स	2
▁मरीजो	2
ट्ज	2
▁नग्	2
▁कनेक्टि	2
▁कुण्डपुर	2
डूँ	2
खली	2
▁ल्यु	2
ंद्रा	2
इरिस	2
ेदिनी	2
ंभ	2
▁हाजम	2
लूव	2
▁ऑक्यू	2
▁लाइनर	2
▁नख	2
लेख	2
▁कान्तिहीन	2
▁ऑबज	2
संवेदनशील	2
▁लिज	2
माधान	2
▁डाट	2
▁प्रोस्ट	2
ैक्टो	2
▁फ्लेक्सिब	2
▁बचाएग	2
▁कैनव	2
▁डबो	2
▁एक्सप	2
▁मॉडर	2
▁नक्काश	2
▁ट्यू	2
▁जॉर्	2
बिग	2
▁शिक्षागार	2
▁मारव	2
ंथे	2
▁कॉमनव	2
▁साक्ष्य	2
▁नृत्यगीत	2
▁शोधार्थ	2
णि	2
▁झोल	2
▁पुण्ड	2
लुमि	2
▁ग्लुकोज	2
▁बास्केट	2
मेटिक	2
▁हत्तू	2
▁टिम	2
मची	2
क्ल	2
▁ताई	2
▁मशाल	2
ग्रीस	2
रिफ्ट	2
▁भक्तिभाव	2
न्यूर	2
पता	2
▁आत्मवि	2
Hay	2
▁दूँग	2
कैंप	2
आजा	2
▁बीपी	2
▁सन्तु	2
▁गुज़ार	2
तमाद	2
▁गुसलखान	2
▁दुभाषि	2
▁कोलाह	2
▁८१	2
स्कुल	2
▁झुलस	2
ष्म	2
न्द्रावत	2
▁रचनाका	2
तवज्	2
ोत	2
▁विभा	2
णियार	2
▁१८३	2
प्ले	2
बंगाल	2
िस्सा	2
▁स्ट्रैप	2
कच्छ	2
▁रीतिरिवाज	2
▁संज्ञाह	2
▁वूल	2
सिग	2
घट	2
ोरी	2
▁ओल्	2
▁अर्न	2
्वे	2
▁रेस्पिरे	2
ाउन्स	2
ेनाईट	2
ीजैंट	2
गोपन	2
ेच्छा	2
पाषाण	2
▁डुम	2
▁कांप	2
▁त्रिप	2
▁ठेल	2
्प	2
▁परिवर्तनशील	2
ट्रैक्ट	2
र्मल	2
लिसिस	2
नायल	2
▁भेजे	2
िस्त	2
बत्त	2
लामा	2
▁थायम	2
म्फ	2
▁ड्रै	2
▁मुस्करा	2
▁चारू	2
▁पछताएँ	2
▁कार्बोनि	2
नायक	2
▁सृज	2
▁मदारी	2
▁मैक्र	2
योगिन	2
▁प्रीम	2
टोस्ट	2
▁टैल्क	2
गोड	2
▁कम्यूनि	2
▁खुज	2
राहो	2
▁एन्	2
गुजा	2
▁बेला	2
दुस	2
▁ठाट	2
रोहि	2
ट्रेस	2
टिन	2
्रोद	2
▁अनाप	2
ैलिक	2
▁वित्त	2
▁निम	2
ोक	2
▁सोवे	2
नियर	2
▁माँसाहार	2
▁गलौ	2
▁तुंग	2
स्कोस	2
▁सेंसिटिव	2
▁जॉइंट	2
▁८९	2
विले	2
्यंत	2
▁डाइग्नोस	2
▁इन्टर	2
▁घरौंद	2
▁ब्रिस्	2
▁बालसम	2
▁पुष्पकुंज	2
▁कौमा	2
▁पछता	2
ैप	2
सर्ग	2
टालिक	2
विधान	2
▁कोरो	2
कुनी	2
न्थर	2
लिप्ट	2
▁आलेख	2
▁टोय	2
▁मोटरसाइक	2
्रत	2
▁चंडी	2
ाइन्ड	2
▁तरब	2
▁क्रॉस	2
▁मस	2
▁बेमौसम	2
धारणा	2
▁प्रतिरो	2
▁ग्यारहव	2
ुरु	2
▁लसील	2
▁बल्लिया	2
▁कार्यो	2
शॉप	2
▁बाजर	2
क्वेट	2
▁लड़खड़ा	2
▁आउटरी	2
टीनाइ	2
▁हस्तान्तर	2
▁प्रस्ताविक	2
▁नियो	2
▁कुमा	2
उँ	2
गिर	2
▁फसाद	2
खंगा	2
▁बाल्क	2
गोष्ठ	2
नुभूति	2
ढ़िया	2
वलोक	2
सीटी	2
▁जलाए	2
▁ठप	2
मन्दिर	2
▁पुस्त	2
▁नोब	2
▁सिक्यू	2
ौतेल	2
▁न्य	2
▁ख़ुशबू	2
▁भरवा	2
▁पंडो	2
▁कूड़े	2
▁कॉकरोच	2
ईवु	2
▁नियोक्	2
▁एप्रि	2
ोलन	2
शूट	2
हार्ट	2
र्डियोलॉज	2
▁ज़ाकि	2
बत्ता	2
नसि	2
▁नल्	2
▁इंजेक्	2
ारे	2
▁चिं	2
ट्रोफ	2
ुपयोग	2
ंचकर	2
▁अंर्तराष्ट्र	2
र्गी	2
शेप	2
▁डचे	2
िन्दू	2
▁दिक्पाल	2
▁......	2
▁मोड़े	2
लोग	2
ल्य	2
▁अलेक्जेंड	2
▁ड्रि	2
▁पाइ	2
घुमड़	2
▁दण्डा	2
▁लेप्रोस	2
▁थार्प	2
ग्नीश	2
नस्पति	2
▁६६१	2
मझि	2
▁सोचन	2
▁तथ	2
स्तुति	2
प्लिकेशन	2
सितार	2
▁धुँ	2
▁गाइ	2
नाको	2
ीटोरि	2
टेरै	2
कूड	2
▁टांस	2
बेस	2
जौल	2
▁पटाखे	2
रेशम	2
▁बतला	2
ुचि	2
▁स्लैब	2
▁पिरो	2
्रिका	2
चिक	2
▁उल्	2
▁जागर	2
फे	2
्यूरो	2
▁गुटख	2
▁हीमो	2
डन	2
ाले	2
ध्वन	2
▁बरमान	2
▁थू	2
▁पेडी	2
▁थैलिय	2
▁नरवा	2
ठिन	2
▁औष	2
▁अधी	2
▁एंटिक्	2
सित	2
▁बिजोलिया	2
्थीस	2
▁अपेंडि	2
▁सिल्ल	2
▁टैक्न	2
▁हापा	2
प्रवाह	2
▁मल्टीविटामिन	2
▁निर्गम	2
▁दुक	2
च्छे	2
थपथ	2
कोष्ठ	2
ुफ	2
वेलिया	2
▁झिलमिल	2
▁कसर	2
▁निवेद	2
िक्षण	2
डिका	2
▁स्टॉपओवर	2
▁चिट्ठ	2
▁बेरोजगार	2
▁किल्ल	2
मना	2
▁क्रीड़ास्थल	2
▁निरपेक्ष	2
च्छव	2
हाड	2
▁न्या	2
▁हाइड्रोफोब	2
म्युले	2
▁श्र	2
प्राइ	2
▁सुरंगे	2
▁ट्रंक	2
▁आप्थ	2
ंडोल	2
▁अल्ट	2
विपक्षी	2
▁वसु	2
▁फुर्	2
▁ग्रीसिय	2
क्वेरियम	2
लम्	2
ोन्य	2
▁जेन	2
▁ऑबजरवे	2
िजर	2
उल्	2
ग्याल	2
▁गोशाला	2
▁चिड़चिड़	2
▁कहूँ	2
▁चंपावत	2
▁पड़ेंग	2
योप	2
्रैसि	2
पिटेट	2
▁९४	2
ापित	2
▁स्क्वै	2
▁कोलम्ब	2
▁राबर्ट	2
▁गौमुख	2
▁बलात	2
▁उबलत	2
▁उमिया	2
▁२७५	2
▁कालीबा	2
▁गुरुपद्मस	2
▁छंद	2
भुना	2
▁अरुंधत	2
▁वेराव	2
ूड	2
▁कान्	2
ोफ़िजिय	2
फॉल	2
ोमेटि	2
▁सिग	2
▁परावर्त	2
▁बमरा	2
मिंट	2
▁डयू	2
▁सब्जिया	2
▁एनि	2
▁पेंसिल	2
▁क्	2
▁बोलो	2
▁एथन	2
▁खिलब	2
▁दिखलाय	2
▁इन्कार	2
अंग	2
कीट	2
▁क्राउन	2
्ब	2
▁नाइ	2
श्ना	2
▁मुरी	2
कण्ठ	2
न्टे	2
मध्य	2
▁चेतिया	2
▁फैब्रिक	2
चरित	2
मेंटल	2
▁रीसरफ	2
मिश्र	2
▁चरित	2
क्कत	2
▁आइसो	2
मेट्रिक	2
्रेड	2
्वाडा	2
▁सिंगर	2
▁पुजार	2
वेदी	2
उज	2
▁हिमखण्ड	2
▁कमर्श	2
▁बोर्	2
▁दुबल	2
ट्रापिक	2
फाय	2
कीर्ति	2
▁पैन्क्रिय	2
▁थ्रोम्बोस	2
स्ट्रीज	2
ोशल	2
▁साबू	2
▁शुक्रक्ष	2
स्टाइन	2
लक्कड़	2
▁रियूमेट	2
▁सूझ	2
▁शोष	2
▁कत्थक	2
▁रजवाड़	2
▁हाइप	2
ाइमस	2
परेशन	2
▁इंद्रधनुष	2
मुह	2
▁संप	2
नैल	2
▁पीएच	2
टिका	2
▁पटवा	2
ॉन	2
▁गड़ा	2
F	2
आप	2
▁कालिम	2
▁घूं	2
पूल	2
▁स्त्र	2
सलम	2
▁बैब	2
मुक्ति	2
थेलिय	2
▁औस्टोम	2
ौड़ा	2
▁एडेक्	2
▁मोति	2
▁एड्रो	2
ग्लेड	2
न्दू	2
▁उँगलिय	2
नानक	2
यांग	2
▁धंस	2
▁उदयन	2
▁इंटेसि	2
▁०७०	2
िनोव	2
नत	2
▁सरका	2
ाश्म	2
▁लेव	2
▁बॉयो	2
▁पहुंच	2
ाइव	2
▁फैक्	2
▁विश्रामालय	2
▁इंस्टीट	2
यूट	2
▁इंट्रि	2
▁जागीर	2
बूतरा	2
आईपी	2
▁मेवा	2
▁चुभो	2
▁बीस्ट	2
▁समाधिय	2
▁सिन्ना	2
▁गेरू	2
▁झंडे	2
पश्चिम	2
कोना	2
▁वाजी	2
▁निर्मूल	2
विद्युत	2
साइकिल	2
▁सराह	2
▁नौल	2
▁फेव	2
रिट	2
▁अभिज्ञा	2
▁प्राणरक्ष	2
क्रोम	2
▁पूर्वाभिमुख	2
▁फर्राट	2
योटा	2
द्रप	2
बलि	2
▁आम्र	2
▁लुटेर	2
जित	2
कोएगुल	2
पौध	2
ालिटिक	2
▁प्लुरि	2
टेंट	2
▁निश्चि	2
स्वास्थ्यकर	2
▁उत्थान	2
▁त्यौ	2
ीक्वि	2
▁रणथंभ	2
▁इंटेल	2
ीजेंस	2
▁ग्लासेज	2
▁नागेश	2
आयाम	2
विष्ट	2
▁पछाड़	2
▁लेपेरो	2
▁सोपान	2
स्मे	2
▁बहुसंख्य	2
क्विट	2
▁केप्रि	2
▁भैय	2
▁एंबेस	2
▁चलाय	2
▁पांडुलिपि	2
सेन्	2
धु	2
िनाइल	2
पार्श्व	2
▁पाख	2
▁क्रोम	2
▁क्लोरोफ	2
त्ता	2
▁मुंडमाल	2
सदार	2
एमटी	2
▁पम्पा	2
▁थुल	2
▁उंगल	2
▁चेल	2
िडो	2
▁मयूरभं	2
▁निर्वास	2
▁संव	2
धीन	2
▁इंडोनेशिय	2
बेलाइ	2
▁जिंदादिल	2
▁याद्द	2
लाइज	2
▁मुखि	2
▁पुर्नज	2
▁ब्रांच	2
थोट	2
▁दु्	2
▁इन्फ्लूए	2
▁थेरे	2
▁सिमल	2
डांड	2
▁वीर्यव	2
▁अजन	2
यत	2
देवता	2
ीरियल	2
लैप	2
ाडांग	2
नाकार	2
▁घोड	2
▁पुनर्नि	2
माण	2
▁बावड़िय	2
सि	2
हारा	2
▁गढ	2
▁मूत्रकृच्छ	2
▁५६०	2
▁फ्राइ	2
▁स्टीम्यूले	2
▁तांग	2
▁चोखोर	2
▁सूब	2
ंबुल	2
सिख	2
रोटीन	2
म्युनि	2
▁नियमा	2
क्षु	2
लिंगर	2
प्ताह	2
निस	2
स्वास्थ्य	2
▁लोबे	2
रिटेन	2
▁जिम्ने	2
कटोर	2
म्रपा	2
▁एक्री	2
▁केशव	2
▁मेहर	2
▁क्लोरो	2
▁संगडा	2
५९६	2
▁कश्नीज	2
▁तीर्थकर	2
▁यक्ष	2
▁एकबार	2
▁मुन	2
▁थैला	2
बैंगन	2
दुम	2
▁छत्त	2
▁पोन्मु	2
चिल	2
▁उपद्रव	2
इमल	2
िकेशन	2
▁नवयुव	2
बैला	2
▁स्वायत्त	2
▁प्लेटल	2
▁पोंछ्न	2
▁जनने	2
स्कोसि	2
▁ऐण्टीफ्ल	2
▁कार्बोहाइड्रेट्	2
▁रजोनिवृत	2
▁अष्टभुज	2
बेस्ड	2
▁धीवर	2
▁कंद	2
रवा	2
ष़ि	2
▁ब्रौंक	2
म्यूट	2
िक्त	2
▁कार्ट	2
▁भटूर	2
▁कम्ब	2
▁विलिंग	2
कॉय	2
टूर्न	2
▁हौक्स	2
विल	2
▁सव	2
िराम	2
पीडी	2
ढाल	2
▁हाइड्रेट	2
▁दीवानग	2
▁पार्	2
▁हॉफ	2
▁बाशिंद	2
कर्त्ता	2
▁तिब	2
▁पीताम्बर	2
▁उपल	2
धानम	2
▁इन्टै	2
U	2
▁अघ	2
निज	2
ेरोटि	2
▁रॉ	2
▁रथींद्र	2
▁मध्यकाल	2
▁एकात्म	2
▁होशंग	2
ब्स	2
▁आट्ट	2
जुर्	2
बेकार	2
रॉन	2
माउंट	2
ान्डू	2
वड	2
▁३६०	2
......	2
्यूलिन	2
्मीना	2
▁रैफीनोज	2
दित्य	2
ुंज	2
▁शु्रुआत	2
फट	2
शे	2
पम्प	2
▁दयान	2
▁ठिठ	2
▁मायोम	2
▁विस्थापित	2
िटिक	2
▁पुनरीक्ष	2
▁न्यूट्रिशिय	2
▁निर्विकार	2
न्ति	2
▁तेजस	2
▁यशो	2
र्मन	2
सदा	2
ैय्य	2
रिश	2
▁पंचा	2
▁अप्रभाव	2
▁मुक्केबाज	2
▁मंग	2
नोक	2
▁भांड	2
▁हॉ	2
▁मुर्शिद	2
िजन	2
▁सड़ान	2
▁नेत्ररोग	2
▁दयाल	2
त्पाद	2
▁भंज	2
▁कैरिबिय	2
▁झपकात	2
कौड	2
▁अज़ीम	2
ुश्	2
▁अन्डर	2
▁स्टर्लाइज	2
४३	2
ड्रिल	2
▁बक्स	2
▁कार्यकर्म	2
पश	2
▁रणथम	2
तारा	2
▁भद	2
्पता	2
▁आपरेटर	2
▁ट्राई	2
▁गुफ	2
़ाएँ	2
▁स्विट	2
ॉस्क	2
ूनू	2
▁तरू	2
▁एंजेल	2
▁फिक्र	2
▁म्युनिसिप	2
ान्	2
ड्रा	2
▁इंडि	2
पसी	2
िद्धान	2
▁मॉर्	2
▁एलॉ	2
धब्बों	2
लीडे	2
▁नृ	2
▁२४५	2
डागा	2
▁कोठार	2
▁सेन्क्चु	2
त्योहार	2
मुहान	2
्यौ	2
ोग्लोब	2
निर्भर	2
▁घनस	2
▁प्रस	2
हरत	2
▁वृ	2
टमेंट	2
▁न्यूट्रिशियंट	2
▁हिस्टेरेक्टोमी	2
▁शिष्ट	2
ान्तिक	2
▁पादप	2
▁वासुक	2
ोनमुड	2
नाईट	2
▁मनमान	2
दलग	2
हृदय	2
▁फुन्स	2
▁परवर	2
ोलेप्स	2
▁एनाई	2
धुंध	2
मुस्लिम	2
क्सिको	2
▁धर्मप	2
गर्	2
अल	2
▁झन	2
▁कायाक	2
▁जोगे	2
बित	2
ंजा	2
▁१३व	2
वांगचु	2
▁गायनाक	2
ऐ	2
▁बँगल	2
▁डाइस	2
्ला	2
▁एग	2
▁इंटरकॉ	2
ेंटल	2
▁सिक्	2
▁सैक	2
विषा	2
रविन	2
▁ऐब	2
▁सन्नि	2
त्रण	2
▁मनीप्ला	2
▁कछ	2
▁हवनकु	2
भंज	2
▁बागबा	2
▁ट्राइग्लिसराइड	2
पुराण	2
ेरिस	2
▁श्रवणहीन	2
▁पेनेन्सुल	2
सिल्वा	2
▁सत्रह	2
्वित	2
लिटिक	2
S	2
▁सम्मन	2
▁पैथोल	2
▁बुलात	2
अंधत	2
▁द्र	2
▁मिलेनि	2
▁औषधोपचार	2
▁स्टेर	2
शगाह	2
▁स्केब	2
▁थर्मो	2
मस्तिष्क	2
ानु	2
▁ढ़ल	2
▁ब्याह	2
▁झालर	2
▁पालनहार	2
तुन	2
न्सी	2
मोटे	2
ब्रे	2
▁मिन	2
▁एयरफ	2
ोर्स	2
▁डंबल	2
▁चंपी	2
▁एम्फीटामी	2
नाय	2
▁नारा	2
ंधा	2
▁क्यूब	2
तोला	2
▁काव्य	2
▁बतायें	2
िब	2
▁सँभाले	2
ुणत	2
विनोद	2
▁कंपक	2
णीय	2
़िमा	2
रावी	2
▁उद्दीप	2
▁घू	2
यजन	2
▁पुनर	2
ावृत्ति	2
मान्य	2
▁सिंक	2
▁आसाम	2
▁लियोनार्	2
▁पेंटि	2
▁इंद्रपुर	2
▁गैलर	2
▁आइबूप्रोफ	2
▁इण्ड	2
जियम	2
▁ज्या	2
ब्र	2
▁भौतिकता	2
▁विमुग्ध	2
▁महाकाव्य	2
िडेट	2
▁शय्या	2
जरा	2
▁सौद	2
▁काकणा	2
▁एट	2
▁रात्रिकाल	2
ऊंट	2
▁इबारत	2
▁प्रशासक	2
▁पिक	2
▁गुणधर्म	2
दड़	2
▁स्ट्रोफैन्थ	2
▁प्लास	2
▁फैरिं	2
▁कतरन	2
र्टिफि	2
्भव	2
▁सिरस	2
क्सीड	2
जप	2
ेल्लार	2
▁क्लॉ	2
▁पाइरे	2
▁मुद	2
्ठा	2
▁यथ	2
▁फलैवीवायर	2
सैक	2
एटर	2
बोन	2
▁४३०	2
▁यूरे	2
×	2
▁टैरेस	2
▁२६३	2
▁ठा	2
▁लोककला	2
कड़े	2
कोविल	2
नॉल	2
▁तन्दुरुस्त	2
▁थ्रोम्बोसाइट	2
▁खटा	2
▁धब्ब	2
ढ़ाते	2
३९०	2
▁झपका	2
▁भादो	2
▁बैक्टेरिय	2
▁झुर्र	2
▁जोग	2
▁मोजा	2
▁मालगाड़िय	2
मान्यता	2
▁घांघल	2
▁त्रास	2
▁प्रोलिफ	2
▁शशांक	2
▁रोहि	2
▁टैम्प्र	2
▁एक्सेसरीज	2
▁सोला	2
▁ट्वि	2
घोष	2
चक्क	2
▁अपवाद	2
▁अंडर	2
ग्राउ	2
खुल	2
खच	2
षा	2
▁उदा	2
रंजी	2
बॉयो	2
▁राइनोसेरे	2
▁तै	2
▁कोर्टिस	2
कैंपस	2
▁टैरा	2
िप्रे	2
▁चिलगोज	2
▁डुलात	2
▁पर्दा	2
▁फौव	2
लने	2
▁अग्निमा	2
दीर्घा	2
▁एपिडे	2
मियोलॉज	2
▁तिगुन	2
▁रसगुल्ल	2
▁इम्	2
▁शिल	2
ब्रिक	2
▁रम्पा	2
▁छोट	2
ख्त	2
रेंट	2
▁दैत्य	2
▁मीराम	2
ेन्ड	2
▁तमाश	2
▁क्वि	2
ंटल	2
र्भ	2
▁दरकन	2
▁बैडमि	2
▁रैटिनो	2
▁सुश्र	2
▁निज़ा	2
ब्ल्यू	2
टेरा	2
▁ऑकलै	2
ाऊंट	2
गणित	2
▁रिलीज	2
▁मसजिद	2
ेंडुल	2
खुज	2
धव	2
लकत्त	2
▁रशम	2
इंट	2
▁पक्व	2
ोटॉ	2
धारक	2
▁विभूति	2
▁चिंच	2
वार्ड	2
्लेरोस	2
ावधान	2
▁ब्रेस्टफीड	2
▁षड्	2
ूनाग	2
रियाल	2
न्यूरोलॉजि	2
द्यार	2
▁चौदा	2
ैंडल	2
▁पोस्त	2
▁गोवर्धन	2
झोर	2
▁हिर	2
कन्स	2
▁आइब	2
सथी	2
▁बेचा	2
L	2
डाइज	2
▁मन्नते	2
▁घृ	2
▁स्पोन्	2
ोत्स	2
कल्याण	2
▁वॉर्म	2
▁पटेर	2
▁मार्जी	2
▁गुफाचित्र	2
▁प्रतिलिपि	2
▁ऑब्जर्व	2
▁सन्निपात	2
▁कृति	2
▁गिद्द	2
तरण	2
यस	2
कार्य	2
पेराटा	2
ुण्ड	2
िराज	2
▁प्रेगनै	2
▁सहकर्म	2
▁४४४	2
▁चीख	2
बैग	2
▁षष्ठ	2
▁दिग्भ्रम	2
▁घिन	2
▁रिद्ध	2
▁निंब	2
रिफ	2
▁होर्स	2
२५०	2
जेरिय	2
▁वाग	2
रछिप	2
▁दृढ	2
▁झेलन	2
बिन्	2
▁भास्कर	2
वाडेल	2
▁घूँ	2
▁गर्भस	2
मापन	2
रतब	2
सोफे	2
▁तरकार	2
ाएगा	2
▁क्वांट	2
वाहन	2
▁एक्टीविटी	2
▁भगव	2
▁जर्	2
जय	2
▁ट्रॉलीब	2
▁डगमग	2
डि	2
▁उम्मेद	2
▁विनो	2
▁ट्यूबरक्य	2
▁प्रस्	2
साउ	2
▁मेधा	2
क्यूमेंट	2
▁चॉप्	2
▁ग्रन्थ	2
वेल	2
▁आलच	2
दगा	2
▁मंजू	2
ोलिय	2
▁डाइवर्सिट	2
साइट्	2
ाइल्ड	2
▁रिसेप्टर	2
▁टॉम	2
च्चे	2
▁आइव	2
ोफेज	2
▁प्रोस्टे	1
्मीन	1
दृष्टा	1
▁रोगो	1
▁शल्यचिकित्स	1
▁आकृष	1
▁कॉम्प	1
▁२०२	1
▁ब्रि	1
स्टैंड	1
सिफिक	1
▁रायफल	1
▁बेरि	1
कैलोरी	1
सीमा	1
तुशि	1
्लासेज	1
▁रेलगाड	1
ुजाक	1
रान	1
▁रोडोडे	1
इमलस	1
्लैश	1
▁इंज	1
लगाव	1
क्टू	1
▁पथिक	1
िष्कार	1
PH	1
pint	1
उंस	1
maharashtra	1
tourism	1
gov	1
▁मैकडोनाल्ड	1
डोमिन	1
▁तिरप	1
▁फड	1
▁ऑब	1
स्टे	1
कानून	1
▁नकारात	1
न्जी	1
▁मुर्	1
▁नेफ	1
मैल	1
▁झप	1
लेनोसाइ	1
रौल	1
ख्ते	1
▁टेक्स	1
▁अप्स	1
्लेश	1
वैष	1
उपयोग	1
▁खोजो	1
▁खुसर	1
▁बृहत	1
▁इकाईय	1
▁डायो	1
▁जागन	1
म्बूद	1
ुब	1
पिण्ड	1
▁मसालो	1
वाए	1
ूँग	1
▁बोटि	1
▁तीव	1
▁स्नै	1
बुट	1
▁समिधे	1
▁बिगड़न	1
▁डाइवर्स	1
लेग	1
गार्डन	1
▁मज़बू	1
बाइक	1
▁फेमि	1
दिक्पाल	1
▁पोस्	1
▁पैवेलि	1
▁स्ट्रोफ	1
ोसिड	1
पाय	1
▁श्लै	1
लव	1
▁चुस्तदुर	1
ुर्द	1
▁निचोड़े	1
र्धार	1
▁प्राप	1
▁रीडमल	1
कॉक	1
न्हे	1
बोटो	1
▁बचाय	1
▁प्रया	1
दस्त	1
▁धोए	1
jktdc	1
co	1
ांसि	1
्यय	1
हल्दी	1
ूँद	1
बैसिल	1
स्मिक	1
तारोह	1
र्मिय	1
उँग	1
▁पगडंडिया	1
▁अल्पा	1
ावण	1
प्रदर्शन	1
▁लिखो	1
बोधी	1
चीरा	1
▁थायर	1
बहा	1
नेस्ट्री	1
र्टिकल	1
▁इक्	1
प्रपात	1
▁घुन	1
घुन	1
गुदा	1
ीनू	1
▁लॉर्	1
▁आँखो	1
नाने	1
▁विज	1
▁हमीद	1
▁अंतर्राष्ट	1
ाउ	1
ौज	1
भेदक	1
सेचुरेट	1
८८	1
▁ह्यू	1
▁२०३	1
स्फोट	1
ग्निशि	1
तिविधिय	1
▁चमकाए	1
ृत्य	1
कँपा	1
▁मनाल	1
▁बॉय	1
पोट	1
िदेश	1
रुप	1
▁कोनो	1
▁ग्राउ	1
▁खरग	1
्युले	1
खाली	1
लिपि	1
▁तोल	1
▁मॉइश्चर	1
▁मैकुलर	1
डिजन	1
▁कॉम्प्ल	1
वाइट	1
डव	1
र्बल	1
▁क्लीनस	1
ॉम्ब	1
Endo	1
Carditis	1
झाँ	1
मुग्ध	1
▁फ्लोरोस	1
ोथैरेप	1
▁ग्लूक	1
ागोन	1
DPP	1
IV	1
नाना	1
▁बमर	1
▁ढू	1
ंढा	1
ंत्रिक	1
संधिव	1
ीर्घ	1
रूला	1
▁न्यूट	1
▁आयोडाइ	1
▁बृं	1
हण	1
बुझ	1
सदस्य	1
▁सिल्	1
व्यावसायिक	1
▁छठव	1
परिवर्तन	1
ोहरा	1
▁हनुम	1
▁तख	1
देखी	1
▁सेलिब्र	1
कल्चर	1
मृग	1
▁रिजु	1
छ्ल	1
जाल	1
▁उत्सर्	1
▁ईस्टर	1
▁हाथीप	1
बादाम	1
▁पहु	1
रात	1
विजय	1
▁ग्लासे	1
ाहू	1
ैप्प	1
▁व्याप	1
▁रुब	1
▁दोहराए	1
पसीना	1
शनैः	1
विद्या	1
चम	1
फॉरेस्ट	1
त्तम	1
ूल्	1
▁सुआ	1
दिकाल	1
▁कैसि	1
▁इब्र	1
▁पहुँचाय	1
ेप्टी	1
▁स्टैन्	1
▁कौलो	1
▁एडज	1
मिल्क	1
प्रयोग	1
▁चार्	1
ोंडला	1
लें	1
श्वसनी	1
▁ज्याद	1
▁खप	1
ुलि	1
स्थेसि	1
▁खिसकन	1
▁जलधार	1
▁गड़ग	1
▁गृहणिय	1
चुरा	1
र्मो	1
श्मरी	1
▁चह	1
बलाइज	1
▁क्रॉ	1
टलरी	1
क्लाइन	1
ठला	1
▁कानो	1
गरु	1
▁रानीख	1
▁२११	1
▁हिस	1
मैग्नेट	1
▁लाइकोपी	1
▁वनरघट	1
▁स्टू	1
▁मण्ड	1
GTT	1
▁लुभ	1
ह्न	1
ूदा	1
▁कांट	1
▁सियाल	1
▁डेर	1
▁झंड	1
▁रैटिन	1
▁ऑप	1
▁अतिबल	1
बलेश्वर	1
द्देश	1
आधुनिक	1
▁अल्ल	1
खोन	1
ैम्प	1
िसिन	1
्चा	1
त्तिया	1
▁पुरातत्	1
त्ववेत्ता	1
डेफ	1
▁अस्वी	1
ाउट	1
▁सूर	1
ामि	1
लॉज	1
साइंटि	1
खतर	1
योगप्रदीप	1
▁नेत्रज्योति	1
▁कालिक	1
शौ	1
▁पिप	1
्रेजी	1
▁करवाए	1
▁घरवाल	1
बीबी	1
▁फास्फ	1
▁गुंड	1
▁१२९	1
टिज	1
ज़मी	1
पियरे	1
▁क्लैर	1
▁ऐंट	1
▁निभाए	1
▁जुए	1
गद्दी	1
▁परफार्मे	1
डेंड्र	1
िलाव	1
एनएम	1
▁बसाव	1
ुण्डा	1
▁बढ़ाये	1
▁०४	1
▁बिगड	1
प्टाइल	1
ंगर	1
▁ड्रग्	1
्त्रो	1
▁डिपार्टमे	1
पढ़	1
दौर्बल्य	1
▁क्लीन	1
ंथ	1
ोलस	1
▁मारफ	1
▁रघु	1
▁इस्ट	1
जून	1
आनंद	1
डर्स	1
ढक	1
▁कोषा	1
बंगला	1
▁धु	1
▁कंधा	1
▁दोरस	1
यूड	1
तना	1
डिस्क	1
▁पल्ल	1
असर	1
▁शल	1
▁उल्टिया	1
मर्जी	1
▁लोकतं	1
रुद्र	1
चै	1
गज़	1
ईश	1
बलोन	1
िट्यूट	1
िंक	1
ौस	1
▁हड़बड़ा	1
▁धड़क	1
▁चिड़चिड	1
क्यूपे	1
साद	1
▁मद्द	1
११९	1
रागढ़	1
▁वैक	1
टोटो	1
ुटिक	1
▁कॉर्डियो	1
टार्टर	1
बिज	1
God	1
s	1
Own	1
Country	1
▁त्वच	1
▁वस्तुत	1
बुझा	1
▁चॉक	1
▁भग्न	1
▁चमचम	1
स्मो	1
पोलि	1
लेयर	1
ाशा	1
▁अंस	1
▁शुभा	1
▁एजेन्	1
यूबरक्यूल	1
▁चिड़	1
िड़िया	1
▁गैस्ट	1
ॉइ	1
ोकोट्रा	1
▁अधुन	1
ट्रेपि	1
्यूमर	1
ौच	1
▁केकड़	1
▁प्रोक्स	1
घोड़	1
योजना	1
▁तानाशाह	1
नदी	1
ँचाइय	1
▁१५९	1
▁तीरथ	1
▁ब्	1
गरीय	1
▁न्यूग	1
पार्क	1
▁सूँघे	1
▁इनवे	1
स्ट्रॉ	1
▁रियास	1
▁निवासियो	1
▁पगोड	1
र्यटन	1
▁चिय	1
▁ट्रा	1
कोमा	1
▁ब्या	1
▁एलिज	1
खिच	1
्केमिया	1
▁तिरुव	1
▁औद्योग	1
▁अतिभ	1
गीरथ	1
▁बैन	1
▁मेटास	1
ॉन्ग	1
▁हरसि	1
▁कैफिय	1
़न	1
▁१४१	1
▁युद	1
▁अधुनिक	1
▁कण्डा	1
पुस्तक	1
ड़कन	1
ंगतोंग	1
र्जिक	1
प्लिकेश	1
लैन	1
ब्रोमाइ	1
ाज़	1
रातत्त्वविद	1
▁धनसिरी	1
तिस्ता	1
▁नीलग	1
ीरि	1
▁हौ	1
टकिट	1
▁विशु	1
▁तिलवा	1
ामचू	1
▁एल्प	1
ीपें	1
िरा	1
▁तामस	1
▁ब्रोमाइ	1
दिर	1
बीएस	1
चुंब	1
▁म्यूटे	1
▁कठोरत	1
्दय	1
▁बिगुलवाद	1
मीडिय	1
्केट	1
▁स्मृतिवर्	1
स्टेन	1
पूतो	1
▁सुरेन	1
▁वट्ट	1
▁लुट	1
▁माड़	1
▁अनुभूत	1
क्खन	1
P	1
सेवा	1
ीवर्स	1
निर्माता	1
ग्ना	1
रत्न	1
्विट	1
▁बैंगल	1
षाण	1
ुंड	1
▁छप्प	1
▁रामचंद	1
क्रूड	1
संस्थान	1
▁पहनाए	1
o	1
ब्यौ	1
स्कैब	1
▁आइण्	1
डमै	1
▁एल्ग	1
दिवा	1
▁झोंको	1
▁प्रव	1
रसेन	1
शिष्टता	1
▁प्रणा	1
न्थ	1
▁प्रतिष	1
पदार्थो	1
▁मलवा	1
▁परीक्ष	1
ीओट	1
ंजर	1
▁बुढ	1
वरन	1
▁फुस्फुस	1
वर्	1
वटी	1
▁मांसपेशिया	1
▁प्लुर	1
▁सिडन	1
▁वुल	1
▁स्कॉ	1
र्लेट	1
लाकार	1
▁महीनो	1
▁कैम	1
ामिल	1
लाभ	1
▁एसि	1
फाड़	1
▁टाट	1
ैन्स	1
टोरिय	1
मैक्स	1
▁फ्यू	1
ापथ	1
▁उड	1
ुम्बन	1
▁मनौ	1
▁शादिय	1
गर्व	1
▁जम्	1
▁सुझा	1
टेस्टी	1
▁संबधि	1
▁खिलखिला	1
लैक्	1
ेलोप	1
▁चालन	1
▁छूटन	1
नैन	1
▁सफरा	1
लोधा	1
द्रव	1
बर्	1
▁बैसिल	1
सोफेज	1
▁व्यस	1
ब्रेल	1
चित्त	1
फ्ल	1
हरिण	1
▁मोहप	1
िफ़	1
▁आक्स	1
▁बिछाए	1
फॉर्मे	1
गौर	1
▁हड	1
कोटि	1
▁स्थाप	1
दाँत	1
▁ट्रॉफिय	1
▁संभवत	1
▁सब्ज़िय	1
२९०	1
▁कॉन	1
११८	1
लोरा	1
बाड़ा	1
▁टसकन	1
मुंग	1
पद्म	1
लजी	1
मैकेनिज	1
▁तुरका	1
उस	1
▁जिन्क	1
▁विज्ञ	1
▁चूम	1
▁एक्यूप	1
ंक्च	1
डरल	1
▁मुकद	1
▁बख्तर	1
ेरिय	1
क्लेर	1
विटामिन	1
आरा	1
▁निष्प	1
मच	1
लियोमाय	1
▁गूँग	1
▁आन्त	1
▁पिथौर	1
cms	1
▁गंड	1
▁भिगोए	1
ड़क	1
▁यौनांगो	1
पंचम	1
चाय	1
कंडा	1
टेर	1
▁ओरेल	1
▁ऐक्स	1
▁असं	1
रिए	1
▁बटा	1
फाइन	1
ूँगा	1
किसंस	1
ड़ने	1
टेनम	1
टाप	1
टांग	1
टरस	1
▁जित	1
▁आध्य	1
त्मिक	1
▁बेंगल	1
ंकड़	1
ोमीट	1
िहा	1
▁मैनिक	1
▁बाइप	1
▁जेर	1
▁नशी	1
▁स्टोर्	1
वोकै	1
न्यता	1
▁नजरअ	1
▁अन्नप	1
्रासन	1
ॉरि	1
रमा	1
ज्योति	1
▁उनींद	1
इस्ट	1
▁संप्र	1
▁६४०	1
न्युरि	1
▁श्रृ	1
▁बृहद	1
▁न्यूट्रिशि	1
▁शीतलत	1
▁यौं	1
खलदर	1
▁रसो	1
▁डेन्	1
व्वारे	1
्रीज	1
रेटर	1
▁टेम्	1
▁५३१	1
▁न्यूरोल	1
कदार	1
▁सुप्रसिद्	1
लेड	1
▁पाण्ड	1
म्भा	1
विषय	1
ान्तरि	1
ਤ	1
डिएट	1
▁षड	1
्ह	1
ओल	1
▁डोम	1
▁जलकौ	1
ुल्	1
्फान	1
मुन्	1
कलि	1
ैंचु	1
▁शुक्राणुव	1
▁होल्ड	1
सव	1
ट्रोजेन	1
▁दूँ	1
पीने	1
▁जेव	1
रदराज	1
▁वेध	1
ायोकैमिक	1
ैन्श	1
ुंधला	1
▁खट्	1
▁राक्षसत	1
रॉड	1
▁गॉ	1
▁बारसू	1
पट्टिका	1
▁मंत्रोच	1
गुप्ता	1
सका	1
सजी	1
▁विद्युती	1
ृंदा	1
ैना	1
नीटो	1
पैन्ट	1
▁प्रतिस्पर्	1
द्धी	1
▁कतरा	1
▁जगमग	1
डाली	1
कै	1
स्वा	1
प्रतीक्ष	1
▁भुवनेश्	1
नवर	1
▁स्टीव	1
▁होमोसिस	1
ल्फा	1
ेडो	1
एडी	1
्करा	1
छुआर	1
▁कैप्	1
बु	1
ल्सीमिय	1
जड़ी	1
▁सत्या	1
▁डॉल्फि	1
स्पर्धा	1
▁सड़को	1
▁गिरजा	1
▁जंगलो	1
रोविन	1
वॉटर	1
संक्रम	1
▁गुप	1
▁योगन	1
▁एण्	1
ट्रोपि	1
नैफ	1
▁सोमे	1
टोस्टे	1
▁खरब	1
▁घुम्मकड़	1
लोभ	1
ास्त्र	1
्रु	1
ीग्रे	1
छाया	1
्टेट	1
नुमान	1
▁किरा	1
▁सैनिट	1
▁राजपुर	1
▁३५६	1
▁घबराय	1
▁ब्रो	1
एन्टल	1
िलास	1
▁परिस्थि	1
िंघाड़	1
▁परफॉर	1
ड्रॉप	1
फ्रिक	1
दौर	1
▁नर्सर	1
▁मुद्र	1
पत्ति	1
▁अल्ज	1
कित्सा	1
खास	1
{	1
distant	1
Attunement	1
}	1
▁स्टीम्य	1
ुलेट	1
▁हार्मो	1
म्फे	1
निकोल	1
कुल्ला	1
▁१७३	1
▁जिन्होने	1
▁कैनाबि	1
▁टाँ	1
ोफिल	1
बट	1
▁निरीक्ष	1
रैक्स	1
▁कोम्बा	1
पाकिस्तान	1
▁कार्बोहाइर्डे	1
विशिष्ट	1
▁हाइपरथ	1
▁माथ	1
▁झोपड़िय	1
भस्म	1
्की	1
सके	1
▁बुद	1
Prolapsus	1
Vaginae	1
ोलिथ	1
▁कॉम्प्लेक	1
▁पेड़ो	1
▁दुर्ल	1
हरि	1
अज्	1
्डोस	1
हि	1
▁एल्	1
>	1
ल्लीवास	1
▁संतो	1
थिया	1
क्रा	1
बैक्टीरिय	1
यूबरकुल	1
ब्बा	1
▁विस्फ	1
▁अभिनव	1
▁संबं	1
संबं	1
▁इलाहाबा	1
▁बख	1
▁भुवन	1
भुवनेश्वर	1
▁रेक्ट	1
मैरि	1
▁चटखा	1
परकोट	1
▁एंटीबाय	1
▁हीरो	1
▁फटक	1
ुक्के	1
▁एल्क	1
लफोर	1
ाफी	1
मीडिया	1
▁पुष्पो	1
िभि	1
▁हार्बर	1
▁थ्रोम्बो	1
नमक	1
▁गर्भस्	1
▁डोव	1
▁कुट	1
रिंज	1
दीप्	1
सुविधा	1
ैथीड	1
संघ	1
▁इंट्र	1
▁खौल	1
▁घुम्म	1
साइट	1
चिन्त	1
पिस्ट	1
ैलिस	1
ुम्	1
्रेगन	1
▁गिराय	1
▁पेटेल	1
मोर	1
▁बड़बड़ा	1
▁३८९	1
स्तब्ध	1
डवा	1
वैल	1
▁डफ	1
▁वाइसर	1
िमलीगुड	1
▁निका	1
िनो	1
ुये	1
▁पोंटे	1
वेशियो	1
राड	1
ुड़े	1
तोष	1
निटर	1
ेम्पाक	1
पुरोहित	1
स्टार	1
गपुर	1
हाया	1
▁विरा	1
▁करोड़ो	1
▁मिष्ठ	1
१५३	1
▁स्ट्रेप्टो	1
फोबि	1
Liv	1
नीलम	1
ुख	1
म्पेन	1
घरवा	1
बोर	1
दायित्व	1
्टीविटी	1
ुना	1
▁पराज	1
फ्रा	1
टौल	1
रवार	1
साफ	1
ग्नेशिय	1
▁शौचा	1
आदि	1
▁फड़	1
चिड	1
ोडेन	1
गोल्ड	1
▁मेग्न	1
▁हरिप्र	1
्ट्रोक्स	1
ोसाइक्ल	1
▁परफ्यू	1
▁जगमगा	1
▁निश्चे	1
▁रास्	1
▁देवदारो	1
▁बालास	1
▁थिरक	1
▁मंगोल	1
▁उरू	1
▁मेटाब	1
ालिक	1
आक्सिड	1
▁क्रीड	1
ांगन	1
▁स्न	1
तनी	1
ुमे	1
ट्रं	1
▁ब्रसे	1
▁ऑस्ट्रेलिय	1
‘	1
ट्रासेप्	1
▁छिड़	1
लिगाम	1
▁एंटीफ	1
भास	1
बेज	1
▁ऊर्ध्वग	1
▁नाहरल	1
▁मिश	1
ुल्म	1
ेटि	1
▁उत्प	1
लिकोब	1
ैंडो	1
लिटिय	1
▁लिंगामेंट	1
▁एन्यु	1
सिर	1
टाना	1
किंत	1
ियन्स	1
बसा	1
ंगामा	1
▁डुग	1
ड़ियाल	1
८२९	1
▁राजग	1
परिवर्त	1
ंगाज	1
▁धुए	1
जेन्ट	1
▁लगन	1
▁दुष्ट	1
लनबर	1
चुने	1
▁फोरे	1
पांडा	1
जमा	1
सिल्क	1
्राइट	1
क्लीन	1
म्लो	1
पेशी	1
्दी	1
स्वीकार	1
वाज	1
▁हाइड	1
▁नेटव	1
▁असावधान	1
▁झाल	1
रेक्टल	1
रोंग	1
sikkimhotelpham	1
rong	1
–	1
्यू	1
काड	1
▁लेक्टि	1
पालन	1
▁संग्	1
प्राचीन	1
▁लोकस	1
▁अभिन	1
सांस्क	1
गौरी	1
▁फेमिल	1
▁बबल	1
▁एयरला	1
▁डिसि	1
▁प्राध	1
्यापक	1
▁सिंघा	1
▁राजेश	1
▁१३८	1
्तः	1
▁इंवेस	1
ंगण	1
मूर्तिय	1
▁सिंप	1
padmal	1
adakh	1
net	1
कॉट	1
ुजाम	1
factor	1
concentrate	1
▁ड्रा	1
कड़	1
कश्मीर	1
फिनाइल	1
ोमाइट	1
ँग	1
▁शताब	1
ुस्सा	1
हस	1
▁फ्या	1
▁खुशन	1
ताया	1
▁नैट	1
खोल	1
ीठा	1
▁ओवरी	1
▁बिगाड़त	1
नलिका	1
बाज़	1
▁पीए	1
▁श्वस	1
िरिक	1
▁निसर्ग	1
स्तंभ	1
गंग	1
▁दूस	1
मंगला	1
ुगा	1
रह	1
छत	1
़वा	1
पिग	1
▁उडु	1
बख्श	1
शोब	1
चश्म	1
ॉलिड	1
▁सप्	1
लिमेंट	1
▁भेजत	1
सार्स	1
मॉल	1
इसोफे	1
थ्रोप	1
▁किफा	1
▁मुकु	1
प्रेक्ष	1
▁वॉय	1
▁टॉक	1
दिमाग	1
सृज	1
▁रेटि	1
▁एक्टीव	1
▁झट	1
MSG	1
Monosodium	1
or	1
aginomoto	1
जानन	1
ौंल	1
बोलि	1
मिनरल	1
ोस्	1
▁एक्सप्	1
ूया	1
मोरा	1
गुरी	1
विष	1
▁ज्ञानवर्	1
▁फिजिय	1
▁हिस्टेर	1
▁आध्यात्म	1
र्ना	1
ब्दी	1
ीसीन	1
▁कुमाऊ	1
▁पद्य	1
पनी	1
▁ओन	1
Tolerable	1
Upper	1
Intake	1
Level	1
धारण	1
▁म्यूकोज	1
म्पर्क	1
इलेक्ट्रिक	1
▁प्रोग	1
▁त्यागन	1
▁चुग	1
▁प्रॉब	1
▁भव	1
▁पन्	1
गोलिय	1
▁द्वी	1
▁लड्ड	1
गोदा	1
स्पाइन	1
ट्रावायल	1
ण्ठ	1
▁ट्रैंकि	1
डीज	1
टिट्	1
शरी	1
▁लचक	1
ैफ्ट	1
▁जालीन	1
ंख्य	1
००१	1
लेक्ट्रॉनिक	1
▁खिलखिलान	1
ंजेक्	1
टीवाइट	1
▁दृ	1
गिनी	1
ोशी	1
▁ढोन	1
▁हिड	1
ाइड्रेट	1
▁डिके	1
ॉर्म	1
िस्ट्रो	1
म्प्लेक्	1
नस	1
▁सिद्धांतो	1
▁बाईस	1
▁फैक	1
▁निदेशा	1
▁करनेवाल	1
▁प्रय	1
▁खलिहान	1
टाक्सि	1
कोड	1
ुनू	1
glutathione	1
▁नश	1
▁जिग	1
स्पिर	1
ीडे	1
जौली	1
▁पोख	1
सरे	1
दश	1
प्टी	1
िमल	1
▁सिकन	1
सीड	1
▁युने	1
▁नोवल	1
लप्पु	1
वाजी	1
सड़क	1
▁आरम	1
▁बावल	1
▁बुग्	1
्रिस्टल	1
▁नद	1
▁यूरेथ	1
▁चिल्लान	1
▁पीट	1
▁ज्यो	1
मै	1
उद्देश	1
▁मुरक	1
▁आयो	1
नालाग	1
पेप्टि	1
प्रि	1
डोंग	1
▁भुट	1
छोटे	1
▁लाइक	1
ोठ	1
▁मैक	1
मास्टर	1
▁एंटीआक्स	1
युन	1
लेप	1
▁तलाशे	1
ब्रिट	1
९७	1
ायल	1
ल्यूमिन	1
▁विंड	1
बिंदु	1
प्रदर्श	1
▁अंचलो	1
ड्राप	1
▁ट्रॉली	1
फ़िक	1
लोमी	1
ग्नो	1
ेवल	1
ालाम	1
लैंग	1
ैरि	1
▁हेमेट	1
▁कोशिकाए	1
ोड़ी	1
ओवर	1
▁व्यावसाय	1
▁विवि	1
▁१४६	1
▁शरम	1
ढ़ग	1
सम्	1
खाल	1
रोबायोलॉज	1
़ीन	1
▁कोशिक	1
आर्गन	1
GI	1
िफर	1
▁न्यु	1
ैजलीन	1
पिना	1
टखन	1
▁मूत	1
शासक	1
ेनसा	1
▁बजह	1
▁पश्	1
फ्लॉ	1
▁धोत	1
प्टोप	1
ँघ	1
नर्तक	1
टलांट	1
सौद	1
्यूर	1
िनर	1
▁मुबा	1
▁अल्	1
वॉक	1
▁हाइपरग्लाइस	1
स्केमिया	1
नौल	1
▁ब्रोक	1
ागज	1
Fever	1
Asthma	1
्लिक	1
ॉयर	1
एँगे	1
ाइटलाइ	1
▁पापम	1
ोचन	1
▁एन्जा	1
ड्ड	1
ke	1
▁सौग	1
▁एजर	1
जवाय	1
▁वृद्	1
२८	1
▁आर्टिक	1
पुष्प	1
धूल	1
सेवन	1
▁संरक्षि	1
रुव	1
▁सनब	1
ाथ	1
ुड	1
▁हैबिट	1
फूज	1
▁सिंद	1
खेड	1
▁डु	1
ग्लाइ	1
▁वातपित्त	1
▁कफन	1
प्रश	1
्रोक्लो	1
राफाइ	1
मोब	1
▁व्ही	1
▁एलिम	1
मानव	1
यून	1
सम्पन्न	1
ंटीन	1
क्सर	1
बूटिय	1
्टिकल	1
्यूबो	1
▁शरणस्थल	1
▁अन्द	1
ाज़ा	1
▁प्रचारक	1
▁सब्	1
दुंग	1
▁क्लिनक	1
यूक्लि	1
▁तुतला	1
▁चम्पार	1
▁मैंगो	1
ल्ज	1
▁लक्	1
ज़रिय	1
▁अद्भु	1
गुलेट	1
▁जलाये	1
न्तिक	1
शल्यक	1
ंचु	1
▁ज़ह	1
▁संस्कृ	1
▁आवृत	1
▁डीसी	1
▁झुरम	1
जैंट	1
▁नाज	1
▁हरिद्	1
ैलो	1
्लाद	1
तीर्था	1
▁१४व	1
▁फ्रू	1
क्टोस	1
▁एस्	1
मीडो	1
्टाइन	1
▁माइल	1
▁श्रीन	1
िकेत	1
▁वैश	1
तदा	1
ैक्सो	1
▁कलचुरि	1
बॉ	1
▁हाइपोग्ला	1
वड़	1
▁एथेरोस्क	1
▁यक	1
▁ट्व	1
▁महाभ	1
िफ	1
▁हरड	1
ml	1
कॉयल	1
एलए	1
▁फाउंटे	1
रिचि	1
▁मृत्य	1
▁डेला	1
हॉल	1
▁जोगिन	1
▁कन्ड	1
G	1
▁वाल्	1
▁अलवा	1
▁लाठ	1
▁पटक	1
वैत	1
▁कंट्रास	1
▁पैराड	1
पंजा	1
▁साइक्	1
प्लेटलेट	1
मैन्ट	1
▁योनिग	1
मूर्त	1
ंक्रमण	1
▁राइ	1
ौंद	1
▁हकला	1
पूछ	1
▁खोप	1
होत्स	1
्रोमाइ	1
▁स्वेदक	1
मरेंग	1
टोल	1
ल्ला	1
▁लगवाए	1
टेंस	1
नोरम	1
▁उज्जै	1
खरे	1
▁अर्द्धांग	1
ंटेन	1
ड़ता	1
त्तेज	1
▁पारद	1
ैलीडो	1
▁खिलन	1
▁बीसव	1
शूर	1
▁ऑप्	1
▁स्फूर्त	1
पक्ष	1
▁भौंक	1
▁पगड	1
निहार	1
▁ट्राइग्लिसर	1
▁संग्रा	1
सेंस	1
रपान	1
एनसी	1
एबडोम	1
वै	1
लेश	1
बाह	1
▁कुट्ट	1
ट्रल	1
िक्ट	1
Pollen	1
Grains	1
मिशन	1
ंडला	1
र्णा	1
▁स्थानो	1
वेल्स	1
सम्पूर्ण	1
ोचें	1
▁एन्ड	1
ॉर	1
कर्मी	1
िषा	1
पिस	1
लहर	1
▁खोजकर्त	1
लीफ	1
▁ज्वा	1
जौंग	1
ट्रैक्स	1
▁हवन	1
पण	1
▁बोटो	1
यापार	1
्वादि	1
वेद	1
िलोम	1
▁अंदा	1
शिव	1
▁अष्टव	1
िनेट	1
▁टोट	1
िद्र	1
भारी	1
▁कंजक्ट	1
िवाइट	1
▁नजरिय	1
श्चात्	1
▁वस्त	1
▁फेफड़ो	1
▁१०९	1
▁डिस्कवर	1
▁अधिष्ठा	1
रोजेन	1
द्धम	1
▁सैंक्च	1
्युर	1
▁ह्यूमि	1
▁रिफ्ल	1
▁दोहराय	1
देन	1
मपु	1
▁स्कॉटलै	1
▁अप्रत्य	1
ाल्ड	1
▁न्यूट्रीश	1
▁उद्द	1
▁ऊँ	1
पेस्ट	1
डराव	1
्रेस्ट	1
▁३६५	1
ग्व	1
रना	1
▁डाँ	1
स्पि	1
▁प्वा	1
पचय	1
▁थपथ	1
ापा	1
सहयोग	1
वृत	1
श्ल	1
रने	1
र्श	1
्याद	1
▁हेमि	1
▁डब	1
पत्य	1
▁लैप्	1
एलर्ज	1
▁भेड़े	1
रिच	1
डिया	1
▁गुत्थ	1
थोरेक्स	1
GCT	1
▁प्रीत	1
▁हरम	1
▁साँझ	1
▁एक्ट	1
ब्रोन	1
लिज	1
▁उल्काप	1
डर्मा	1
टोसि	1
Environmental	1
senitation	1
▁विज्ञाप	1
▁झू	1
▁निभाये	1
त्तर	1
▁हज	1
फ्फ	1
बलगम	1
ुटकी	1
▁इज़	1
म्प्स	1
▁गोलार्	1
बहरी	1
धो	1
▁वातनाड़िय	1
▁कुमर	1
ाइना	1
भिन	1
लैम	1
मुत	1
प्रसन्न	1
सीमि	1
ोफ्ले	1
ोमाइन	1
▁गोत	1
टीनेशन	1
▁पिछ्	1
▁चरणो	1
दक	1
िध	1
▁अट्	1
▁लैंवे	1
जियोग्राफी	1
▁प्रोग्र	1
▁टयूब	1
ुर्त	1
ोमोज	1
▁भस्मावशेष	1
▁सनसन	1
▁हीराम	1
ग्रीव	1
कड़ा	1
▁अल्क	1
लॉयड	1
▁एजेंस	1
ेरीज	1
खनी	1
park	1
woods	1
ुगीन	1
▁१७२	1
नृत्य	1
▁अँध	1
▁रेच	1
ओक्यू	1
गेटो	1
▁युवत	1
्श	1
लिय	1
रेक्स	1
यलू	1
ंभव	1
▁अव्यव	1
▁अनुष्	1
ृह	1
▁मदिर	1
ट्रि	1
र्बी	1
ष़	1
▁समोस	1
▁हथ	1
▁विद्व	1
▁जेमगा	1
जाती	1
▁१६९	1
▁सैनि	1
▁तावा	1
▁एब्	1
ेक्सोल	1
तिरिक्त	1
पदा	1
लपोस	1
▁बिट	1
सोय	1
▁बालि	1
▁आजीव	1
ज़ोर	1
ुलो	1
▁एक्सेसरी	1
इस्त	1
▁शिक	1
▁लद्दा	1
▁विरोधाभास	1
▁इन्द्रप	1
▁ऑब्जर	1
पह	1
शाल	1
ंगन	1
भूम	1
ांची	1
▁समाजो	1
▁भ्रू	1
वत्	1
▁कॉम्	1
ेल्थ	1
▁मैकेनिज	1
▁एसोसि	1
▁लेखन	1
▁यूनीकंपार्ट	1
▁स्पेश	1
▁छ्ल	1
ोटोनिक	1
रिसेप्	1
▁कैरेट	1
ैटिन	1
्युल	1
ड्यूल	1
र्तव	1
▁नपु	1
▁देवि	1
▁न्यूरोट्र	1
ोफिक	1
ज़िर	1
रटन	1
▁नवम	1
भिक्षु	1
▁अट	1
▁अश्वगंध	1
पोषक	1
छिद्र	1
जौ	1
िटि	1
▁प्य	1
▁कण्ड	1
▁ब्रोन्क	1
▁साइकोलॉज	1
▁क्यो	1
ुरमुर	1
म्बक	1
▁अट्ट	1
हास	1
पीयर	1
कोर्स	1
ाइफ	1
▁अलि	1
प्त	1
▁ऑक	1
जेलिक	1
नान्तर	1
▁शिल्पो	1
्नो	1
▁साइ	1
ंटॉलज	1
ायोस	1
जैव	1
▁प्रतिक्र	1
▁महारा	1
स्ना	1
नटेन	1
▁एक्वे	1
Leucorrhoea	1
▁निःसं	1
▁समृद्	1
घि	1
▁नंग	1
▁पाइलोर	1
ँस	1
अधिक	1
▁लुंग	1
ात्मा	1
र्दो	1
▁अनुकृति	1
▁पूजना	1
थर्म	1
वार्षिक	1
▁दस्ताव	1
T	1
फ्रॉ	1
निष्क	1
ठात्	1
जोखिम	1
नाट्य	1
खापट	1
▁ऐम	1
ओपिय	1
ोरा	1
▁पंजी	1
कार्	1
▁जामन	1
▁सीढ	1
▁नवाग	1
ाल्ट	1
▁माल्ट	1
जरौल	1
धुन	1
पंप	1
मिट्	1
▁३५५	1
▁पैट	1
मस्कुल	1
▁लौहपु	1
चर्य	1
▁मिलाये	1
▁छींकन	1
ोक्ष	1
▁प्रश	1
ल्केरिया	1
ोजेन	1
सेप्ट	1
▁प्रशास	1
कश्यप	1
र्टियो	1
झूल	1
शल	1
चेतन	1
वृक्क	1
थनी	1
▁लॉयड	1
▁मुश्	1
नियाग्रा	1
▁चित्तौ	1
▁चलान	1
ुमल	1
▁दुशाल	1
्लोथ	1
▁संको	1
▁मेटा	1
क्वेरि	1
जिम	1
म्बोल	1
कोशिक	1
ोसिस्ट	1
दाम	1
▁मिचौ	1
साइकोलॉज	1
थियार	1
▁मुश	1
▁बोलब	1
▁इनकांट	1
झिझक	1
▁कैर	1
▁बचेग	1
जन्म	1
▁प्रदीप	1
र्णाक	1
ोलपोस	1
ुकता	1
फ्रे	1
▁बीमा	1
▁घनिष्ठ	1
त्तेजना	1
नहेग	1
दत्त	1
वैद्य	1
भाषा	1
▁वृक	1
▁पिंडिया	1
्रोफा	1
सिडें	1
▁एंटा	1
परीक्षा	1
▁सताए	1
▁थपेड़ो	1
▁विकल	1
ौंको	1
▁तम्ब	1
सेफाल	1
अस्तित्	1
▁सत्त	1
▁हत्थ	1
श्रवण	1
▁मायोमेक	1
फ्ट	1
थॉयर	1
र्भाव	1
▁पिर	1
डेट	1
▁रोगप्रति	1
्दे	1
जैक	1
रदूंग	1
▁२०८	1
▁वैज्ञानिको	1
▁अप्रवा	1
▁फ्रो	1
▁कैमा	1
mcg	1
▁एस्प्	1
ब्जर्व	1
▁चटान	1
▁तेईस	1
▁साइकोल	1
▁गजल	1
▁ठुम	1
ADP	1
▁आईप	1
ुरा	1
पाँव	1
▁घमौ	1
▁जानु	1
▁गंधर	1
रखा	1
▁चेतक	1
नीच	1
▁पांचम	1
जियो	1
▁कोच्च	1
▁पच्च	1
▁निस्त	1
▁यात्	1
▁कारव	1
▁सुल	1
्रिक	1
▁मांसाह	1
▁टीप	1
बस	1
रास्	1
सन्तुल	1
▁बुजुर्गो	1
▁साबरक	1
▁बनासक	1
▁नृत्यो	1
ल्लास	1
कृत्रिम	1
▁मानच	1
▁पुट	1
स्मय	1
▁मैनु	1
फैक्	1
▁उछलन	1
मुल	1
ाइडल	1
श्चिंता	1
ेंडर	1
ंडल	1
▁३८८	1
▁क्षेत्रो	1
िक्	1
ङ	1
ाडि	1
▁१९२	1
्कू	1
ाइपो	1
उत्तम	1
मन्द	1
▁निभान	1
▁तीर्थंकरो	1
लिट	1
▁सोनभ	1
दीव	1
राल	1
▁खिड	1
▁रेग्	1
▁सिनेम	1
▁चुपड़	1
ऍ	1
चले	1
दुल	1
संचालि	1
▁आरल	1
एन्ट	1
सोफेग	1
▁इन्जे	1
ंक्शन	1
▁महिल	1
▁तम	1
▁ईरा	1
्यामल	1
▁१६२	1
▁आक्सीडे	1
▁बासु	1
▁कर्णप	1
ुन्डल	1
दावा	1
िशियन	1
म्यूनि	1
▁क्य	1
ॊ	1
मू	1
▁सेल्य	1
ंपल	1
ेनस	1
▁कोट्टाव	1
स्सा	1
जिस	1
▁सोय	1
▁कार्यकार	1
ष्ठव	1
त्सो	1
ित्सा	1
म्भ	1
रिसॉर्ट	1
▁तीव्रत	1
संपदा	1
▁घोड़ो	1
्लेव	1
ोड़े	1
द्व	1
द्राव	1
▁कम्	1
पार्टमेन्ट	1
लमा	1
ीऑक्सीडे	1
नष्ट	1
िचित	1
रच	1
िस्टर	1
होश	1
ैथेट	1
▁नर्	1
ब्ज़	1
ट्य	1
ार्बर	1
▁बायोकेमि	1
▁ढूँढे	1
दोप	1
श्यू	1
बॉड	1
च्य	1
पाइन	1
▁०१९०	1
७३७	1
शक्तिशाल	1
ालों	1
भयानक	1
▁विभू	1
▁पारिस्थिति	1
ेश्वरय	1
फेक्ट	1
ोलीडे	1
शुद्धि	1
वं	1
ॉफ्ट	1
क्वीन	1
▁७३०	1
ईस्ट	1
▁ब्राइटन	1
मोक्	1
छ्	1
▁०७	1
ियेटर	1
शबा	1
खोजे	1
बागान	1
▁उत्तेजन	1
कौशल	1
िष्णु	1
डेविल	1
रॉयड	1
▁दरद	1
▁योन	1
▁कार्बोहाइड्रे	1
▁संजीव	1
बाजे	1
ाइंट	1
अटल	1
योग्य	1
▁कंजे	1
नाइटल	1
▁प्रशिक्षि	1
▁उपस्	1
ंछि	1
▁तहस	1
ोजिस्ट	1
पाशा	1
म्राज्य	1
▁चित्तर	1
गंड	1
प्रदाह	1
सफा	1
▁स्पेक	1
्ट्रोस्कोप	1
ट्रैडि	1
▁पॉलिस	1
ॉल्ट	1
▁भूम	1
योकैमिकल	1
च्च	1
तोणि	1
▁२३७	1
फड	1
▁३४६	1
▁हफ	1
ित्	1
तोडु	1
▁कतरान	1
पाठ	1
्चे	1
टाल	1
धिकांश	1
▁कौं	1
▁म्यूजिम	1
▁मिनि	1
▁माकू	1
्किन	1
▁सार्ट	1
▁बायोस्	1
न्सि	1
▁ऐण्टि	1
४१	1
र्बत	1
▁उपलब	1
स्थाय	1
▁तौल	1
▁चहच	1
▁ध्य	1
ैडल	1
▁अत्यावश्	1
स्क्युल	1
चु	1
बौ	1
गांधी	1
▁शेल	1
पिन	1
कोडाइ	1
▁छेड	1
▁महादे	1
▁मूंग	1
▁डुं	1
▁पड़़	1
र्द्ध	1
नेगेट	1
▁लैव	1
▁इन्द्रिया	1
▁सम्ब	1
ौटा	1
▁भूमिस्थ	1
धि	1
▁साइं	1
टिफिक	1
ड्री	1
▁परिध	1
सूड़े	1
िन्न	1
▁दिखला	1
▁स्पैन	1
▁लैक	1
मृदु	1
▁आंज	1
▁लैपर	1
▁भृ	1
Vertigo	1
ठक	1
पैड	1
▁सायनोवि	1
इम्यून	1
ूमेट	1
हिला	1
▁बाशि	1
दें	1
▁सिटि	1
▁उष्णकटिबं	1
▁फर्ला	1
▁एड्र	1
वज्	1
▁दुंग	1
जमेंट	1
ेक्टोमी	1
▁चिमन	1
▁स्नानाग	1
▁पैथो	1
जंस	1
सारण	1
▁बरक	1
ैल्यू	1
ऑफ	1
▁सीत	1
▁मज़	1
▁ऐरा	1
िंडा	1
िंघ	1
सिज	1
मुँह	1
▁मलय	1
ौद्ध	1
▁बिछुड़	1
़मी	1
वचन	1
LED	1
ैनस	1
▁ग्रीस	1
बॉक्स	1
कफ	1
▁सिंघ	1
तावांग	1
▁झाप	1
▁गोगा	1
chevronhotels	1
ऑन	1
रेनाइ	1
ानारायण	1
▁स्वच्छ्	1
ैम	1
▁कोलेस्ट	1
ेरोल	1
इंत	1
कैट	1
▁बेमौ	1
आराम	1
▁स्टिम	1
ुलस	1
▁बेल्	1
न्यूट्रीशन	1
मसा	1
ीबाय	1
▁नपुंसक	1
नक्श	1
ाबि	1
▁रैडिक	1
ैन्जी	1
ास्ता	1
यरफो	1
मुकुट	1
छुआ	1
▁परिप	1
ांतिक	1
▁अभिया	1
ंत्रिकी	1
बाईकार्ब	1
▁डिस्टर	1
ज्बे	1
किस्तान	1
गोस्	1
ेमोग्राफ	1
रिंदे	1
संरक्ष	1
▁दर्रो	1
▁ढु	1
ग्लास	1
▁सबक्य	1
द्यप	1
तेश्वर	1
▁हरीति	1
ब्बत	1
स्टेट	1
ुसन	1
▁टेस्	1
लोवा	1
▁टिशू	1
▁एक्जीक्य	1
फाल	1
विभ	1
▁पॉली	1
नौरा	1
ूरपुर	1
▁खजुराह	1
जुरा	1
वैश	1
जेस	1
▁कामो	1
न्माद	1
ौरागढ	1
▁कोडाई	1
▁टैर	1
शास्त्री	1
रुलि	1
▁ब्रां	1
प्रशिक्ष	1
▁अजस्	1
किन्स	1
▁अपश	1
सिलिस	1
घिस	1
▁सोखन	1
ब्रेक	1
▁एगो	1
रोफोबि	1
▁राश	1
मोनी	1
▁गुँथ	1
▁अर्ण	1
▁लुढ	1
▁माद	1
नोर	1
शो	1
वज	1
▁गोठ	1
ोविल	1
▁वृह	1
▁बौद्	1
घ	1
▁अहित	1
भुज	1
बदो	1
ंदाज	1
▁उपस्थि	1
किंकर	1
▁आन्त्र	1
▁कॉले	1
DNA	1
▁चतुर्म	1
▁डट	1
वेध	1
▁पछ	1
ैडि	1
▁स्टेरॉ	1
▁छड	1
ोटोनि	1
शियर	1
ाऊं	1
घंट	1
▁सोवि	1
्मि	1
ुट्ठ	1
▁ज्य	1
ेष्ठ	1
ाइडि	1
हिसाब	1
▁किलेदार	1
यूजी	1
मस्जिद	1
▁छुट	1
वस्तु	1
▁गोष्ठ	1
क्षर	1
▁१४३	1
▁वृता	1
बदरीनाथ	1
गाढ़	1
▁लूज	1
▁पार्किं	1
ेखा	1
गोवा	1
Organic	1
disorders	1
▁छिछ	1
सॉर्ट	1
न्टिन	1
टार्ट	1
ॉम्	1
▁चुटक	1
ीखे	1
ावर	1
▁कपि	1
▁सिस्टर्	1
्यादि	1
▁लेक्टो	1
▁संवर	1
▁१५२	1
रमोन	1
पें	1
खलिहान	1
▁वोल	1
▁मेघा	1
▁ज्वारी	1
▁टेढ	1
र्शी	1
▁पठ	1
▁गेह	1
रत्ने	1
▁२१९	1
िफ्लेम	1
ECCE–IOL	1
्मिया	1
▁ज्वल	1
लखन	1
डेय	1
▁कैलि	1
▁हिस्टो	1
▁वाय	1
▁ज़म	1
ाइसि	1
सिलसिला	1
▁दूरदर्श	1
क्ष्म	1
FISSURE	1
IN	1
ANU	1
▁गैस्ट्रोइ	1
▁१६१	1
▁वाह	1
पाउंड	1
▁बिल्ल	1
▁१०५०	1
▁१७९	1
NSAID	1
▁प्रवृत	1
▁पंचग	1
बाट	1
सौ	1
जेने	1
▁वु	1
मथांग	1
केमिस्ट	1
त्वाकांक्ष	1
ट्रे	1
▁टेट्रा	1
र्कश	1
कारा	1
▁मोरक	1
पृष्ठ	1
▁शाले	1
ंधान	1
▁दुल्ह	1
▁रज्ज	1
सर्गिक	1
▁सेलेब	1
▁स्क्वे	1
▁न्यूक्ल	1
ट्रॉ	1
प्रेगनें	1
भव	1
▁डक	1
▁गाड	1
हड	1
▁आश	1
्यक्ति	1
ेनिट	1
ोलिडे	1
छत्र	1
िलाइज	1
▁आईटी	1
▁पतरा	1
रायड	1
▁इकराम	1
▁उब	1
सियाँ	1
▁आस्टि	1
RB	1
▁स्मार	1
▁अभयारण	1
▁गाठ	1
▁एमएम	1
यूरेथ	1
क्कि	1
▁कठफोड	1
स्तिका	1
वाभ्यास	1
िलव	1
ड़ोस	1
▁समाय	1
▁ज्ञानवापी	1
लेमेंट	1
टूडे	1
रौन	1
p	1
प्रचल	1
अल्प	1
▁यात्रिका	1
▁एकान्त	1
चंग	1
डाइल	1
आन	1
▁सजाए	1
▁कथ	1
लेटर	1
▁मुंडा	1
मालिनी	1
ुकल	1
याणी	1
फ्रेन	1
ब्यूटा	1
जोन	1
▁चढ़ाय	1
▁गै	1
ियोलॉजी	1
▁४१५	1
▁खोजकर	1
जाति	1
▁लहलहा	1
त्रि	1
डैम	1
▁झि	1
बह	1
▁देवपा	1
कुश	1
फुल्क	1
हर्ष	1
▁फ्लेक	1
डेन	1
▁चिल्ड्र	1
▁लैप्रोस	1
परंपरा	1
▁पंपा	1
स्थापत्य	1
▁हाइपरमेट्रोपि	1
वेग	1
कसरत	1
मेह	1
▁लगेंग	1
▁६५४	1
▁हर्षव	1
निश्चि	1
म्बल	1
मढ़	1
▁सूर्यदेव	1
▁पहुँचेग	1
▁मैटाब	1
▁माण	1
ाटा	1
ॉमिक	1
गमेंट	1
▁कठपु	1
मालिश	1
युरिन	1
मिजाज	1
▁कमलब	1
हले	1
रिज	1
कांउ	1
रकों	1
क्रेट	1
्युमि	1
ोजन	1
▁डेक्	1
▁इंफै	1
ाधीन	1
ांकुर	1
▁मर्क्युर	1
▁बैक्टीरिय	1
▁एपो	1
प्लैक्स	1
▁ढा	1
स्तूप	1
सोफि	1
▁आर्गन	1
▁मोइ	1
▁वैज्ञानि	1
▁बंगा	1
▁पद्मप	1
ॉर्न	1
बर्गा	1
▁शिम	1
ोगा	1
▁चंपार	1
ाजनगर	1
प्पाल	1
▁फुलक	1
सत्ता	1
▁एन्टिम	1
▁मको	1
मैग	1
नेटिक	1
रीद	1
▁हठात	1
वाइ	1
▁पटु	1
▁पटुवा	1
सुरे	1
▁दैन	1
श्यो	1
चक्का	1
बसी	1
▁इंडो	1
मुगल	1
▁फिशर	1
▁धनुष्कोट	1
▁त्रिशू	1
▁हरमन	1
ड्	1
▁प्	1
रिजर्व	1
निर्धार	1
स्तुशिल्प	1
र्सन	1
▁शिरग	1
▁होस्ट	1
▁उड़ाए	1
▁चुम्ब	1
ोर्ड	1
▁आवर	1
सुप्त	1
▁१०१	1
▁डैक	1
▁रव	1
▁विश्वविद्या	1
▁परिष	1
मजे	1
▁दुखद	1
▁रक्तसंच	1
िंड	1
▁कालि	1
कुंतल	1
▁कुसु	1
▁नैट्रम	1
किट	1
आरसीटी	1
यूज़	1
▁परित्य	1
▁१७७	1
ंचन	1
▁चूढ	1
▁बरा	1
२६८	1
ंद्रिय	1
▁एनेस	1
▁मसूड़ो	1
▁एलोप	1
▁पेरियो	1
▁काजी	1
गुंड	1
▁हरगोविंद	1
श्वस्त	1
▁निवे	1
्विन	1
कुलर	1
▁वातानु	1
कुट	1
▁हिमोढ़	1
जध	1
्निया	1
▁हाइड्	1
▁श्रीख	1
▁थु	1
पुष्टि	1
▁दत्त	1
▁खंडगिर	1
▁कैलेंड	1
▁केन्द्रो	1
▁नायल	1
्टिंग	1
▁देखूँ	1
▁योगनि	1
▁रणथं	1
▁छितर	1
िस्टोल	1
स्कूल	1
▁आभार	1
▁महाविद्या	1
हाव	1
गोम	1
ंगपा	1
ंगड	1
रवात	1
▁उच्चरक्त	1
mm	1
जरी	1
ावन	1
ोबे	1
शिम	1
रुक्ष	1
ोरल	1
▁दुष्	1
▁डंड	1
ृंखला	1
याज	1
श्रेणिय	1
▁अपरा	1
पुजार	1
▁संभ	1
टाई	1
▁नैसर्	1
ब्दील	1
▁स्मिथ	1
▁संस्थ	1
▁स्वराज	1
▁पड़वा	1
डाइग्नोस	1
ारि	1
▁अनिव	1
र्य	1
▁निर्जल	1
पोटा	1
पीवी	1
ब्लास्ट	1
ाजिक	1
▁पाण	1
लाय	1
जोड़	1
संद	1
स्टेशन	1
क्षत	1
व्रण	1
ेलस	1
राफा	1
▁स्टोम	1
हितकार	1
▁लैवे	1
▁उफ	1
▁द्व	1
ड्रिंक	1
गरूक	1
डीया	1
क्रोबायो	1
्टिस्ट	1
▁जिज्ञास	1
▁मदरस	1
लिम्फ	1
▁अन्धकार	1
चिल्ला	1
पल्लि	1
डेक्स	1
रविन्द	1
▁निस्स	1
ाइरा	1
िरापल्ल	1
▁जननांगो	1
आरएस	1
्ल्यूड	1
▁मुगलकाल	1
ड्राइव	1
▁दुष्प्र	1
प्य	1
आक्सीडे	1
खुरा	1
▁तारो	1
▁प्राग्	1
वस्त्र	1
▁नन्द	1
▁नैश	1
्वार	1
लिनी	1
केगा	1
▁गर्	1
र्टरी	1
▁डिल	1
▁चप	1
मिनिय	1
▁आयुवाल	1
▁पुत	1
८२	1
▁एप्प	1
▁मम्	1
▁१४२	1
▁पोंछन	1
▁पुक	1
▁स्केल	1
रेट्र	1
▁सामुद	1
▁दुष्प्रभ	1
डल	1
र्ध	1
▁कार्डियो	1
▁प्लाइ	1
पिल	1
ैरिएट	1
क्षा	1
सरा	1
▁निष्क	1
ृ	1
▁फैश	1
शीश	1
तिहा	1
लोना	1
ख्सियत	1
ीवर	1
जाग	1
▁बाउं	1
म्बिय	1
▁सुदृढ	1
राशि	1
▁भरोसे	1
▁फाइ	1
कॉटल	1
तेनज	1
▁अशुद्धि	1
शिका	1
▁साइकोस	1
▁ऐलु	1
रंजन	1
▁जहा	1
भंडार	1
ोर्बी	1
▁रासाय	1
स्टो	1
▁नाखू	1
▁इंटरनेश	1
मिलन	1
नानास	1
एनस	1
▁चौंक	1
▁भीमक	1
▁याकस	1
▁छला	1
▁एंटासि	1
बंग	1
▁जलप्	1
शोक	1
Y	1
िक्टोरिय	1
भोज	1
पेड़	1
ासि	1
▁कोर्न	1
▁स्विट्ज	1
▁शिवि	1
फ्रेड	1
कमल	1
लाइड	1
टोमा	1
ामियान	1
▁अतिश	1
योक्ति	1
३१	1
मारते	1
्यु	1
▁आजमात	1
हाउ	1
▁वांगद	1
ांडू	1
डिला	1
ाटक	1
▁नेत्रो	1
▁पोद	1
राणी	1
▁ड्	1
त्थर	1
कोडर	1
डेड	1
त्कीर्ण	1
▁पिछव	1
Broccoli	1
▁चिंतामण	1
▁स्वाभाव	1
बेख	1
षाणु	1
ब्यूलि	1
७००	1
्टा	1
गनवाड	1
naso	1
pharunx	1
विल्स	1
क्वाय	1
सौंदर्य	1
▁पैंता	1
▁शबा	1
▁महापु	1
▁आँस	1
थाइम	1
ोदी	1
▁अचल	1
▁ऐनी	1
मचंद	1
▁इजिप्	1
फीथि	1
▁वोड	1
▁महकत	1
िरे	1
झ	1
ाये	1
ियोवेस	1
ृति	1
▁हाउ	1
षण	1
कार्न	1
बिन्दु	1
लौट	1
छ्त्र	1
▁मसले	1
सूल	1
ुन्न	1
तल	1
जिला	1
सिस्टीन	1
▁कठफोड़व	1
▁बस्ति	1
व्याधि	1
टिविटी	1
▁आलूब	1
स्ती	1
▁मांसपेशीय	1
▁पूछन	1
गुफा	1
बुर	1
हाद	1
एस्टे	1
Angiotensin	1
Converting	1
enzyme	1
lnhibitors	1
▁रसद	1
▁श्रोत	1
▁थै	1
त्रा	1
▁चरा	1
ोहक	1
▁अजम	1
▁बातो	1
ार्श	1
स्वाभाविक	1
एक्सर	1
▁विरुद	1
▁भागो	1
आम	1
िकार्डिय	1
नाड़ी	1
हिंद	1
▁कुम्भक	1
माइल	1
हने	1
▁कुप्पड	1
स्थिति	1
वायरल	1
ंटीफंग	1
▁नोरजि	1
़ज़	1
ंधों	1
▁पर्यटको	1
▁स्वाभ	1
▁रेडिये	1
पिली	1
▁स्ट्रेप	1
▁अशक्	1
▁ऑस्	1
्पियन	1
▁एप्ल	1
▁लैम्प	1
▁पटचित्र	1
suprarenal	1
gland	1
मालिक	1
प्रोक्स	1
िस्ता	1
ैक्टीरिया	1
टप्पु	1
५३	1
▁वेंकटेश	1
▁यलो	1
पचार	1
िन्	1
▁महाल	1
४००	1
D	1
▁डाइटीशि	1
▁देखभ	1
दुग्ध	1
पेक्ष	1
टाफोर	1
थेर	1
गरम	1
▁बिया	1
▁वंशा	1
▁रोडवे	1
अपने	1
ॉल्व	1
छात्र	1
▁रगड	1
Hook	1
Worm	1
ांत्र	1
िंतब	1
ुस्त	1
▁इसोफ़ि	1
▁अँग	1
ढा	1
चिरा	1
▁मैनि	1
▁अल्ट्र	1
▁स्ट्राब	1
ब्लड	1
ब्य	1
▁मॉस	1
▁ओपि	1
▁ग्री	1
इटी	1
▁दुध	1
बसे	1
लीपुर	1
▁ऑपरेट	1
▁ऐंठ	1
▁प्रसिद्	1
▁भिग	1
ँसी	1
खुश	1
खरी	1
ैस	1
डार्ट	1
ॉस्फ	1
ंडोली	1
बायोप	1
▁तेरहव	1
धू	1
ेशवर	1
MPTP	1
▁४०३	1
▁मले	1
कल्ल	1
▁हाइपरग्ला	1
▁हेलं	1
▁अनू	1
▁योजन	1
▁राइनोसेर	1
▁पार्को	1
जंतु	1
B	1
▁टॉर	1
▁एंथ	1
बेरा	1
▁हेलिको	1
र्निया	1
नकौ	1
▁लात	1
इकोलॉजि	1
ूकन	1
सुआ	1
भाने	1
▁जौं	1
न्द्रम	1
▁सुखाय	1
▁नाह	1
▁चकत्तो	1
दाद	1
ाइमोस	1
▁सुरिन	1
एक्टिविटी	1
रपा	1
रती	1
▁गेल्	1
▁पंखुड़	1
▁लिंफो	1
पुत	1
▁उद्या	1
ट्रा	1
▁ट्रान्सप	1
्लांट	1
्यवस्था	1
▁फार्मास्युटिकल	1
▁सिकंदर	1
श्र	1
प्शन	1
ड़के	1
चाव	1
माह	1
मते	1
सवाल	1
पिपास	1
▁एक्सट्र	1
आला	1
ियोल	1
▁सालो	1
कुशी	1
▁त्रिश	1
▁एडवें	1
▁सरो	1
क्षक	1
्यादा	1
विविधता	1
▁ऐण्टी	1
वाटर	1
शिक	1
चन्दन	1
तत्त्व	1
पॉप	1
इमा	1
डिय	1
त्तूर	1
▁ओलो	1
▁एथल	1
▁त्	1
▁फ्रक्टो	1
्टोज	1
्रान्ति	1
▁कांच	1
फर्टिल	1
▁एलर्ज	1
काट	1
▁वैस्ट	1
ेत्ता	1
रक्यू	1
NH	1
छाल	1
▁रौं	1
▁एल्गिन	1
▁क्ले	1
▁ब्रॉ	1
▁पंगु	1
नुयाय	1
र्जा	1
▁गुरुवा	1
साहिब	1
▁मार्गो	1
ोस्टेरो	1
▁ओस्ट	1
फाइल	1
▁जिंजी	1
पंक्ति	1
▁मित्रो	1
▁कंच	1
लाचे	1
फिस	1
क्युल	1
गंध	1
▁ब्रह्मद	1
रगाह	1
▁ऑरच	1
रिंग	1
क्लिन	1
ार्	1
▁सुखाए	1
▁चारो	1
सीडी	1
ंघ	1
टिकेन्द्र	1
प्रदीप	1
▁सुषुम्	1
▁जयस	1
िटिव	1
मल्ल	1
ाइब्र	1
र्ल	1
▁लीक	1
ोबैक्ट	1
ेडिट	1
टेरि	1
त्रे	1
▁लुब्र	1
ोघल	1
▁सिह	1
भन	1
गणेश	1
▁फुस	1
▁एस्प	1
▁ग्	1
वमेंट	1
मावेल	1
ाधीश	1
टॉलज	1
्सीड	1
▁कैंपस	1
ज्ञापन	1
िमेंटो	1
▁ब्रोम	1
▁गार्	1
▁जिप	1
▁खुरद	1
▁चतुर्भ	1
५२	1
▁फां	1
उंटेन	1
▁जीवाश्	1
द्योगिकी	1
▁ऑटोम	1
▁नैर	1
डिएशन	1
ेस्टिव	1
वाडा	1
निज़	1
▁ज़िक	1
गाए	1
्दन	1
▁दूसरो	1
▁पुनर्वि	1
▁ब्यूट	1
्थिसन	1
▁एण्ट	1
▁वेशभू	1
्रिम	1
टहल	1
▁बैप्ट	1
▁०९	1
६३२	1
▁सप	1
टिलि	1
ेकिं	1
▁डीज	1
ेस्ट्रा	1
ग्रो	1
ुधा	1
▁मुक्के	1
न्फ्लुए	1
हेयर	1
कुशल	1
▁सम्पूर	1
निरोध	1
प्रभ	1
जेमू	1
दूसर	1
ार्म	1
ठार	1
▁बगी	1
़च	1
▁अतिथ	1
▁अर्द्धक	1
▁पुष्	1
र्ण	1
▁त्रिव	1
म्पान	1
▁उल	1
▁भोप	1
शंका	1
▁इस्टे	1
भावो	1
▁रिस्टोर	1
▁एक्सपो	1
कैस्ट	1
त्रो	1
▁मनोचिकित्स	1
सोसिएट	1
▁वन्	1
लेरोस	1
हाइड्रेट	1
ितेन्द्र	1
राया	1
▁मिशनर	1
▁रेग	1
▁पुश	1
अप्स	1
बेन	1
वु	1
▁सातव	1
्ज़	1
▁सहेजन	1
फ्थ	1
ांसा	1
▁उभरन	1
▁शर्ब	1
ांडव	1
लवण	1
्रोजेन	1
रोबिक	1
टायफा	1
वाय	1
Renal	1
Colic	1
▁ट्रान्	1
लस्वा	1
गुजार	1
त्तो	1
▁पुरातत्त्वविद	1
▁संधिशो	1
▁डरप	1
्टो	1
खरो	1
चक्कर	1
▁जानव	1
▁मैटा	1
िप्ट	1
ौब्य	1
ड्रन	1
ंगरी	1
्युरि	1
ेमेट	1
क्यूम	1
चेरम	1
▁स्पोन	1
ग्ज	1
ेलेट	1
बीट	1
▁वीरो	1
मेश्वर	1
स्कॉ	1
बि	1
पोटे	1
द्यो	1
फिंग	1
▁हिमो	1
पिडेमिय	1
िखाएँ	1
▁एम्फी	1
थियेटर	1
▁दर्प	1
▁शिवाजीरा	1
खबर	1
झान	1
▁५९	1
स्खल	1
चन्द	1
भ्य	1
मीनार	1
्पति	1
्बध	1
्वाय	1
र्णो	1
खें	1
▁युग्म	1
▁जोंके	1
दिला	1
पोरि	1
चुका	1
यूलिम	1
शराब	1
्डन	1
डिक	1
▁रोहे	1
▁मडगा	1
पूसा	1
▁आर्थ	1
कॉर्टिको	1
ट्रॉपिक	1
▁कॉर्टि	1
▁राजधान	1
▁टाँगे	1
coenyme	1
alph	1
lipoic	1
acid	1
रोम	1
केन्द्री	1
▁मूवमे	1
ग्ल	1
ेन्डि	1
्ध	1
ॉस्चर	1
डाइव	1
जंप	1
चंद्रन	1
▁प्रोज	1
रेखांक	1
▁पैरास	1
िटा	1
बामा	1
हता	1
छड़	1
हिप	1
धीरे	1
~	1
▁हजारो	1
▁मँग	1
▁एलां	1
मूलर	1
▁शंकरा	1
▁जयाब	1
ध्वनि	1
ूती	1
कोरिन	1
ेरोस	1
▁खात्म	1
कोमल	1
दालान	1
पाताल	1
क्वि	1
▁लोकेश	1
▁क्वै	1
ौफ	1
▁लाठि	1
▁भेड़िय	1
▁रजह	1
राउ	1
्लोरा	1
Itch	1
Scabies	1
▁भाष	1
▁ब्रह्माण	1
खर्ची	1
▁पपी	1
बर्ड	1
पंज	1
n	1
राष्ट्रपति	1
टू	1
ुगल	1
बिठ	1
▁लान	1
फ़ाय	1
▁पुनर्ज	1
ल्टीव	1
▁किटकिटा	1
▁जुड़वा	1
प्रत्यंग	1
तेज	1
▁डाइसट	1
▁रिप्लेस	1
पेंट	1
राधिका	1
िख	1
▁विवा	1
ड्यू	1
ेटिल	1
द्धास	1
ुमन	1
मुनी	1
कार्बे	1
क्जि	1
राण	1
ुण्डी	1
▁नौटं	1
मृत्यु	1
दन्त	1
▁स्लाइ	1
तात्मा	1
साधन	1
▁सैलूल	1
▁झोंपड़िय	1
ियाग्रा	1
म्भव	1
▁अल्मे	1
▁इंप	1
ौटे	1
▁तान	1
▁खर्	1
म्मान	1
छंतोल	1
▁कमरो	1
▁साफस	1
▁यंत्रो	1
▁एंटीको	1
ग्यूल	1
▁प्रोल	1
ैप्स	1
▁गोस्थ	1
▁एम्बो	1
सुध	1
ैव	1
कम्	1
▁विंडस	1
कन्या	1
मर्	1
फोद	1
▁डार	1
▁धड़कने	1
लसा	1
फ्लेमे	1
वाइन	1
▁विधिया	1
ंतव्य	1
▁सिली	1
नैप	1
विकृति	1
रिये	1
क्टिव	1
फेरा	1
कोच्चि	1
ोनाल्ड	1
वाल्स	1
▁पलके	1
जेल्स	1
्टेशन	1
नवें	1
न्ट्र	1
▁डिटर	1
प्रतिमा	1
▁निद्राल	1
रडो	1
बुद्ध	1
नायड	1
शस्त्र	1
▁गह	1
लीफा	1
मुश्क	1
▁एरिय	1
▁उमर	1
३७२	1
▁महाबलेश्	1
▁प्रां	1
▁तोड़े	1
२२९	1
▁कैपि	1
▁आर्ग	1
ेडिक	1
▁दव	1
▁मैगा	1
तराश	1
▁एथ	1
ोस्क	1
▁वृद्धा	1
▁अनैत	1
▁प्वाइ	1
न्दी	1
▁बेदि	1
▁बीट	1
यूटेर	1
▁ओरंग	1
डेक्ट	1
्राण	1
विश्वस	1
▁च्व	1
साठ	1
र्जे	1
न्जर	1
▁ज्	1
म्मू	1
डाइवर्सिट	1
डेवल	1
आय	1
एशिया	1
प्यूटि	1
▁राक्	1
सफ	1
▁अर्बुद	1
▁बेलव	1
▁पिंप	1
मोतिया	1
यानंद	1
▁कुंभक	1
क्षिण	1
▁१५१	1
बांकुर	1
▁पर्च	1
nerve	1
damage	1
▁लियोम	1
योमा	1
▁गवाए	1
▁कल्ल	1
ल्लिया	1
ंपति	1
्लीमे	1
मंगल	1
काम्ल	1
▁सोचो	1
इलेक्ट्रॉनिक	1
▁राइन	1
लेटीन	1
ेलियन	1
▁रवी	1
▁मुफ़	1
ंत्र	1
▁फौल	1
दिराप	1
▁नल्ला	1
थानी	1
जंगा	1
ाशीया	1
होता	1
ूज	1
▁होमियोप	1
▁रानिया	1
पोंडि	1
्रेन	1
जिष्ठा	1
ारिवा	1
उम	1
वास्तविक	1
समय	1
▁लपेटे	1
▁इनमे	1
रैल	1
▁वज	1
्ज़ी	1
खुड़िय	1
▁सूड	1
लाब	1
▁कौश	1
ाइप	1
ष्	1
▁एजें	1
▁टॉक्स	1
पेनी	1
ौत	1
A	1
▁१४९	1
न्यूट्रिएंट	1
▁माइक्रोब	1
बोला	1
▁गोन	1
▁झिझ	1
▁श्रृद्धा	1
जामुन	1
▁इजी	1
छंग	1
▁उबा	1
रखे	1
्लिप	1
छत्रिय	1
यौन	1
ूथ	1
▁क्लेरी	1
दशाह	1
नाइल	1
▁अभिम	1
हेलर	1
ोरेक्स	1
▁दर्श	1
नोपॉज	1
द्रो	1
