▁।	34371
▁ਹੈ	32188
▁ਦੇ	28103
▁ਵਿਚ	24397
▁ਅਤੇ	14656
▁ਦੀ	14605
▁ਦਾ	13607
▁ਨੂੰ	11306
▁,	10853
▁ਹਨ	10721
▁ਨਾਲ	10660
।	10225
▁ਤੋਂ	9330
,	8514
ੇ	7874
-	7732
▁ਤੇ	6964
▁	6906
▁ਇਸ	6877
▁ਵੀ	6626
ੀ	6466
ਾਂ	6369
▁ਲਈ	5152
ਾ	4968
▁ਹੋ	4920
▁ਇਕ	4629
ਆਂ	4491
▁ਇਹ	4453
▁ਕਿ	4074
▁ਹੀ	4061
ਂ	3533
▁ਤਾਂ	3316
▁ਕੇ	3146
▁ਜਾਂਦਾ	3144
▁ਸੀ	3071
▁ਨਹੀਂ	2942
▁ਹੁੰਦਾ	2699
.	2632
▁ਜਾਂ	2623
▁ਦੀਆਂ	2307
▁ਹੋਣ	2179
▁ਜ਼ਿਆਦਾ	2151
ੀਆਂ	2029
▁ਉਸ	2019
▁ਕਰਨ	1995
▁-	1987
ਰ	1976
▁ਜਾ	1975
▁’	1890
ਨ	1845
▁ਰੋਗ	1814
▁ਨਾ	1805
▁ਨੇ	1804
▁ਕਰ	1782
▁ਦੂਰ	1748
▁ਹੁੰਦੀ	1744
ਤ	1720
▁ਜਾਂਦੀ	1718
▁ਜੋ	1683
▁ਬਹੁਤ	1643
ਿਤ	1635
▁ਸਕਦਾ	1609
▁ਤੱਕ	1602
▁ਪਾਣੀ	1545
’	1539
ਲ	1526
▁ਘੱਟ	1524
▁ਸਥਾਨ	1517
▁ਕੀਤਾ	1494
▁ਸਰੀਰ	1459
▁ਕੁਝ	1433
▁(	1428
ਕ	1424
ਿਆਂ	1417
▁ਗਿਆ	1402
ਦੇ	1359
▁ਬਾਅਦ	1343
▁ਸਮੇਂ	1320
▁ਸਕਦੇ	1316
ਦਾ	1305
▁ਸਥਿਤ	1301
▁ਦਿਨ	1267
▁ਜਿਸ	1242
▁ਵਾਲੇ	1238
▁ਕਾਰਨ	1227
▁ਪਰ	1227
▁ਇੱਥੇ	1214
▁ਸਭ	1206
▁ਆਦਿ	1199
ਣ	1195
▁ਰੂਪ	1172
▁ਜਾਣ	1152
▁ਸਾਲ	1142
▁ਮੰਦਿਰ	1130
▁ਰੋਗੀ	1108
▁ਕਈ	1098
▁ਹੋਵੇ	1096
▁ਉਹਨਾਂ	1094
▁ਤੁਸੀਂ	1092
▁ਆਪਣੇ	1091
▁ਚਾਹੀਦਾ	1088
▁ਇਹਨਾਂ	1086
▁ਕਰਦੇ	1061
▁ਹੋਏ	1054
ਵਾਂ	1054
▁ਦਰਦ	1050
▁ਕਿਸੇ	1039
▁ਦੋ	1030
▁ਹੁੰਦੇ	1029
▁ਜਾਂਦੇ	1022
▁.	1021
▁ਦੁਆਰਾ	1020
ਸ	1002
▁ਉਹ	998
▁ਹੋਰ	978
▁ਤਰ੍ਹਾਂ	943
▁ਕਰੋ	933
▁ਹਰ	909
▁ਹੋਇਆ	903
▁)	871
▁ਕਰਨਾ	864
▁ਜ਼ਰੂਰ	824
▁ਕਰਦਾ	820
▁ਆ	816
ਿਕ	816
▁ਬਾਰ	807
▁ਜੇਕ	799
▁ਸਕਦੀ	795
▁ਲੈ	783
▁ਕੋਈ	782
▁ਲੋਕ	780
▁ਭੋਜਨ	778
▁ਕੀਤੀ	766
▁ਕਿਲੋਮੀਟਰ	762
▁ਵਾਲੀ	757
ਤਾ	739
▁ਨਾਮ	723
ਮੀ	720
▁ਸ	719
)	711
▁ਖੇਤਰ	710
▁ਦੇਖਣ	710
ਕਿ	707
▁ਪਹਿਲਾਂ	705
▁ਮਾਤਰਾ	683
▁ਤਿੰਨ	679
▁ਸੂਰਜ	676
▁ਅਸੀ	675
▁ਵਿਚੋਂ	671
▁ਰੰਗ	659
▁ਰਾਸ਼ਟਰੀ	659
▁ਸੈਰ	658
▁ਇਸਦੇ	656
▁ਸ਼ਹਿਰ	642
▁ਪ੍ਰਕਾਰ	637
▁ਰਿਹਾ	632
▁ਕਾਰਣ	627
▁ਇਥੇ	623
▁ਜਦੋਂ	622
▁ਰਹੇ	619
ਮ	618
▁ਪੇਟ	618
▁ਮੰਦਰ	615
▁ਵਿੱਚ	614
▁ਬੱਚੇ	605
ਕੇ	602
▁ਮੁੱਖ	596
▁ਕੰਮ	594
▁ਸਾਰੇ	592
▁ਕਰਕੇ	590
▁ਖੂਨ	587
▁ਭਾਰਤ	585
▁ਅੰਦਰ	575
▁ਵਿਅਕਤੀ	572
▁ਲੋਕਾਂ	571
▁ਹੋਈ	565
▁ਗਈ	563
▁ਰਹਿੰਦਾ	554
▁ਰਾਜ	553
▁ਦਵਾਈ	553
▁ਇਲਾਜ	552
▁ਪਾਸੇ	551
▁ਅ	545
▁ਮਾਰਗ	543
▁ਜੇ	540
▁ਹੁਣ	539
▁ਉਮਰ	538
▁ਗਏ	537
▁ਝੀਲ	536
▁ਤੇਲ	531
▁ਬੱਚਿਆਂ	529
▁ਇਲਾਵਾ	525
▁ਫਿਰ	523
▁ਜਿਵੇਂ	521
ਿਆ	518
▁ਆਉਣ	516
▁ਠੀਕ	516
▁ਦਿੱਤਾ	515
▁ਮਹਿਲਾ	513
▁ਸੇਵਨ	507
▁ਤਕ	507
▁ਕਿਹਾ	506
▁ਖਾਣ	505
▁ਗਰਮ	503
▁ਅੱਖਾਂ	502
▁ਲਗਭਗ	500
▁ਹਾਂ	498
▁ਆਮ	497
▁ਵਾਲਾ	495
▁ਪ੍ਰਯੋਗ	495
▁ਵਿਸ਼ੇਸ਼	495
▁ਨਦੀ	495
▁ਹੋਣਾ	494
▁ਜਾਵੇ	493
▁ਅਨੁਸਾਰ	491
▁ਆਪਣੀ	490
▁ਕੋਲ	489
▁ਬਾਹਰ	485
▁ਪ੍ਰਭਾਵ	481
▁ਪਾਰਕ	480
▁ਵਾਰ	478
▁ਤੁਹਾਨੂੰ	477
ਨੂੰ	473
▁ਦੇਸ਼	467
▁ਸਿਰ	464
▁ਕੈਂਸਰ	464
▁ਲਾਭ	460
ਏ	457
▁ਯਾਤਰੀ	454
▁ਭਰ	452
▁ਅਜਿਹੇ	452
▁ਕਮੀ	450
▁ਸੁੰਦਰ	448
▁ਪ੍ਰਾਚੀਨ	448
▁ਲਗਦਾ	446
▁ਵਾਲ	444
▁ਨਿਰਮਾਣ	444
▁ਪਿੰਡ	442
▁ਤੇਜ਼	439
▁ਕ	433
ਅਜਿਹਾ	431
▁ਅੱਜ	429
▁ਤੁਹਾਡ	428
▁ਤੌਰ	427
▁ਅਨੇਕ	426
▁ਜ਼ਰੂਰਤ	425
▁ਚਾਰ	425
▁ਰਹਿੰਦੀ	420
▁:	419
▁ਮਨ	416
▁ਗੱਲ	411
▁ਸ਼ੁਰੂ	411
▁ਭਾਗ	410
▁ਦੇਣ	410
▁ਰਾਤ	409
▁ਉੱਤ	406
▁ਚਮੜੀ	405
▁ਸਾਹ	403
▁ਦੁੱਧ	403
▁ਲੈਣ	403
▁ਸਥਿਤੀ	402
▁ਰੱਖ	400
▁ਰੱਖੋ	399
▁ਬਣ	399
▁ਨ	398
▁ਬਿਮਾਰੀ	396
▁ਕਿਉਂ	396
▁ਖਾਸ	392
▁ਘਰ	392
▁ਉਨ੍ਹ	392
▁ਕੇਂਦਰ	391
▁ਗਰਭ	390
▁ਰਹਿਣ	390
▁ਪ੍ਰਸਿੱਧ	390
▁ਰੋਗਾਂ	389
ਟ	389
▁ਯਾਤਰਾ	389
▁ਮਹੀਨ	386
▁ਜਲ	385
▁ਰਕਤ	384
▁ਨੇੜੇ	383
▁ਕਹਿੰਦੇ	383
▁ਧਿਆਨ	382
▁ਹਿਰਦੇ	380
▁ਦੌਰਾਨ	379
▁ਲੱਛਣ	379
▁ਜੀਵਨ	379
▁ਵਰਗ	378
▁ਵ	378
▁ਲਓ	374
▁ਸਨ	373
▁ਪਹੁੰਚ	373
▁ਪ੍ਰਮੁੱਖ	373
▁ਬੰਦ	372
▁ਸਾਰ	372
▁ਉੱਪਰ	368
▁੨	367
▁ਆਉਂਦੇ	366
▁ਪੈਦਾ	364
▁ਕਦੇ	364
▁ਬਣੇ	362
▁ਅਵਸਥਾ	361
▁ਜ਼ਿਆਦਾਤਰ	361
▁ਜਾਣਾ	360
▁ਸਮੁੰਦਰ	358
▁ਸੈਲਾਨੀਆਂ	358
▁ਕਰਦੀ	357
▁ਪਤਾ	355
▁ਦਿੰਦੇ	355
▁ਹੱਥ	354
▁ਇੱਥੋ	351
ੂ	351
▁ਜਦ	351
▁ਸਰਦੀ	350
▁ਮੀਟਰ	349
▁ਚਾਹੀਦੀ	349
▁੧	349
▁ਦਿੰਦਾ	348
▁ਖੂਬਸੂਰਤ	348
▁ਪੂਰੀ	348
▁ਲਾਲ	346
▁ਲੈਂਦ	344
▁ਵਿਟਾਮਿਨ	344
▁ਮਹਿਸੂਸ	343
▁ਬਰਫ਼	341
▁ਮਿਲ	339
▁ਪਹਿਲਾ	338
▁ਕਾਫ਼ੀ	336
▁ਸ਼ਕਤੀ	334
▁ਬਣਿਆ	334
▁ਅਜਿਹੀ	333
▁ਮ	332
▁ਸਾਹਮਣ	331
▁ਪੈਂਦਾ	330
▁ਉਧਾਨ	329
ਿੰਗ	329
▁੩	328
ਰੀ	328
▁ਦਿੱਲੀ	327
ਸਾਡੇ	326
▁ਰਹੀ	325
▁ਅੱਗੇ	325
▁ਵਧ	324
▁ਪ੍ਰ	322
▁ਇਨ੍ਹਾਂ	322
▁ਘਾਟੀ	321
▁ਪੈਰ	317
▁ਪੰਜ	316
▁ਦਵਾਈਆਂ	315
▁ਮੂੰਹ	315
▁ਸਵੇਰੇ	314
▁ਬਣਾ	314
▁ਦੂਜੇ	311
▁ਕੇਵਲ	311
▁ਪਾ	308
▁ਲਿਆ	308
▁ਉਤਪ	308
▁ਸਮੱਸਿਆ	307
▁ਤ	307
▁ਮੌਸਮ	307
▁ਵਿਸ਼ਵ	307
▁ਪਹਾੜੀ	306
▁ਡਾਕਟਰ	305
▁ਅਲੱਗ	305
▁ਦਿਮਾਗ	304
ਾਰ	304
▁ਪ੍ਰਤੀ	304
▁ਘੰਟੇ	301
▁ਵੱਲ	300
▁ਮੂਰਤੀ	298
ਈ	297
▁ਚਿਕਿਤਸਾ	297
▁ਸਾ	296
▁ਰਸ	295
▁ਦੇਵੀ	295
▁ਮੀ	295
▁ਆਉਂਦਾ	293
▁ਤਿਆਰ	293
▁ਵਿਕਾਸ	292
▁ਏ	291
▁ਪ੍ਰਾਪਤ	291
▁ਰਹਿੰਦੇ	291
▁ਛੋਟੇ	289
▁ਬੁਖਾਰ	289
▁ਮਿਲਾ	288
▁ਇਸੇ	288
▁ਵੱਡੇ	288
▁ਸਟੇਸ਼ਨ	288
▁ਬੁੱਧ	286
▁ਹੋਟਲ	285
▁ਨਗਰ	285
▁੧੦	284
▁ਹਵਾਈ	284
▁ਵਜ਼ਨ	284
▁ਬੇ	284
▁ਵਿਭਿੰਨ	284
▁ਹੇਠਾਂ	283
▁ਨਜ਼ਰ	283
▁ਹੌਲੀ	281
▁ਦਿਖਾਈ	281
▁ਮਹੱਤਵਪੂਰ	281
▁ਕੀ	280
▁ਕੰਨ	279
▁ਸ਼ਿਸ਼ੂ	278
▁ਫੁੱਟ	277
ਤੀ	277
▁ਬ	277
ਟੀ	276
▁ਹੋਵੇਗਾ	276
▁ਕਿਨਾਰੇ	275
▁ਦਿੰਦੀ	272
▁ਪੂਰਾ	271
▁ਪ	271
▁ਪੀਣ	271
ੰਨ	271
▁ਚੰਗੀ	270
▁ਮਾਂ	269
▁ਦੇਖ	269
▁ਵਿਸ਼ਾਲ	268
▁ਉਪਯੋਗ	268
▁ਸੜਕ	268
▁ਮਲ	265
▁ਦਿਲ	265
▁ਆਸ	265
▁ਰੱਖਣ	264
▁ਸੁੰਦਰਤਾ	264
▁ਤੱਤ	264
▁ਜਾਂਚ	264
▁ਮਿਲਦੀ	263
▁ਨੀਂਦ	262
▁ਤਰਾਂ	261
ਯੋਗ	259
▁ਸਾਫ਼	259
▁ਵਣ	259
▁ਜਿਹਨਾਂ	259
▁ਬਲ	259
ੋ	258
▁੫	258
▁ਪੈ	257
▁ਮਿਲਦਾ	257
▁ਮੈਂ	256
ਪੁਰ	256
▁ਸਥਾਨਾਂ	256
▁ਇੱਕ	255
▁ਉਚਾਈ	254
▁ਉੱਥੇ	254
▁ਵੱਡਾ	254
▁ਸ਼ਾਮਿ	254
▁ਪਿਸ਼ਾਬ	253
▁ਪ੍ਰ੍ਯੋਗ	253
▁ਯੋਗ	252
▁੬	249
▁ਨਸ਼ਟ	249
▁ਬਿਮਾਰੀਆਂ	249
▁ਆਪਣਾ	248
▁ਕਾਲ	247
▁ਸੈਲਾਨੀ	247
▁ਰੱਖਿਆ	247
▁ਸਵਾਸਥ	247
ਨਿਯਮਿਤ	246
▁ਹੱਥਾਂ	246
▁ਪ੍ਰਦੇਸ਼	245
▁ਹੁੰਦੀਆਂ	245
▁ਜਿੱਥੇ	244
▁ਦਿੱਤੀ	243
▁ਜਿਹਾ	242
▁ਪਾਇਆ	242
▁ਇਸਤਰੀ	242
▁ਵੱਧ	242
▁ਮੰਨਿਆ	242
▁ਕੀਤੇ	241
਼	240
▁ਗ੍ਰਾਮ	240
▁ਖੋਜ	240
▁ਭਾਰਤੀ	240
▁ਪਰਬਤ	239
▁ਵੱਡੀ	239
▁ਸਮਾਂ	238
▁ਖਾਣਾ	238
▁ਨਾਮਕ	238
▁ਬਿਨਾਂ	238
▁ਆਪ	238
▁ਭਗਵਾਨ	238
▁ਲੈਣਾ	236
▁ਰੇਲਵੇ	235
▁ਰਾਜਧਾਨੀ	234
▁ਇਸਦੀ	234
▁ਮਾਨਸਿਕ	233
▁੨੦	233
▁ਹਜ਼ਾਰ	233
ਨਾ	233
▁ਹਵਾ	233
▁ਜਨਮ	232
▁ਯਾਦ	231
▁ਇਥੋਂ	231
▁ਮਿੰਟ	230
ਡ	230
▁ਸਿਰਫ਼	230
▁ਇਸਤੇਮਾ	229
▁?	229
▁ਦੇਣਾ	229
▁ਰਾਜਾ	228
▁ਮੌਜੂਦ	228
ਪੂਰੇ	227
▁ਨਿਕਲ	227
▁ਪੈਰਾਂ	227
▁ਆਈ	226
ਪਾਸ	225
▁ਆਉਣਾ	224
▁ਰੇਲ	223
▁ਦੋਨਾਂ	221
ਃ	221
▁ਮਹਿਲ	221
▁ਪਦਾਰਥ	220
▁ਦੀਪ	220
▁ਮੂਰਤੀਆਂ	220
▁ਹ	220
▁ਸ਼ਾਮ	219
▁ਜਲਦੀ	219
ਦਾਰ	219
ਾਲ	219
▁ਤੱਟ	218
ਜ਼	217
▁ਤੁ	217
▁ਲਗਦੀ	217
ੰਤੂ	217
▁ਜੀ	216
▁ਸਥਾਪਿਤ	216
▁ਚਾਹ	216
▁ਦੇਖਿਆ	214
▁ਦੱਖਣ	213
▁ਰਹਿ	213
▁ਬੱਸ	213
▁ਮਰੀਜ਼	213
▁ਕਮਜ਼ੋਰ	211
▁ਪਹੁੰਚਣ	211
▁ਗਰਮੀ	210
▁ਰਾਜਸਥਾਨ	209
▁ਅਕਸ	209
▁ਵਿਧੀ	209
▁ਤੁਚਾ	209
▁"	208
▁ਕਲਾ	208
▁੪	208
▁ਸੰਬੰਧ	207
NN	207
ਰੰਤ	206
▁ਦ	206
ਲੀ	205
▁ਸਹੀ	205
(	205
▁ਦੰਦਾਂ	205
▁ਸ਼ਿਕਾਰ	205
ਦੀ	205
▁ਘੁੰਮਣ	204
▁ਦੇਰ	203
▁ਲਗਾ	203
ਾਸਨ	202
▁ਅੱਡ	202
▁ਬਾਦ	202
▁ਮਾਲਿਸ਼	202
▁ਜਾਣਿਆ	201
▁੧੨	201
ਕਾਰੀ	199
ਸੀ	199
ਨੀ	198
▁ਚੰਗਾ	198
▁ਖਤਰਾ	198
▁ਸਦੀ	198
ੋਂ	198
▁ਚੱਕਰ	198
ਸਪਾਟਾ	198
▁ਛਾਤੀ	198
▁ਪਿਆ	197
▁੧੫	197
▁ਸੋਜ	196
▁ਜੋੜ	195
▁ਵਿਚਕਾਰ	195
▁ਇਹੀ	195
▁ਪਾਏ	195
▁ਕਾਰਜ	194
▁ਸਲਾਹ	194
▁ਲਗਾਉਣ	194
▁ਮੱਧ	193
ਰਾ	193
▁ਪਰਿਵਾਰ	193
▁ਕਸਰਤ	193
▁ਸੰਕਰਮਣ	192
▁ਗੰਗਾ	192
▁ਜੰਗਲ	192
▁ਈ	192
▁ਸੰਖਿਆ	192
▁ਉਤਰ	191
▁ਪਾਰ	191
▁ਥੋੜਾ	190
▁ਸੰਨ	190
▁ਲੱਗ	190
▁ਪ੍ਰਤੀਸ਼ਤ	190
ਲਾ	190
▁੧੮	189
▁ਦਰਸ਼ਨ	188
▁ਕਬਜ਼	188
ਨਾਲ	187
▁ਅਧਿਐਨ	187
▁ਆਨੰਦ	186
▁ਸੰਭਾਵਨਾ	186
▁ਦਸ	186
▁ਪ੍ਰਵੇਸ਼	186
▁ਉਦੋ	185
▁ਸਮਾਨ	185
▁ਖੱਬੇ	185
▁ਮੌਤ	185
੩	184
ਯ	184
▁ਬਣਾਇਆ	183
▁ਸ਼ਿਵ	183
▁੩੦	183
▁ਪਹਾੜੀਆਂ	182
▁ਉੱਚਾਈ	182
▁ਭਰਪੂਰ	182
▁ਉੱਤਰ	181
▁ਆਉਂਦੀ	181
▁ਹਿਮਾਲਿਆ	181
▁ਦੰਦ	181
▁ਸ਼	181
▁ਦਰ	181
▁ਪੱਥਰ	180
▁ਅਸਰ	179
▁ਚੀਜ਼ਾਂ	179
ਦ	179
▁ਜ	178
▁ਸੰਭਵ	178
▁ਦਿਓ	178
▁ਯੁਕਤ	178
▁ਵਰਗੇ	178
▁ਉਪਲਬਧ	178
▁ਧਰਮ	177
▁ਗੋਲੀ	176
ਯੁਕਤ	176
▁ਇਸ਼ਨਾਨ	175
▁ਅੰਗ	174
▁ਅਰਾਮ	173
▁ਅਨੁਭਵ	173
▁ਜਾਣਕਾਰੀ	173
▁ਬਣਾਉਣ	173
ਕਾਫੀ	173
▁ਸਕੇ	173
▁ਸੁਰੱਖਿਅ	173
▁ਕੱਢ	173
▁ਸਿਹਤ	173
▁ਛੋਟੀ	172
▁ਸੌ	172
▁ਲੱਗੇ	172
▁ਨੁੰ	172
▁ਮੂਲ	172
▁ਲੱਗਦਾ	172
▁ਲਗਾਤ	172
▁ਨੁਕਸਾਨ	172
▁ਤਨਾਅ	172
▁ਤੁਹਾਡੀ	171
ਹੱਦ	171
▁ਸਰੀਰਕ	171
▁ਕਰਵਾਇਆ	170
▁ਆਏ	170
▁ਬਣੀ	170
▁ਫ਼ਲ	170
▁ਗੰਭੀਰ	169
▁ਪਦਾਰਥਾਂ	169
▁ਬਾਗ	168
▁ਦ੍ਰਿਸ਼ਟੀ	168
ਉਥੇ	168
▁ਜਿਹੀ	168
▁ਸੱਜੇ	168
▁ਇਸਨੂੰ	168
▁ਤਰਫ਼	167
▁ਛੋਟਾ	167
▁ਉਦਾਨ	167
▁ਮੈਦਾਨ	167
▁ਨੱਕ	167
▁ਅੰਗਾਂ	166
▁ਮਾਸਪੇਸ਼ੀ	166
▁ਥੋੜੀ	166
▁ਅੰਤ	166
▁ਖੁਦ	165
▁ਜਾਓ	165
▁ਯਾਨੀ	165
▁ਦੂਸਰ	165
▁ਅਪਣੇ	165
▁ਰ	165
▁ਕਰਦੀਆਂ	165
▁ਉਪਲੱਬਧ	165
੩੦	163
▁ਪੁਰਾਣੇ	163
▁ਰਹਿਣਾ	163
ਬ	163
▁ਉਪ	163
▁ਟੀ	163
ਹੌਲੀ	162
▁ਅਦਭੁ	162
▁ਪਹਿਲੀ	162
▁ਦ੍ਰਿਸ਼	162
▁ਰਸਤੇ	162
▁ਮਹਾ	162
ਅ	161
▁ਡਾ	161
▁ਕੱਪੜੇ	160
ੈਸ਼ਨਲ	160
▁ਅੰਤੜੀ	160
▁ਕਰੀਬ	160
▁ਔਰਤਾਂ	160
▁ਜਿਥ	160
▁ਬੀ	160
▁ਲਵੋ	160
੬	159
ਕਾ	159
▁ਵਜੇ	157
▁ਇਤਿਹਾਸ	157
▁ਰਾਮ	157
▁ਸਮੱਸਿਆਵਾਂ	156
▁ਆਰਾਮ	156
▁ਉੱਚ	156
▁ਜ਼ਖਮ	155
▁ਮਾਤਾ	155
▁ਕਿਤੇ	155
▁ਜਗਾ	154
▁ਮਾਧਿਅਮ	154
▁ਉਪਚਾਰ	154
▁ਚਾਰੇ	154
▁ਸਿੰਘ	153
▁ਕਮਰ	153
▁ਦਰੱਖਤ	153
ਸਿਆ	152
▁ਗੋਆ	152
▁੭	152
▁ਵਿਦੇਸ਼ੀ	152
▁ਹਿੱਸਾ	152
▁ਜਗਾਂ	152
▁ਦਿਉ	152
▁ਕਾਲੀ	151
▁ਫਲ	151
▁ਭਵਨ	151
▁ਵਾਤਾਵਰ	151
▁ਕਿਲੇ	151
▁ਚਲ	151
ਜ	151
▁ਵਜਾ	150
▁ਦਸਤ	150
▁ਪਿੱਛੇ	150
▁ਆਸਾਨ	150
▁ਪ੍ਰਾਕ੍ਰਿਤ	150
▁ਮੀਲ	150
▁ਸ਼ੈਲੀ	149
▁ਲ	149
▁ਕਿਰਨ	149
▁ਬਿਲਕੁਲ	149
▁ਲੱਖ	149
▁ਸ਼ਾਂਤ	149
▁ਜੈਨ	149
▁ਜੁੜ	148
▁ਸਬਜ਼ੀਆਂ	148
▁ਹੋਵੇਗੀ	148
▁ਔਸ਼ਧੀ	148
▁ਪ੍ਰਦਾਨ	148
▁ਰੱਖਣਾ	148
▁ਜੀਵ	147
▁ਵਧੀਆ	147
▁ਖਤਰ	147
ਮਾਨ	147
ਕੁਦਰਤੀ	147
ਨੇ	146
▁ਲਾਭਦਾਇਕ	146
▁ਬੱਚਾ	146
▁ਆਕਰਸ਼ਣ	146
▁ਅਤਿਅੰਤ	146
▁ਵੇਖਣ	146
▁ਪੂਰਵ	145
▁ਸਵਸਥ	145
▁ਸੀਮਾ	145
▁ਬੀਚ	145
▁ਪੰਛੀ	144
▁ਬੂੰਦ	144
▁ਪਾਸ	143
▁ਨਵੇਂ	143
ਿਨ	143
▁ਰਕਤਚਾਪ	143
▁ਪੀੜਿਤ	143
ੀਨ	142
▁ਚਿਹਰੇ	142
੨	142
▁ਜ਼ਮੀਨ	142
▁੮	142
▁ਦੱਸਿਆ	142
▁ਚ	141
▁ਹਾਥੀ	141
▁ਮਨੁੱਖ	141
▁ਰੋਜ਼	141
▁ਸਪਾਟਾ	141
ਜੀ	140
▁ਜਾਨ	140
▁ਬਾਲ	140
▁ਤਦ	140
▁ਬਣਾਈ	139
▁ਹਰੇ	139
▁ਹੱਡੀ	139
▁ਆਕਰਸ਼	138
▁ਸੁਰੱਖਿਆ	138
▁ਹਾਲ	138
▁ਅਜਾਇਬਘਰ	138
▁ਮਹੱਤਵ	138
▁ਬੱਚੇਦਾਨੀ	138
▁ਹਾਨੀ	138
੪	137
▁ਵਧਣ	137
▁ਪਹਿਲੇ	137
▁ਮੈ	136
▁ਰੁਪਏ	136
▁ਪੁਰਾਣਾ	136
▁ਮਾਸ	136
▁ਗੁਫ਼ਾ	136
ਿ	135
▁ਹੱਡੀਆਂ	135
▁ਜੁੜਿਆ	135
▁ਆਰੰਭ	135
▁ਅਤਿ	135
▁ਅਧਿਕ	135
▁ਪਵਿੱਤਰ	134
▁ਛੇ	134
▁ਦੁਆਰ	134
▁ਹਫ਼ਤ	134
▁ਜਿਗਰ	134
▁ਪੂਜਾ	134
▁ਖਤਮ	134
▁ਪਾਈ	134
▁ਸ਼ਾਨਦਾਰ	133
ਵੀ	133
▁ਵਿ	133
▁ਉਪਰ	133
▁੪੦	133
▁ਮਸ਼	133
ੇਸ਼ਵਰ	132
▁ਸਰਜਰੀ	132
▁ਚਰਚ	132
▁੫੦	132
▁ਪੈਂਦੀ	132
▁ਉੱਤਮ	132
▁ਤਾਪਮਾਨ	132
▁ਸਥਾਪਨਾ	132
▁ਸਿਗਰਟ	132
▁ਗ੍ਰੰਥੀ	132
ਗ	132
▁ਖਾਂਸੀ	131
▁ਅਪਰੇਸ਼ਨ	131
▁ਸੰਬੰਧੀ	131
▁ਛੱਡ	131
▁ਗੁਣ	131
▁ਧਾਰਮਿਕ	131
▁ਆਧੁਨਿਕ	131
▁ਪੰਛੀਆਂ	131
▁ਕਿਸਮ	130
▁ਨਿਵਾਸ	130
▁ਆਇਰਨ	130
▁ਕਮਜ਼ੋਰੀ	130
▁ਪ੍ਰ੍ਕਾਰ	130
▁ਬਰਾਬਰ	130
▁ਬਦਲ	129
▁ਸੁਵਿਧਾ	128
▁ਪੈਣ	128
ਤਾਂ	128
▁ਧੁੱਪ	128
▁ਲੱਗਣ	128
▁ਚੁੱਕ	128
▁ਕਿਲ੍ਹੇ	128
▁ਲੱਗਿਆ	128
▁ਪੂਰਬ	128
▁ਵਿਭਾਗ	127
▁ਖਾਧ	127
▁ਕਿਰਿਆ	127
ਡੀ	126
▁ਸਾਫ	126
▁ਜੰਗਲੀ	126
▁ਵਾਧਾ	126
▁ਨਜ਼ਾਰਾ	126
▁ਸ਼ਿਕਾਇਤ	125
▁ਹਿੱਸੇ	125
ਪਰ	125
▁ਵਰਗਾ	125
▁ਦੁਨੀਆਂ	124
▁ਦਿਸ਼ਾ	124
▁ਕਰਨੀ	124
▁੧੯	124
▁ਹਾਲਾਂ	124
▁ਕਮਰੇ	124
▁ਖੂਬ	123
▁ਸਹਾਇਕ	123
▁ਜਨ	123
▁ਵਰਤੋਂ	123
▁ਡਰ	123
▁ਠੰਡ	123
ਹੂਰ	123
▁ਚਾਰਜ	123
ਵ	123
▁ਪੱਛਮੀ	122
▁ਪੈਦਲ	122
▁ਵਿਕਸਿਤ	122
▁ਮਦਦ	122
▁ਮੰਦਿਰਾਂ	122
▁ਤਾਪ	122
▁ਸੱਤ	122
▁ਕਾਰ	122
▁ਅੱਧ	121
▁ਮਿਲਦੇ	121
▁ਜਿੰਨ੍ਹਾ	121
▁ਉਚਿ	121
▁ਪੱਛਮ	121
▁ਪਾਉਣ	121
▁੧੦੦	121
▁ਸੰਸਕ੍ਰਿਤੀ	121
▁ਪਹਾੜ	121
▁ਭੁੱਖ	120
▁ਸੰ	120
▁ਬਣਨ	120
▁ਸਿਹਤਮੰਦ	120
੫	120
▁ਸਤਰ	120
▁ਰਹੋ	120
▁ਕੋਸ਼ਕਾਵਾ	120
▁ਸਰਕਾਰ	120
▁ਵਿਕਾਰ	119
▁ਗਰਦਨ	119
▁ਮਧੂਮੇਹ	119
▁ਸਮੂਹ	119
▁ਨਮਕ	118
▁ਗਲੇ	118
▁ਦੁਨੀਆ	118
▁ਕਰਵਾਉਣ	118
▁ਅੱਠ	118
ਾਇਆ	118
▁ਸ਼ਹਿਰਾਂ	118
▁ਧਰ	117
▁ਹਸਪਤਾਲ	117
▁ਮਨਮੋਹ	117
▁ਲੇਕ	117
▁ਘਾਟ	117
▁ਸ਼ਹਿਦ	117
▁ਕੁਲ	117
▁ਸਵਾਦ	117
▁ਬੈਠ	117
▁ਸਫ਼ੈਦ	117
▁ਸਾਡੀ	116
▁ਉੱਚੀ	116
▁੧੪	116
▁ਬੇਹਤਰ	116
▁ਸ੍ਰਾਵ	116
▁ਹਾਊਸ	116
੦੦੦	116
▁ਜਾਨਵਰ	116
▁ਪੌੜੀ	116
▁ਜਿਹੇ	115
▁ਨਵੀਂ	115
▁ਸਧਾਰਨ	115
▁ਜਵਾਨ	115
▁ਪਸ਼ੂ	115
▁ਯੋਜਨਾ	115
▁ਪਸੰਦ	115
▁ਤੁਲਨਾ	115
▁ਜਾਵੇਗਾ	115
▁ਆਇਆ	115
▁ਵਸਤੂਆਂ	115
▁ਐਸਿਡ	114
▁ਗ੍ਰਸ	114
▁ਚਾਹੁੰਦੇ	114
ਜੋ	114
▁ਸ਼ੱਕਰ	114
▁ਵਿਅਕਤੀਆਂ	114
▁ਮੁਸ਼ਕਿਲ	114
▁ਬਚਾਅ	113
▁ਸੁ	113
▁ਦੌਰ	113
੧	113
▁ਵਰਤ	113
▁ਗੈਸ	113
▁ਰੋਡ	113
▁ਨਿੰਬੂ	113
▁ਹਿਮਾਚਲ	113
▁ਖਾਰਸ਼	112
▁ਰੋਮਾਂਚ	112
▁ਕਾਰਜਕ੍ਰਮ	112
▁ਰਸਤਾ	112
▁ਹਮੇਸ਼ਾ	112
▁ਗੱਲਾਂ	112
▁ਚਿਕਿਤਸਕ	112
▁ਹਿੰਦੂ	112
▁ਇੱਛਾ	112
ਸਪਾਟ	112
▁ਲਾਈਨ	111
ਪੀਣ	111
▁ਬਾਜ਼ਾਰ	111
▁ਸਾਲਾਂ	111
▁ਮੂਤਰ	110
▁ਬੋਤਲ	110
▁ਨਿਕਲਣ	110
▁ਵਿਵਸਥਾ	110
▁ਸ਼ੁਰੂਆਤ	110
▁ਲਗਦ	110
▁ਲਗਾਇਆ	110
▁ਫੈਲ	109
▁ਭਾਸ਼ਾ	109
▁ਚੀਨੀ	109
▁ਪੌਸ਼ਟਿਕ	109
▁ਕੁੰਡ	109
/	109
▁ਨਸ	109
ਸਨ	109
▁ਉਂਗਲੀ	109
▁ਅਸਲ	108
▁ਮਿਊਜ਼ੀਅਮ	108
▁ਪਿੱਠ	108
▁ਜੰਮੂ	108
▁ਨਾਰੀਅਲ	108
▁ਉੱਧਾਨ	108
▁ਮਿੱਟੀ	108
▁ਕੱਚ	108
▁ਹੋਕੇ	108
▁ਗੁਫਾ	108
▁ਮੇਲਾ	108
▁ਪ੍ਰਕਿਰਿਆ	108
▁ਝਰਨੇ	108
▁ਪੁਰਾਣੀ	108
▁ਭੂ	107
▁ਲੰਬੇ	107
▁ਖੇਡ	107
▁੧੬	107
▁ਰੁੱਤ	107
▁ਪੁਰਸ਼ਾਂ	107
▁ਦੂਜੀ	106
੍ਹ	106
▁ਨਿਯੰਤਰਣ	106
▁ਸ਼ੁੱਧ	106
▁ਅਰਥਾ	106
▁ਕੱਟ	106
▁ਸੌਣ	106
▁ਲੱਛਣਾਂ	106
▁ਅਰਕ	106
▁:-	105
▁ਅਗਲ	105
▁ਅੰਤਰਗ	105
▁ਨਵਾਂ	105
▁ਦਰੱਖਤਾਂ	105
▁ਪਹਿਚਾਣ	105
▁ਰਸਾਇਣ	105
▁ਸ਼ਾਂਤੀ	104
▁ਸਮਝ	104
ਸ਼	104
▁ਸਾਧਾਰਣ	104
▁ਚੱਲ	104
▁ਆਹਾਰ	104
▁ਦੂਜਾ	104
ੱਤ	104
▁ਮੇਲੇ	104
▁ਖਾ	104
▁੨੫	104
▁ਨਿਰਮਿਤ	104
▁ਗਤੀ	104
▁ਤੀਰਥ	103
▁ਖਰਾਬ	103
▁ਲੈਕੇ	103
▁ਸ਼ਰਧਾਲੂ	103
ੁੱਝ	103
▁ਸੇਬ	103
▁ਚਰਬੀ	103
▁ਸ਼ਰਾਬ	103
▁ਅਹਿਸਾਸ	103
▁ਯੋਨੀ	103
ਣਾ	103
ਨਾਥ	103
ਕਾਰ	102
▁ਲੰਬੀ	102
▁ਅਸਾਨ	102
▁ਰਾਹ	102
▁ਮਿਲੇ	102
▁ਭੀੜ	102
▁ਰੁਕਾਵਟ	102
▁ਖਾਣੇ	101
▁ਖਾਓ	101
▁ਇਮਾਰਤ	101
▁ਅਲਸਰ	101
▁ਜੰਗਲਾਂ	101
▁ਰੁਕ	101
▁ਇੰਨਾ	101
▁ਧਰਮਸ਼ਾਲਾ	101
▁ਉੱਚੇ	101
▁ਵਿਹਾਰ	101
▁ਗਈਆਂ	101
▁ਉਸਦੀ	101
▁ਸਹਾਇ	101
▁ਮਜ਼ਬੂਤ	100
▁ਵੈਸੇ	100
▁ਆਕਾਰ	100
▁ਪੱਥਰਾਂ	100
▁ਕਦੀ	100
▁ਯਤਨ	100
▁ਅਰਥ	100
▁ਤੋ	99
▁ਲਗਾਓ	99
▁ਗ	99
▁ਗਲੇਸ਼ੀਅਰ	99
▁ਦੇਸ਼ਾਂ	99
ਪੀ	99
▁ਇਲਾਜ਼	99
▁ਸਮਾਰਕ	99
▁ਮਾਹਿਰ	99
▁ਚਿਤਰ	99
▁ਮੁਕਾਬਲੇ	98
ਇਆ	98
▁ਕਿਵੇਂ	98
▁ਉੱਚਾ	98
▁ਮਜ਼ਾ	98
ਆ	98
▁ਦੱਖਣੀ	98
▁ਚਿੜੀਆਘਰ	98
ਿਮ	98
ਸ਼ਨ	97
▁ਜਿਲ੍ਹੇ	97
▁ਦਿ	97
▁ਉਪਾਅ	97
▁ਪ੍ਰੋਟੀਨ	97
▁ਊਰਜਾ	97
▁ਕਦੇਂ	97
▁ਜਿੰਨ	96
▁ਸਕੂਲ	96
▁ਪ੍ਰਤੀਦਿਨ	96
▁੧੧	96
▁ਗਾਂਧੀ	96
ਿਊਟ	96
▁ਉਲਟੀ	96
ਦੀਆਂ	96
▁ਸੰਗਮ	95
▁ਵਪਾਰ	95
▁ਪ੍ਰਬੰਧ	95
▁ਟੈਸਟ	95
▁ਭਾਰੀ	95
ਓ	95
▁ਭਾਵ	95
ਵਾਰੀ	95
▁ਸ਼੍ਰੀ	95
▁ਸਰ	95
▁ਸੰਚਾਰ	95
▁ਨਦੀਆਂ	94
▁ਸਮਰੱਥਾ	94
ੰਦਗੀ	94
▁ਸਬੰਧ	94
▁ਜ਼ੋਰ	94
▁ਕੈਲਸ਼ੀਅਮ	94
▁ਤਲ	94
▁ਮੁਤਾਬਿਕ	94
▁ਤਕਨੀਕ	94
▁ਮੁਗਲ	94
D	94
▁ਪੀ	94
▁ਗਰਭਵਤੀ	93
▁ਸੰਗੀਤ	93
▁ਸੰਪਰਕ	93
▁ਪੀਸ	93
▁ਸਪਾਟ	93
▁ਡਿਗਰੀ	93
▁ਬਜ਼ਾਰ	93
▁ਕੈਲੋਰੀ	93
▁ਅਨੰਦ	93
▁ਰੋਕ	93
▁ਪਿਛਲ	93
▁ਜ਼ੁਕਾਮ	92
▁ਦੁਰ	92
▁ਪੈਲੇਸ	92
▁ਐਨੀਮਾ	92
▁ਕੋਸ਼ਿਸ਼	92
▁ਉਤਪਾਦ	92
▁੯	92
ਲਈ	92
▁ਪਟਨਾ	92
VM	92
▁ਮੱਦਦ	92
▁ਅਪਣੀ	92
▁ਲੱਗਦੀ	92
"	92
▁ਦੋਵੇ	91
▁ਸਵੇਰ	91
▁ਇ	91
▁ਬਿਹਾਰ	91
▁ਢੰਗ	91
▁ਜ਼ਿ	91
▁ਜਗ੍ਹਾ	91
ਨਾਕ	91
▁ਚੂਰਨ	91
▁ਸਿੱਧੇ	91
▁ਪਿੱਤ	91
▁ਹਲਕਾ	91
▁ਗਾਰਡਨ	91
ਟ੍ਰੈਕਿੰਗ	91
▁ਫ਼ੁੱਟ	91
▁ਸੱਟ	91
▁ਸ਼ਿਮਲ	90
▁ਕਸ਼ਮੀਰ	90
▁ਗੰਢ	90
ਪ	90
▁ਵਕਤ	90
▁ਚਿੰਤਾ	90
▁ਹਾਰਮੋਨ	90
▁੧੩	90
▁ਪੂਰਨ	90
▁ਸਰਵ	90
▁ਵਧਦੀ	90
▁ਚੋਟੀ	89
▁ਕਹਿਣਾ	89
ਨੋਸ਼	89
▁ਦੇਖਦੇ	89
▁ਛੁਟਕਾਰ	89
▁ਮਿਲਣ	89
▁ਤੰਤਰ	89
▁ਸਤੂਪ	89
▁ਪਰੇਸ਼ਾਨੀ	89
▁ਜੈਪੁਰ	89
▁ਬਣਦਾ	89
▁ਵਰਗੀ	89
▁ਅਭਿਆਸ	89
▁ਚਲਦੇ	89
▁ਸਿੱਧਾ	89
▁ਸਕੀਇੰਗ	89
▁ਦਬਾਅ	88
▁ਪੁਰਸ਼	88
ਵੀਂ	88
▁ਤੁਸੀ	88
▁ਜੂਸ	88
▁ਲੇਪ	88
▁ਨੇਤਰ	88
▁ਹਾਲਤ	88
NNP	88
▁ਆਧਾਰ	88
▁ਮਿਰਚ	88
▁ਸਫੈਦ	88
▁ਪਰਬਤਾਂ	88
▁ਵਾਯੂ	88
▁ਨਜ਼ਦੀਕ	88
ਪਣ	88
▁੬੦	87
▁/	87
ਦਾਇਕ	87
▁ਹਿਲ	87
ਦਮ	87
▁ਸੈ	87
▁ਗੁਜਰਾਤ	87
▁ਵਧਾਉਣ	87
ਤੌਰ	87
▁ਭਰਿਆ	87
▁ਐੱਚ	87
ਜਿਸ	87
▁ਬਣਾਏ	87
ਬਾਰ	87
ਮਧੁਮੇਹ	87
▁ਸਫ਼ਰ	87
ਗਿਰੀ	87
▁ਪੋਲੀਓ	87
▁ਭੂਮੀ	87
▁ਯੌਨ	87
ਚ	86
▁ਬਚਣ	86
▁ਮਹਾਂ	86
▁ਬਵਾਸੀਰ	86
▁ਏਸ਼ੀਆ	86
▁ਫੂਡ	86
▁ਪੱਧਰ	86
ਾਈ	86
▁ਹਾਰਟ	86
▁ਸਾਡ	86
▁ਤਰੀਕੇ	86
▁ਪਹੁੰਚਦੇ	86
▁ਇਤਿਹਾਸਿਕ	86
▁ਘੁੰਮ	86
▁ਮੇਰ	86
▁ਖਾਲੀ	86
▁ਸੰਤੁਲਿਤ	86
▁ਭੂਟਾਨ	86
▁ਮਿਲੀ	86
▁ਘਿਰਿਆ	85
▁ਅੰਤਰਰਾਸ਼ਟਰੀ	85
▁ਇਲਾਕੇ	85
▁ਸਾਗਰ	85
▁ਵਾਹਨ	85
ਵਾਰ	85
▁ਖੁਰਾਕ	85
▁ਗੁਲਾਬ	85
P	85
ਬਲ	85
▁ਸੇਵਾ	85
▁ਸੇਵਾਵਾ	85
਼ਟ	85
▁ਸ਼ੇਰ	84
ੀਆ	84
ਨਕ	84
▁ਛੱਤ	84
▁ਜਾਂਦੀਆ	84
▁ਪ੍ਰ੍ਭਾਵ	84
▁ਗੁਰਦੇ	84
▁ਅਧਾਰ	84
▁ਅੰਤਰ	84
ਹ	84
▁ਪਿਕਨਿਕ	84
▁ਸਿੱਖਿਆ	84
ਪ੍ਰਕ੍ਰਿਤੀ	84
▁ਦੁਰਗ	83
▁ਝਰਨਾ	83
▁ਪਹੁੰਚਿਆ	83
▁ਪਾਚਨ	83
ਹਰੇਕ	83
▁ਯੁੱਧ	83
▁ਗਲਤ	83
▁ਚੋਟੀਆਂ	83
▁ਨਵੰਬਰ	83
▁ਦਾਨ	83
▁ਟੈਕਸੀ	83
▁ਉਠਾ	82
▁ਠਹਿਰਣ	82
▁ਇਮਾਰਤਾਂ	82
▁੨੦੦	82
▁ਵਾਪਸ	82
▁ਜ਼ਿਲੇ	82
▁ਇੰਨੀ	82
▁ਕੁਦਰਤ	82
▁ਸੁਗੰਧ	82
▁ਕੇਰਲ	82
▁ਚੰਗੇ	82
▁ਪੁਲ	82
▁ਅੱਖ	82
▁ਬਣਦੀ	82
▁ਫ	81
▁ਦਿੱਤੇ	81
▁ਫੇਫੜਿਆਂ	81
▁ਦੁਬਾ	81
ਚਰ	81
▁ਬਾਵ	81
ਇਹ	81
੮	81
ਗੀ	81
M	81
▁ਨੀਲੇ	81
▁ਰਹੀਆਂ	81
▁ਮਸਜਿਦ	81
▁ਸਾਬਿ	80
ਥਾਵਾਂ	80
▁ਆੱਫ	80
▁ਮਿ	80
ਕਰ	80
▁ਫੁੱਲ	80
▁ਮਿਲਿਆ	80
▁ਜਲਣ	80
▁ਤਕਰੀਬਨ	80
▁ਅਕਤੂਬਰ	80
▁ਪ੍ਰਵਾਹ	80
▁ਠੰਡੇ	80
▁ਖੁਸ਼ਕ	80
▁ਆਯੋਜਨ	80
▁ਚੱਲਣ	80
▁ਬਲੱਡ	80
▁ਚਮਚ	80
▁ਵਨ	80
▁ਭੂਮਿ	80
▁ਫ਼ੈਲ	79
ਗੜ੍ਹ	79
▁ਕਿਲ੍ਹਾ	79
▁ਸਵਰਗ	79
ਗੇ	79
▁ਬੀਜ	79
▁ਆਸਨ	79
▁ਫ਼ਿਰ	79
▁ਆਰਥਰਾਈਟਿਸ	79
▁ਘਾਹ	79
▁ਪਥਰੀ	79
▁ਅਚਾ	79
▁ਉ	79
▁ਹਰੀ	79
ਭਰ	79
▁ਸਿੱਧ	79
▁ਡੀ	79
▁ਫੁੱਲਾਂ	79
▁ਵੀਂ	79
▁ਦੇਖੇ	79
▁ਪੀੜ	78
▁ਅਵਸ਼ੇਸ਼	78
▁ਗੱਡੀ	78
▁ਨਿਕਲਦਾ	78
▁ਵਾਟਰ	78
▁ਮੌਕਾ	78
▁ਝੀਲਾਂ	78
▁ਗਿਣਤੀ	78
▁ਅੱਧੇ	78
▁ਉਦੇਸ਼	78
▁ਇਤਿਹਾਸਕ	78
▁ਵਾਇਰਸ	78
▁ਸ਼ਿਮਲਾ	78
ਾਉਂਦੇ	77
▁ਥੱਲ	77
▁ਪ੍ਰਸਵ	77
▁ਤਕਲੀਫ਼	77
ਜਨਕ	77
▁ਲਗ	77
▁ਗਿਰ	77
ਲੇ	77
▁ਪਹਾੜਾਂ	77
▁ਯੂਨਾਨੀ	77
▁ਮਾਨਵ	77
▁ਮਾਮਲਿਆ	77
▁ਛੋਟੀਆਂ	77
▁ਥਕਾਵਟ	77
▁ਨੇੜਲ	77
▁ਅਕਾਰ	77
▁ਸਹਿਤ	77
▁ਜ਼ਰੀਏ	77
▁ਕੋ	76
▁ਲੰਬਾਈ	76
ਵਿਚ	76
ਲੱਭ	76
▁ਠਹਿਰ	76
ਨਿਸ਼ਚਿਤ	76
▁ਬਨਸਪਤੀ	76
▁ਪਰਤ	76
▁ਬੜੀ	76
ਇਸ	76
▁ਮੱਛੀ	76
▁ਭਾਗਾਂ	76
ਤੇ	76
ਕਾਰਕ	76
▁ਕੈਂਪ	76
▁ਗੋਲ	75
▁ਗੁਰੂ	75
▁ਸੋਨ	75
▁ਜਲਵਾਯ	75
▁ਇਲਾਕ	75
▁ਉਦਰ	75
ੰਤ	75
▁ਪ੍ਰ੍ਤੀ	75
▁ਚਾਹੀਦ	75
▁ਦੇਖਣਾ	75
ਕਾਲ	75
▁ਭਾਰ	75
▁ਦਾਗ	75
▁ਤਰੀਕਾ	75
▁ਜੈਸਲਮੇਰ	75
▁ਰਹਿਤ	75
ਕੀ	74
▁ਲੱਗੀ	74
▁ਥਾਂ	74
▁੨੪	74
▁ਚਾਹੇ	74
ਕਾਲੀਨ	74
▁ਪਾਉਂਦੇ	74
▁ਪਸੀਨ	74
▁ਗੋਡਿਆਂ	74
▁ਮਰੀਜ਼ਾਂ	74
▁ਚੀਜ਼	74
▁ਕੁੱਲੂ	74
▁ਸੁੰਦਰਤਾਂ	74
▁ਕਾਲੇ	74
▁ਦਮ	74
▁ਮਿਹਨਤ	74
▁ਕਿਸ	74
▁ਸਾਵਧਾਨੀ	74
ਬੰਦੀ	74
▁ਔਰਤ	73
▁ਜਲਨ	73
▁ਸਮਰਥਾ	73
▁ਹਰਿਆਲੀ	73
▁ਰੋਕਣ	73
੭	73
ੀਅਮ	73
▁ਗਤੀਵਿਧੀਆਂ	73
▁ਅਸ਼ੋਕ	73
▁ਤਹਿ	73
▁ਰੋਸ਼ਨੀ	73
▁ਆਪਣੀਆਂ	73
ਮੰਦ	73
▁ਲੈਣੀ	73
▁ਸੁਵਿਧਾਵਾ	73
ਆਈ	73
▁ਫੈਲਿਆ	73
▁ਬੰਗਾਲ	72
▁ਖ	72
▁ਸਮੁੰਦਰਤ	72
▁ਅੰਗਰੇਜ਼	72
▁ਪਰਿਵਰਤਨ	72
▁ਡਾਈਟ	72
▁ਬਸ	72
▁ਜੀਵਾਣੂ	72
ਸ਼ਾਹੀ	72
▁ਸ਼ਤਾਬਦੀ	72
▁ਚੁੱਕੀ	72
▁ਕੱਟਣ	72
▁ਬਣਵਾਇਆ	72
▁ਬੈਠਕ	72
▁ਮੰਦਰਾਂ	72
▁ਘਾਟੀਆਂ	72
ਕੋਟ	71
ਯੂ	71
▁ਧੋ	71
▁ਭਰੇ	71
▁ਹੇਠਲ	71
▁ਚਿਕਤਿਸਾ	71
ਜੂਦ	71
▁ਫ਼	71
▁ਮੁੰਬਈ	71
▁ਸੰਘਣੇ	71
▁ਉੱਥੋ	71
▁ਪੱਤੀ	71
▁ਤੋਲੇ	71
▁ਕਰੋਂ	71
ਧਮਨੀਆਂ	71
▁ਸ਼ਿਵਲਿੰਗ	71
▁ਆਈਸ	71
▁ਕਸ਼ਟ	71
▁ਵਰਖਾ	71
ੇਟ	71
▁ਪ੍ਰਾਣੀ	71
▁ਨਿਗਮ	71
▁ਤਵਚਾ	71
▁ਦੀਵਾਰ	71
▁ਆਕਸੀਜਨ	71
▁ਮੁਕਤ	71
▁ਗਿਆਨ	71
ਇਕ	70
▁ਮਾਰ	70
▁ਦੁਕਾਨਾਂ	70
▁ਅਧਿਕਤ	70
ਂਗ	70
▁ਪੋਸ਼ਕ	70
▁ਠਹਿਰਨ	70
▁ਨਾਰੰਗੀ	70
▁ਪਰੰਪਰਾ	70
▁੪੫	70
ਦੁਪਹਿਰ	70
▁ਦੋਨੋ	70
▁ਨੌ	69
▁ਲਾ	69
▁ਪ੍ਰਣਾਲੀ	69
▁ਘੋਲ	69
▁ਕਰਾਉਣ	69
▁ਪੀਣਾ	69
▁ਐਂਟੀ	69
▁ਹਰਨੀਆ	69
▁ਨਿਯੰਤਰ	69
ਸ਼ਾਲੀ	69
ੇਸ਼ਨ	69
ੀੜ੍ਹ	69
▁ਠੰਡਾ	69
▁ਦੇਖਭ	69
▁ਪੀੜਤ	69
▁ਵਧਦਾ	69
▁ਮੋਟਾਪਾ	69
▁ਸਮ	69
▁ਖਰੀਦ	68
▁ਕਿਲਾ	68
▁ਸਿਸਟ	68
▁ਬੈਕਟੀਰੀਆ	68
▁ਪਾਉਂਦਾ	68
▁ਰੋਜ਼ਾਨਾ	68
▁ਮਿਸ਼ਰਣ	68
▁ਆਰ	68
▁ਮਸਾਜ	68
▁ਸਵਾਰੀ	68
ਅਰ	68
ਰਸ	68
▁ਵਿਗਾੜ	68
▁ਦਲ	68
▁ਵਿਸ਼ੇਸ਼ਤਾ	68
▁ਨਿਰਭਰ	68
▁ਸ੍ਰੋਤ	68
▁ਵਿਗਿਆਨ	68
▁ਪੱਤੇ	68
▁ਗੁਦਾ	68
▁ਫਾਇਦੇ	68
▁ਕਫ਼	68
%	68
▁ਮੈਂਬਰ	67
▁ਸ੍ਰੀ	67
▁ਮਾਨਤਾ	67
▁੧੯੭	67
▁ਹੋਟਲਾਂ	67
▁ਮੱਠ	67
▁ਦੂਸ਼	67
▁ਪੇਸ਼	67
▁ਉਤਸਵ	67
▁ਆਸ਼ਰਮ	67
▁ਆਦਤ	67
▁ਲਿੰਗ	67
ਛੋਟੇ	67
▁ਨਿਰੀਖਣ	67
▁ਉਥੋਂ	67
▁ਸਿਖਰ	66
▁ਸਮਰਾਟ	66
▁ਜਿਸਨੂੰ	66
▁ਕੰਪ	66
▁ਪ੍ਰੋਗਰਾਮ	66
▁ਖੜੇ	66
▁ਹਾਈ	66
▁ਸਾਧਨ	66
▁ਬਾ	66
▁ਬੱਸਾਂ	66
▁ਲੱਕੜੀ	66
▁ਕੱਢਣ	66
੍	66
▁ਬੇਚੈਨੀ	66
▁ਸਬੰਧੀ	66
▁ਪਹੁੰਚੇ	66
▁ਮਈ	66
▁ਪੀਕ	66
▁ਭੁੱਲ	66
ਸਾ	66
▁ਹੋਣਗੇ	66
▁ਰੋਗਣ	66
▁ਸਿਰਫ	66
ਤਰ	65
▁ਖਿੱਚ	65
▁ਕਿਰਾਇਆ	65
▁ਭਰੀ	65
▁ਪਰਿਸਰ	65
▁ਸ਼ਬਦ	65
▁ਭਿਆਨਕ	65
▁ਸਦਾ	65
▁ਸੰਪੂਰਨ	65
▁ਪ੍ਰੇਮੀ	65
▁ਤਿਆਗ	65
▁ਵਿਗਿਆਨਕ	65
ਥਾਈ	65
▁ਵਿਸ਼ਰਾਮ	65
▁ਪੁਰਾਤੱਤਵ	65
ਕਲ	65
▁ਪ੍ਰਾਕ੍ਰਿਤਿਕ	65
▁ਚਿੱਤਰ	64
▁ਹਲਕੇ	64
▁ਸਰੋਂ	64
▁ਸਲਾਦ	64
▁ਜਿਆਦਾ	64
▁ਸੇਕ	64
▁ਚੰਦ	64
▁ਕਾਲਾ	64
▁ਆਯੋਜ	64
ਬੀ	64
ਚਲ	64
ਾਤਮਕ	64
▁ਫੀਸਦ	64
▁ਪਰਿਣਾਮ	64
▁ਪੱਧਤੀ	64
▁ਉਪ੍ਯੋਗ	64
▁ਰਾਂਚੀ	64
▁ਮੈਸੂਰ	64
▁ਫਾਇਦਾ	64
ਹਾਨੂੰ	63
▁ਨਾੜੀ	63
▁ਡਿਸ	63
▁ਬਾਕ	63
ੁ	63
ਫ਼	63
▁੯੦	63
ਧ	63
▁ਫ਼ੁੱਲ	63
▁ਗੋ	63
ਲਿੰਗ	63
ਿਸ਼	63
▁ਸੁਲਤਾਨ	63
▁ਦਾਣੇ	63
▁ਮਾਮਲ	63
▁੮੦	63
▁ਸੁਣ	63
ਥ	63
▁ਬਾਘ	63
▁ਸ਼੍ਰੇਣੀ	63
▁ਘੰਟਿਆਂ	63
ਕਦੇ	63
▁ਜਰੂਰ	63
▁ਬੋਲ	63
▁ਪਏ	62
▁ਪੋਸ਼ਣ	62
▁ਰਾਸਤ	62
ਮਾਰਗ	62
▁ਦੇਵਦਾਰ	62
▁ਗੁਫਾਵਾਂ	62
▁ਪਿਆਰ	62
ਵਾ	62
▁ਜਾਵੇਗੀ	62
ੜ	62
ਗਤ	62
▁ਯੂਨੀਵਰਸਿਟੀ	62
▁ਪ੍ਰਤੀਕ	62
▁ਵਜ੍ਹਾ	62
▁ਸਤਨ	62
▁ਬੁਰਾ	62
▁੧੭	62
ਫ਼ਾਈ	62
▁ਨਿਮਨ	62
▁ਨਿਯਮ	62
▁ਚੀਨ	61
ਐੱਸ	61
▁ਪਈ	61
▁ਵਧਾ	61
▁ਪ੍ਰ੍ਮੁੱਖ	61
ਘਰ	61
▁ਨਹੀ	61
▁ਚਲਾ	61
▁ਜਾਣਗੇ	61
▁ਮਾਤ੍ਰ	61
▁ਆਫ਼	61
▁ਦੀਵਾਰਾਂ	61
▁ਰੇਤ	61
▁ਛੁੱਟੀਆਂ	61
▁ਨਗਰੀ	61
ਮਨ	61
▁ਪਲ	61
▁ਸਰੀਰਿਕ	61
ਵੱਡੇ	61
▁ਗੁਪਤ	61
▁ਪ੍ਰਜਾਤੀਆਂ	61
▁ਪ੍ਰ੍	61
ਅਲੱਗ	61
;	61
▁ਗੁਣਾ	61
▁ਪ੍ਰਕਾਸ਼	61
▁ਸੋਚ	60
▁ਸਕਣ	60
▁ਤੰਤਰਿਕਾ	60
▁ਬੈਠੇ	60
▁ਵਾਸਤਵ	60
▁ਕਰੋੜ	60
▁ਮਿਲਾਕੇ	60
ਦਾਨ	60
▁ਹੱਦ	60
▁ਚੁੱਕਿਆ	60
ਦੇਵ	60
▁ਬੰਬਈ	60
▁ਵਿਕਾਰਾਂ	60
▁ਲੱਗਾ	60
ਦਰਵਾਜ਼ੇ	59
▁ਮਹਾਨ	59
▁ਖੁਸ਼	59
ਵੀਰ	59
▁ਦਹੀਂ	59
▁ਹਿਰਨ	59
▁ਸੈਂਟਰ	59
▁ਹਰਾ	59
▁ਕਿੰਨਾ	59
▁ਰੋਮ	59
▁ਤਾਲ	59
▁ਘਾਤ	59
▁ਨਹਾਉਣ	59
▁ਅੰਦਾਜ਼	59
▁ਦੇਵ	59
▁ਭਵਿੱਖ	59
▁ਜੀਪ	59
▁ਏਅਰਪੋਰਟ	59
▁ਜਹਾਜ਼	59
▁ਮਸੂੜਿਆਂ	59
▁ਰੋਮਾਂਚਕ	59
▁ਹੈਰਾਨੀ	59
▁ਬੰਨ੍ਹ	58
▁ਮੋਟਰ	58
▁ਪੱਤਿਆਂ	58
▁ਦਾਲ	58
▁ਦਮਾ	58
ਨੁਮਾ	58
▁ਸਮਾਪਤ	58
▁ਜੰਮ	58
▁ਵੇਖ	58
▁ਧੋਣ	58
▁ਬ੍ਰਿਟਿਸ਼	58
▁ਤੰਬਾਕੂ	58
▁ਬਲਗਮ	58
▁ਕੀਟਾਣੂ	58
▁ਜੂਨ	58
▁ਲੱਗਭ	58
ਵੇਂ	58
▁ਅਟੈ	58
▁ਅਤੀਅ	58
▁ਮਨਾਲੀ	58
▁ਸੋਜ਼	58
▁ਉਤਾਰ	58
਼ਾਇਦ	58
▁੨੨	58
▁ਘੰਟਾ	58
▁ਮੰਨਦ	58
▁ਬੰਨ	58
▁ਛੇਤੀ	58
▁ਭਿੰਨ	58
▁ਲਿਆਉਣ	58
▁ਸਹੂਲਤ	58
ਬਾ	58
▁ਮੂਤ	58
▁ਉਂਝ	58
▁ਸਮਾਜਿਕ	58
▁ਨਾੜੀਆਂ	57
▁ਪੁਰੀ	57
▁ਹਲਦੀ	57
▁ਪਿਆਸ	57
▁ਪ੍ਰਗ	57
▁ਲੰਬਾ	57
ਰੇਕੀ	57
▁ਸਾਬਣ	57
▁ਜਾਉ	57
▁ਰਾਜਿਆਂ	57
▁ਇਥੋ	57
▁ਮੋੜ	57
▁ਤਿਉਹਾਰ	57
੦	57
U	57
▁ਲੋੜੀਂਦ	57
▁ਘਿਉ	57
▁ਵਹਿਣ	57
▁ਅਪ੍ਰੈਲ	57
ਾਪਿਸ	57
▁ਨੀਲ	57
▁ਅਪਣਾ	57
▁ਮਨਾਇਆ	57
▁ਪ੍ਰਜਨਨ	57
▁ਪ੍ਰੈਸ਼ਰ	57
▁ਕਿਤੇਂ	57
ਗੰਜ	57
▁ਇਨਸਾਨ	56
▁ਵਾਤਾਵਰਨ	56
▁ਮੋਹ	56
▁ਅਮਰੀਕਾ	56
▁ਕਿਃਮੀ	56
▁ਇਕੋ	56
▁ਓ	56
ਪਾਲ	56
▁ਐ	56
▁ਚੰਦਰ	56
▁ਬਾਗ਼	56
▁ਅਰੁਣਾ	56
▁ਬੰਗਲੌਰ	56
ਮਤਲਬ	56
▁ਬਿਸਤਰ	56
▁ਆਵਾਜ਼	56
NC	56
▁ਇੰਨਜੈਕਸ਼ਨ	56
▁ਬੀਮਾਰੀ	56
▁ਬੀਆਬਾਨ	56
▁ਸੇਂਟ	56
▁ਰਾਣੀ	56
▁੩੫	56
▁ਖਰਚ	56
▁ਤਾਜ਼ਾ	56
▁ਪਾਉਣਾ	56
▁ਐੱਮ	56
ੱਲ	55
▁ਗੋਦ	55
▁ਮਾਲ	55
▁ਟੀਕਾ	55
੫੦੦	55
ਪਾਤ	55
ਕੱਪੜਿਆਂ	55
▁ਅਮਲ	55
ਮਈ	55
▁ਸਰਕਾਰੀ	55
▁ਫੈਟ	55
▁ਛਾਣ	55
▁ਭੋਪਾਲ	55
▁ਵਸੇ	55
▁ਅਨਾਜ	55
▁ਰੌਸ਼ਨੀ	55
ਸਥਾਨ	55
▁ਕਰਮਚਾਰੀ	55
▁ਕੁ	55
▁ਅਕਰਸ਼	55
▁ਆਇਲ	55
▁ਵਧਾਉਂਦ	55
▁ਸਾਰੀ	55
▁ਸਿਟੀ	55
▁ਸੰਗਮਰਮਰ	55
▁ਕਣ	55
▁ਜਾਣੀ	55
▁ਉਦਯੋਗ	55
੍ਯੋਗ	55
▁ਆਗਰਾ	55
▁ਜਿਨ੍ਹਾ	55
▁ਸਰੋਵਰ	55
▁ਦਿਖ	55
▁ਤਰਲ	55
▁੭੦	55
ਮਾਮ	55
▁ਵਹਿੰਦੀ	55
▁ਦੇਵੋ	55
▁ਟ੍ਰੇਨ	54
▁ਉਲਟ	54
ਗ੍ਰਾਮ	54
▁ਮੇਲ	54
ਿੱਜੀ	54
▁ਫਲਾਂ	54
▁ਮਾਨ	54
▁ਮਹਾਂਦੇਵ	54
ਵਨ	54
ਸਰ	54
▁ਉੱਠ	54
▁ਸ਼ੂਗਰ	54
▁ਵੰਸ਼	54
▁ਚੱਟਾਨਾਂ	54
▁ਏਡਜ਼	54
▁ਸੁਪਨ	54
▁ਹਲਕੀ	54
▁ਸਿੱਖ	54
▁ਪੂਰਬੀ	54
▁ਉੱਚੀਆਂ	54
▁ਟੁੱਟ	54
ਖੰਡ	54
▁ਸਤੰਭ	54
▁ਟੂਰ	54
▁ਕੁੰਭ	54
▁ਜਗਹ	54
▁ਸਹਾਰ	53
▁ਤੀਬਰ	53
ਤਿੰਨ	53
▁ਕੋਟ	53
▁ਸੌਂਦੇ	53
▁ਹੋਣੀ	53
▁ਅਵਸਾਦ	53
▁ਬਚ	53
▁ਯੰਤਰ	53
▁ਲੜੀਆਂ	53
▁ਕਦਮ	53
▁ਘੋਸ਼	53
ਵਾਦ	53
▁ਤਲਾਬ	53
▁ਲੱਦਾਖ	53
▁ਰਕਤਦਾ	53
ੱਗ	53
▁ਪਰਬਤਰੋਹਣ	53
▁ਜਾਇਆ	53
▁ਖੇਤ	53
▁ਪੀਓ	53
▁੧੯੮	53
▁ਸੰਸਾਰ	53
~	53
▁ਪਰਬਤੀ	53
▁ਸਮਾਜ	53
▁ਖਾਂਦੇ	53
▁ਬਣਾਉਂਦਾ	53
▁ਸਧਾਰਣ	53
▁ਢਲਾਨ	53
▁ਪੱਟ	53
▁ਗੰਗੋਤਰੀ	53
▁ਮੋਟਾਪ	53
▁ਹਾਥੀਆਂ	53
▁ਸੁਧਾਰ	53
▁ਅੰਗਹੀਣ	53
▁ਦੱਸ	53
ਬੇ	53
▁ਮੰਨਣਾ	53
▁ਨਲੀ	52
▁ਮੱਛਰ	52
▁ਨਦੀਂ	52
▁ਸਿੱਧੀ	52
▁ਸ਼ੌਕੀਨ	52
▁ਐੱਸ	52
▁ਮੱਛੀਆਂ	52
▁ਚੜ੍ਹਾਈ	52
▁ਤਾਜ਼ੇ	52
▁ਪਾਓ	52
ਨਗਰ	52
▁ਪ੍ਰ੍ਸਿੱਧ	52
▁ਰਾਜਮਹਿਲ	52
ਆਰ	52
▁ਨਿ	52
▁ਵਿਚਾਰ	52
▁ਤੁਲਸੀ	52
▁ਬੜਾ	52
ਾਵਾਂ	52
ਪੂਰਤੀ	52
ੰਗ	52
ਜਾ	52
▁ਸਵਰੂਪ	52
▁ਸਥਾਨਕ	52
▁ਤਾਕਤ	52
▁ਤਿਲ	52
▁ਹਰਮਨਪਿਆਰ	52
▁ਵਿਵਹਾਰ	52
▁ਨਿਰੋਧਕ	52
▁ਵਿਕਲਪ	52
▁ਫ਼ੇਰ	52
▁ਬਚੋ	52
▁ਨਿੰਮ	51
▁ਮਾ	51
▁ਸ਼ਿਲਪ	51
▁ਬੈਠਣ	51
▁ਇਤਿਆਦ	51
▁ਖੋਲ	51
▁ਸ਼ਿਖਰ	51
ਮਹਾਰਾਜਾ	51
▁ਆਦਮੀ	51
▁ਘਿਰ	51
▁ਸੁੱਕੇ	51
ਕਦੀ	51
▁ਚੰਦਨ	51
ਣੀ	51
▁ਬਚਾਉਣ	51
▁ਅਨੁਮਾਨ	51
▁ਪਾਲ	51
V	51
▁ਜੜ੍ਹ	51
ਦੋ	51
ਿਕਾ	51
▁ਪੈਂਦੇ	51
▁ਪੰਜਾਹ	51
▁ਖੜ੍ਹੇ	51
▁ਕੱਪ	51
▁ਬਦਲਾਅ	51
▁ਮਾਰਚ	51
▁ਕੰਧ	51
▁ਬਣਦੇ	51
▁ਥਕਾਨ	51
ਦਰ	51
▁ਝਾਰਖੰਡ	51
▁ਕੁਰਮੀ	51
▁ਅਜੰਤਾ	51
ੇਰੀ	51
▁ਨਮੂਨ	50
▁ਨਿਸ਼ਾਨ	50
ਪੂਰਨ	50
ਟਨ	50
▁ਕਲਕੱਤਾ	50
▁ਛਿਲਕ	50
ਮੁਲਾਇਮ	50
▁ਸਾਹਸ	50
▁ਬਰਤਨ	50
▁ਮਾਹੌਲ	50
▁ਨਿਊ	50
▁ਕਠਿਨਾਈ	50
▁ਪਹੁੰਚਾਉਂਦ	50
▁ਵਾਤ	50
▁ਅਣ	50
ਨੰਦਾ	50
▁ਪ੍ਰਾ	50
ਮੈਂਟ	50
▁ਪਾਚਣ	50
▁ਉਤਰਾਖੰਡ	50
▁ਚੋਟ	50
▁ਮੁੜ	50
▁ਫਲਸਰੂਪ	50
▁ਦੌਰਾ	50
▁ਅਧੀਨ	49
▁ਖੁੱਲ	49
▁ਅੱਜਕਲ	49
▁ਸੰਗ੍ਰਹਿ	49
▁ਲੋਕਪ੍ਰਿਯ	49
‘	49
▁ਮਕਾਨ	49
▁ਪ੍ਰ੍ਦੇਸ਼	49
▁ਕਿਸ਼ਤੀ	49
▁ਪੁੱਤਰ	49
▁ਮਨਯਾਰ	49
▁ਰੱਖੀ	49
ਗੰਗਾ	49
▁ਆਰੋਹੀ	49
▁ਧਾਰਨ	49
▁ਦੇਣੀ	49
ਤਮ	49
▁ਉਤਪੱਤ	49
▁ਚਿਕਤਿਸਕ	49
▁ਕਾਰਬੋਹਾਈਡ੍ਰੇਟ	49
▁ਚੜ੍ਹ	49
▁ਠੰਢ	49
▁ਜਿੱਤ	49
▁ਥੱਕ	49
▁ਆਪਸ	49
ਾਉਣ	49
▁ਸੰਸਕ੍ਰਿਤਕ	49
▁ਨਸ਼	49
ੂਨੀ	49
▁ਕਾ	49
▁ਸੱਚ	49
▁ਜਨਵਰੀ	49
ੌਂਗ	49
▁ਸਿ	49
▁ਸਨੋ	49
▁ਗਣੇਸ਼	49
ਮਾ	48
▁ਵਧਦੇ	48
▁ਲਗਾਉਣਾ	48
▁ਪ੍ਰ੍ਤੀਸ਼ਤ	48
ਰਾਂ	48
▁ਯਾਤ੍ਰੀ	48
▁ਕਰਵਾ	48
▁ਤਿੱਬਤ	48
▁ਸ਼ਾਸਨ	48
▁ਤਿੱਬਤੀ	48
▁ਇੰਡੀਆ	48
▁ਖੰਡ	48
▁ਖੰਡਰ	48
▁ਫ਼ੈਲਿਆ	48
▁ਵਾਸ	48
QT	48
▁ਇਕੱਠ	48
੧੦	48
▁ਨ੍ਰਿਤ	48
▁ਰੱਖੇ	48
▁ਅਲਕ	48
▁ਆਬਾਦੀ	48
▁ਮਾਨਸ	48
▁ਜੈ	48
▁ਮੰਨੋ	48
▁ਵਿਸ਼ਣੂ	48
▁ਵੱਧਣ	48
▁ਸੜਕਾਂ	48
ਭਾਗ	48
▁ਲੱਗਣਾ	48
ਘਣੇ	48
▁ਕਲ	48
੍ਯ	48
▁ਖੁੱਲੇ	48
▁ਜ਼	48
▁ਛੇਕ	48
▁੨੬	48
▁ਸਖਤ	48
▁ਸ਼ੱਕ	47
▁ਚੌਂਕ	47
▁ਡਿਪਰੈਸ਼ਨ	47
▁ਕ੍ਰੀਮ	47
▁ਮਣੀਪੁਰ	47
▁ਕਿੰਨੀ	47
ਤਵ	47
ਰਾਜ	47
▁ਚੌਲ	47
▁ਮਾਹ	47
▁ਪਿੰਡਾਂ	47
▁ਅਵਸਰ	47
▁ਗੜ੍ਹ	47
▁ਗੇਟ	47
▁ਤੀਜ	47
▁ਝੁਰੜੀ	47
ਿਸ	47
ਟਰ	47
▁ਸੰਸਕ੍ਰਿਤ	47
▁ਦੀਵ	47
▁ਸਫਰ	47
▁ਪ੍ਰਕਿਰਤੀ	47
▁ਜਿਸਦੀ	47
▁ਦੇਹਰਾਦੂਨ	47
▁ਇਨ	47
▁ਜੀਭ	47
▁ਚਲਦਾ	47
▁ਕਾਰਗ	47
▁ਛ	47
▁ਹਿੱਸਿਆ	47
▁ਦਿੱਕਤ	47
▁ਦੋਸ਼	47
▁ਗਈਆ	47
ਨਾਰ	46
ਦੁਆਰ	46
▁ਨਹੁੰ	46
▁ਸਾਢੇ	46
▁ਨਿਰਧਾਰ	46
▁ਐਕਸਰਸਾਈਜ਼	46
▁ਸਥਿਰ	46
▁ਔਲੀ	46
▁ਚੀਜ਼ਾ	46
▁ਸੋ	46
▁ਫੀਟ	46
▁ਹਰੀਆਂ	46
▁ਗਾਜਰ	46
VF	46
AUX	46
▁ਪੂਰਣ	46
▁ਸਮਰਪਿਤ	46
ਰੂਪ	46
ਪੂਰਵਕ	46
▁ਸ਼ਨੀ	46
ਅਤੇ	46
\	46
ਬਾਗ	46
▁ਵਾਧ	46
ਕਿਰਿਆਵਾਂ	46
▁ਵੈਸ਼ਾ	46
ਜਿਥ	46
▁ਝਲਕ	46
ੇਨੀਆ	46
▁ਬੋਟ	45
▁ਖੁੱਲ੍ਹ	45
ਿਟੀ	45
▁ਹਿਮ	45
▁ਯੂਰਪ	45
▁ਹਫਤ	45
▁ਮਾਸਿਕ	45
▁ਜਿ	45
▁ਖੁਸ਼ਬੂ	45
▁ਬਜਾਏ	45
▁ਤੈਅ	45
ਹਰ	45
▁ਐਸ	45
▁ਵੱਡੀਆਂ	45
▁ਮੋਟੇ	45
▁ਗਹਿਰੀ	45
੨੦੦	45
▁ਜਾਣੇ	45
▁ਮਨੋਰੰਜਨ	45
▁ਜਿੰਨੀ	45
▁ਸੰਕ੍ਰਮ	45
▁ਬਚਿਆ	45
▁ਦੁਰਗੰਧ	45
▁ਨਮੀ	45
VNF	45
▁ਮੰਗ	45
▁ਵਿਆਪਕ	45
▁ਗੈਸਟ	45
▁ਅਨੁ	45
▁ਸੈਨਾ	45
▁ਚੀਰ	45
▁ਚੜ੍ਹਨ	45
▁ਸੰਸਥਾਨ	45
▁ਧਾਰਾ	45
▁ਸੱਭਿਅਤਾ	45
▁ਪੈਣਾ	45
▁ਨੰਬਰ	45
▁ਦੇਵਤਾ	45
▁ਨਰਮਦਾ	45
▁ਭ	45
▁ਰੱਖਦੀ	45
ਾਬੂ	45
▁ਉਹੀ	45
▁ਸ਼ਿਲਾ	45
ਹੀ	44
▁ਸੁਭਾਵਿਕ	44
ਖਕੇ	44
▁ਨਿਰੰਤਰ	44
▁ਥੋੜੇ	44
▁ਲੇਹ	44
▁ਸਵੈ	44
▁ਦੁਰਗਾ	44
ਮਾਂਡੂ	44
▁ਸੁਖ	44
▁ਟੂਰਿਜ਼ਮ	44
▁ਕਰੇ	44
ਭੋਗ	44
ਪਾਊਡਰ	44
▁੫੦੦	44
▁ਵਣਜੀਵ	44
▁ਸਾਮਾਨ	44
▁ਮੀਨਾਰ	44
▁ਕਹਿ	44
▁ਦਿਲਚਸਪ	44
▁ਪਰੇਸ਼ਾਨ	44
▁ਉੜੀਸਾ	44
▁ਸਾਮਰਾਜ	44
▁ਮੰਨੀ	44
▁ਦਿੱਤੀਆਂ	44
CC	44
▁ਵਿਸ਼ੇ	44
▁ਰਹੇਗਾ	44
▁ਦੋਸਤ	44
ਜਿਵੇਂ	44
ਵੇ	44
▁ਮਿਲੇਗਾ	44
▁ਇਟਲੀ	44
▁ਤੋਲਾ	44
▁ਉਨ੍ਹਾ	44
▁ਜਨਜਾਤੀ	44
ਰੋਹਣ	44
ੜੀ	44
ੀਯ	44
▁ਸੁਰੰਗ	44
੫੦	44
SY	44
▁ਬਾਬਾ	44
▁ਇਲਾਹਾਬਾਦ	43
▁ਝੁੰਡ	43
▁ਯੂ	43
▁ਨਿਕਲਦੀ	43
▁ਵਸਤੂ	43
▁ਸੂਰ	43
▁ਭਾਲੂ	43
▁ਜਾਨਣ	43
▁ਸ਼ਰਧਾ	43
ਮਸਤੀ	43
▁ਉਬਾਲ	43
ਦੂਰ	43
▁ਅਨੂਠ	43
▁ਲੈਂਦੀ	43
ਕੁੰਡ	43
▁ਆਵੇ	43
▁ਸੰਤੁਲਨ	43
▁ਖੰਘ	43
ਜਿਹਨਾਂ	43
▁ਗਾਂ	43
▁ਲੜਕੀ	43
ਭ	43
▁ਅਹਿਮਦਾਬਾਦ	43
▁ਤੋਪ	43
▁ਜਿੱਥੋ	43
ਰਣ	43
▁ਪੀਂਦੇ	43
▁ਰੁਚੀ	43
▁ਦੇਖੋ	43
▁ਖਰਾਬੀ	43
▁ਅਦਰਕ	43
▁ਅੰਮ੍ਰਿਤਸਰ	43
▁ਰਾਏ	43
▁ਕਰਨਾਟਕ	43
▁ਹਵੇਲੀ	43
▁ਅੰਗੂਠ	43
ਚਾਰ	42
▁ਧਾਮ	42
ੈ	42
▁ਥਾਈਲੈਂਡ	42
▁ਪ੍ਰਾਣ	42
▁ਵਹਿੰਦ	42
▁ਚਿਹਰ	42
▁ਪੀਲਾ	42
ਿਸਟ	42
▁ਟ	42
▁ਅਨੋਖਾ	42
▁ਲੋ	42
ਿਵਯ	42
▁ਘਟ	42
▁ਰਿਪੋਰਟ	42
▁ਰਚਨਾ	42
▁ਬਾਗਾਂ	42
▁ਸੁਹੱਪਣ	42
਼ੀ	42
ਪਾ	42
▁ਲਗਾਉਂਦ	42
▁ਸਾਥੀ	42
▁ਪੰਜਾਬ	42
▁ਸੌਂ	42
▁ਮਰਜ਼	42
ਸਤ	42
▁ਘੁੰਮਣਾ	42
ਰਕਰਾ	42
▁ਰਾਜੇ	42
▁ਤਾਲਾਬ	42
▁ਏਕੜ	42
▁ਚਲਦੀ	42
▁ਸਿਤੰਬਰ	42
▁ਲਗਣ	42
ਦੀਪ	42
▁ਸਮਝਣ	42
▁ਅੰਗਰੇਜ਼ੀ	42
▁ਨਾਸ਼	42
▁ਵਿਖਾਈ	42
▁ਚੌੜੀ	42
ੜਾ	42
▁ਉਂਜ	42
▁ਖੇਤੀ	42
▁ਗੁੜ	42
▁ਚੁਕ	42
▁ਨੌਕਾ	41
▁ਕਲੱਬ	41
ਵਰਤੀ	41
▁ਹਰਿਦੁਆਰ	41
▁ਬਦਰੀਨਾਥ	41
▁ਗ੍ਰੈਂਡ	41
▁ਭੰਡਾਰ	41
▁ਟਿਕਟ	41
▁ਮੁਦਰਾ	41
▁ਉਪਰਲ	41
▁ਟਾਵਰ	41
▁ਬੇਹੋਸ਼	41
▁ਬਿਜਲੀ	41
▁ਪਸਲੀ	41
▁ਪੌਦੇ	41
▁ਚੰਡੀਗੜ੍ਹ	41
▁੩੦੦	41
▁ਬਚਾ	41
?	41
▁ਅਰੰਭ	41
▁ਸ਼ਾਸਕ	41
▁ਨਜ਼ਾਰੇ	41
ੀਕਲ	41
C	41
▁ਸਹਿਯੋਗ	41
▁ਫਿੰਸੀ	41
▁ਐਕਸ	41
ਹਾਟ	41
▁ਸਟੇ	41
ਫ਼ਲ	41
ਟਿਵ	41
੯	41
▁ਸਤਹ	41
▁ਸ਼ਾਸ਼ਕ	41
▁ਬ੍ਰਹਮਾ	41
▁ਉਪਕਰਣ	41
▁ਸਿਰੇ	41
▁ਦਬਾ	41
▁ਕਿਰਾਏ	41
ੇਲੂ	41
ਗਾਰ	41
▁ਗਿਲਾਸ	41
▁ਸਾਡੀਆਂ	41
▁ਜਮਾ	41
ਸਟ	41
▁ਅਹਾਰ	41
▁ਨੀਲਾ	41
▁ਬੜ	41
ਸ਼ਾਹ	41
▁ਆਰਥਿਕ	41
▁ਉਪਸਥਿਤ	41
ਨਾਸ਼ਕ	41
▁ਪਹੁੰਚਾ	40
੧੫	40
▁ਪੀੜਾ	40
▁ਬਿਮਾਰ	40
ਣਿਕ	40
▁ਖੇਤਰਫ	40
▁ਕੰ	40
▁ਤੰਦਰੁਸਤ	40
▁ਤਨਾਵ	40
▁ਅੱਗ	40
▁ਮਵਾਦ	40
▁ਵਿਸ਼	40
ਕਾਊ	40
▁ਉਁਤ	40
ਰੂ	40
▁ਸਵਾਗਤ	40
▁ਮੋਟੀ	40
▁ਪਾਉ	40
▁ਮਹਿੰਦ	40
▁ਪ੍ਰਦਰਸ਼	40
▁ਸੂਚਨਾ	40
▁ਸੰਕੇਤ	40
▁ਸੁੱਕੀ	40
▁ਜਮ੍ਹਾ	40
▁ਪਹੁੰਚਾਉਣ	40
▁ਸੰਰਚਨਾ	40
▁ਗਲੂਕੋਜ਼	40
▁੩੨	40
▁ਕਾਗਜ਼	40
▁੧੫੦	40
▁ਅਨ	40
▁ਵਸਾ	40
ਸਾਮ	40
▁ਬੋ	40
▁ਆਉਂਦੀਆਂ	40
▁ਦੌੜ	40
▁ਪਿਲਾਉਣ	40
▁ਦੇਖੀ	40
▁ਅਨੁਕੂਲ	40
▁ਘਰਾਂ	40
▁ਈਸਵੀ	40
▁ਇੰ	40
▁ਵੰਡਿਆ	40
▁ਐਲ	40
▁ਨਤੀਜ	40
▁ਮੇਰੀ	40
▁ਗੰਗ	40
▁ਲਹਿਰਾਂ	40
▁ਟਮਾਟਰ	40
▁ਹਰਿਆਣਾ	40
ਹਜ਼ਮ	39
▁ਅਗਸਤ	39
▁ਪੌਰਾ	39
▁ਅੱਧੀ	39
▁ਇਨ੍ਹਾ	39
▁ਮਿਸ਼ਰੀ	39
ਸਿਸ	39
▁ਡੇਢ	39
ੇਡੂ	39
ਸ਼ਾਮ	39
▁ਮੈਡੀਕ	39
▁ਪਰਹੇਜ਼	39
ਪੂ	39
ਮੱਥੇ	39
▁ਲੀਵਰ	39
▁ਸਮਾਰੋਹ	39
▁ਸੱ	39
੩੦ਃ	39
▁ਕੀੜੇ	39
▁ਨੈਨੀਤ	39
▁ਘੇਰ	39
▁ਨਵੀਆਂ	39
ਫਿਰਨ	39
▁ਕਿਓਂ	39
▁ਈਟਾਨਗਰ	39
ਡਾਇਬਟੀਜ਼	39
▁ਉਦੈਪੁਰ	39
ਾਸਿਲ	39
▁ਛਿੱਲ	39
▁ਉਲੇਖ	39
▁ਫੈਲੇ	39
▁ਚਟਾਨਾਂ	39
▁ਟਿਊਮਰ	39
▁ਸੁਨਹਿਰ	39
ਕਿਰਿਆ	39
▁ਵਿਦ	39
▁ਜਨਸੰਖਿਆ	39
ਾਏ	39
▁ਟਾਈਗਰ	39
▁ਹਮਲਾ	39
੪੦	39
▁ਤੱਥ	39
▁ਸਰਲ	39
▁ਕਠੋਰ	39
▁ਕਿਡਨੀ	39
▁ਗਹਿਰਾ	39
▁ਡੈਮ	39
▁ਅਨੀਮੀਆ	39
▁ਜਿਮ	39
ਯਾ	39
▁ਸਪੱਸ	39
▁ਈਸਾ	39
ਟੋਕ	39
▁ਐਲਰਜੀ	39
▁ਮੋਢਿਆਂ	39
▁ਜੀਵਨਸ਼ੈਲੀ	39
▁ਸਾਹਿਬ	39
▁ਬਦ	38
▁ਸਹਿਜ	38
▁ਸ਼ਾਹ	38
▁ਕੰਪਨੀ	38
▁ਪਾਰਵਤੀ	38
▁ਡਿੱਗ	38
▁ਤੱਟਾਂ	38
▁ਲਾਗ	38
▁ਕੱਢਿਆ	38
▁ਮਹਾਰਾਜ	38
▁ਮੌਕ	38
▁ਨਿਕਲਣਾ	38
▁ਕੁੱਟ	38
ਘਾਟ	38
▁ਬਰਸਾਤ	38
▁ਅੰਡੇ	38
▁ਹਾਂਗਕਾ	38
▁ਅੰਸ਼	38
▁ਦਰਖਤ	38
▁ਹਿਸਾਬ	38
▁ਨਾਂ	38
▁ਬਾਈ	38
ੜੇ	38
▁ਜੁੜੀ	38
▁ਪਲਕ	38
▁ਥੈਲੀ	38
▁ਕੁਪੋਸ਼	38
▁ਜਿਥੋ	38
▁ਕਫ	38
ਮਾਰ	38
▁ਬਣਾਓ	38
▁ਨਹਿਰੂ	38
▁ਨੰਦਾ	38
▁ਜ਼ਿਲ੍ਹੇ	38
▁ਸੜਨ	38
▁ਵੈਕਸ	38
▁ਕੀਮਤ	38
▁ਗਠੀਆ	38
▁ਚਿੰਨ੍ਹ	38
▁ਖ਼ੂਬਸੂਰਤ	38
ੀਏ	38
ਨਿਕ	38
▁ਗੜਵਾਲ	38
▁ਨਾਚ	38
▁ਗਰਭਗ੍ਰਹਿ	38
▁ਵਿਆਹ	38
▁ਕਿੰਨੇ	38
▁ਧਾਤੂ	38
▁ਲਾਇਕ	38
▁ਜੰਮਣ	38
ਗ੍ਰਸ	37
▁ਅਭਿਯਾਨ	37
▁ਸੈਂਕੜ	37
ਫ	37
▁ਢਲਾਨਾਂ	37
▁ਪੇੜ	37
ਐੱਮ	37
▁ਇੰਦੌਰ	37
▁ਸੇ	37
▁ਕਰਾਇਆ	37
▁੨੩	37
ਾਈਟਿਸ	37
▁ਚੀੜ	37
▁ਮਰਦ	37
▁ਸੂਖਮ	37
▁ਆਰਟ	37
▁ਊਠ	37
▁ਧੋਵੋ	37
▁ਨਸ਼ਾ	37
▁ਭਾਵਨਾ	37
▁ਕਹਾਣੀ	37
▁ਹੈਲਥ	37
▁ਹਿਚਕੀ	37
▁ਆਉ	37
▁ਵਿਰਾਸਤ	37
▁ਧਰੋਹਰ	37
▁ਪ੍ਰਕੋਪ	37
▁ਕੋਨੇ	37
▁੨੧	37
▁ਵਿਧੀਆਂ	37
▁ਸ਼ਾਹਜਹਾਂ	37
▁ਵੇਖਿਆ	37
▁ਸ੍ਰੀਨਗਰ	37
ਗੀਰ	37
▁ਗੌਰ	37
▁ਮਿਲੇਗੀ	37
▁ਆਕ੍ਰ੍ਸ਼	37
▁ਫੈਲੀ	37
ਰਿਕਤ	37
▁ਆਦਤਾਂ	37
▁ਗਿਰਨ	37
▁ਡ	37
▁ਹਿਰਦਾ	37
▁ਸਬਜ਼ੀ	37
▁ਪਾਲਣ	37
▁ਭਗਤ	37
▁ਉਠਾਉਣ	37
▁ਭਿਉਂ	37
▁ਸਰਦ	37
▁ਬਚਾਉਂਦ	37
▁ਐਕਸਪ੍ਰੈ	37
▁ਖੁਦਾਈ	37
▁ਕਹਾਉਂਦ	37
▁ਝੁਕ	37
▁ਮਸੂਰੀ	37
▁ਕਰਾ	37
▁ਟੀਵੀ	37
▁ਮੋਟਾ	37
▁ਅਭਿਯਾਰਣ	37
▁ਦੁਰਘਟਨਾ	37
ਰਨ	37
▁ਤੀਰਥੰਕਰ	37
▁ਇੰਡੀਅਨ	37
▁ਮੁੱ	37
▁ਅਕਬਰ	36
ਕਾਨਹਾ	36
▁ਆੱਯਲ	36
▁ਕਰੀਏ	36
▁ਕਲਪਨਾ	36
੧੨	36
▁ਉਤੇ	36
▁ਔਲੇ	36
▁ਆਵਾਸ	36
▁ਕੇਂਦਰੀ	36
▁ਸੱਪ	36
ਿਲ	36
▁ਚਾਂਦੀ	36
▁ਗੁਰਦ	36
▁ਗੁਹਾ	36
▁ਕੋਸ਼ਿਕਾਵਾਂ	36
▁ਚੱਲਣਾ	36
▁ਉਠ	36
▁ਯੁਵਾ	36
▁ਕ੍ਰਮ	36
▁ਲਸਣ	36
▁ਛਾਲੇ	36
ਜਿਹਾ	36
▁ਭੁਵਨੇਸ਼ਵਰ	36
▁ਚਿਪਕ	36
▁ਦਾਤਣ	36
▁ਪੀਲੀਆ	36
ੂਰ	36
▁ਚੌੜਾ	36
▁ਖਣਿਜ	36
▁ਚਮਤਕਾਰ	36
▁ਪਰਬਤਰੋਹੀ	36
▁ਘ	36
▁ਯਾਦਗਾਰ	36
▁ਸੁਣਨ	36
▁ਰੋਕਥਾਮ	36
▁ਟਾਪੂ	36
▁ਬੇਹਤਰੀ	36
▁ਉਭਰ	36
▁ਗਹਿਰੇ	36
▁ਕਾਂਗੜ	36
▁ਤ੍ਰਿਸ਼ੂਲ	36
▁ਸਵਤੰਤਰ	36
▁ਗੰਦਗੀ	36
ਡੀਅਮ	36
▁ਚਮਕ	36
▁ਅਤਿਸਾਰ	36
▁ਤਾਂਕਿ	36
▁ਉਤਕ੍ਰਿਸ	36
▁੬੫	36
ਾਤ	36
▁ਵੀਹ	36
▁ਆਕ੍ਰਿਤੀ	36
▁ਟਰੇਨ	36
▁ਸੰਵੇਦਨਸ਼ੀਲ	36
▁ਵਿਸ਼ਿਸ਼ਟ	36
ਾਓ	35
▁ਤਰ੍ਹਾ	35
▁ਕਰਵਾਉ	35
ਾਰੀ	35
▁ਉੱਤਰਕਾਸ਼ੀ	35
▁ਸਟੈਂਡ	35
▁ਫਟ	35
▁ਪਚਮੜ	35
▁ਕੈ	35
ਅੱਪ	35
▁ਪਿਤਾ	35
▁੪੦੦	35
ਬੀਨ	35
▁ਅਕਰਸ਼ਣ	35
▁ਇੰਦਰ	35
▁ਐਂਡ	35
▁ਅਲੀ	35
▁ਹੋਈਆ	35
▁ਗ੍ਰਹਿਣ	35
ਵਜਹ	35
ਸ਼ਯ	35
ਆਪ	35
▁ਗੈਂਡ	35
▁ਬੇਲ	35
▁ਗਾਈਡ	35
▁ਜੁਲਾਈ	35
▁ਵਧਣਾ	35
▁ਬਣਾਉਂਦ	35
ਪਿਤਾ	35
▁ਲਪੇਟ	35
ਪਨ	35
▁ਕਠਿਨ	35
▁ਡਾਇਬਿਟੀਜ਼	35
ਗੋਂ	35
▁ਲਗਾਈ	35
▁ਬਦਲਣ	35
▁੭੫	35
▁ਵਿਚੋ	35
▁ਸ਼ੀਸ਼	35
ਰੀਆ	35
▁ਉਤਸ਼ਾਹ	35
ਵਰ	35
▁ਅਧਿਕਾਰੀ	35
▁ਖੇਡਾਂ	35
▁ਲਗਾਉ	35
▁ਝੀਲ਼	35
▁ਬਸਤੀ	35
▁ਲਿਹਾਜ਼	35
▁ਗੋਡੇ	35
▁ਬਰਸ	35
ੀਰ	35
▁ਲੋਹੇ	35
▁ਦਾਰਜੀਲਿੰਗ	35
▁ਆਦਰਸ਼	35
▁ਖੁਸ਼ੀ	35
ਕਤ	35
▁ਦੀਆ	35
▁ਸਹਿਣ	35
▁ਵਾਂਗ	35
▁ਖਜੁਰਾਹੋ	35
▁ਲਏ	35
ੇਂਟ	35
▁ਪਛਾਣ	35
▁ਛਾਂ	35
ਸ਼ੀ	34
ਹਿਮਾ	34
▁ਪਵੇ	34
▁ਪੁਨਰ	34
▁ਗਿਰੀ	34
▁ਪੀਲੇ	34
▁ਹੈਰਾਨ	34
▁ਆਯੁਰਵੈਦ	34
▁ਉਠਾਉਂਦ	34
▁ਰਕਤਸ੍ਰਾਵ	34
▁ਅਭਾਵ	34
▁ਅਸ	34
▁ਬਰੀਕ	34
▁ਜੁੱਤੇ	34
▁ਐਲੋਪੈਥ	34
▁ਅਤੀ	34
▁ਫ਼ਰ	34
ੌਰ	34
ੱਸ	34
▁ਗੈਲਰੀ	34
▁ਪਖਾਨੇ	34
▁ਆਕੇ	34
▁ਜ਼ਹਿਰ	34
▁ਗੌਰਵ	34
▁ਸਫ਼ਲ	34
▁ਝਰਨਿਆਂ	34
▁ਕਲਾਕਾਰ	34
▁ਪੁਜਾਰੀ	34
▁ਸੈਕਸ	34
ੈਨਿਕ	34
▁ਇੰਚ	34
੦੦	34
▁ਠੰਡੀ	34
▁ਝਿੱਲੀ	34
ਪੈਰ	34
▁ਵਿਦੇਸ਼	34
▁ਸਮੇ	34
▁ਉੱਠਣ	34
▁ਮਿੱਠ	34
▁ਨਾਗਾਲੈਂਡ	34
▁ਪ੍ਰਦਰ	34
▁ਖਾਨ	34
▁ਸਪਰਸ਼	34
▁ਕਿਸ਼ੋਰ	34
▁ਮੁਖ	34
▁ਵਿਦਿਆਰਥੀ	34
ਬਾਡੀ	34
▁ਕੋਮਲ	34
▁ਉਤਰੀ	34
▁ਪ੍ਰੋ	34
▁ਵਣਾਂ	34
੨੫	34
▁ਢਕੀ	34
▁ਨਮੂਨੇ	34
▁ਆਫ	34
▁ਪੀੜ੍ਹੀ	34
▁ਰਮਣੀਕ	34
ਟਿਕ	34
▁ਦਮਨ	34
ਬੁਰਸ਼	34
▁ਸਹਾਰੇ	34
▁ਕਲਾਤਮਕ	34
▁ਪੈਕੇਜ	34
▁ਜੁੱਤੀ	34
▁ਖਾੜੀ	33
▁ਰੇਸਤਰਾਂ	33
▁ਮੇ	33
▁ਨਿਤੰਬ	33
▁ਵੈਲੀ	33
ਪੰਨ	33
▁ਮਾਣ	33
ਉਹਨਾਂ	33
ਪੁਰੀ	33
▁ਕੇਦਾਰਨਾਥ	33
▁ਰਿਸਰਚ	33
ਅਮਰਕੰਟ	33
▁੨੯	33
▁ਤਲੀਆਂ	33
ਰਟ	33
▁ਰੋ	33
▁ਪ੍ਰਧਾਨ	33
▁ਢਾਲ	33
▁ਛਾਲ	33
▁ਬਣਾਉਂਦੀ	33
▁ਘਟਨਾਵਾ	33
ਪੈਥੀ	33
▁ਮਨਾਉਣ	33
▁ਆਰਡਰ	33
ਕਲਾ	33
▁ਓਰਛਾ	33
▁ਦਫ਼ਤਰ	33
▁ਯਮੁਨਾ	33
▁ਬਹੁ	33
▁ਗੰਦ	33
▁ਜਿੰਨਾ	33
ਭਰੇ	33
▁ਲਾਲੀ	33
▁ਪ੍ਰੋਸਟੇਟ	33
▁ਸਵਾਮੀ	33
▁ਨਰਮ	33
▁ਕੁੱਲ	33
▁ਭਾ	33
▁੨੮	33
ਰਾਮ	33
ਵਾਨ	33
▁ਪ੍ਰੇਸ਼ਾਨੀ	33
ਭਾਰਤ	33
ਨਸ	33
▁ਆਯੂਰਵੈਦ	33
▁ਔਸਤ	33
▁ਡਾਲਰ	33
▁ਤਰੀਕ	33
ਧਾਮ	33
▁ਉੱ	33
▁ਨਵਾਬ	33
▁ਤਾਜ	33
▁ਆਓ	33
▁ਆਤਮ	33
▁ਭਗਤਾਂ	33
▁ਬਨਾਉਣ	33
▁ਮਿਸ਼ਰ	33
▁ਡੇ	33
▁ਤਾਜ਼	33
▁ਨਕਾਸ਼ੀ	33
▁ਲੱਛਮੀ	33
▁ਬਿੰਦੂ	33
ਜੋੜ	33
▁ਦਵੋ	33
▁ਬੋਰਡ	33
▁ਮਹਿ	33
▁ਪਤਲਾ	33
▁ਬਚਪਨ	33
ਐੱਲ	33
▁ਉਦਾਹਰਣ	33
▁ਅਨੁਪ	32
▁ਜਨਪਦ	32
▁ਨਰਵ	32
▁ਜਾਏ	32
▁ਹਨੂੰਮਾਨ	32
▁ਪ੍ਰ੍ਵੇਸ਼	32
▁ਰਿਆਸਤ	32
▁ਕਿਲੋ	32
▁ਜਿਲ੍ਹਾ	32
▁ਅਨਾਰ	32
ਰੰਪਰਿਕ	32
▁ਪ੍ਰਮਾਣ	32
▁ਅਹਿਮ	32
▁ਰਾਜਮਾਰਗ	32
▁ਘਬਰਾਹਟ	32
▁ਰੋਕਿਆ	32
▁ਲਵੋਂ	32
ਬਟਨ	32
▁ਨਾਲੰਦਾ	32
▁ਸਕਿਨ	32
ਲੇਵਾ	32
▁ਲੈਵੇਂਡਰ	32
▁ਬਰ	32
▁ਸ਼ਾਸ਼ਨ	32
▁ਸੰਪੰਨ	32
▁ਆਦਿਵਾਸੀ	32
▁ਸਮਾਧੀ	32
▁ਸਾਹਿਤ	32
ਉ	32
ਸ਼ਿਕਾ	32
ਪ੍ਰਸਿੱਧ	32
▁ਭਾਗੀਰਥੀ	32
ਸਿੰਘ	32
▁ਗੋਪਾਲ	32
ਅਰਚਨਾ	32
੍ਰ	32
▁੨੫੦	32
▁ਫੋਰਟ	32
▁ਪੱਕ	32
▁ਧੁੰਨੀ	32
▁ਦਰਖਤਾਂ	32
▁ਜੂਨਾਗੜ	32
▁ਨਿਵਾਸੀ	32
▁ਹਟ	32
▁ਕੰਡੀਸ਼ਨ	32
▁ਸੈਨਿਕ	32
▁ਆਗਿਆ	32
▁ਚਾਦਰ	32
▁ਚੌੜਾਈ	32
▁ਪੰਚ	32
ਾਂਗ	32
▁ਪਰਿਸਥਿਤੀ	32
▁ਰੂਮ	31
▁ਪਤਨੀ	31
▁ਵਿਗੜ	31
▁ਢਾਈ	31
▁ਰੋਟੀ	31
▁ਰਾਈਡ	31
▁ਪ੍ਰੰਪਰਾ	31
▁ਚਲੀ	31
▁ਪੌਦਿਆਂ	31
▁ਅਸਧਾਰਨ	31
▁ਪ੍ਰਾਰੰਭ	31
▁ਫਾਈਬਰ	31
▁ਕਾਜੀਰੰਗਾ	31
▁ਥ	31
▁ਗੁ	31
▁ਅਦ	31
▁ਜਟਿਲਤਾਵਾ	31
▁ਗੈਰ	31
▁ਪਖਾਨ	31
ਮੁਕਤੇਸ਼ਵਰ	31
ਟੇ	31
R	31
▁ਮੌ	31
▁ਪਤਲੀ	31
▁ਸੂਪ	31
▁ਹੋਲੀ	31
▁ਬਰਫ	31
▁ਬੇਹ	31
▁ਪਾਰਲਰ	31
▁ਹਿ	31
▁ਵੱਧਦੀ	31
▁ਅੱਡੀ	31
ਥੇ	31
ਸ਼ਿਲਾ	31
ਾਜਮਹਿਲ	31
▁ਪੱਤਣ	31
ਛੋਟੀਆਂ	31
▁ਲਖਨਊ	31
▁ਰਿਸਾਰਟ	31
▁ਸ਼ਾਨ	31
ੀਟਰ	31
▁ਸੀਟ	31
▁ਗੜਬੜੀ	31
▁ਫਲੂ	31
▁ਤਾ	31
▁ਆਲੂ	31
▁ਬੈਂਕ	31
ੋਤਮ	31
▁ਪ੍ਰਾਕਿਰਤ	31
▁ਸਕੂਨ	31
▁ਬੁਗਯਾਲ	31
▁ਅੰਕਿਤ	31
ਨਾਸ਼ਤਾ	31
▁ਚਾਕਲੇਟ	31
▁ਗਰੀਬ	31
▁ਰੂੰ	31
▁ਬੁੱਧੀ	31
▁ਝਾਂਸੀ	31
▁ਦਰਜ	31
▁੦	31
▁ਸਭਾ	31
▁ਵਿਹੜ	31
▁ਕਿਮੀ	31
▁ਬੋਲਣ	31
▁ਸਫ਼ਾਰੀ	31
▁ਬਗੀਚੇ	31
▁ਪ੍ਰਤੀਰੋਧਕ	31
ਜਾਤ	31
▁ਡਿ	31
▁ਤਪਤ	31
ਕਰਣ	31
▁ਅਵਾਜ਼	31
▁ਜਖਮ	31
▁ਧਨ	31
੍ਰਾ	31
▁ਗੁੱਦੇ	31
▁ਆਵਾਜਾਈ	31
▁ਸੰਚਾਲਿ	31
▁ਲੰਮੇ	31
▁ਪੁਸਤਕ	31
▁ਗੁਨਗੁਨ	30
▁ਕਰਣ	30
▁ਮਨੋਰ	30
▁ਬਦਲਾਵ	30
▁ਪੰਦਰਾਂ	30
▁ਸੰਪੂਰ	30
ਕੋ	30
▁ਬੁਕਿੰਗ	30
ਖ	30
▁ਹਵੇਲੀਆਂ	30
▁ਵੇਗ	30
▁ਕੋਸ਼ਿਕਾ	30
▁ਤੀਜੀ	30
▁ਲੈਵਲ	30
▁ਪਰਦੇ	30
ਕ੍ਰਿਆ	30
▁ਵੱਖ	30
▁ਪੇਰਿਯ	30
▁ਸਟੀ	30
▁ਟੂਰਿਸਟ	30
▁ਵਿਸ਼ਵਾਸ	30
▁ਸਸਤੇ	30
▁ਵੰਡ	30
▁ਸ਼ਾਪ	30
ਉਹ	30
ਜੀਅ	30
▁ਅਤ	30
▁ਛਾਪ	30
▁ਨਿਭਾਉਂਦ	30
▁ਕਥਾ	30
ਰੋਗ	30
▁ਔਖ	30
▁ਸ਼ਾਕਾਹਾਰੀ	30
▁ਘਿਰੀ	30
▁ਆਂਤ	30
▁ਮਲੇਰੀਆਂ	30
ਿਯਾ	30
▁ਬੋਝ	30
▁ਮਰ	30
▁ਸੁਰਮ	30
▁ਇਕੱਠਾ	30
▁ਫਿਲਮ	30
ਕੂਟ	30
▁ਰਸੌਲੀ	30
ੇਅਰ	30
▁ਰਿਸ਼ੀ	30
▁ਸੁਆ	30
▁ਟ੍ਰੀਟਮੈਂਟ	30
▁ਬਾਂਹ	30
▁ਮਹਿਮਾਨ	30
▁ਸੁਤੰਤਰ	30
▁ਉਤੇਜਨਾ	30
▁ਕੁਰਸੀ	30
▁ਭੁੱਲੋ	30
▁ਆਈਲੈਂਡ	30
▁ਗਰਭਧਾਰ	30
ਵਾਲ	30
▁ਭੀ	30
▁ਉਤਰਨ	30
▁ਵਿਅੰਜਨ	30
ੱਟ	30
੨੦	30
▁ਸੂਈ	30
▁ਢੇਰ	30
▁ਟਿ	30
▁ਵਗੈਰ	30
▁ਦਰਵਾਜ਼ਾ	30
▁ਬਾਂਸ	30
▁ਵਿਛ	30
▁ਮੰਨ	30
▁ਵਿਗਿਆਨਿਕ	30
▁ਚਾਂਦ	29
ਤੋਂ	29
▁ਯੂਰਪੀ	29
▁ਤਾਰਾ	29
ਨੁੰ	29
▁ਜਵਰ	29
▁ਨਿਕਟ	29
▁ਅਜਮੇਰ	29
▁ਅੰਗੂਰ	29
▁ਦੱਸਦੇ	29
▁ਪੇ	29
▁ਪੱਟੀ	29
ਬਿਰੰਗੇ	29
▁ਖਰੀਦਦਾਰ	29
ਾਨ	29
▁ਗਿਣ	29
▁ਸੁੱਖ	29
▁ਜ਼ਿੰਮੇਵਾਰ	29
▁ਬਿਤਾਉਣ	29
ਘਾਤ	29
▁ਵਰਜ	29
▁ਕਟ	29
▁ਦੀਘਾ	29
▁ਚੈੱਕ	29
▁ਆਕ੍ਰਸ਼ਣ	29
▁ਪ੍ਰ੍ਕ੍ਰਿਤ	29
ਮਤ	29
▁ਅਰਧ	29
▁ਨਮ	29
▁ਦਵਾ	29
▁ਮਸਾਲ	29
▁ਬੁਗਿਆਲ	29
▁ਜਗਨਨਾਥ	29
▁ਦਿਸੰਬਰ	29
▁ਸਫਾਈ	29
ਲਿਵ	29
ਜਲ	29
▁ਖੋ	29
▁ਪਠਾਰ	29
▁ਬਸਤਰ	29
▁ਬੋਟਿੰਗ	29
ਕੋਣ	29
▁ਖੂਹ	29
▁ਪੋਰਟ	29
▁ਗਰ	29
ਤਮਕ	29
ਸ਼ਕਤੀ	29
ਭੂਮੀ	29
ਠ	29
ਅਨ	29
ਰੀਨ	29
▁ਅਲਜਾਈਮਰ	29
▁ਜੇਲ	29
▁ਕੋਲਕਾਤਾ	29
▁ਭੀਮ	29
▁ਫ਼ੀਸ	29
ਪੇਟ	29
▁ਸੁਣਾਈ	29
▁ਅਮਰ	29
▁ਮੰਦ	29
▁ਡੁੱਬ	29
ਇ	29
▁ਨਿਕਲੇ	29
ਕਸ	29
▁ਹਾਰ	29
ਤਾਲ	29
▁ਅਨੋਖ	29
ਪਿੰਡ	29
▁੪੮	29
▁ਅਯੋਜ	29
▁ਨੂ	29
▁ਟ੍ਰਿਪ	29
▁ਮਿਰਗੀ	29
▁ਮਕਰ	29
▁ਏਅਰ	29
▁੫੫	29
▁ਲੋਹ	29
ਵਾਸ	29
ਨੀਯ	29
ਾਜੀ	29
▁ਚਰਣ	29
▁ਇੰਦਰਾ	29
▁ਨੀਲੀ	29
▁ਪਹਿਨ	29
▁ਬਜਟ	29
▁ਧ	29
▁ਰੂਟ	29
▁ਪਾਕਿਸਤਾਨ	29
ਮੋਲੀ	28
▁ਵਧੇ	28
ਯੁੱਗ	28
▁ਦੁ	28
ਰੋਸਿਸ	28
▁ਅਤੀਰਿਕਤ	28
▁ਮੰਤਰ	28
▁ਬਚੇ	28
▁ਪੈਕ	28
▁ਵਿਸਤਾਰ	28
▁ਮੇਥੀ	28
ਣੀਕਰਣ	28
▁ਸਫਾਰੀ	28
▁ਮਸਤਕ	28
▁ਪੁਰਾਤਨ	28
▁ਮਿਸਰ	28
▁ਇੰਤਜ਼ਾ	28
▁ਤਪਦ	28
▁ਜਟਿਲ	28
▁ਨਕਾਰ	28
ਜਹਾਂਗੀਰ	28
▁ਧਾਰਨਾ	28
ਵਰਧਕ	28
▁ਸ਼ੀਤਲ	28
▁ਦੇਵੇ	28
▁ਖੋਜਕਰਤਾ	28
▁ਗੁਜ਼ਰਦ	28
▁ਤਰੰਗ	28
▁ਰਹੱਸ	28
▁ਧੂਮ	28
▁ਮੰਡਲ	28
▁ਹੋਮੋਪੈਥ	28
▁ਸਕਿਆ	28
▁ਹਾਈਵੇ	28
ਾਨੰਦ	28
▁ਸਿੰ	28
▁ਸੌਂਫ਼	28
N	28
▁ਦੂਸਰੀ	28
ਟਰੋਲ	28
▁ਵਿਕ੍ਰਤੀ	28
▁ਕੋਰਸ	28
▁ਲਾਰ	28
▁ਮੰਡੀ	28
▁ਕਰੇਗਾ	28
▁ਗ੍ਰਹਿ	28
▁ਰੋਜ	28
▁ਗੁਫ਼ਾਵਾਂ	28
▁ਸੀਤਾ	28
▁ਘਟਾਉਣ	28
▁ਚਾਹੋ	28
▁ਢਕਿਆ	28
▁ਇੱਕਠ	28
ੱਬ	28
▁ਮਸ਼ੀਨ	28
▁ਮੈਲ	28
.)	28
▁ਤਕਲੀਫ	28
▁ਚਿੜੀਆ	28
▁ਬੇਸ	28
▁ਬੈਠੋ	28
▁ਗੜਬੜ	28
▁ਖੇਲ	28
ਭਿੰਨ	28
ਮੋਤੀਆਬਿੰਦ	28
▁ਚਲਣ	28
▁ਸੁੰਨ	28
▁ਕਾੜ੍ਹ	28
▁ਆਉਦੇ	28
▁ਦਾਲਾਂ	28
▁ਨਤੀਜਾ	28
▁ਬਰਫ਼ੀਲ	28
▁ਪੁਦੀਨ	28
▁ਰਿਸ਼ੀਕੇਸ਼	28
▁ਜੋਸ਼ੀਮ	28
▁ਦਬਾਉਣ	28
ਟੇਕਸ	28
▁ਬਾਣ	28
▁ਉਪਰੋ	28
▁ਮਕਬਰਾ	28
▁ਗਹਿਰਾਈ	28
▁ਵਿਜੈ	28
ਲਵਾੜਾ	28
ਸਾਰ	28
▁ਡਿੱਗਣ	28
▁ਅਸਮਾਨ	28
▁ਹੁਣੇ	28
▁ਕ੍ਰੋਧ	28
▁ਆਖਰ	28
▁ਵਿਸਤ੍ਰ	28
▁ਨਵਜਾਤ	28
▁ਸੌਂਫ	28
▁ਰਾਸ਼ਟਰ	28
▁ਕਿਨਾਰਿਆ	28
▁ਦਸ਼ਾ	28
▁ਡਾਇ	28
▁ਉਬਾਸੀ	28
ਅਤ	28
ਰੂਮ	28
▁ਚੂਸਣ	28
▁ਔਲਾ	28
ਦਰਸ਼ਕਾਂ	28
▁ਸ਼ਿਲਾਲੇਖ	28
▁ਲਾਮਾ	28
▁ਦੇਵੇਗੀ	27
▁ਗ੍ਰੇਨ	27
▁ਗਵਾਲੀਅਰ	27
▁ਰਾਧਾ	27
▁ਸੂ	27
▁ਲੁਤਫ	27
▁ਪ੍ਰਦਰਸ਼ਨ	27
▁ਕੇਨਯਾਨ	27
▁ਪ੍ਰਯਾਗ	27
▁ਜ਼ਹਿਰੀਲ	27
▁ਨਾਗ	27
▁ਖਰ	27
▁ਜੜ੍ਹੀ	27
ਤਰ੍ਹਾਂ	27
▁ਟੁਕੜੇ	27
▁ਮੋਰ	27
▁੨੭	27
▁ਰਸੋਈ	27
ਤਾਵਾਂ	27
▁ਰੁ	27
▁ਸੁੱਟ	27
▁ਹਮੇਸ਼ਾਂ	27
▁ਸਜਿਆ	27
▁ਕਰਾਉਣਾ	27
▁ਕ੍ਰਿਸ਼ਨ	27
▁ਵਸਾਇਆ	27
ਊਨੀ	27
▁ਧੂੰਆਂ	27
▁ਪ੍ਰੇਰ	27
▁ਵਰਕ	27
▁ਨਾਰਥ	27
▁ਸਹਿ	27
▁ਸ਼ਰਬਤ	27
▁ਉਤ	27
▁ਫੇਫੜੇ	27
▁ਸੂਚੀ	27
▁ਜਗਤ	27
▁ਅਰਬੀ	27
▁ਪਲਾਸਟ	27
▁ਭੈਰਵ	27
▁ਕੌਫ	27
▁ਨਿਮਨਲਿਖ	27
▁ਬੀਮਾਰੀਆਂ	27
▁ਸਫ਼ਲਤਾ	27
ਨਿਖ	27
▁ਬੁਰੀ	27
ਧੀ	27
▁੧੨੦	27
▁ਰਖਦ	27
▁੧੮੦	27
▁ਫਾਲ	27
ਸੇਸ	27
▁ਬਿਆ	27
▁ਫਰਵਰੀ	27
▁ਮਹਿਲਾਂ	27
▁ਸਫ਼ੇਦ	27
੯੦	27
ਤੂ	27
▁ਸਟੇਜ	27
▁ਮਹਾਰਾਸ਼ਟਰ	27
▁ਬਿਹਤਰ	27
▁ਖਜੂਰ	27
▁ਭਲੀ	27
▁ਸੁੰਗੜ	27
▁ਲੱਸ	27
▁ਰੇਗਿਸਤਾਨ	27
▁ਭੂਗੋਲ	27
▁ਲਾਪਰਵਾਹ	27
▁ਸਵਾ	27
▁ਬਿਊਟੀ	27
▁ਹੱਸਣ	27
▁ਗੁੱਦਾ	27
▁ਵਰਤਣ	27
ਥੀਮ	27
▁ਬਿ	27
ਗੱਡੀਆਂ	27
▁ਕਾਰਬ	27
▁ਅਵਸ਼ੋਸ਼	27
▁ਅੰਬ	27
▁ਕਰਵਾਈ	27
▁ਬਲੈਕ	27
▁ਲਾਈਟ	27
▁ਚਾਵਲ	27
▁ਚਾਹੁੰਦ	27
▁ਖੜਾ	27
▁ਅਵ	27
▁ਕਾਰਕ	27
▁ਭਾਈ	27
▁ਮਾਸਾਹਾਰ	27
▁ਪਚਮ	27
▁ਨੇਪਾਲ	27
੮੦	27
ਧਾਨ	27
▁ਬਾਂਦਰ	27
▁ਅਨਿਯਮਿਤ	27
▁ਗੁਲ	27
▁ਗਾਵ	27
▁ਖਿਆ	27
▁ਜਗ	27
▁ਸਾਈਡ	27
▁ਬੈਠਣਾ	27
▁ਸ਼੍ਰੇਸ਼ਟ	27
▁ਦਿਖਣ	27
▁ਲੜੀ	27
▁ਤਰ	27
▁ਚੌਥਾ	27
ਵਿਹਾਰ	27
▁ਸਵੀਡਨ	27
▁ਸੰਗਠਨ	27
▁ਸਮੁੱਚ	27
▁ਗੁੰਬਦ	27
▁ਨਿਰ	27
ਅਸਥਮਾ	27
ੱਠ	27
▁ਕਿੱਥੇ	27
ਗਰ	27
▁ਅਨੁਪਾਤ	27
ਸ਼ਾਲਾ	27
▁ਸਿੱਕਮ	26
▁ਗੁੱਸ	26
▁ਮੋਢੇ	26
▁ਕਿਉ	26
ਪ੍ਰਾਣਾਯਾਮ	26
▁ਖੁੱਲਾ	26
▁ਹਾ	26
▁ਨਿਰੋਗ	26
ਅਲ	26
ਜਾਇ	26
▁ਇੰਟਰ	26
▁ਜ਼ਮਾਨ	26
▁ਮੋਨਾਸਟ੍ਰੀ	26
▁ਅੰਡਮਾਨ	26
▁ਅਲਟਰਾਸਾਊਂਡ	26
▁ਸ਼ੋਰ	26
ਕਦੇਂ	26
▁ਟਿੱਕੀ	26
ੇਗਾ	26
▁ਸ਼ਹੀਦ	26
ਡਿੰਗ	26
▁ਚੱਲਿਆ	26
▁ਪ੍ਰੇਮ	26
▁ਜਮੈਕ	26
▁ਸਿਧਾਂਤ	26
ਚਿੱਤਰ	26
▁ਹੁ	26
F	26
▁ਲੋਸ਼ਨ	26
▁ਅਤੀਤ	26
▁ਪਾਲਕ	26
▁ਬੁਰੇ	26
▁ਹਟਾਉਣ	26
▁ਨਿੱ	26
ਵਿ	26
▁ਖਾਈ	26
▁ਬਾਂਧਵਗੜ	26
▁ਦੁਰਘਟਨਾਵਾ	26
ਜਨ	26
▁ਪੂਨੇ	26
▁ਕੋਲੇਸਟ੍ਰ	26
▁ਮਜਾ	26
▁ਸੰਤ	26
▁ਪੱਤਰ	26
▁ਤਿੱਲੀ	26
ਰਗਾਹ	26
▁ਡਿਨਰ	26
▁ਪੁਦੀਨਾ	26
▁ਨਵੀਨ	26
▁ਉਪਲ	26
ਟਲ	26
▁ਸ਼ੀਤ	26
ਜ਼ੇ	26
▁ਖੜ੍ਹਾ	26
▁ਜੱ	26
ਲੈਂਡ	26
▁ਉਦਾਹਰਨ	26
▁ਬੈਲ	26
▁ਵੀਰਜ	26
▁ਤੁਰਨ	26
▁ਪਿਰਾਮਿਡ	26
▁ਪਚ	26
▁ਸੰਸਥਾਵਾਂ	26
▁ਬੈਗ	26
▁ਲਗਵਾਉਣ	26
▁ਲੜਨ	26
▁ਮੰਜ਼ਿਲ	26
▁ਮਾਤਰ	26
▁ਦ੍ਰਵ	26
▁ਪੀਲੀ	26
▁ਸੁੱਕ	26
ਨਜ਼	26
▁ਪ੍ਰਵਾਸੀ	26
▁ਘੋੜੇ	26
▁ਪੁਆਇੰਟ	26
▁ਮੁਕਤੀ	26
▁ਸੁੱਜ	25
▁ਸਵਾਰ	25
▁ਬਜ਼ੁਰਗ	25
▁ਮੁੰਨ	25
▁ਬਣੀਆ	25
▁ਇੱਟ	25
ਭਗਵਾਨ	25
▁ਵਨਸਪਤੀ	25
▁ਹੈਲਦੀ	25
▁ਦਹਾਕ	25
▁ਪ੍ਰਾਕ੍ਰਿਤੀ	25
▁ਸਟੇਟ	25
▁ਕਾਲਜ	25
ਜੁਲ	25
▁ਨਾਸ਼ਤ	25
▁ਮਨੋਵਿਗਿਆਨ	25
▁ਚਮਕਦਾ	25
▁ਅਰਬ	25
ਧਾਰ	25
ਾਇਡ	25
▁ਕੱਲ	25
▁ਭੰਗ	25
ਟਸ	25
▁ਭੱਜ	25
ਲੀਆਂ	25
▁ਪ੍ਰਤਾਪ	25
ਜੇ	25
▁ਪਾਂਡਵਾਂ	25
ਹਾਈ	25
▁ਮੁੱਲ	25
▁ਢਕੇ	25
▁ਚਬੂਤਰ	25
ਜੈਗੜ	25
ਗਿਣਤ	25
▁ਰਾਕ	25
▁ਸੰਸਥਾ	25
▁ਮਦਰਾ	25
▁ਦੀਵਾਨ	25
▁ਬਦਬੂ	25
▁ਬਚਣਾ	25
▁ਪੱਥਰੀ	25
▁ਰਿਜ਼	25
ਈਵੇਟ	25
▁ਦੇਸ਼ੀ	25
▁ਖੜੀ	25
▁ਤੰਗ	25
▁ਨਿਯੋਜ	25
ਪੱਛਮ	25
▁ਪ੍ਰਸਾਰ	25
▁ਡਲ	25
▁ਅਲਸ	25
▁ਲਕਸ਼	25
▁ਜਾਤੀ	25
ਵਾਸੀਰ	25
ਚੂ	25
▁ਲੇਜ਼ਰ	25
▁ਅਲਮੋੜਾ	25
▁ਢਲ	25
▁ਔ	25
▁ਕੇਂਦਰਾਂ	25
▁ਨੇਤਰਹੀਣ	25
▁ਕਿਰਣ	25
▁ਸਸਤ	25
▁ਇੰਨੇ	25
▁ਕੰਡੋਮ	25
▁ਸੁਜਾਕ	25
▁ਆੱਇਲ	25
▁ਸਨੈਕ	25
ਵਿਦੇਸ਼	25
ਵਰੀ	25
▁ਰਾਸ਼ਟਰਪਤੀ	25
▁ਨਿਵਾਰ	25
▁ਬਾਦਸ਼ਾਹ	25
▁ਬ੍ਰੇਸ	25
▁ਤਾਮਿਲਨਾਡੂ	25
▁ਭੇਂਟ	25
ਵਾਇਆ	25
▁ਟੀਕੇ	25
▁ਵਿਰੋਧ	25
▁ਸੜੇ	25
▁ਅੰਡਕੋਸ਼	25
▁ਟੈਂਪਲ	25
▁ਤਰਬੂਜ਼	25
▁ਕਰੋਗੇ	25
ਸੇ	25
▁ਮਹਾਉਤਸਵ	25
▁ਖੋਲ੍ਹ	25
▁ਨਿਦਾਨ	25
ਨਰਾਇਣ	25
▁ਮਹਾਂਰਾਸ਼ਟਰ	25
▁ਦਲਦਲ	25
▁ਨਿਰਦੇਸ਼	25
▁ਕਲਾਕ੍ਰਿਤੀਆਂ	25
▁ਕ੍ਰਿਆ	25
▁ਪ੍ਰ੍ਦਾ	25
ਰਾਵ	25
▁ਸੈਲ	25
▁ਨਾਥ	25
▁ਪਚਣ	25
ਹਿਸਟੀਰੀਆ	25
▁ਬਤੀ	24
ਇਟਿਸ	24
ਦਰਸ਼ਨ	24
▁ਕਰੂਜ	24
▁ਅਲਪ	24
▁ਹੋਵੋ	24
▁ਗੋਬਿੰਦ	24
▁ਕ੍ਰਮਵਾਰ	24
▁ਉਦਗਮ	24
▁ਉਡਾਨ	24
ਟੇਸ਼ਨ	24
▁ਟੁੱਟਣ	24
▁ਸਮੱਗਰੀ	24
ਕੰਪ	24
ਮਲ	24
▁ਸੌਖ	24
▁ਥੀਏਟਰ	24
▁ਦੇਵੇਗਾ	24
▁ਸੰਤਰਾ	24
▁ਥਾਈ	24
▁ਸੈਰਗਾਹ	24
▁ਚਰਮ	24
▁ਧੂੜ	24
▁ਗੁੱਸਾ	24
▁ਪ੍ਰਚਲਿ	24
▁ਚਲਾਉਣ	24
▁ਵਿਚਕਾਰਲ	24
ਦੇਹ	24
▁ਹਮਲੇ	24
ਛੂਤ	24
▁ਰੈਸਤ	24
▁ਆਖਿਰ	24
▁ਅਪ	24
▁ਚੱਟੀ	24
ਥਾਂ	24
▁ਸਰਵਾਈਕਲ	24
ਮਿਤ	24
ੋਨ	24
▁ਮਿੱਠਾ	24
▁ਰਿ	24
▁ਗਲੈਂਡ	24
ਚੀ	24
▁ਜਰਮਨੀ	24
▁ਕਾਰਡ	24
▁ਸਿੰਗ	24
▁ਸੁਹਾਵਣ	24
ਧਾਰਾ	24
ਪਾਰਬਤੀ	24
_	24
ਰੂੰ	24
▁ਲੰਚ	24
▁ਸਕਾਰ	24
▁ਵਾਦੀਆਂ	24
▁ਕੈਮੀਕਲ	24
▁ਮੌਨਸੂਨ	24
ੱ	24
▁ਬਾਘਾ	24
▁ਛੱਡਣ	24
ਹਾਂ	24
▁ਕੁਰਲ	24
▁ਸਨਮਾਨ	24
▁ਵਾਸਤੂਕਲਾ	24
▁ਚੱਟਾਨ	24
▁ਵਰਣਨ	24
ਬ੍ਰਸੇਲਸ	24
▁ਹੈਪੇਟਾਈਟਿਸ	24
▁ਬੱਦਲ	24
▁ਗੌਰੀ	24
▁ਸਫਲ	24
▁ਪਤੀ	24
▁ਛਿਪਣ	24
▁ਲੈਂਗ	24
▁ਫੈਲਣ	24
▁੩੬	24
▁ਅਨੋਖੀ	24
▁ਪੱਖ	24
▁ਇੰਤਜ਼ਾਮ	24
▁ਵਾਕ	24
ਪਤ	24
▁ਨਕਲ	24
▁ਮੰਨੇ	24
੪੫	24
▁ਲੱਗੇਗਾ	24
▁ਸਰੂਪ	24
ਬਲਪੁਰ	24
ੁਭਾਅ	24
ਪਾਤੀ	24
ਬਨ	24
▁ਗੋਲਾਕਾਰ	24
▁ਨਜ਼ਾਰਿਆ	24
ਚਾਲ	24
▁ਖੱਟੇ	24
▁ਜਾਦੀ	24
▁ਸਜਾਵਟ	24
ਵਾਲਾ	24
▁ਕਲਾਵਾਂ	24
▁ਮੁਸਲਿ	24
ਮਲਾਈ	24
▁ਮੂਡ	24
▁ਡੈਂਟ	24
▁ਲੈਂ	24
▁ਸਫਲਤਾ	24
ੇਨ	24
▁ਅਸਮ	24
▁ਤਾਰ	24
▁ਖੁਜਲੀ	24
▁ਜਮਾਂ	24
▁ਸ਼ੰਕਰ	24
▁ਪਸੰਦੀਦ	24
ੈਂਟ	24
▁ਜੌਂਗ	24
ਪੂਰਵ	24
▁ਕਲਾਈ	24
ਯਮ	24
▁ਅਲਗ	24
▁ਪੇਂਡੂ	24
ਗ੍ਰੀਨ	24
▁ਪ੍ਰਸਤੁਤ	24
▁ਵਰਣ	24
▁ਜਣਨ	24
▁ਈਟਿੰਗ	24
▁ਤੀਹ	24
▁ਪੇਨ	24
▁ਪ੍ਰਥ	24
ਹਰੀ	24
▁ਵਿਸਥਾਰ	24
▁ਗੁਲਮੁਰਗ	24
▁ਨਾਗਰਿਕ	24
▁ਟਾਂਸਿਲ	24
ਹੈ	24
▁ਬਾਦਾਮ	24
▁ਜਾਤੀਆਂ	24
▁ਮਾਲੀ	24
▁ਸਾਗ	24
▁ਡਾਇਟ	24
▁ਸੈਂਟੀਗ੍ਰੇਡ	24
▁ਮਸਾਨੇ	23
▁ਸ਼ੋ	23
▁ਮੂੰਗ	23
ਪੋ	23
▁ਖ਼ਾਸ	23
▁ਐਂਟੀਆਕਸੀਡੈਂਟ	23
▁ਚੂਰਣ	23
▁ਬਾਰਾਂ	23
▁ਇੰਨਫੈਕਸ਼ਨ	23
▁ਸਾਂਭਰ	23
▁ਕਾਸ਼ੀ	23
▁ਆਨ	23
▁ਕੂਹਲ	23
▁ਮਿਲਣਾ	23
▁ਚੇਨਈ	23
ਂਟ	23
▁ਵਹਿ	23
ਕਾਵਾਂ	23
▁ਉਪ੍ਯੁਕਤ	23
▁ਜੰਮੀ	23
▁ਫੜ	23
▁ਤਰੋਤਾਜ਼ਾ	23
▁ਸੋਡਾ	23
▁ਵੱਡਿਆਂ	23
▁ਸਵੀਕਾਰ	23
▁ਕਿਹੜੇ	23
▁ਔਰੰਗਾਬਾਦ	23
ਮੇਰ	23
▁ਜਾਣੂ	23
▁ਦਿਖਾਉਣ	23
ਕੁਲਮ	23
ਸਾਲ	23
ਇੰਸੁਲਿਨ	23
▁ਪ੍ਰਾਂਤ	23
ਵੋ	23
▁ਦੰਡ	23
ਥੀ	23
▁ਚਲਾਉਂਦ	23
▁ਕਰਵਾਓ	23
▁ਦਰਬਾਰ	23
▁ਕ੍ਰੈ	23
▁ਪਾਕੇ	23
▁ਸਕਿਰਿਆ	23
▁੧੪੦	23
ਕਿਨ	23
▁ਸੇਨ	23
▁ਉਕਤ	23
ਮੰਡਲ	23
▁ਵੈਭਵ	23
▁ਲਿਖੇ	23
▁ਕਲਿਆਣ	23
ਮਹਲ	23
▁ਤੋੜ	23
੭੦	23
▁੬੦੦	23
▁ਮੇਦਾ	23
ਕਸ਼	23
▁ਚੁਣ	23
ਉਸ	23
▁ਨਿਖਾਰ	23
▁ਢੱਕ	23
ਐੱਨ	23
▁ਜੁਕਾਮ	23
▁ਝਾੜੀਆਂ	23
▁ਕੈਮੋਮਾਇਲ	23
▁ਸੁੰਘ	23
▁ਕੱਪੜ	23
▁ਵਾਸਤਵਿਕ	23
▁ਆਟੋ	23
ਢੀ	23
▁ਡਿਸਕ	23
▁ਗੁਜ਼ਾਰ	23
ੱਠੀ	23
ਿਨੀ	23
▁ਸੰਤਰੇ	23
ਡੇ	23
▁ਰੋਜਮੇਰੀ	23
▁ਕਾਲਿਮਪ	23
ਾਮ	23
ੈਂਪੂ	23
ਗਾ	23
▁ਖੰਭ	23
▁ਬਹਾਰ	23
▁ਸਮਝਿਆ	23
ਟਾ	23
▁ਕਲਾਸ	23
▁ਸਪੋਰਟਸ	23
▁ਨਿਕਾਸ	23
ਮਿਲ	23
▁ਬ੍ਰੇਕ	23
▁ਚਬਾ	23
▁ਖਿੜਕੀਆਂ	23
▁ਅਭਿਆਨ	23
▁ਛੱਡਦੇ	23
▁ਕਹਿਣ	23
▁ਤਬਦੀਲ	23
▁ਚੜਾਈ	23
ਨਤਮ	23
▁੨੦੦੦	23
▁ਸਕੇਟਿੰਗ	23
ਹਰਬਲ	23
ਰੇ	23
▁ਲਿਖ	23
▁ਕੱਛ	23
▁ਸਤਨਪਾ	23
▁ਮੋਤੀਆ	23
▁ਧਮਨੀ	23
▁ਲੌਂਗ	23
▁ਮਹਾਤਮ	23
▁ਬੋਧੀ	23
▁ਪਦ	23
▁ਸਟੈਮ	23
▁ਵਿਲਾਸ	23
ਿਸ਼ਟ	23
▁ਬਹਿਰਾਪ	23
ਮੀਟਰ	23
▁ਭੁਜ	22
▁ਰਹੇਗੀ	22
▁ਭੋਜ	22
▁ਅਰਾਵ	22
▁ਪੋਟ	22
▁ਗੰਧ	22
▁ਅਮਰੂਦ	22
▁ਪਤਲੇ	22
▁ਕਸਬ	22
ਲਿਆ	22
▁ਡੋਲੀ	22
ਮਾਲ	22
▁ਲਾਈਫ	22
ਅਰੀ	22
ਪੰਛੀ	22
▁ਮਰੋੜ	22
ਆਯੋਡੀਨ	22
▁ਸੁਸਤ	22
▁ਮਰਜ	22
ਕੇਂਦਰ	22
▁ਤਸਵੀਰ	22
▁ਤਨ	22
▁ਪੜਾਅ	22
ਟੀਨ	22
ਆਮ	22
▁ਲੱਤਾਂ	22
▁ਐਨਕ	22
▁ਮਹੀਨਾ	22
▁ਉਤਮ	22
▁ਕੋਡ	22
▁ਜਮਸ਼ੇਦ	22
▁ਚੱਲਦੇ	22
ਬੂਟੀਆਂ	22
▁ਅਯੋਜਨ	22
▁ਤੌਲੀ	22
▁ਮਲਣ	22
▁ਲੱਕੜ	22
ਦੇਵੀ	22
▁ਅਨੁਯਾਈ	22
ਵਿਸ਼ਨੂੰ	22
▁ਫ਼ੈਲੀ	22
▁ਖਾਂ	22
▁ਪਰਸ਼ੂਰਾਮ	22
▁ਦੇਵਤ	22
ਸਮੇਂ	22
▁ਬਲੂ	22
▁ਆਂਤਰਿਕ	22
▁ਕਾਇਮ	22
▁ਸੰਗ੍ਰਹਿਆਲਯ	22
ਜਬਾਨ	22
▁ਥੋੜ੍ਹਾ	22
▁ਸਾਵਧਾਨ	22
▁ਕਰਾਈ	22
ਮੂਲੀ	22
ਦੂਜੇ	22
▁ਅਗਨੀ	22
ਐੱਚ	22
▁ਧੱਬੇ	22
▁ਹਿੰਮਤ	22
▁ਆਲਸ	22
▁ਪਵੇਗਾ	22
ਿਹਾਈ	22
▁ਕੰਨਿਆਕੁਮਾਰੀ	22
▁ਕੋਲਨ	22
▁ਸਕੋ	22
▁ਜੰਕ	22
▁ਦੂ	22
▁ਚਾ	22
▁ਐਚ	22
ਮਹਾਦੇਵ	22
ਲਕਰ	22
ਸਤੂਕਲਾ	22
ਭੂਤ	22
▁ਰੇਟ	22
ਤੰਤਰ	22
▁ਡਰਾਈਵ	22
▁ਕੋਣਾਰਕ	22
ਊਟੀ	22
▁ਖਾਧਾ	22
▁੧੦੦੦	22
▁ਕੌਸਾਨੀ	22
ਐਂਟੀਆਕਸੀਡੈਂਟਸ	22
ਪੁਰਮ	22
▁ਪਹਿਨੋ	22
▁ਬਹ	22
▁ਸ਼ੁ	22
▁ਸਵਾਈਨ	22
ਜਿਹੀ	22
▁ਕੇਦਾਰ	22
▁ਨਰਾਇਣ	22
▁ਪੱਕੇ	22
▁ਕਾੱਪਰ	22
▁ਫੋਨ	22
ੇਡ	22
▁ਮੌਜ	22
▁ਪਰਿਵਹਨ	22
▁ਗੁਰਦਾ	22
ਬੱਧ	22
▁ਰੁਕਣ	22
▁ਸਾਊਥ	22
ਨਾਗਪੁਰ	22
▁ਅਧਿਕਾਰ	22
▁ਲਗਣਾ	22
▁ਇਕੱਲੇ	22
▁ਵਿਸ਼ਾਣੂ	22
ੇਸ	22
▁ਗਿੱਲੀ	22
ਸਵਾਮੀ	22
▁ਝੂਲ	22
▁ਅਫ਼ਰੀਕਾ	22
▁ਕਰਾਉ	22
▁ਟਰੈਕ	22
ਡੇਰਾ	22
▁ਕੁਰਕੂਸ਼ੇਤਰ	22
▁ਅਖਰੋਟ	22
▁ਖਾਉ	22
▁ਤੋਮ	22
▁ਭਰਤਪੁਰ	22
▁ਕੋਚਿ	22
▁ਬਨਾਵਟ	22
▁ਪਲਾਨ	22
▁ਹੱਲ	22
▁ਜੁ	22
▁ਹੈਪੇਟਾਈਟਸ	22
▁ਖੇਡਣ	22
▁ਵਸਤਰ	22
▁ਤੁਰ	22
▁ਹਰੜ	22
▁ਵਸ	22
▁ਗੋਮੁਖ	22
▁ਅੰਦਰਲ	22
ੱਜ	22
▁ਅਗਰ	22
▁ਫ਼ੇਫ਼ੜਿਆਂ	22
▁ਕੋਸ	22
▁ਸਰੋਤ	22
▁ਛੁੱਟੀ	22
▁ਸਿਫ	22
ਮਸਕਾਰ	22
▁ਵਜੋਂ	22
ਬਾਈ	22
▁ਵਧੀ	22
▁ਵਜ	22
▁ਧੂੰਏ	22
▁ਅੰਡਾ	22
▁ਐਕਸਰੇ	22
▁ਪੁ	22
ੀਖਣ	22
▁ਫੋੜੇ	22
▁ਚਾਹੋਂ	22
▁ਧੁਨੀ	22
▁ਇਧਰ	22
▁ਮਾਈਗ੍ਰੇਨ	22
▁ਟੇਢੇ	22
ਖਿਸਕਣ	22
▁ਵਿਲ	22
▁ਗਲਾ	22
▁ਪੋਲ	22
▁ਰਿਜਰਵ	22
▁ਹਿਪ	22
▁ਬੰ	21
▁ਭੂਚਾਲ	21
▁ਦਰਸ਼ਕ	21
▁ਚਿ	21
▁ਆੱ	21
ਪਾਣੀ	21
▁ਮਾਰਨ	21
ਚੇ	21
ਹਿਸਟ੍ਰੋਸਕੋਪੀ	21
ਪੈਰਾਂ	21
▁ਕਰਾਉਂਦ	21
▁ਸਤੀ	21
▁ਪਿੰ	21
ਕਿੱਨ	21
▁ਇਲ	21
▁ਗਿੱਲਾ	21
▁ਬਾਹਾਂ	21
▁ਰਸਤ	21
▁ਨਲ	21
ਪੀਸ	21
ਸਾਗਰ	21
▁ਸੰਪਦਾ	21
▁ਚਿਕਨ	21
▁ਨਰ	21
▁ਕਾਲੀਨ	21
ਰਿਕਸ਼ਾ	21
▁ਦਰਗਾਹ	21
▁ਛੂੰਹਦ	21
▁ਐਨਜ	21
▁ਸੰਜ	21
▁ਪ੍ਰਿਥਵੀ	21
▁ਮਸਾਲੇ	21
▁ਅੰਗਰੇਜ਼ਾ	21
▁ਤੇਜ਼ਪੱਤ	21
ਾਈਡ	21
▁ਟਾਂਕ	21
▁ਦਰਜ਼	21
▁ਚਾਲੀ	21
▁ਅੱਸ	21
ਜ਼ੁਕਾਮ	21
▁ਬੋਨ	21
▁ਸਰਲਤਾ	21
▁ਕਾਰਖਾਨ	21
▁ਟ੍ਰ	21
ੱਕ	21
▁ਜੂੰ	21
▁ਲੱਦ	21
▁ਵਿਅਸਤ	21
▁ਗੋਲਫ	21
▁ਧਾਰ	21
▁ਵਾਈ	21
▁ਡਿਮ	21
▁ਚੌੜੇ	21
▁ਭਸਮ	21
▁ਮਿਯੂ	21
▁ਹਿਰਣ	21
▁ਦਿਮਾਗੀ	21
▁ਦੱਸੀ	21
▁ਮੋ	21
▁ਪੇਸਟ	21
▁ਸਮਰੱਥ	21
▁ਚੋਣ	21
▁ਪੜ੍ਹ	21
▁ਗਲੀ	21
▁ਸੁੱਕਣ	21
▁ਪਸ	21
▁ਟਿੰ	21
▁ਵੇਚ	21
▁ਠ	21
▁ਚੱਲਦੀ	21
▁ਹਜਾਰੀ	21
▁ਮੰਡਪ	21
▁ਸੋਚਣ	21
▁ਸ਼ੋਧ	21
▁ਖਾਸੀਅਤ	21
ਮੂਨ	21
▁ਛਿੱਕ	21
ਡਾ	21
▁ਵਿਕਰ	21
ਮਤੀ	21
▁ਸਮਾ	21
ਕਾਂ	21
▁ਗਲਿਸਰੀਨ	21
▁ਗ੍ਰੰਥ	21
▁ਦਿਵਸ	21
▁ਦੁਖੀ	21
▁ਕੋਰ	21
▁ਟਿਊਬ	21
ਈਡ	21
▁ਮੂ	21
▁ਸੁਦਾ	21
ੱਡ	21
▁ਸੱਜਾ	21
▁ਜੜ	21
ਲਾਂਗ	21
▁ਪੁੰਗਰ	21
▁ਪੈਪ	21
▁ਤੀਬਰਤਾ	21
▁ਮੌਰੀਆ	21
▁ਖੁੱਲੀ	21
▁ਮਿਰਗ	21
▁ਟ੍ਰੈਕ	21
▁ਪ੍ਰ੍ਕ੍ਰਿਆ	21
▁ਸੰਚਾਲਨ	21
▁ਹੁੰਦੀਆ	21
▁ਜਲੂਸ	21
▁ਕਾਮ	21
▁ਚਹਿਲ	21
▁ਆਗਮ	21
▁ਦਾਰਜ	21
▁ਮਲੋ	21
▁ਟੀਮ	21
▁ਜੀਵੰਤ	21
▁ਟ੍ਰੇਨਿੰਗ	21
ੈਲੋਫ	21
▁ਹੋਮੀਓਪੈਥ	21
▁ਛੂਹਣ	21
▁ਥੋੜ੍ਹੀ	21
▁ਯੁਗ	21
▁ਪ੍ਰਚਾਰ	21
▁ਸੰਘ	21
▁ਕਰਾਓ	21
▁ਸਾਰਸ	21
▁ਪ੍ਰੰਪਰਿਕ	21
▁ਨਕਸ	21
▁ਜੁੱਬਲ	21
▁ਹਿੰਗ	21
▁ਦੱਬ	21
▁੩੧	21
▁ਘਟਨਾ	21
▁ਨਮਕੀਨ	21
ਝ	21
ੋਫ੍ਰ	21
੭੫	21
▁ਭਰਮ	21
▁ਸਿਤਾਰ	21
▁ਭੈਣ	21
ਖੋਲੀਆ	21
▁ਪ੍ਰਪਾਤ	21
▁ਕੁਮਾਰ	21
▁ਪ੍ਰਤੀਸਤ	21
ਤਕ	21
▁ਅਰਜੁਨ	21
ੋਲਿਕ	20
ੀਅਤ	20
ਸਿਧ	20
▁ਮਹਿੰਗਾ	20
▁ਫਸ	20
▁ਸ਼ਿਰਾਵਾਂ	20
▁ਲਾੱਜ	20
▁ਪਰੇਡ	20
▁ਪਿਲਾਉ	20
ਾਸ਼ਯ	20
▁ਬਨਾਰਸ	20
▁ਸਮਾਪ	20
▁ਸੀਜਨ	20
▁ਰੇਲਗੱਡੀ	20
▁ਲਾਇਬ੍ਰੇਰੀ	20
ਚੇਰੀ	20
ਊ	20
▁ਰੂ	20
▁ਹਿੱਲ	20
▁ਹੈਕਟੇ	20
ਚਾਰੂ	20
▁ਕਹ	20
▁ਪ੍ਰ੍ਤੀਦਿਨ	20
▁ਪੇਸ਼ਾ	20
▁ਚਿੰਨ	20
ਲੋ	20
▁ਉਸਾਰੀ	20
▁ਡਾਈਬਿਟੀਜ਼	20
▁ਨੱਕਾਸ਼ੀ	20
▁ਕਲਰ	20
▁ਦਰਸਾਉਂਦ	20
ਵੇਸ਼	20
▁ਗਯਾ	20
ਲਸ	20
ਪੰਜ	20
▁ਮਸਲ	20
ਭਾਵ	20
▁ਸਤ	20
▁ਮਣੀ	20
▁ਨਮੂਨੀ	20
▁ਮੱਖਣ	20
▁ਸਿਰਦਰਦ	20
▁ਸ਼ਹਿਰੀ	20
▁ਹਿੰਦੀ	20
▁ਓਵਰ	20
▁ਐੱਨ	20
▁ਅਲ	20
ੜ੍ਹੀ	20
▁ਰੇਖਾ	20
▁ਗਰੁੱਪ	20
▁ਸੂਤ	20
▁ਉਬਾਲੋ	20
੧੮	20
▁ਗਲ	20
▁ਟਾੱਨਿਕ	20
▁ਰੇਸ	20
▁ਗੋਰ	20
▁ਪਾਉਂਦੀ	20
▁ਕਰਵਾਉਂਦ	20
▁ਚੜ੍ਹ੍ਨ	20
▁ਪੁੱਜ	20
▁ਲਕਵਾ	20
ਬਰ	20
▁ਵਿਸ਼ਵਨਾਥ	20
੧੬	20
▁ਸੇਨਕਚੁਏਰੀ	20
▁ਰੇ	20
▁ਅਮਰੀਕੀ	20
▁ਬੋਤਲਾਂ	20
▁ਦਿਸਣ	20
ਭਾ	20
▁ਚਮੇਲੀ	20
ਹਾਲ	20
ਵਾਲੀ	20
੬੦	20
▁ਯਾਦਾਂ	20
ਾਨੀ	20
▁ਚਾਲ	20
ਵਾਈ	20
▁ਮੁੜਨ	20
▁ਭਰਨ	20
▁ਰਤਨ	20
▁ਗੋਪੇਸ਼ਵਰ	20
▁ਪਲੇਨ	20
▁ਡਾਰ	20
▁ਜੇਬ	20
▁ਡੇਂਗ	20
▁ਵਸੀ	20
▁ਗੇਮ	20
▁ਕੱਚੀ	20
▁ਬਸੰਤ	20
▁ਰੋਪਵੇ	20
▁ਟੁਕੜ	20
▁ਦ੍ਰਿਸ਼ਾਂ	20
▁ਪੁਕਾਰ	20
▁ਸ਼ੌਕ	20
▁ਪ੍ਰਸੰਨ	20
▁ਖਰੀਦਣ	20
▁ਅਜਾਇਬ	20
▁ਸ਼੍ਰੀਨਗਰ	20
▁ਤੰਤੂ	20
▁ਇਲਾ	20
▁ਹਸਤਿਨ	20
ਾਪੁਰ	20
ਾਹਟ	20
▁ਭਾਵਨਾਤਮਕ	20
▁ਭੇਜ	20
▁ਨੀਤੀ	20
▁ਅਜੇ	20
▁ਜਾਲੀ	20
▁ਪਿਘਲ	20
▁ਚੌਥ	20
▁ਅਨੁਭਵੀ	20
▁ਕਲਾਈਮਿੰਗ	20
▁ਡਿਲੀ	20
▁ਮਨੋਹਰ	20
▁ਕਾਰਜਕ੍ਰ੍ਮ	20
▁ਸ਼ੋਭਾ	20
▁ਦਿਸ	20
ੋਪੈਥ	20
▁ਆਈਜਾੱਲ	20
ਵੱਡੀਆਂ	20
▁ਸੋਲੰ	20
▁ਹਾਈਪਰ	20
ੇਬ	20
▁ਵੇ	20
ਸਮ	20
▁ਬੋਧ	20
▁ਜਾਮਨਗਰ	20
▁ਖੁ	20
▁ਵਡ	20
ੋਦਰਾ	20
▁ਮੌਸਮੀ	20
▁ਲੱਗੀਆਂ	20
▁ਅਸੀਮ	20
▁ਸਕੂਟਰ	20
▁ਸੋਹਣ	20
▁ਭਵਨਾਂ	20
▁ਆਸਟਰੇਲੀਆ	20
ਜਦ	20
▁ਬੀਕਾਨੇਰ	20
▁ਅਸਤ	20
▁ਵਿਸ	20
▁ਆਕਾਸ਼	20
▁ਯੋਗਾ	20
▁ਇੰਟਰਨ	20
੍ਯੁਕਤ	20
▁ਮਕਬਰ	20
▁ਨਾਗਾ	20
ਸੰਭਵ	20
▁ਬੁੰਦੇਲ	20
▁ਚੁਟਕੀ	20
▁ਸਿਕਜ	20
▁ਉਹੀਂ	20
ਸ਼ਿਕ	20
▁ਕਾਠਗੋਦਾਮ	20
▁ਲੰਮੀ	20
▁ਕਿੰਗ	20
▁ਲਾਈਫ਼	20
▁ਉਨ	20
▁ਆਦਿਨਾਥ	20
▁ਹਟਾ	20
▁ਅਫਰੀਕ	20
▁੧੯੬	20
▁ਵੇਟ	20
▁ਕਲਿੰਗ	20
▁ਖਵਾਉਣ	19
▁ਡਚ	19
▁ਸ਼੍ਰਕ	19
▁ਲਿਖਿਆ	19
▁ਬੀਨਸ	19
▁ਹੀਮੋਗਲੋਬਿ	19
▁ਪੁਰਸ਼ਾ	19
▁ਵਾਈਲਡ	19
ਕੜੀ	19
ੂੰ	19
ਸ਼ਿਤ	19
▁ਪੂਰਵਕ	19
▁ਰਾਏਪੁਰ	19
▁ਪੁੱਛ	19
ਾਲੀ	19
▁ਥੇਰੇ	19
▁ਮਾਵਾਂ	19
▁ਸਪਸ਼	19
▁ਕਮਲ	19
▁ਗੁਵਾਹ	19
▁ਪਪੀਤਾ	19
ਾਵ	19
▁ਖੁਰ	19
▁ਮੇਵੇ	19
▁ਔਂ	19
▁ਵਟੀ	19
▁ਮਹ	19
▁ਜੋਤੀ	19
▁ਵਾਈਰਸ	19
▁ਕ੍ਰਿ	19
▁ਡ੍ਰਾਈਵ	19
ਲੀਨ	19
▁ਚੈਕ	19
ਗੀਆਂ	19
▁ਮੋਬਾਇ	19
▁ਵਿਆਮ	19
▁ਮਿਲਣਗੇ	19
▁ਵਾ	19
▁੬੪	19
▁ਚਾਹੁੰਦੀ	19
▁ਪੁਸ਼ਟ	19
▁ਜਾਗਰੂਕ	19
▁ਗੀਤ	19
▁ਬਿੰ	19
▁ਤਪੱਸਿਆ	19
▁ਦਿਵਾਲੀ	19
▁ਮਹਿੰਗ	19
▁ਮਜ਼ਬੂਰ	19
▁ਜੁਰਾਬ	19
▁ਨਹਿਰ	19
▁ਹੈਰੀਟੇਜ	19
▁ਵੂਲ	19
▁ਬੈਂਕਾਕ	19
▁ਮੂਲੀ	19
▁ਲੱਭ	19
ਿਡ	19
ਖਾਸ	19
▁ਰਿਸ	19
▁ਲੇਖ	19
▁ਮੁਮ	19
ਦੱਦ	19
ਾਧਾਰ	19
▁ਰਿਸੋਰਟ	19
ਸਥ	19
▁ਜੋੜਨ	19
▁ਭੋਗ	19
▁ਚਾਰੋ	19
▁ਟਿਕਾ	19
▁ਨਿਮੋਨੀਆਂ	19
▁ਕੀੜ	19
▁ਪ੍ਰਦਾਹ	19
▁ਐਡਵੈਂਚਰ	19
੩੫	19
▁ਨਾਸਿਕ	19
▁ਸਟਰੀਟ	19
▁ਸੰਦਰਭ	19
▁ਵੈਸ਼	19
▁ਝਟਕ	19
▁ਅੰਕ	19
▁ਤਿ	19
▁ਵਹਿਣਾ	19
▁ਫਾਸਫੋਰਸ	19
▁ਫਿੱ	19
▁ਸਿਕ	19
ਭਧ	19
▁ਅਰ	19
ਪੂਰਬ	19
▁ਬਣਾਉ	19
ਮਾਤਰ	19
▁ਕਿਊ	19
ਸ਼ਾਨ	19
ਸਮਤਲ	19
▁ਧਾਰਣ	19
ਟ੍ਰੋਜਨ	19
ੱਰਾ	19
ਲਿਸ	19
▁ਕਪੂਰ	19
▁ਨਿਰੋਧ	19
ਂਦਾ	19
▁ਬਾਲੂ	19
▁ਮਿਜੋਰਮ	19
▁ਜ਼ਹਾਜ਼	19
ਸਥਾ	19
▁ਐਨ	19
▁ਲੜਾਈ	19
▁ਮਰਨ	19
▁ਬਲੈਡਰ	19
▁ਮੁਫ਼	19
▁ਉਠਾਓ	19
▁ਪਹਿਲ	19
▁ਛਟਾ	19
▁ਬੁਢਾਪ	19
▁ਵਿਸ਼ਾ	19
▁ਡੇਜ	19
▁ਮਧੁਰ	19
▁ਲੇਟ	19
▁ਕੱਢਣਾ	19
▁ਛਿਦਰ	19
▁ਹੱਸਣਾ	19
▁ਇੰਡ	19
ਬੂ	19
▁ਫ਼ਿਲਮ	19
▁ਪੜ੍ਹਾਈ	19
▁ਮਾਲਦੀਵ	19
ੋੜ੍ਹ	19
▁ਹਾਟ	19
▁ਮਨੋ	19
▁ਡਿਜ਼ਾਇਨ	19
ਤਦ	19
▁ਸੜ	19
▁ਲਗੇ	19
ਮੱਧਪ੍ਰਦੇਸ਼	19
▁ਮਲੂ	19
▁ਰੌਚਕ	19
ੀਪੁਰ	19
▁ਜਗਦਲ	19
▁ਡੂੰਘਾ	19
▁ਮਨੀਪੁਰ	19
▁ਈਸਟ	19
▁ਆਈਰਨ	19
▁ਗ੍ਰੀਵਾ	19
▁ਬਿਤਾ	19
▁ਕਦੋਂ	19
▁ਅਕਾਸ਼	19
▁ਤਿਆਰੀ	19
▁ਸਵਰਨ	19
▁ਨਵ	19
▁ਪਨਪਨ	19
ਸ਼ੀਲ	19
ਮੰਦਿਰ	19
▁ਯਾਕ	19
▁ਧੜਕਨ	19
ਫਰੈਂਚ	19
▁ਪੈਸੇ	19
ਪਾਨ	19
▁ਮੁਹੰਮਦ	19
▁ਪ੍ਰਦੂਸ਼ਣ	19
▁ਟ੍ਰੇਡ	19
▁ਸਜੇ	19
▁ਆਂਤੜੀਆਂ	19
ੰਕਰ	19
▁ਟੇਬਲ	19
▁ਨੰ	19
▁ਤੈਰਦ	19
▁ਟ੍ਰੀ	19
੍ਰਿਤ	19
▁ਸਾਈਕਲ	19
▁ਬਾਥ	19
ੱਥ	19
▁ਨਿਯੰਤ੍ਰ	19
▁ਖਜੂਰਾਹੋ	19
▁ਪਹੁੰਚਦੀ	19
▁ਵਰ	19
▁ਵਿਸ਼ਵਾਸ਼	19
▁ਚਰਚਾ	19
▁ਫ੍ਰੀ	19
▁ਧੜਕਣ	19
▁ਕੇਸ	19
▁ਰੈਸਟ	19
▁ਰੇਸ਼ੇ	19
▁ਫੌਰ	19
▁ਭਰੂਣ	19
ਯੋ	18
▁ਫ਼ੋਰਟ	18
ੀਅਨ	18
▁੧੯੦	18
ਥੋੜਾ	18
▁ਦੁਬ	18
▁ਰਾਇ	18
▁ਡੂੰਘੀ	18
▁ਬੇਕਾਰ	18
▁ਚੀਤਾ	18
▁ਲੁਭਾਵਣ	18
▁ਪੈਰਾ	18
▁ਬਗੈਰ	18
▁ਪ੍ਰਸ਼ਨ	18
▁ਇੰਜਣ	18
▁ਮਹਤਵ	18
▁ਚੰਬਾ	18
ਈਟਿਸ	18
▁ਗਰਭਨਿਰੋਧਕ	18
▁ਸ਼ਕਰਾਣੂ	18
▁ਦੇਣਗੇ	18
▁ਕੀਤੀਆ	18
▁ਕਿਹੜਾ	18
▁ਉਭਾਰ	18
▁ਸਵਾਲ	18
▁ਸਵਰ	18
▁ਤਖਤ	18
ਪੌਦੇ	18
▁ਮਹੱਤ	18
▁ਕੋਸ਼ਕਾ	18
ਇਚ	18
▁ਹੋਮੋਸਿਸਟੀਨ	18
▁ਮਾਪ	18
ਨਫੈਕਸ਼ਨ	18
▁ਪਕਾ	18
▁ਅਰੋਗ	18
▁ਹਦ	18
▁ਗੋਵਾ	18
ਬਾਦ	18
▁ਏਸ	18
ਹਟ	18
▁ਰਿਜਾਰਟ	18
▁ਮੈਗਨੀਸ਼ੀਅਮ	18
▁ਸੇਰੀਬ੍ਰ	18
S	18
▁ਕਵੀ	18
ਾਸ਼ਤ	18
▁ਠੋਸ	18
▁ਪ੍ਰਾਥਮਿਕ	18
ਰਮਦ	18
ਨੰਦਾਦੇਵੀ	18
▁ਪ੍ਰਾਂਗਣ	18
▁ਪਹਿਨਣ	18
▁ਰੋਗਾਣੂ	18
▁ਉੱਦਾਨ	18
▁ਟਿਕੇ	18
ਡਸ	18
▁ਪੜ੍ਹਨ	18
ਗ੍ਰਾ	18
▁ਦਰਾੜ	18
▁ਪੀਉ	18
▁ਸਟੀਮ	18
▁ਥੈਰੇਪੀ	18
▁ਸਾਧੂ	18
ੋਸਿਸ	18
▁ਸਥਲ	18
▁ਟੈਟ	18
ੋਰ	18
ਬਲੇਅਰ	18
▁ਸਜਾਇਆ	18
▁ਲੁਕ	18
▁ਦੁਖ	18
▁ਸਿੱਧੀਆਂ	18
▁ਮੀਟ	18
▁ਕੈਦ	18
▁ਮਿਨਰਲ	18
▁ਪ੍ਰਜਾਤੀ	18
▁ਤੀਜਾ	18
▁ਨਿਸ਼ਕਿਰਿਆ	18
▁ਤਟ	18
ੰਟ	18
▁ਕਾਰਬਨ	18
▁ਤੀਰਥਸਥਾਨ	18
▁ਪਿਆਉਣ	18
▁ਡੀਗ	18
▁ਰਿੰਗ	18
▁ਦ੍ਰ੍ਵ	18
▁ਬੀਅਰ	18
ਫੈਲਾਅ	18
▁ਥਾਇਰਾ	18
▁ਸਰਵੇਖ	18
▁ਫੇਸ	18
▁ਮਾਦਾ	18
▁ਘੁੱਟ	18
ਵੈਸ਼ਨਵ	18
▁ਜਾਵੋ	18
▁ਐਡਵੇਂਚਰ	18
▁ਟਾਈਪ	18
ਜ਼ਾ	18
▁ਪਲਾਜਮ	18
▁ਨੰਦੀ	18
▁ਰਾਜਪੂਤ	18
▁ਝੋ	18
▁ਟੂਰਿਜਮ	18
▁ਬਿਰਧ	18
▁ਗਾੱ	18
▁ਨੰਗ	18
ਇਨਸੁਲਿਨ	18
ਰੇਖ	18
▁ਬ੍ਰੇਨ	18
੭੦੦	18
▁ਵਰਦਾਨ	18
ਮਾਇਆ	18
▁ਪਾਂਡੂ	18
▁ਬਾਹੂ	18
ਾੱਲ	18
▁ਅਮੇਰਿਕ	18
▁ਉਮ	18
▁ਰਾ	18
▁ਸ਼ਾਲ	18
▁ਖਸਰ	18
▁ਦੁਹਰਾਓ	18
ਵੱਖ	18
▁ਕੁਸ਼ਟ	18
▁ਐਕਿਜਮਾ	18
▁ਅੰਡ	18
ਜੋਧਪੁਰ	18
▁ਵਾਸ਼ਪ	18
▁ਦੁੱਖ	18
▁ਗਲਾਸ	18
ਜ਼ਿਲਾ	18
੨੪	18
ਅਧੂਰੀ	18
▁ਨੀ	18
▁ਅੰ	18
▁ਔਰੰਗਜ	18
▁ਨਦੀਆ	18
▁ਥਿਮਫੂ	18
▁ਪਪੀਤ	18
▁ਬਿਰਾਜ	18
▁ਪ੍ਰਤੀਰੋਧ	18
▁ਰਾਸ	18
ਲੋਕ	18
ਦੇਵਤ	18
▁ਸਿੰਧੂ	18
ਸ਼ੰਕਰ	18
ਪੁਰਸ਼	18
▁ਮੈਡੀਸਨ	18
▁ਯੂਰਿਨ	18
▁ਛਤਰ	18
ਾਵੀ	18
▁ਕਤਾਰ	18
▁ਨਸ਼ੀਲ	18
▁ਖਜ਼ਾਨ	18
▁ਚੜ	18
▁ਲਵੇ	18
ੈਂਸ	18
▁ਪਿਲਾ	18
ਰਤ	18
▁ਜਾਲ	18
▁ਸੁੱਕਾ	18
▁ਸਕੀ	18
▁ਆਤਮਾ	18
▁ਅਸੁਰੱਖਿ	18
▁ਨਾਭ	18
ੂਮੀਨ	18
▁ਪਹੁੰਚੀਏ	18
ਹਨ	18
ਥਕ	18
▁ਲਿਆਓ	18
▁ਕੁਮਾਊਂ	18
▁ਪਰਵ	18
▁ਸੰਭਾਲ	18
▁ਟ੍ਰੇਲ	18
▁ਸਕਰੀਨ	18
▁ਟੋਪੀ	18
▁ਚਲਣਾ	18
▁ਅਮੀਰ	18
▁ਉਤਸਾਹ	18
ਲਾਈ	18
▁ਰੀ	18
▁ਸ਼ਯ	18
▁ਪੈਰਿਸ	18
▁ਪੁਲਿਸ	18
▁ਵਿਵੇਕ	18
ਿਵ	17
ਪ੍ਰ	17
▁ਦੱਸੇ	17
▁ਫੁਲ	17
ਁ	17
▁ਗੰਧਕ	17
▁੩੮	17
▁ਬਲੀ	17
▁ਥੁੱਕ	17
▁ਸਰਕਿਟ	17
▁ਰਹਿਣਗੇ	17
▁ਸਿਮਲੀ	17
▁ਉਠਦਾ	17
▁ਪਾਰਟੀ	17
ਮਸਤਿਕ	17
▁ਪਿੰਜ	17
▁ਸਟੋਰ	17
▁ਅਨਜਾਣ	17
▁ਜੀਨ	17
▁ਪ੍ਰੇਰਣਾ	17
ਹਾਰ	17
▁ਟੋ	17
▁ਯੱਗ	17
▁ਵਧਾਉਂਦੀ	17
▁ਕਾਨੂੰਨ	17
▁ਇੰਮਫਾਲ	17
▁ਅਧਿਆਤਮਿਕ	17
▁ਰਾਇਲ	17
▁ਸੁਕਾ	17
▁ਮਹਿਰਾਬ	17
▁ਗੋਭੀ	17
▁ਪੰਪ	17
▁ਬੇਲਗਾਮ	17
ਬਹਾਰ	17
ਾਰਿਸ਼	17
▁ਚੱਲਦਾ	17
▁ਸ਼ਿਵਜੀ	17
ਸਿਸਲੀ	17
▁ਟੁੱਟੇ	17
▁ਵਿਖਿਆ	17
ਾਊਟ	17
ੋਗੇ	17
▁ਚੰਡੀਗੜ	17
▁ਸ਼ਹੀ	17
ਗੂ	17
ਰੋਧਕ	17
▁ਪਾਰਦਰਸ਼ੀ	17
▁ਖੰਘਣ	17
▁ਸਕ	17
ਪੂਰਣ	17
▁੧੯੯	17
▁ਬੁਰਜ਼	17
▁ਛੋਰ	17
▁ਨੈਰੋਬੀ	17
▁ਉਦ੍ਯੋਗ	17
▁ਨੈ	17
▁ਸਵਾਈ	17
▁ਅਪਚ	17
▁ਪੋਟਾਸ਼ੀਅਮ	17
▁ਕੇਲੇ	17
ਗਠਨ	17
▁ਸੰਧੀ	17
▁ਖਾਸੀ	17
▁ਮੰਗਲ	17
▁ਸੰਕਰਮ	17
▁ਸੰਗ੍ਰਿਹ	17
▁ਸਪਾ	17
▁ਸੈਂਟ	17
▁ਪਹੀਆ	17
▁ਪਾਨ	17
ਮੁਕਤ	17
▁ਊਸ਼ਣ	17
▁ਗਾ	17
ੋਜ਼	17
▁ਕਹਿੰਦੀ	17
▁ਆਰਕਿਡ	17
▁ਰਾਣੀਖੇਤ	17
▁ਸੰਦੇਸ਼	17
▁ਵਹਾ	17
▁ਮੰਦੀ	17
▁ਜੋੜੇ	17
▁ਐਕ	17
▁ਆਲੀ	17
▁ਮੁਲ	17
▁ਕਿਸ਼ਤੀਆਂ	17
▁ਰੁਕਣਾ	17
▁ਚੇਹਰ	17
▁ਗਲੀਆਂ	17
ਪੀਅਨ	17
▁ਮਨੋਹਾਰ	17
▁ਅਮਾਨਤ	17
▁ਕੰਪਲੈਕਸ	17
▁ਡਾਕ	17
▁ਮਸਲਨ	17
▁ਸੁਖਦ	17
▁ਅਲਰਜ਼ੀ	17
ਵਾਉਣ	17
▁ਪੰਚਮ	17
▁ਮੋਤੀ	17
▁ਕਾਰਨੀਆ	17
▁ਰਗੜ	17
▁ਕੋਣ	17
▁ਮੁਕਾਬਲ	17
▁ਪਿਨ	17
ਗਰਮ	17
▁ਸ਼ਰਮ	17
▁ਬੀਤ	17
▁ਗੜ	17
▁ਫੜ੍ਹ	17
▁ਚੇਤਨਾ	17
▁ਸਵ	17
▁ਅਵਧੀ	17
▁ਭੇਦ	17
▁ਜਾਗਰੂਕਤਾ	17
▁ਰੱ	17
▁ਬਿਲਾਸ	17
ਮੁਰੰਮਤ	17
▁ਪਾਨੀ	17
ਦੋਸ਼	17
▁ਸ਼ੀਸ਼ੀ	17
▁ਪਾਟ	17
▁ਪਿਪਰਮੇਂਟ	17
ਕਟਰਾ	17
ਿਲਿੰਗ	17
ਸੰਗੀਤ	17
▁ਬੁੱਢੇ	17
▁ਪਦਮ	17
▁ਬਿਨਾ	17
▁ਅਕੜਾ	17
▁ਅੰਦਰਲੀ	17
▁ਫੋੜਾ	17
▁ਭਾਂਡੇ	17
▁ਮਜ਼ਦੂਰ	17
▁ਲਟਕ	17
ਾਹਿਰ	17
▁ਜਕੜਨ	17
▁ਸਰਜਨ	17
ਲਹੂ	17
▁ਸੁਚੇਤ	17
ਿਯਲ	17
▁ਇਫੈਕਟ	17
ਯਾਤ	17
▁ਪਾਸ਼ਰਵ	17
▁ਪਾਰਸ	17
▁ਤਲਾਅ	17
▁ਦੂਜ	17
▁ਸਟਾਈਲ	17
▁ਬਸੇ	17
ਡੀਹ	17
▁ਗਿਰਜ਼ਾਘਰ	17
ਆਸਨ	17
▁ਇੰਨਫ਼ੈਕਸ਼ਨ	17
ਰੇਡ	17
ਰੰਗ	17
ਚੱਟੀ	17
▁ਮਰਕ	17
▁ਪਾਂਡੇਚ	17
▁ਲੰਘਦ	17
▁ਪਿੱਛ	17
▁੭੨	17
▁ਰਿਵਰ	17
▁ਮਾਈ	17
▁ਹਾਨੀਗ੍ਰ	17
▁ਜਵਾਹਰ	17
▁ਗਣਪਤੀ	17
▁ਮੱਛਰਾਂ	17
▁ਪਿ	17
੬੦੦	17
ਬਾੜੀ	17
▁ਪਾਚਕ	17
▁ਭੂਤ	17
▁ਰਥ	17
▁ਭਰਤ	17
ਉਂਦੇ	17
▁ਬਾਰੀਕ	17
▁ਖਾਂਦਾ	17
▁ਬੈ	17
▁ਵੇਲ	17
▁ਤਲਾਸ਼	17
▁ਸਰਾ	17
▁ਕ੍ਰਿਸ਼ਣ	17
▁ਚਬਾਉਣ	17
ਾਬਾਦ	17
RD	17
ੁਡੁ	17
▁ਪੇਚਿਸ਼	17
ਕੋਟਾ	17
▁ਖੜ੍ਹੀ	17
▁ਬਸਤੀਆਂ	17
▁ਆਭਾ	17
▁ਸ਼ਿਲਪਕ	17
▁ਪੇਸ਼ੀ	16
ਜ਼ਰ	16
▁ਮਥੁਰਾ	16
੫੭	16
▁ਗੁਰ	16
▁ਤੰਮਾਕੂ	16
▁ਖਵਾ	16
ਨਰਲ	16
▁ਛਿਪ	16
ਮੇਲ	16
▁ਅਲਰਜੀ	16
▁ਪਦਮਾਸਨ	16
▁ਇੱਧਰ	16
▁ਲੇ	16
ਪਸੰਦ	16
▁ਪਚਾਉਣ	16
▁ਹਾਸੇ	16
▁ਛਾ	16
▁ਟਾਟਾ	16
▁ਮਹਿਕ	16
▁ਫ਼ੂਡ	16
▁ਆਵੇਗੀ	16
▁ਆਈਸਕ੍ਰੀਮ	16
▁ਬ੍ਰਾ	16
▁ਬਾਰ੍ਹਾ	16
▁ਲਤ	16
▁ਪੁੰਨ	16
▁ਰਿਕਾਰਡ	16
▁ਅੰਮ੍ਰਿਤ	16
▁ਟਿੱਲੇ	16
▁ਦਰਸ	16
▁ਚੜ੍ਹਦੇ	16
▁ਕਸਬਾ	16
▁ਗਾਲ	16
▁ਮਾਰਕੀਟ	16
▁ਜੜੀ	16
▁ਹਲਚਲ	16
▁ਹੈਦਰਾਬਾਦ	16
▁ਕਰੀਮ	16
▁ਤੀਵਰ	16
▁ਵਾਰਾਨਸੀ	16
▁ਮਤ	16
▁ਸੈੱਲ	16
ਮੰਤਰੀ	16
▁੨੦੧੦	16
▁ਵਰਨਾ	16
▁ਖੱਬ	16
▁ਭਰਤੀ	16
ਪ੍ਰ੍ਦੇਸ਼	16
ਪ੍ਰਯਾਗ	16
ੀਂ	16
ਨਾਡ	16
ਾੱਨ	16
▁ਸਪੇਨ	16
ਾਈਨ	16
▁ਅਸ਼ਟ	16
▁ਨਿਊਰੋ	16
▁ਦੇਵਘਰ	16
ਰਮਲ	16
▁ਕਵਚ	16
▁ਰੀੜ	16
ਡਰ	16
ਕੁੱਦ	16
ੜੀਆਂ	16
▁ਕੰਮਕਾਜ	16
▁ਮਾਊਂਟ	16
▁ਇਁ	16
▁ਵਿਕ	16
▁ਜਯਾਬੀਤੁਸ	16
ਗੇਸ਼ਵਰ	16
▁ਉਬਲ	16
▁ਤੁਗਲਕ	16
ੇਂਦਰ	16
ਮੋਹਨ	16
▁ਮੱਸ	16
▁ਉਦੈ	16
▁ਭੇਜਿਆ	16
▁ਗੋਡਿਆ	16
▁ਪ੍ਰਸਤਾਵ	16
▁ਮਸਤ	16
ਬੁੱਧੀ	16
▁ਵਜਾਏ	16
▁ਪਾਰਕਾਂ	16
▁ਓਰ	16
▁ਗੱਠ	16
▁ਵਰਨਣ	16
▁ਨਿਵਾਰਕ	16
▁ਇੰਸਟੀ	16
ਜ਼ਰੀ	16
▁ਅਸਲੀ	16
▁ਦੀਰਘ	16
ਚਾਪ	16
▁ਅਰਾਧਨਾ	16
੧੭	16
▁ਉਮੀਦ	16
▁ਸਰਸਵਤੀ	16
ਨਾਸੂਰ	16
▁ਮਾਰਕਿਟ	16
▁ਗਿਲਸ	16
▁ਸਾਈਟ	16
▁ਆਊਟ	16
▁ਟਾਈਮ	16
▁ਸੈਲਸੀਅਸ	16
▁ਕਰਵਾਉਂਦਾ	16
▁ਪ੍ਰਸਾਦ	16
▁ਬਾੜ	16
▁ਗਜ	16
ਇਟ	16
ਸਕ	16
▁ਸੌਂਪ	16
▁ਕੁੱ	16
▁ਇੰਸੀ	16
▁ਪਾਈਆ	16
▁ਪਹੁੰਚੀ	16
▁ਮਲਟੀ	16
▁ਗੋਹ	16
▁ਕਾਰਟੀਲੇਜ	16
▁ਦਰਿਆ	16
ੰਡ	16
ਖਿਆ	16
ਪਿੱਤ	16
▁ਕੁਤੁਬ	16
ਨਮੋਲ	16
▁ਰੁਕੇ	16
▁ਆਕ	16
ਪਹਿਲ	16
▁ਬਦਲਣਾ	16
ਪ੍ਰਤੀਕੂਲ	16
▁ਐਤਵਾਰ	16
▁ਕਰਵਾਉਂਦੀ	16
▁ਪੈਂਡੂ	16
▁ਕਿਰਿਆਸ਼ੀਲ	16
▁ਨਿਰਣਾ	16
▁ਖਿੜਕੀ	16
▁ਪੁਸ਼ਕਰ	16
▁ਸੇਂਧ	16
ਿਵੇਸ਼	16
▁ਵਾਰਮ	16
ਸ਼ਕਲ	16
▁ਜਕੜ	16
ਗਾਉਣ	16
),	16
▁ਉਤਸੁਕ	16
੧੧	16
▁ਬੰਗਲ	16
▁ਲਾਉਣ	16
ਰਾਨੀ	16
ਕਿੰਡ	16
ਅਮ	16
▁ਚੌਥੀ	16
ਕਾਸ਼ੀ	16
ਦਰਦ	16
▁ਵਿਆਸ	16
▁ਖਾਦ	16
▁ਜ਼ਿਲ੍ਹਾ	16
▁ਰਿਜ	16
ਭਿਅ	16
▁ਲਾਜ	16
▁ਭੱਠੀ	16
▁ਸਤਲੁਜ	16
ੀਅਲ	16
▁ਮਦਰ	16
ਵਨੀ	16
▁ਸੰਗ੍ਰਹਿਲਿਆ	16
▁ਉਲਟਾ	16
▁ਰੁਦਰ	16
▁ਕੈਲਾਸ਼	16
▁ਵੱਜ	16
▁ਕੂ	16
▁ਫੈਸ਼ਨ	16
▁ਛੱਡੋ	16
▁ਬਾਜ	16
▁ਫ਼ੋਨ	16
▁ਸੇਜ	16
▁ਜ਼ਰਾ	16
▁ਤਲਹ	16
▁ਐਮ	16
▁ਕਬਰ	16
▁ਨਾਟਕ	16
▁ਲੌਹ	16
ਹਾ	16
▁ਭੂਰ	16
ਕੁਫ਼ਰੀ	16
ਕਾਨ	16
▁ਪੇਸ਼ਵਾ	16
▁ਅਫ਼ਰੀਕੀ	16
▁ਸੰਸ	16
▁ਮਾਨਸੂਨ	16
▁ਕਹੀ	16
▁ਜਾਈਏ	16
ਕਿਓਂ	16
ਉਧਰ	16
ਗੜ	16
▁ਫਰੂਟ	16
ਜੀਵਨ	16
▁ਮੱਸਿਆ	16
▁ਮੀਡੀਆ	16
▁ਜਿਉਂ	16
▁ਬੱਕਰੀ	16
▁ਬੇਚੈਨ	16
▁ਪ੍ਰਤੀਕਿਰਿਆ	16
▁ਆਸ਼ੀਰ	16
ਗਾਂਵ	16
ਸ਼ਾ	15
ਿਮਾ	15
▁ਸ਼ਾਸ਼ਤਰੀ	15
▁ਪੌਦਾ	15
ਪਿੰਗ	15
▁ਜੀਰਣ	15
▁ਖੋਹ	15
▁ਮੁਜ਼ੱਫ਼ਰਪੁਰ	15
ਆਰਡਰ	15
ਧੇੜ	15
ੇਕਟ	15
▁ਬ੍ਰੈਸਟ	15
▁ਆਕ੍ਰਸ਼	15
▁ਕੱਢੋ	15
▁ਤਿਆਗਣ	15
▁ਸ਼ੋਥ	15
▁ਚਮਕਦ	15
▁ਸਿੱਖਿਅ	15
▁ਰਿਵਾਲਸਰ	15
▁ਵਿਸ਼ਾਖਾਪ	15
▁ਸ਼੍ਰੀਲੰਕਾ	15
▁ਨਿਕੋਬਾਰ	15
▁ਬੰਗਲਾ	15
▁ਢਿੱ	15
ਯੰਤਰ	15
▁ਕੜਾ	15
▁ਆਸਮਾਨ	15
▁ਪਤ	15
▁ਵਿਆਕਤੀ	15
ੇਜ	15
▁ਨਾਹਨ	15
▁ਜਨਨ	15
▁ਅਸ਼ੁੱਧ	15
▁ਚਮਕੀਲ	15
▁ਸੁਪਰ	15
ਾਈਟ	15
▁ਆਰਤੀ	15
▁ਰੇਡ	15
▁ਖੱਟਾ	15
▁੨੪੦	15
▁ਰੋਮਨ	15
▁ਚਿਕਨਾਈ	15
ਜਰੀ	15
▁ਤਾਜ਼ੀ	15
▁ਰੁਕਿਆ	15
੩੭	15
▁ਚੀਤੇ	15
▁ਚਾਂਸ	15
▁ਜ਼ੀਰੋ	15
▁ਵਿਰੁੱ	15
▁ਫ਼ਰਵਰੀ	15
▁ਪਲਸ	15
▁ਰੁੱਖੇ	15
▁ਫ਼ਾਇਦੇ	15
▁ਅੰਨ	15
▁ਬਗੀਚ	15
▁ਜ਼ਬਰਦਸਤ	15
▁ਥਾਰ	15
▁ਰਾਤਾਂ	15
▁ਬੁਲ	15
▁ਪ੍ਰਸ਼ਾਸਨ	15
▁ਨਿਚੋੜ	15
▁ਸਾਰੀਆ	15
▁ਬਿਲ	15
▁ਪ੍ਰਚੁਰ	15
ਨੂਰ	15
▁ਦੱਸਣ	15
▁ਮਲੇਰੀਆ	15
▁ਸਨਾਯੂ	15
▁ਕਿਰਿਆਸ਼ੀਲਤ	15
▁ਵਾਲੀਆ	15
ਬਾਤ	15
▁ਸੈਡ	15
▁ਫਰਸ਼	15
▁ਤੈਨਾਤ	15
▁ਪਿੰਡਾਰ	15
▁ਸਕੂ	15
▁ਪ੍ਰਭੂ	15
▁ਵਿਮਾਨ	15
ਿਯਨ	15
▁ਆਕਸੀ	15
▁੭੦੦	15
▁ਸਾਂਚੀ	15
▁ਦੀਰਘਕਾਲ	15
ਧਵਾ	15
▁ਫਰ	15
▁ਸੰਜੋ	15
▁ਦੂਨ	15
▁ਕੈਪਸੂਲ	15
▁ਸੰਕ੍ਰਾਮ	15
▁ਆਯੁਰਵੇਦ	15
ਰੋ	15
▁ਅਖਵਾਉਂਦ	15
▁ਰੋਜ਼ਮ	15
▁ਨੀਂਹ	15
▁ਉੱਗ	15
▁ਸ਼ੇਸ਼	15
▁ਚੇ	15
▁ਪੱਕੀ	15
▁ਸੋਡੀਅਮ	15
ਡੋਜ਼	15
▁ਕੁਰਕ	15
▁ਬਗਲ	15
▁ਚੀਲ	15
▁ਉਂ	15
▁ਪੁੱਜਿਆ	15
▁ਵਿਧਾਨ	15
▁ਪੁੱਛਿਆ	15
▁ਹਾਸਾ	15
▁ਮਿਲਾਉਣ	15
▁ਛੁਪ	15
▁ਸ਼ਾਸਤਰ	15
ਫ਼ਰ	15
▁ਮੋਮ	15
▁ਡੀਲਕਸ	15
ਦਿਨ	15
▁ਘੁਸ	15
▁ਔਖੀ	15
▁ਬਨਣ	15
▁੧੫੦੦	15
▁ਸ਼ਰਮਾ	15
▁ਮਿਡ	15
੨੭	15
▁ਪੱਕਣ	15
▁੧੧੦	15
▁ਬੇਲਾਡੋਨਾ	15
ੂਨ	15
▁ਜਵਾਲਾਮੁਖੀ	15
▁ਬੱਚਿਆ	15
ੂਕਾ	15
▁ਮਾੜ	15
▁ਤਿਤਲੀਆਂ	15
▁ਗਵਾਹ	15
▁ਵਰਮ	15
ੰਚਿਤ	15
ੈਸਟ	15
▁ਹੱਥਸ਼ਿਲਪ	15
▁ਅਨੁਭੂਤੀ	15
▁ਰਿਲੈਕਸ	15
ੇਰਾ	15
▁ਗੂੰਜ	15
▁ਸੰਤੁਸ਼ਟੀ	15
▁ਜਿੰਜਰ	15
ਨੈਸ	15
▁ਵਰਲਡ	15
▁ਪੋ	15
▁ਗੁਆ	15
▁ਮੈਮੋਗ੍ਰਾਫ	15
▁ਡਿਸੀਜ	15
ਟਰੀ	15
ਵਸ	15
▁ਰਾਣਾ	15
ਰੇਖਾ	15
▁ਮਾਘ	15
ਰਕ	15
▁ਲੁ	15
ਂਗਰ	15
▁ਲੋਨਾਵ	15
▁ਅਸੰਖਿਆ	15
▁ਕ੍ਰਿਕ	15
▁ਮੰਤਰੀ	15
ਸਾਰੀ	15
ਗ੍ਰਹਿ	15
੧੪	15
▁ਪੁਸ਼ਟੀ	15
ਰੋਗੀ	15
▁ਕਿਹੜੀ	15
ਸਰੂਪ	15
▁ਵਿਵਿਧ	15
▁ਮਨੋਰੰਜ	15
▁ਰਾਮਪੁਰ	15
▁ਏਨ	15
ਨਾਂ	15
▁ਐਕਟੀਵਿਟੀ	15
▁ਚੇਤਾ	15
▁ਕੈਮਰੇ	15
▁ਸੰਘਣ	15
▁ਅਨੀਂਦਰਾ	15
▁ਰੌ	15
▁ਵਿੱਦਿਆ	15
ਅਵਾ	15
੍ਦੇ	15
▁ਪੂਲ	15
▁ਧੌਲੀ	15
▁ਅਕਰਸ਼ਨ	15
ੰਦਰ	15
▁੮੫	15
▁ਮਹੌਲ	15
▁ਬ੍ਰ	15
▁ਪਾਯਰ	15
▁ਮੁਨੀ	15
ਧਰ	15
▁ਉਡੀ	15
▁੫੨	15
੨੩	15
ਾਇਬ	15
▁ਉਲ	15
▁ਆਜ਼ਾਦ	15
▁ਗੁਜ਼ਰਨ	15
▁ਟਿਕ	15
▁ਹਸਤਸ਼ਿਲਪ	15
▁ਲੂਣ	15
ਰਾਸਨ	15
▁ਸ਼ਕਾਇਤ	15
▁ਕਾਰਬਟ	15
▁ਬੀੜੀ	15
ਰਿਤ	15
▁ਜੀਣ	15
▁ਰੋਜ਼ਮਰਾ	15
▁ਕੋਹ	15
▁ਮਠਿਆਈ	15
ਰਹਿਤ	15
▁ਖੀਰ	15
▁ਮੁਰੱਬਾ	15
▁ਰਾਈਡਸ	15
▁ਕਾੱਲਸਟ੍ਰਾ	15
▁ਗਾਇਡ	15
▁ਵਿਦਵਾਨ	15
ਮੇਢ	15
▁ਕਣਕ	14
▁ਅਸਹਿਣ	14
▁ਪੁਰਤਗਾਲੀਆਂ	14
ਪੱਥਰ	14
▁ਸਟਾਰ	14
▁੩੫੦	14
▁ਅੰਤਃ	14
▁ਜਾਰਜ	14
ਟਿਨ	14
ਸ਼ੂਲ	14
▁ਖੁਰਕ	14
▁ਉੱਭਰ	14
▁ਮਾਲਾ	14
▁ਫਾਸਟ	14
ਾਉਣਾ	14
▁ਅਪਾਰ	14
ੰਦਨ	14
▁ਇਕਾਂਤ	14
▁ਦੁਸ਼ਹਿਰ	14
▁ਚੱਲੋ	14
▁ਨਜਲਾ	14
▁ਸੁਝਾਅ	14
▁ਜਾਮਾ	14
▁ਹਥੇਲੀਆਂ	14
▁ਉਂਗਲ	14
▁ਮਾਸਾ	14
▁ਸਮਰ	14
▁ਟੀਨ	14
▁ਅਜੀਰਣ	14
▁ਸਿਡਨੀ	14
ੀਕਰਣ	14
ਵਾਸੀ	14
▁ਮਕ	14
ਰੋਧੀ	14
ਮੋਰੀ	14
ਤਰੀ	14
▁ਜਿੰਨੇ	14
ਲਾਲ	14
ਬਾਈਪੋਲਰ	14
▁ਗ੍ਰ੍ਸ	14
ਖਈ	14
▁ਪੜਾਵ	14
▁ਜੈਵਿਕ	14
▁ਨੇਤਾ	14
▁ਫਾਰਮ	14
ਪੁਰਾ	14
ਾਹੀ	14
ਪਰਿਵਾਰ	14
ਦਵਾਰ	14
▁ਐੱਫ	14
▁ਖੰਭਿਆ	14
▁ਵੈਦ	14
▁ਉਸਦੀਆਂ	14
▁ਸਾਦਾ	14
ੇਸ਼ਿਅ	14
▁ਵੇਖੀ	14
▁ਏਕ	14
▁ਤ੍ਰਿ	14
▁ਮਜ਼ੇ	14
▁ਦਾਲਚੀਨੀ	14
▁ਚਿੜਚਿੜਾ	14
▁ਟਾਈਫ	14
▁ਅਲਕੋਹਲ	14
▁ਪ੍ਰਵਿਰਤੀ	14
▁ਲੰਬੀਆਂ	14
ਧਰਮ	14
▁ਨੈਨਾ	14
▁ਵਿਜੇ	14
ਲਾਈਨ	14
▁ਪ੍ਰੇਸ਼ਾਨ	14
▁ਡਾਇਰੀ	14
▁ਦੰਤ	14
▁ਪ੍ਰਚੱਲ	14
▁ਖੁਲ੍ਹ	14
▁ਅੱਪ	14
▁ਸ਼ਿੰਗ	14
▁ਝੜਨ	14
ੈਕਸ	14
▁ਚਸ਼ਮੇ	14
ਮੋਦ	14
ਸੀਆ	14
▁ਤਾੜ	14
▁ਕਾਟੇਜ	14
▁ਟ੍ਰੈ	14
▁ਝੰਡਾ	14
ਂਦ	14
▁ਵਿਵਿਧਤਾ	14
▁ਇਨਜੈਕਸ਼ਨ	14
▁ਖਿੱਚਣ	14
▁ਭਵਯ	14
▁ਡੈਂਡਰਫ	14
▁ਢਾਂਚ	14
▁ਯ	14
▁ਮੱਖੀ	14
▁ਕੈਮਰਾ	14
▁ਉਜੈਨ	14
▁ਅਮੁੱਲ	14
▁ਸ਼ੈਲ	14
▁ਤਾਈਵਾਨ	14
ਜਾਣ	14
▁ਕਹੋ	14
▁ਲੌ	14
▁ਪੁਰ	14
▁ਕੋਲਡ	14
▁ਐਲਰਜ਼ੀ	14
▁ਪਰਿਯੋਜਨਾ	14
▁ਤਿਰ	14
▁ਚਰਨ	14
▁ਕੰਚਨਜੰਗਾ	14
▁ਪ੍ਰ੍ਤੀਰੱਖਿਆ	14
▁ਮੈਨ	14
▁ਇਲੈਕਟ੍ਰ	14
▁ਭੋਜਪੁਰ	14
▁ਰਿਸਾ	14
▁ਸੋਲਾਂਗ	14
▁ਚਿਕ	14
▁ਲੀ	14
▁ਨਵਜਨਮੇ	14
▁ਉਦਾਸ	14
▁ਸੰਦੇਹ	14
ਖੇਤਰ	14
▁੩੩	14
ਕਰੀ	14
▁ਸਵਿਟਜ਼ਰਲੈਂਡ	14
ਅਨੀਮਿਕ	14
ਡਿਸ	14
▁ਜਵਾਬ	14
▁ਅਸੰਤੁਲਨ	14
▁ਖਸਰਾ	14
▁ਨਜ਼ਲੇ	14
▁ਪਟਨੀਟਾਪ	14
▁ਗਾਜ਼ਰ	14
ਲਾਇਆ	14
▁ਹੋਂਠ	14
ਯਾਂਗ	14
▁ਸ਼ਾਖਾ	14
▁ਫਾੱਲ	14
ਖਾ	14
▁ਦੁਕਾਨ	14
▁ਹਿਊ	14
▁ਹੇਤ	14
▁ਗਿੱਲ	14
▁ਚੰਪਾ	14
▁ਪੋਟਾਸ਼	14
ਚਾ	14
ੇਵਾੜ	14
▁ਛੇਦ	14
▁ਬੈੱਡ	14
▁ਸਿੰਚ	14
▁ਆਉਦੀ	14
▁ਸਕੋਗੇ	14
▁ਖਿਲਾਫ	14
ਾਇਤ	14
ੇਜ਼	14
▁ਸ਼ਕਤੀਪੀਠ	14
▁ਰੂਪਾਂ	14
▁ਹੋਮ	14
▁ਮਿਠਾਈ	14
▁ਲੜ੍ਹ	14
ਨਿੰਗ	14
▁੩੪	14
ਸੇਨ	14
▁ਕਾਲਕਾ	14
▁ਜਪਾਨ	14
▁ਲਿਆਉਂਦ	14
ਰਾਹ	14
ਰੀਏ	14
▁ਚਮਚਾ	14
▁ਨਹਾ	14
▁ਤਿੱਖਾ	14
▁੮੦੦	14
▁ਸਟਾਲ	14
▁ਬਨਫਸ਼	14
▁ਭਿਖਸ਼ੂ	14
ੇਂਸ	14
▁ਬੇਤ	14
▁ਪ੍ਰੀ	14
▁ਲਿ	14
ਸੌਰਾਸ਼ਟਰ	14
▁ਜੀਵਾਸ਼ਮ	14
▁ਖੁਲ	14
▁੫੧	14
▁ਤਿਓਹਾਰ	14
▁ਨਿਰਾਲ	14
▁ਸੋਚਦੇ	14
▁ਟਿਸ਼ੂ	14
▁ਪ੍ਰਸ਼ਾਸ਼ਨ	14
▁ਹੇਠਲਾ	14
▁ਪਾਠ	14
ਵਿਵਸਥਾ	14
▁ਤੇਂਦੂਆ	14
ਘੱਟ	14
▁ਨਿਜ	14
▁ਕਾਰਲਾ	14
ਪੇ	14
ਵਾੜੀ	14
▁ਕੋਲੇਸਟਰਾਲ	14
▁ਫੈਸਲ	14
▁ਪਹੁੰਚਾਉਂਦੀ	14
▁ਵਿਨਾਸ਼	14
▁ਤਰਾਈ	14
▁ਪੀਰ	14
▁ਹਥਿਆਰ	14
ੌਲਾ	14
ਗਾਹ	14
ਡੀਓ	14
ਗੁਪਤ	14
▁ਰੱਸੀ	14
▁ਆਸ਼ੰਕਾ	14
▁ਟ੍ਰੇਕਿੰਗ	14
▁ਪਰਿ	14
▁ਕੈਨ	14
▁ਮੰਤਰਮੁਗਧ	14
▁ਗਿਰਦ	14
▁ਜ਼ਿੰਮੇਦਾਰ	14
ਪਰੇਸ਼ਨ	14
▁ਫਾਟ	14
▁ਸਰਾਏ	14
▁ਦੱਸਦੀ	14
▁ਜੂ	14
▁ਮਗਧ	14
੍ਮ	14
▁ਗਤੀਵਿਧੀ	14
▁ਗਰੁੜ	14
▁ਭਿੱਤ	14
ਕਨਿਕਾ	14
▁ਵਿਯਾਮ	14
▁ਫ਼ਾਇਦ	14
▁ਹਸਤ	14
▁ਪ੍ਰਤੱਖ	14
▁ਜੰਤੂ	14
▁ਮੇਰਿ	14
▁ਬ੍ਰਿਜ	14
▁ਤਿੱਖੀ	14
▁ਪੰ	14
▁ਮੁਹੱਈਆ	14
ਦਾਸ	14
▁ਵਪਾਰੀ	14
ਸ਼ਟ	14
▁ਲੰਮ	14
ਖਿਲ	14
▁੧੬੦	14
▁ਹਕੀਮ	14
▁ਲਿਕ	14
▁ਲੁਪਤ	14
▁ਇਡੁ	14
ੱਕੀ	14
੍ਣ	14
▁ਨਿਸ਼ਾਨੀ	14
▁ਵਧਿਆ	14
ਬੇਟੀ	14
▁ਖਿਡਾਰੀ	14
▁ਭੁੱਲਣ	14
▁ਉਡਾਣ	14
▁ਪ੍ਰਚਲ	14
ਫਿਰ	14
▁ਰੱਖਣੀ	14
▁ਰਬੜ	14
▁ਨੈਚੁਰ	14
ਯਾਨ	14
▁੯੮	14
▁ਦਿਖਾਉਂਦ	14
▁ਕਠੋਰਤਾ	14
▁ਕੰਪਨ	14
▁੫੬	14
▁ਸਮੁਦਾਇ	14
ਚੈਸਟ	14
▁੪੨	14
▁ਧੌਲਾਧ	14
▁ਬ੍ਰੋਂਕਾਈਟਿਸ	14
ਨੀਆਂ	14
▁ਵਿਸ਼ੇਸ਼ਕ	14
▁ਟੈਗੋਰ	14
▁ਬਰਕਰ	14
▁ਕੰਬਣੀ	14
▁ਸ਼ਿਵਿਰ	14
▁ਸਾੜ	14
▁ਲੱਤ	14
▁ਦ੍ਰ	13
▁ਵਿਅਕਤ	13
ਮਹਾਰਾਣੀ	13
▁ਹੋਲ	13
▁ਮਰੀਜ਼ਾ	13
▁ਮਾਊਂਟੇਨ	13
▁ਦਿਵਾਉਂਦ	13
▁ਅਫ	13
▁ਬੋਲੀ	13
▁ਲੀਲਾ	13
▁ਭਾਉਂਦ	13
ਸ਼ਕ	13
▁ਦੀਮਾਪੁਰ	13
[	13
▁ਬੂਟੀਆਂ	13
▁ਪੀਂਦ	13
ਜ਼ਿਆਦਾ	13
▁ਦਿਖਦੀ	13
▁ਫ਼ੋਟੋ	13
▁ਫ਼ਲੂ	13
▁ਟੈਲੀ	13
▁ਰਚ	13
▁ਬੁੱਕ	13
▁ਪੁਸ਼ਪ	13
▁ਸਮੁੰਦਰਤੱਟ	13
▁ਮਹਜ	13
ਾਵਟ	13
▁ਸਜਾ	13
▁ਆਰਟਰੀ	13
▁ਸਜੀ	13
▁ਬ੍ਰੋਂਕਾਇਟਿਸ	13
▁ਡੇਸਿਟਨੇਸ਼ਨ	13
▁ਪਿੱਪਲ	13
▁ਚੈਲ	13
▁ਸੰਪਤੀ	13
ੰ	13
▁ਕੁਸ਼ਲ	13
ਪਾਰ	13
▁ਫਿਟ	13
▁ਟੂ	13
ਭਰੀ	13
▁ਪਦਮਾਸੰਭਵ	13
ਰਾਸ਼ਟਰੀ	13
ਥਾਂਗ	13
▁ਹੱਟ	13
▁ਜਿਵੇ	13
▁ਮਾਰੇ	13
▁ਸਾਰੰਡਾ	13
▁ਵਿਊ	13
▁ਨਾਪ	13
▁ਧੱਕ	13
▁ਗਾੜ੍ਹਾ	13
▁ਮਹਾਨਗਰ	13
▁ਪਲੇਟ	13
▁ਨੌਜਵਾਨ	13
ਭ੍ਰੰਸ਼	13
ੱਪੜ	13
▁ਵਾਇਲ	13
▁ਖੋਪੜੀ	13
▁ਰੋਹਤਾਂਗ	13
▁ਡਾਯ	13
ਕਾਲਕਾਜੀ	13
▁ਅਸਾਮ	13
ਸਹਿਣ	13
▁ਸਤਤਾਲ	13
▁ਯਾਦਵ	13
▁ਫੇਲ	13
▁ਚੂਹ	13
▁ਮਕਸਦ	13
▁ਉਗਲ	13
▁੧੯੫	13
▁ਕੁੜੀਆਂ	13
▁ਸਾਥ	13
▁ਇਤਿਹਾਸਕਾਰ	13
▁ਸਿਰਪ	13
▁ਗੁਜਰਾਤੀ	13
ਮੂਤਰ	13
▁ਪਣਜੀ	13
੨੨	13
▁ਨੋਡ	13
▁ਸੰਕ੍ਰ੍ਮਣ	13
▁ਰੂਪਕੁੰਡ	13
▁ਕੈਮ	13
ਸਤਰ	13
▁ਅਕਾ	13
▁ਇਮਾਮਬਾੜਾ	13
▁ਉਤਰਦੇ	13
ਹੀਣਤਾ	13
▁ਬਦਲਦਾ	13
▁ਬੌਧ	13
▁ਸਿੱਕੇ	13
ਪੰਛੀਆਂ	13
▁ਦਰੁਸਤ	13
ਲਿਆਂ	13
ਸੋਨ	13
ਥਮ	13
▁੯੫	13
ਲੋਰਾਈਡ	13
ਕੇਸ਼ਵਰ	13
ਮੌਰ	13
▁ਆਯਾਮ	13
▁ਸਮਾਨਤਾ	13
ਮੇਂਟ	13
▁ਆਬੂ	13
▁ਸਲਾਈ	13
ਵਲ	13
▁ਖਿਸਕ	13
ਮੁਨ	13
▁ਕੋਰੋਨ	13
▁ਵਾਇਰਲ	13
▁ਵਹੀਲਸ	13
▁ਨਿਯੂ	13
▁ਭਾਰਾ	13
▁ਖਿੜ	13
▁ਕੁੰ	13
▁ਮੁਸਲਮਾਨ	13
ਰਮ	13
ਬ੍ਰ	13
▁ਤਰਾਸ਼	13
▁ਪਠਾ	13
▁ਪਲਸੇਟਿਲਾ	13
▁ਦਬਾਓ	13
▁ਕੋਨਾਰ	13
ਕਸ਼ਮੀਰ	13
▁ਉਪਰਲੀ	13
▁ਸਰ੍ਹੋ	13
▁ਖਿਚਾਅ	13
▁ਗੁਣਵੱਤਾ	13
ੂਜ਼	13
ਬਸਤੀ	13
▁ਸ਼ੁਕਰਾਣੂ	13
▁ਜਾਪਾਨ	13
ਕਿੰਗ	13
ਗਦਾ	13
▁ਸਟੱਡੀ	13
▁ਮੇਮੋਰੀਅਲ	13
▁ਸ਼ਿਲਾਖੰਡ	13
ਝੜ	13
▁ਮਿੱਤਰ	13
▁ਪਰਬਤਮਾਲਾ	13
▁ਢਿੱਲਾ	13
▁ਸੇਰੇਬ੍ਰ	13
ਪਾਲਸੀ	13
▁ਪਾਰੋ	13
ਮੱਕੀ	13
▁ਸੁਰ	13
▁ਮਨੁੱਖੀ	13
▁ਇਮੋਸ਼ਨ	13
▁ਚੀਤਲ	13
ੋਕ	13
▁ਲਾਡਵਾ	13
▁ਵਿਚ੍ਕਾਰ	13
▁ਪ੍ਰਗਤੀ	13
▁ਚੋਰੀ	13
▁ਸੰਤਾਨ	13
▁ਧੁਨ	13
▁ਤਿਜਾਰ	13
▁ਬਦਾਮ	13
▁ਕਾਜੂ	13
▁ਸਿਖਲਾਈ	13
▁ਭਾਲ	13
ਗੁਲ	13
▁ਅਭਿਲੇਖ	13
▁ਕੁਰੂ	13
ਾਵਰ	13
▁ਗੇਂਦ	13
▁ਪੀਟਰ	13
▁ਕੈਲ	13
▁ਮੁ	13
ਸੂ	13
▁ਭਗਤੀ	13
▁ਰੁਖ	13
▁ਮਸਾਨ	13
▁ਅਚਾਰ	13
▁ਫਿਸ਼ਿੰਗ	13
▁ਸ਼ਿਸ਼ਨ	13
▁ਪਨੀਰ	13
▁ਡਬਲ	13
▁ਤੀਰ	13
▁ਡਾਂਸ	13
▁ਹਿੰਦੁਸਤਾਨ	13
ਵਾਤ	13
▁ਫ਼ੁਫ਼	13
▁ਮੁੜਦੇ	13
▁ਉਪਦੇਸ਼	13
▁ਉਠਣ	13
▁ਅਧਿਆਤਮ	13
▁ਪਾਣ	13
▁ਵਿਕਸ	13
▁ਟਾੱ	13
▁ਗੋਲਡ	13
▁ਚੜਨ	13
▁ਮਿੰਨੀ	13
▁ਕੋਚ	13
ਪਰਵਾਹ	13
▁ਕਾਂਸ	13
▁ਸੰਕਰ	13
▁ਪਾਪ	13
▁ਟੈਂਪਰੇ	13
▁ਖੱਡ	13
▁ਰਹੀਆ	13
▁ਕਾਜ	13
ਂਸ	13
▁ਭਾਵਨਗਰ	13
ਉਲ	13
ਕਈ	13
▁ਬਿਰ	13
ਰਥ	13
▁ਕਲਪ	13
▁ਪਟ	13
▁ਹੇ	13
▁ਉਠਾਉਣਾ	13
▁ਡਕਾਰ	13
▁ਭਲਾ	13
▁ਰੇਂਜ	13
ਕ੍ਰਮ	13
▁ਸਾਲਮ	13
ਘਨ	13
ਇਨ	13
▁ਭੌਤਿਕ	13
▁ਸਰਿਸ	13
ਪਾਣ	13
▁ਕੋਚੀ	13
▁ਭਲੇ	13
ਸਿਕਾ	13
▁ਰੇਣ	13
ਕਰਮ	13
▁ਅੱਕ	13
▁ਅਪਨੀ	13
▁ਜਾਓਗੇ	13
▁ਗੋਵਿੰਦ	13
▁ਸ਼ੰਕਾ	13
ਡ੍ਰੋਮ	13
▁ਵੈ	13
▁ਬਾਸ	13
▁ਸੋਚੋ	13
ਗ੍ਰਾਫੀ	13
ਜਲਦੀ	13
▁ਅਮਲੀ	13
੯੯	13
▁ਤੀਸਰ	13
▁ਅਸਮਰਥ	13
▁ਲੋਹਾ	13
▁ਅੰਬਾ	13
ਲੱਸ਼	13
ਕਾਲੀ	13
ਿਅਮ	13
ਡੋਵ	13
▁ਮੈਥੁਨ	13
▁ਮਹੇਸ਼ਵਰ	13
▁ਸਥਾਪਨ	13
▁ਫ੍ਰੈਕ	13
▁ਗੁਮ	13
੨੬	13
▁ਘਬਰਾ	13
ਨਾਰਕੰਡਾ	13
▁ਘੜੀ	13
▁ਬਬੂਲ	13
ਰਫ਼ਤ	13
ਜਿੰਗ	13
▁ਅਸਾਧਾਰਣ	13
▁ਲੰਗੂਰ	13
▁ਚੰਚਲ	13
▁ਖਾਰ	13
▁ਪਲੇਸ	13
ਾਈਜੇਸ਼ਨ	13
▁ਚਲਾਇਆ	13
▁ਸ਼ਿਰ	13
▁ਸੂਤਰ	13
▁ਬਿੰਦ	13
▁ਸਰਕਲ	13
▁ਲਘੂ	13
ਖੱਲ	13
▁ਬਣਵਾਏ	13
▁ਅਨੁਮਤੀ	13
▁ਇਕੱਠੀ	13
▁ਸਾਮ	13
ਬਲੀ	13
▁ਯੋਨ	13
ੁਰ	13
▁ਓਤ	13
▁ਵਿੰਭਿ	13
▁ਰਤ	13
▁ਸ਼ਿਵਾਲਿ	13
ਗੋਲ	13
▁ਕਲਸ਼	13
▁ਵਹੇਲ	13
▁ਸ਼ੈਵ	13
ਕੁਝ	13
▁ਅਣਹੋਂਦ	13
▁ਜਲਾ	13
▁ਸਲੀਪ	13
▁ਭੁੰਨ	13
▁੧੨੫	13
ਚੁੰਬ	13
▁ਪ੍ਰਕ੍ਰਿਆ	13
ੌਣਕ	13
▁ਪੇਰੀ	13
▁ਚਿੰਡੀ	13
▁ਸ਼ਕਤੀਕ੍ਰਮ	13
▁ਕ੍ਰ	13
▁ਮੱਤ	13
▁ਘੋਟ	13
▁ਆਵੇਗਾ	13
ੱਚੀ	13
ੇਕਸ਼ਨ	13
▁ਸਮਝਦਾਰ	13
ਜ਼ਬ	13
▁ਮੱਲ੍ਹ	13
▁ਟੇਰਾ	13
▁ਸਤਪੁੜਾ	13
ਣੇ	13
▁ਕੰਜ	13
▁ਬਿਖਰ	13
▁ਪੈਲਸ	13
▁ਸੁੰਗੜਨ	13
ਵਾਟਰ	13
▁ਚਿੰਤਨ	13
▁੧੩੦	13
▁ਵਧਾਉਣਾ	13
▁ਸਿਕਿਕ	13
▁ਫ਼ਾਰੇ	13
▁ਜਵਾਇੰਟ	13
▁ਨਵਜੰਮ	13
▁ਦਸੰਬਰ	13
▁ਤੇਲੀਆ	13
ਸਿਰ	13
▁ਇੰਡਸਟ	13
▁ਨਿਗ	13
▁ਕਲਚਰ	13
▁ਉਤਰਾਂਚਲ	13
▁ਨਮੂਨੀਆ	12
ਅਵਸਾਦ	12
ਿੱਤਵ	12
▁ਨਾਈਟ	12
ਨਿਰਮਾਣ	12
ਵੱਸ	12
ਯਰ	12
ਬੁਲ	12
ਡੂ	12
▁ਤ੍ਰਿਫਲਾ	12
▁ਜੁੱਤ	12
▁ਅਸਤਿ	12
▁ਸਾਸਾਰਾਮ	12
ਪਥ	12
▁ਕੱਢੀ	12
▁ਬੈਂਡ	12
▁ਭਿਓਂ	12
▁ਮਾਈਕ੍ਰੋ	12
ਵਾਲੇ	12
▁ਛਾਉਣ	12
▁ਟਹਿਲਣ	12
▁ਬਨਾ	12
ਕਮ	12
▁ਰਗੜੋ	12
▁ਕੂਹਨੀ	12
ਪ੍ਰੈਸ਼ਰ	12
▁ਅਲਫਾ	12
▁ਮਾਜੂ	12
▁ਲੋਂਕ	12
ਰਾਤ	12
ੰਜੀਰ	12
▁ਸਵਰਣ	12
ਜਲੀ	12
ੱਡੀ	12
ਪੂਰਬੀ	12
▁ਭੁ	12
▁ਚਟ	12
▁ਅੰਕੜਿਆ	12
▁ਅਹਿਮਦ	12
▁ਵੈਸ਼ਨੋ	12
▁ਕੇਸ਼	12
ਮਦਫ	12
▁ਕੰਬਲ	12
ਵੈਸ	12
▁ਝ	12
▁ਟਾਲ	12
ਵਾਨਾ	12
ਰਾਜਾ	12
ਦੌੜ	12
▁੯੯	12
▁ਕਾਲੇਸਟ੍ਰ	12
ਯਾਰ	12
▁ਸੈਂਡ	12
▁ਪੈਂ	12
▁ਐਂ	12
▁੧੯੫੧	12
▁ਐਸੋਸੀਏ	12
▁੪੪	12
੪੭	12
▁ਗਿਰਿ	12
▁ਪਕੜ	12
ਮੈਨ	12
▁ਜੁਜਾ	12
ਯਾਰਕ	12
▁ਮਾਤ	12
ਜਾਊ	12
▁ਪਸ਼ੂਪਤੀਨਾਥ	12
ਉੱਤਰ	12
▁ਭੂਟਾਨੀ	12
▁ਘਬਰਾਉਣ	12
▁ਚੌਕ	12
▁ਮੰਨਣ	12
ੱਤੇ	12
▁ਦਿਗੰਬਰ	12
▁ਲਾਸ	12
ਸ਼ਵਰ	12
▁ਅਜਵਾਇਨ	12
▁ਪਿਛਲੀ	12
▁ਪੀਠ	12
▁ਫੜਨ	12
ਬੇਟੇ	12
▁ਲਿਜਾ	12
▁ਸ਼ੋਕ	12
▁ਪਰਿਕਰਮਾ	12
ਨਲ	12
▁ਲਿਆਂਦ	12
▁ਭੇਡ	12
▁ਟਨ	12
▁ਛਪ	12
▁ਕਿੰਨੌਰ	12
▁ਚੈਨ	12
▁ਮਨਮੋਹਣ	12
ਕਾਰੋ	12
▁ਕੋਵਲਮ	12
ਰੀਫਲ	12
ਚੀਨ	12
▁ਜਾਣਨ	12
▁ਸਟ	12
▁ਜਾਤ	12
▁ਥਾਈਰਾਇਡ	12
ਨਸਾਂਗ	12
▁ਕਰਵਾਏ	12
▁ਵਮਨ	12
ਾਬਰਟ	12
▁ਫ਼ਾਲ	12
ਕਦਮ	12
ਕਾਲਿਕਾ	12
ਕਲਪ	12
▁ਲਿਆਏ	12
ਪੱਛਮੀ	12
▁ਵਿਕਟੋਰੀਆ	12
ਉੱਚੇ	12
ਤਿ	12
▁ਵਿਸ਼ੇਸ਼ਗ	12
▁ਪ੍ਰ੍ਤੀਰੋਧ	12
▁ਜਾਉਗੇ	12
▁ਐਕਸਰਸਾਇਜ	12
ਮੁਖ	12
੧੦੦	12
▁ਐਵਲਾਂਸ	12
▁ਸਨਸਕ੍ਰੀ	12
▁ਮੁਲਾਇ	12
▁ਸਤੰਬਰ	12
▁ਨੈਰੋਲੀ	12
▁ਲਵਣ	12
▁ਚਿੱਟੇ	12
▁ਗੁਜ਼ਰਦੀ	12
▁ਗੁੱ	12
▁ਗੈਂਡਾ	12
ਪੀਕ	12
▁ਚਿਪਚਿਪਾ	12
▁ਬੈਜ	12
▁ਸੰਬੋਧ	12
▁ਨਵਾ	12
ਮਹੇਸ਼	12
▁ਕੁਲੂ	12
▁ਖਿੱਚੋ	12
ੱਚਾਈ	12
▁ਬਾਬ	12
▁ਮਧੁ	12
▁ਅਯੋਧਿਆ	12
▁ਛੱਡਣਾ	12
▁ਲੁੱਟ	12
ਭਾੜ	12
ੀਡੈਂਸ	12
▁ਕਰਾਰ	12
▁ਸਰਹੱਦ	12
▁ਕੋਨਿਆ	12
ੇਟਿਕ	12
ਸਪਰ	12
▁ਅਰਜ	12
▁ਚੂਸ	12
ਞ	12
ਂਜ	12
ਠੋਡੀ	12
ੱਲ੍ਹ	12
▁ਸਰੰਚਨਾ	12
▁ਬੈਕ	12
▁ਤਲਬ	12
▁ਬਘਿਆੜ	12
▁ਕਲੀਨ	12
▁ਕਾਨ	12
▁ਡਾਈਵਿੰਗ	12
ਪੀੜ੍ਹੀ	12
▁ਲਗਿਆ	12
▁ਚਰ	12
▁ਨਤੀਜ਼	12
ਕਿਸੇ	12
ਿੰਡ	12
▁ਸ਼ੁੱਭ	12
▁ਹੋਣਗੀਆਂ	12
ਲੀਗੁੜ	12
ਕੁਲ	12
▁ਬਰਫ਼ਾਨੀ	12
▁ਅੰਕੜ	12
▁ਬੇਬੀ	12
▁੩੯	12
ਹਵਾ	12
ਾਰਾ	12
▁ਟਿਪ	12
▁ਪਾਵਰ	12
▁ਉੱਡ	12
▁ਖਾਣਪਾਣ	12
ਫੀਅਰ	12
▁ਮੱਝਾਂ	12
▁ਫ਼ਟ	12
▁ਰਾੱਕ	12
▁ਸੋਟੀ	12
▁ਸੂਚ	12
੪੦੦	12
▁ਬੋਰਿ	12
▁ਸਪਾਇਨ	12
ਸੁਵਿਧਾ	12
▁ਦਿਖਾ	12
▁ਆਕੜ	12
ਸਲੇ	12
ਰੋਜ਼	12
ਾਇਟਿਸ	12
▁ਅਲੌਕਿ	12
ੰਜ	12
▁ਤਕਲੀਫ਼ਾਂ	12
▁ਕੜੀ	12
▁ਕਸਤੂਰੀ	12
▁ਵਿਦਾ	12
ਟੋ	12
▁ਕੁਰ	12
▁ਮੇਨੋਪਾੱਜ	12
▁ਤਾਮਿਲ	12
▁ਵਿਸ਼ਰਾਮਘਰ	12
ਗੋ	12
੧੩	12
ਜ਼ੀਰਾ	12
▁ਨਵੇ	12
▁ਖੰਘਦੇ	12
▁ਵਲ	12
ੇਰੇ	12
ਸ਼ੈਲੀ	12
ਖੂਬੀ	12
▁ਯੂਕੇਲਿਪਟਸ	12
▁ਜੰਕਸ਼ਨ	12
▁ਕਰਮ	12
▁ਝੜ	12
ਮਿਸਾਲ	12
▁ਪ੍ਰਿੰਸ	12
▁ਮੰਚ	12
▁ਨਿਰਾਸ਼ਾ	12
▁ਦੇਖੀਏ	12
▁ਪਰਬਤਾਰੋਹ	12
▁ਨਾਗਰ	12
▁ਕੱਦੂ	12
▁ਆਰਸੈਨਿਕ	12
▁ਰਾਜਕੁਮਾਰ	12
▁ਸਪੀਡ	12
▁ਚੂਨਾ	12
▁ਸ਼ਾਸ਼ਤਰ	12
ੰਸ਼	12
ੁਮਾਰ	12
▁ਕਾਊਂਸਲ	12
ਚਿਤ	12
ਬਜ਼	12
▁ਕੈਪ	12
▁ਸਸਤੀ	12
▁ਚੀਜ	12
▁ਲਚਕੀਲਾਪ	12
ਦਿਲ	12
▁ਪੰਡ	12
▁ਉਪਸਥਿਤੀ	12
▁ਜੈਤੂਨ	12
ਦਿ	12
▁ਪਿੱਤਲ	12
▁ਘੰਟੀ	12
▁ਰਘੂ	12
▁ਨਿਆਂ	12
▁ਜਾਦੂ	12
ਅਲਗ	12
▁ਟਿੱਲ	12
▁ਹਰਕਤ	12
▁ਹਰਮਨ	12
▁ਅੰਡੇਮਾਨ	12
▁ਉਤਖ	12
ਟਿਸ	12
ਵਿਦੇਸ਼ੀ	12
▁ਛੇਵੀ	12
▁ਬਰੈ	12
ਬਾਜ਼ੀ	12
▁ਚਾਰਗਾਹ	12
▁ਥਾਨ	12
▁ਦੁਰਬਲਤਾ	12
ਗੜੀ	12
▁ਅਵਤਾਰ	12
ਮੂਦ	12
ਡਾਊ	12
ੋਲ	12
ੰਦ	12
▁ਬ੍ਰੋਕਾਈਟਿਸ	12
▁ਤੁਹਾ	12
▁ਗ੍ਰਾਂ	12
▁ਮੀਜਲਸ	12
ਤੇੜੇ	12
▁ਹੱਤਿਆ	12
▁ਇੰਜੈਕਸ਼ਨ	12
▁ਮੁਗਧ	12
▁ਚੂੰਕ	12
▁ਜੌਂ	12
ਵਾਟ	12
▁ਟਾਊਨ	12
▁ਫੋਟੋ	12
ਸਰੀਰ	12
▁ਤਾਲਰਾ	12
▁ਉੰਨਾ	12
▁ਕਵਾਲ	12
▁ਬਲੈੱਡ	12
▁ਜ਼ਖਮੀ	12
▁ਓਜ	12
▁ਹਫ਼ਤਾ	12
▁ਕੋਲੇਸਟ੍ਰੋ	12
▁ਭਾਗਸੂ	12
▁ਪ੍ਰਸ਼ਾ	12
੍ਨ	12
▁ਮੁੱਠੀ	12
▁ਕਦਰ	12
▁ਦ੍ਰਿਸ਼ਾ	12
▁ਸੋਮਨਾਥ	12
▁ਉਦਘਾਟ	12
ਜ਼ਰੂਰ	12
ੈਕਨਾਲ	12
ਈਃ	12
▁ਫ਼ੋੜੇ	12
▁ਯੂਰਿ	12
▁ਸ਼ਿੰਗਾਰ	12
▁ਦ੍ਰਿਸ਼ਟੀਗ	12
ੋਚਰ	12
ਾਕਾਰ	12
ਾਰਾਂ	12
▁ਪ੍ਰਸਾਧਨ	12
ਮੂੰਗਫਲੀ	12
▁੧੭੦	12
ਮੁਦਰਾ	12
▁੫੮	12
▁ਬ੍ਰਹਮ	12
▁ਸਿੰਧ	12
▁ਮੋਹਕ	12
ਵਾਓ	12
▁ਗੱਦੀ	12
▁ਪ੍ਰ੍ਵਾਹ	12
▁ਭਾਗਲਪੁਰ	12
ੀਰਥ	12
▁N	12
▁ਟਿਕਿਆ	12
▁ਹਨੂਮਾਨ	12
▁ਸੰਵਾਰ	12
▁ਪੁਰਸਕਾਰ	12
▁ਭੈਅ	12
▁ਨਯੂਰੋ	12
ਬਹੁਤ	12
▁ਆਂਵਲਾ	12
▁ਪਰਮ	12
▁ਵਿਹ	12
▁ਚਲਾਈ	12
▁ਤੈਰਨ	12
▁ਖਰੀਦੋ	12
▁ਡਿਯੂਡੇਨਮ	12
੩੦੦	12
▁ਸੰਕਟ	12
ਗਮ	11
▁ਢਿੱਲੀ	11
▁ਕਟੋਰੀ	11
▁੯੦੦	11
▁ਗਿਆਤ	11
▁ਖਿਲ	11
▁ਦੈਵ	11
▁ਗੁਜਰ	11
▁ਲਗਵਾ	11
ਜਗਾ	11
▁ਭਾਵੇ	11
ਗਿਰਨਾਰ	11
▁ਗਢਵਾਲ	11
ਮੁਖੀ	11
▁ਗੁਰਦੁਆਰਾ	11
▁ਬ੍ਰਹਮਚਾਰੀਆ	11
ਨ੍	11
ਜ਼ੋਰ	11
▁ਮਾਡਲ	11
▁ਸਰਕ	11
▁ਮੇਕ	11
▁ਆਲੇ	11
▁ਬਟਰ	11
▁ਕ੍ਰਾਂਤੀ	11
ਬੋਟ	11
▁ਰੋਮਾਨੀ	11
ਅਧਿਕ	11
▁ਚੌਹਾਨ	11
▁ਜਾਗ੍ਰਿਤ	11
▁ਸੰਵੇਦਨਾ	11
ਵੇਟ	11
)-	11
ਫਰ	11
▁ਹੈਦਰ	11
▁ਅਜੀਬ	11
▁ਜਨਮੇ	11
ਮਾਝੀ	11
▁ਕੋਇਲ	11
▁ਕਬੂਤਰ	11
ਚਕ	11
ਸੰਤੁਲਿਤ	11
ਾਸ	11
ਕੂਲ	11
▁ਖੁਸ਼ਹਾਲ	11
▁ਸੁਗਮ	11
▁ਪਲਾਂਟ	11
▁ਉਗਾ	11
▁ਦਰਵਾਜੇ	11
▁ਮੋਦੀ	11
▁ਘੁਰਾੜਿਆ	11
▁ਸਰਜ	11
▁ਸਕੇਗਾ	11
▁ਉੱਤਾਨਪ	11
ਪਪੀ	11
ਾਵਤੀ	11
▁ਆਉਣਗੇ	11
▁ਰੈਪ	11
▁ਏਕੋਨਾਈਟ	11
▁ਪੈਮਾਨ	11
ਬੋਧੀ	11
▁ਫੈਸਟੀਵਲ	11
▁ਨਜ਼ਲਾ	11
▁ਫਿਸ਼	11
▁ਸੋਨਾ	11
▁ਪ੍ਰੋਜੈਕਟ	11
▁ਤੰਬੂ	11
▁ਅਮਨ	11
▁ਜਿਨ	11
▁ਕੌ	11
ਥਨੀ	11
ੇਸ਼	11
▁ਕਿਤੋਂ	11
▁ਨਸਲ	11
▁ਲਿਂ	11
▁ਲੜਕ	11
▁ਪਰਿਪ	11
▁ਨੰਦਨ	11
▁ਟੈਂਟ	11
ਦਮੀ	11
▁ਸੰਘਰਸ਼	11
▁ਨੰਦਾਕੋਟ	11
▁ਡੋਪਾਮ	11
ਜਾਣਾ	11
▁ਵਿਧੁਤ	11
▁ਜੇਟ	11
▁ਸ਼ਾਲੀ	11
▁ਚਿੰਤ	11
▁ਅਸਿਥ	11
▁ਖੋਲਣ	11
▁ਚੁਸਤ	11
▁੫੪	11
▁ਬਨ	11
▁ਸੁਪ	11
▁ਉਡ	11
▁ਮਹਾਂਦੀਪ	11
ਭਾਂਤ	11
▁ਲਿਆਈ	11
▁ਮੋਨ	11
▁ਲਹਿਰਾਉਂਦ	11
▁ਫ਼ੜ	11
▁ਸਰਵਪ੍ਰ	11
▁ਚਿੜਚਿੜਾਪਣ	11
▁ਸਕੀਏ	11
▁ਯਕੀਨ	11
ਪਕਾਓ	11
ਘੁਲਣਸ਼ੀਲ	11
▁ਪਸਰ	11
▁ਅਧਿ	11
▁ਤਬਾਹ	11
▁ਗਤੀਸ਼ੀਲ	11
▁ਮੈਂਬਰਾ	11
ਹੀਨ	11
▁ਸਰਵੇ	11
▁ਬੁੱਢਿਆਂ	11
▁ਚੌ	11
▁ਬਿਨ੍ਹਾ	11
▁ਬਨਾਵਟੀ	11
▁ਕੀੜੀਆਂ	11
▁ਬੁਲਾ	11
ਮੰਦਰ	11
ਪੂਛ	11
▁ਵੱਟਾ	11
▁ਚੀਕਣ	11
▁ਜੱਚਾ	11
▁ਸਾਧਨਾ	11
▁ਅਫਰੇਵ	11
▁ਫੈਸ਼ੀ	11
ਉੱਚੀਆਂ	11
▁ਬਲਾਕ	11
▁ਸੁਗੰਧਿਤ	11
▁ਜਲਧਾਰਾ	11
ਦਸਤ	11
▁ਹਾਵੜਾ	11
▁ਕਾਕ	11
▁ਮਰੂ	11
▁ਮੂਲਕ	11
▁ਨਿਭਾ	11
▁ਹਨ੍ਹੇਰ	11
▁ਏਮ	11
▁ਇੱਛ	11
ੇਸਟ	11
ਦੂ	11
ਟਿਕਾ	11
ਾਬ	11
▁ਬੈਲਗੱਡੀ	11
ਥਰਾਲੀ	11
▁ਕਿਲਿਆਂ	11
▁ਭਗਨਾਵਸ਼ੇਸ਼	11
▁ਵਾਸਤੂਸ਼ਿਲਪ	11
▁ਚਾਹੁਣ	11
▁ਥੇ	11
▁ਮਸਾਲੇਦਾਰ	11
▁ਵਿਵ	11
ਨੀਸ਼ੀਆ	11
ਤੋਂਗ	11
▁ਕਾਰਗਿਲ	11
▁ਬੱਚ	11
▁ਊ	11
ਰਾਜਨੀਤਿਕ	11
੩੮	11
▁ਬ੍ਰੇ	11
▁ਸ਼ਿਕਾਰੀ	11
▁ਜੋਰਾ	11
▁ਜਹਾਜ	11
ਨਮ	11
▁ਬੰਸ	11
▁ਤਰਜ	11
ਕਿਤੇ	11
▁ਮਾਰਕ	11
ੱਪਾ	11
▁ਕੰਠ	11
▁ਚਕ	11
ੁਕ	11
ਟੇਬਲ	11
▁ਕਲੀਨਿਕ	11
▁ਪੈਸਾ	11
▁ਫੇਰ	11
▁ਡਿਊ	11
▁ਕੀਟਨਾਸ਼ਕ	11
ਇਥੇ	11
ਫਲ	11
ਥੇਰੈਪ	11
▁ਡੈ	11
ਾਟੀ	11
▁ਮੋਰਾਲੂ	11
ਰੀਆਂ	11
▁ਲਕਸ਼ਮੀ	11
▁ਫ਼ਸ	11
ਛ	11
▁ਪ੍ਰੀਖਿਆ	11
ਨਿਰਮਲ	11
▁ਛਾਇਆ	11
▁੨੦੦੮	11
▁ਕੋਰਟ	11
ਪੀਠ	11
ੁੱਲਗੋਭੀ	11
▁ਟ੍ਰੈਵਲ	11
▁ਖਬਰ	11
▁ਪਰਮਾਰ	11
▁ਸੋਲ	11
▁ਬਰਗ	11
▁ਬਾਲਕ	11
▁ਝਰੋਖੇ	11
▁ਮਲਿਕ	11
▁ਹੇਮੀ	11
▁ਚਟਾਨ	11
▁ਉਗ	11
▁ਸੰਭਾਵ	11
▁ਛਾਈ	11
▁ਬਹਾਨ	11
▁ਕੋਸ਼	11
▁ਵਿਯੂ	11
੍ਰਿਕ	11
▁ਹਾਜ	11
▁ਕਿਹੋ	11
▁ਦਰਸ਼ਕਾ	11
ਰਤੀ	11
▁ਪੁਰਤਗਾਲੀ	11
▁ਵ੍ਯ	11
▁ਅਸਥੀ	11
ੁਲੀ	11
ਲਿਕ	11
▁ਸਥਾਪਤਯ	11
▁ਮੁਰਾਦ	11
▁ਪ੍ਰਤੀਯੋਗਤਾ	11
▁ਮਿਲਾਵਟ	11
▁ਡੇਵਿ	11
ਵਾਦੀ	11
੩੪	11
▁ਉਦ	11
ਫ਼ਿਸ਼	11
▁ਯਾਤ੍ਰਾ	11
ਾਊਨ	11
▁ਸਰੋਗੇ	11
▁ਝੜਨਾ	11
ਅਵਸਥਾ	11
▁ਡੱਬਾ	11
▁ਸਿਲ	11
ਸਕੋਪ	11
▁ਸੱਕਰ	11
ਮੁੱਖ	11
▁ਗੇਜ	11
▁ਕੁੱਤੇ	11
▁ਸ਼ੂਟ	11
ਬਾਲ	11
▁ਖੇਤਰਾ	11
▁ਪ੍ਰਾਕਿਰਿਤ	11
ਵਡ	11
▁ਕੈਂਡੀ	11
▁ਲੈਂਸ	11
▁੪੩	11
▁ਫੈਲਾਉਣ	11
▁ਘੁੰਮਾਉਂਦ	11
▁ਸ਼ਾਰ	11
▁ਛਪਰਾ	11
▁ਮੁਫ	11
▁੩੭	11
▁ਵਿਟਾਮਿਨਸ	11
▁ਸਥੂਲਤਾ	11
੍ਰਾਸਨ	11
ਿਕਮ	11
▁ਦੇਸ਼ਾ	11
▁ਗੁਆਂਢ	11
ਲੇਟ	11
▁ਚੈਨਲ	11
▁ਸ਼ਿਯਾ	11
▁ਫ਼੍ਰੈਕ	11
▁ਇਨਾਮ	11
੫੮	11
▁ਵਗਣਾ	11
▁ਸਟ੍ਰੇਚ	11
ਜ਼ੀ	11
੍ਰੇਸ਼ਨ	11
▁ਦਰਾਰ	11
▁ਹੜ	11
▁ਅਵਧ	11
▁੫੩	11
▁ਕਾਮਯਾਬ	11
▁ਇਕਾਦਸ਼	11
ਪਿਆਰ	11
ਸ਼ਵਾਸਨ	11
▁ਫ੍ਰਾਈ	11
▁ਘੁਮਾ	11
▁ਤਾਮ	11
▁ਮੇਰੂਦੰ	11
ਕੋਟੀ	11
▁ਪੁਰਾਤਾਤਵਿਕ	11
ਕਸੋਲ	11
▁ਕੁੱਦ	11
▁ਪਾੜ	11
▁ਸੰਮਤੀ	11
▁ਅੰਨੇਪ	11
ਰੂਈ	11
ਪਸ	11
▁ਆਵ	11
▁ਪੁਸ਼ਠ	11
▁ਸੂਰਤ	11
▁ਏਅਰਲਾਈਨ	11
ਹਦ	11
▁ਫਾਯ	11
▁ਮਾਦ	11
▁ਫ਼ੈਟ	11
▁ਸਚਮੁੱਚ	11
▁ਪ੍ਰਤਿਮਾ	11
ਲਣਾ	11
▁ਬਗੈਰਾ	11
▁ਏਜੰਸ	11
▁ਸੁਥਰ	11
▁ਮਧੂ	11
▁ਯੂਰੋ	11
▁ਸਟਾਕ	11
▁ਭਾਂਤੀ	11
▁ਡੁੱਬਣ	11
▁ਸੋਮਵਾਰ	11
▁ਬ੍ਰਿਟ	11
▁ਸਹੀਂ	11
▁ਗੂੜ੍ਹ	11
▁ਪ੍ਰਾਚੀਰ	11
▁ਪਰਿਧ	11
▁ਸੁਭਾ	11
ਜ਼ੁਕ	11
ੋਨਸ	11
▁ਲਚੀਲਾਪ	11
▁ਵਾਲਿਆ	11
ਹੜ	11
ਮਾਈ	11
▁ਮਨਾਏ	11
▁ਸਕਣਗੇ	11
ਸਤਾ	11
▁ਸਿਲਸਿਲਾ	11
▁ਕਮਾਊਂ	11
▁ਤੈਰਾਕੀ	11
ਦਿਮਾਗ	11
ਿਹਾਰ	11
ਵਰਮ	11
▁ਰਿਸ਼ਤੇਦਾਰ	11
▁ਸੋਮੇਸ਼ਵਰ	11
▁ਆਰਨਿਕਾ	11
▁ਪੂਜ	11
▁ਮੱਥਾ	11
▁ਰਾਸ਼ੀ	11
▁ਬਦਲਦੀ	11
▁ਸਿਰੋਹ	11
▁ਉਵੇਂ	11
▁ਮੱਲ	11
▁ਤੰਤਰਕਾ	11
▁ਫੋਬ	11
▁ਲਲਿਤ	11
▁ਬਿਲਡਿੰਗ	11
ਬਗੀਚੇ	11
▁ਚਾੱਕਲੇਟ	11
ਸਟਾਇਲ	11
▁ਬਡ	11
▁ਸੇਲ	11
▁ਸੰਗ੍ਰਹਿਆਲ	11
ਜਨਨ	11
▁ਦੁਆਰਕਾ	11
▁ਕੈਜਪੁੱਟ	11
▁ਕੈਥੇਟ	11
▁ਸ਼ਬਜੀਆ	11
▁ਘੁੜਸਵਾਰ	11
ਾਇਟ	11
▁ਵਾਸਤੂ	11
▁ਟੁ	11
▁ਸਮੁਚ	11
ਰਾਪ	11
▁ਇਕੱਲਾ	11
ਅਲਵਰ	11
▁ਪੰਡਿਤ	11
ਤਿਆਗ	11
ਨਾਗ	11
▁ਕਰਵਟ	11
▁ਸ਼੍ਰੇਸ਼ਠ	11
▁ਇੰਨਜ	11
ਪੌਦਿਆਂ	11
▁ਭੂਰਾ	11
▁ਸਿੱਟ	11
▁ਸਕੈਨ	11
ਵੈਸਲੀਨ	11
ਡਵੈਂਚਰ	11
ਪੋਲ	11
ਕੈਂਸਰ	11
ੱਯ	11
▁ਕਠਪੁਤਲੀ	11
▁ਟਰੈਵਲ	11
▁ਥਾ	11
ਮਾਵਾਂ	11
▁ਡਿਗਦ	11
▁ਵਾਲਵ	11
▁ਭਗਵਤ	11
▁ਵਿਰਾਨ	11
▁ਰਵਿੰਦਰ	11
▁ਫੜ੍ਹਨ	11
▁ਮਹਾਂਉਤਸਵ	11
▁ਸੈਕੜ	11
▁ਰੈਸਟੋਰੈਂਟ	11
▁ਪਗਡੰਡੀ	11
▁ਗੁੰਮ	11
▁ਨਿਰਵਾ	11
▁ਸ੍ਰੀਲੰਕਾ	11
▁ਮੰਨੋਂ	11
▁ਸ਼ਰਨ	11
▁ਛਤੀਸ਼ਗੜ	11
ਿਚ	11
▁ਗੌ	11
ਅਤਾ	11
▁ਜਾੱਨ	11
▁ਅਛੂਤ	11
▁ਹੇਠ	11
ਸਥਿਤ	11
▁ਰੇਟਿਨਾ	11
▁ਮਲੇਸ਼ੀਆ	11
▁ਟੀਕਾਕਰਣ	11
ਾਲੇ	11
ਡੋਗਰਾ	10
▁ਤਤਕਾਲ	10
▁ਪਰਿਵਰਤ	10
ਦਾਨੀ	10
▁ਸਪੈਸ਼ਲ	10
▁ਮੁੰ	10
▁ਗਾਰਡ	10
▁ਮਿਸਾਲ	10
▁ਬਣਵਾਈ	10
ਜਾਓ	10
▁ਬੈਚ	10
ਲਰ	10
▁ਸਕਦੀਆ	10
▁ਡੰਗ	10
▁ਪਾਉਂਦੀਆਂ	10
▁ਆਸਟ੍ਰੇਲੀਆ	10
▁ਭਵ੍ਯ	10
▁ਕਬੀਲਿਆ	10
▁ਖਿਚ	10
ੀਡਿੰਗ	10
▁ਨਕਸ਼	10
▁ਹਾਈਡ੍ਰੋਜ	10
▁ਸ਼ਹਡੋਲ	10
ਇਕਾਗਰਤਾ	10
ਿਨਾ	10
ਾਨਾ	10
ਮੇਲਨ	10
▁ਪਲਾਂ	10
▁ਸ਼੍ਰੀਕ੍ਰਿਸ਼	10
▁ਅਸਾਵਧਾਨੀ	10
▁ਮਿਹਦ	10
▁ਏਲਿ	10
▁ਚੌਵੀ	10
▁ਪਿਲਾਓ	10
▁ਟ੍ਰੈਕੋਮ	10
▁ਕਾਰਪੋਰੇ	10
ਦੁਆ	10
ਸਾਧਾਰਨ	10
▁ਅਮਲਤਾ	10
▁ਲਾਚੁੰਗ	10
▁੪੫੦	10
▁ਫੰਗ	10
▁ਸੌਂਣ	10
▁ਮਾਂਸ	10
▁ਵਿਸ਼ੁੱਧ	10
ੁੱਤੀ	10
ਂਦੇ	10
▁ਡਿਪਾਰਟਮੈਂਟ	10
▁ਬ੍ਰੈਡ	10
▁ਸ੍	10
▁ਕਿਨਾਰਾ	10
▁੧੬ਵੀ	10
▁ਪਨਪ	10
▁ਐਨਰਜ	10
▁ਰੋਮਾਂਟ	10
ਰਕਤਾਲਪਤਾ	10
ਸ਼ਰਾਬ	10
▁ਬਾਜ਼	10
▁ਕੌਰ	10
▁ਪਬਲਿ	10
▁ਪ੍ਰ੍ਕਾਸ਼	10
▁ਸਿਟ	10
▁ਐਤਵਾ	10
▁ਇਸੋਫ਼ਿਗ	10
▁ਅਲੰਕ	10
ਚੁਲੀ	10
▁ਥਾਈਰਾਈਡ	10
▁ਹਰਿਪੁਰਧਾਰ	10
▁ਜਾਗਣ	10
▁ਸਪਾਈ	10
▁ਸਤੰਭਾਂ	10
▁ਲਿਆਉ	10
ਰੂਵਿ	10
ਨਲੀ	10
▁ਸੰਘਣੀ	10
ਬਾਣ	10
ੱਟੀ	10
▁ਸੁੰਦਰਬਨ	10
ਾਦਾਸ	10
▁ਲਾਖ	10
▁ਬ੍ਰਾਹਮਣ	10
▁ਫਾਈਬ੍ਰ	10
▁ਕਮਲਾ	10
▁ਖ਼ੂਬ	10
▁ਅਖ	10
▁ਗਵਾ	10
▁ਸਪਾਈਨ	10
▁ਮਠ	10
▁ਪੰਤ	10
ਣ੍ਦ	10
▁ਫਰਾਂਸ	10
੧੯੭੭	10
▁ਝਾਕ	10
ਬਰਗ	10
▁ਮੋਹਰ	10
▁ਲਿਪਟ	10
▁ਵਿਗੜਨ	10
▁ਲੈਂਡ	10
▁ਗੁਬਾਰ	10
▁ਮਜਬੂਰ	10
ਤਰਾ	10
▁ਘੇਰੇ	10
▁ਪੌਣ	10
▁ਟਿਕਾਣ	10
▁ਮਹਾਵਤ	10
▁ਨਰੇਸ਼	10
▁ਮਾਡ	10
ਪਾਰਾ	10
▁ਦੁਆ	10
▁ਸਵਿ	10
▁ਦੱਸੋ	10
▁ਨਿਸ਼	10
▁ਸੰਗ੍ਰਹਾਲ	10
▁ਮਿਲਾਉ	10
ਰੋਹ	10
▁ਵਾਸੀ	10
▁ਧੁੰਦਲਾ	10
▁ਅੰਨ੍ਹਾਪ	10
▁ਏਰ	10
▁ਅਜਗਰ	10
▁ਰੁੱਖ	10
▁ਜਮ	10
ਗਵਾਰ	10
▁ਦੰਪਤੀ	10
▁ਕੋਟਾ	10
▁ਛਵੀ	10
ਿਯਾਨ	10
▁ਬਿਰਤਾਂਤ	10
▁ਲਿਖੀ	10
▁ਉਠਾਉ	10
▁ਥੱਕਿਆ	10
ਾਹਤ	10
▁ਆਦਰ	10
▁ਕਿੰਗਸ	10
▁ਪਤਲੀਆਂ	10
▁ਟੱਟੀ	10
▁ਗਵਰਨਰ	10
ਜਨਸਕਾਰ	10
▁ਫ਼ਾਈਬਰ	10
▁ਗੋਂਪਾ	10
▁ਫੁਹਾਰੇ	10
▁ਲਕੀਰ	10
▁ਦਹੀ	10
▁ਟੇਢਾ	10
▁ਸਾਮਰ	10
▁ਹੈਜ਼ਾ	10
▁ਰੋਹ	10
▁ਦੋਨੇ	10
▁ਪਛਾ	10
▁ਪਵਨ	10
▁ਰੇਗਿਸਤਾਨੀ	10
ਕ੍ਰਿਤੀ	10
ਪਾਸੇ	10
▁ਪਵੇਗੀ	10
ਮਰ	10
▁ਦੰਤਕਥਾ	10
▁ਕਸ	10
▁ਪਹਿਨਣਾ	10
ਾਕਿਰ	10
ੋਲਾ	10
▁ਹਿਮਾਲੀ	10
▁ਮਾਮਾ	10
▁ਪੜ	10
▁ਨਸ਼ੀਲੀ	10
੍ਰੀ	10
▁ਤਿਰੂਵ	10
ੰਨਤ	10
▁ਸੰਖੇਪ	10
▁ਐਗਜ਼ੀਮਾ	10
▁ਤੈਰਨਾ	10
ਵਿਸ਼ਾਣ	10
▁ਸ਼ੀਤਲਾ	10
▁੪੬	10
▁ਕੁਤਰ	10
੍ਰਿਤੀ	10
▁ਫਰਿ	10
!	10
▁ਕਦ	10
▁ਚਹਿਚਹਾਹਟ	10
▁ਫੈਟਸ	10
▁ਅਕਸ਼	10
ਰਕਸ਼ਣ	10
▁ਆਤਸ਼ਕ	10
▁ਜ਼ਿੰਮੇਵਾਰੀ	10
▁ਸਾਇੰਸ	10
▁ਜੋੜਿਆ	10
ਚੇਤਨ	10
ਮਿਟ	10
▁ਜੈਵ	10
੨੯	10
▁ਕਹਾਵ	10
ਾਂਗਲਾ	10
▁ਸ਼ਬਜੀ	10
੍ਯਾਗ	10
▁ਜਿਉਂਦਾ	10
▁ਪਾਈਲੋਰੀ	10
▁ਹਾਲੀਵੁ	10
ਸੀਨ	10
ਲੋਮ	10
▁ਬਲਵਾਨ	10
▁ਚਿੱਤ	10
▁ਬਾਹ	10
ੈਕਸ਼ਨ	10
▁ਵਿਲੇਜ਼	10
▁ਕ੍ਰੋ	10
▁ਹੇਂਗਗਲਾਈਡਿੰਗ	10
▁ਲਿਹਾਜ	10
▁ਹੇਠਲੀ	10
▁ਜੁਟ	10
▁ਪ੍ਰ੍ਗਤੀ	10
▁ਅਨਿਦਰਾ	10
▁ਝਪਕੀ	10
▁ਫ਼ੌ	10
▁ਕਲਕ	10
▁ਘਿਓ	10
▁ਸੰਤੁਸ਼ਟ	10
▁ਮ੍ਰਿਤ	10
▁ਕੀਮੋਥੇਰ	10
▁ਅਨੂ	10
ਟਰਸ	10
▁ਫਸਲ	10
ਦਿਆਂ	10
▁ਕਹਿੰਦ	10
▁ਚੌਗਾਨ	10
▁ਬੁੱਲ	10
▁ਮੇਜ਼	10
▁ਵਰਮਾ	10
▁ਨਿਗਲਣ	10
▁ਪੀਤਾ	10
▁ਸਵੱਛ	10
▁੨੦੦੯	10
ਰੁ	10
ਵਰਣ	10
▁ਜੁੰਮ	10
▁੭੭	10
▁ਮੰਨੋਰੰਜਨ	10
▁ਮਿਨੀ	10
▁ਆਸ਼ਾ	10
ੇਕਰ	10
▁ਬਿੱਲੀ	10
ਸਵੈਟਰ	10
▁ਸੋਹਨ	10
▁ਫ੍ਰਾਂਸਿਸ	10
▁ਜਾੜ੍ਹ	10
▁ਪ੍ਰਸਤ	10
▁ਨੰਦ	10
ਬੂੰਦ	10
▁ਫਿਲ	10
ਗਣ	10
▁ਸੋਖ	10
੍ਲ	10
▁ਵਿਆ	10
▁ਮਨੋਰੋਗ	10
▁ਅਖਾੜ	10
▁ਮੂੜ	10
▁ਇਕਾਈ	10
▁ਆਟਾ	10
▁ਤੁਰਨਾ	10
▁ਭਿ	10
▁ਪੇਪਿਟ	10
▁ਮਗਰ	10
▁ਅਗਮ	10
▁ਕ੍ਰ੍ਮ	10
▁ਬਰੰਗ	10
ਸ਼ੋਧ	10
▁ਜ਼ੋਖ	10
▁੨੦੦੧	10
▁ਉਥੋ	10
▁ਉਦਾਸੀ	10
ਫਾ	10
ਖੇ	10
▁ਬੇਗਮ	10
▁ਡੁਬ	10
▁ਨੈਪ	10
▁ਕਾਸ	10
▁ਰਾਜਵੰਸ਼	10
▁ਜ਼ਿਰਾਫ	10
▁ਇਕੋਨਾਈਟ	10
▁ਮਹਾਬਲੇਸ਼ਵਰ	10
▁ਗੀਤਾ	10
▁ਰਾਮਕ੍ਰਿਸ਼	10
੍ਹਾਂ	10
▁ਜੀਵਣ	10
▁ਟ੍ਰੌਂਗਸਾ	10
▁ਫਾਈਲੇਰ	10
▁ਜਾਵਾਂਗੇ	10
▁ਅਧੂਰਾ	10
▁ਜਾਣਕਾਰ	10
▁ਬਿਸਤਰਾ	10
▁੧੭੫	10
▁ਪ੍ਰ੍ਵਾਸ	10
▁ਨਾਰਾਇਣ	10
▁ਦਿਵਾਉਣ	10
▁ਉਪਕਰਨ	10
ਸ਼ੋਰ	10
▁ਵੀਰਤਾ	10
▁ਯਾਤਾ	10
▁੯੬	10
▁ਕੋਠੜੀ	10
▁ਘੋਰ	10
▁ਰਾਵਲ	10
▁ਪ੍ਰਸੂਤ	10
ਰੀਜ	10
▁ਛੂ	10
▁ਦਰਸ਼ਨੀ	10
ਕੱਲ	10
▁ਸਜੀਵ	10
▁ਮਾਊਂਨਟੇਨ	10
▁ਕਾਠ	10
੧੦੪	10
▁ਸਿਨੇਮਾ	10
▁ਉਪਹਾਰ	10
▁ਇੰਨਫ	10
▁ਸਿੰਘਾਪੁਰ	10
▁ਕੌਲ	10
ਨਡ	10
▁ਚੰਦੇਲ	10
▁ਪਵਿੱਤਰਤਾ	10
▁ਰੋਣ	10
▁ਅਪਚਨ	10
▁ਬੁ	10
ੇਧਰ	10
▁ਫਿਜ਼ੀ	10
▁ਫੁੱਲਣਾ	10
▁ਸਥਾਪਤ	10
▁ਪ੍ਰ੍ਜਾਤੀਆਂ	10
▁ਪਿੰਜਣੀ	10
ੰਤਰ	10
▁ਆਕਸਾਈਡ	10
▁ਕਿੰਨੀਆਂ	10
ਜਿੱਥੇ	10
▁ਫੇ	10
▁ਹਿਮਨਦ	10
▁ਸੰਨਿਆਸੀ	10
▁ਰਾਈ	10
ਤਰਿਕ	10
▁ਜਾਗ	10
▁ਕਾੱਲੇਸਟ੍ਰਾ	10
▁ਫਰਨ	10
▁ਸ਼ਾ	10
ਹੇਜ਼	10
▁ਪਰਸਨ	10
▁ਮੋਚ	10
▁ਅਪੈਂਡਿ	10
▁ਮੁਸ	10
ਸੀਂ	10
▁ਮਤਸਯਾ	10
▁ਅਰਥਰਾਈਟਿਸ	10
▁ਥਨ	10
▁ਦੁਰਲ	10
▁ਆਉਣੀ	10
▁ਸਾਂਚ	10
▁ਉਭਰਨ	10
ਗਿਰਦ	10
▁ਪ੍ਰਣ	10
▁ਮੰਜ	10
▁ਚਾਕ	10
ਪਲ	10
▁ਸਾਈਟਿਕ	10
▁ਜਵਾਰ	10
▁ਭਰਾ	10
▁ਬੱਗੀ	10
ੋਵ	10
▁ਨੰਹੁ	10
ਕੋਰ	10
▁ਦਫ਼ਨ	10
▁ਕਪਾਟ	10
▁ਲੱਛਮ	10
▁ਬੈਬੂਨ	10
ਰੋਟੀਨ	10
ਮੂਲ	10
▁ਸਫੇਦ	10
▁ਲਿਪਿਡ	10
▁ਰਾਮੇਸ਼ਵਰ	10
▁ਰਕਤਵਾਹਨੀਆ	10
▁੨੦੦੬	10
▁ਰੈਸ਼	10
▁ਖਦਾਨ	10
▁ਵੇਂ	10
▁ਪੁੱਛਣ	10
▁ਸਿਰਾ	10
▁ਸੈਂਟੀ	10
▁ਕਾਰੀਗਰ	10
▁ਵਿਸ਼ੇਸ	10
ਥਾ	10
▁ਗੁਗ	10
ਲਟ	10
▁ਸਲਫ	10
▁ਹਿਤਕਾਰੀ	10
▁ਗਰਾਰ	10
▁ਅਨੰਤ	10
▁ਇਰਦ	10
▁ਚਿਰ	10
▁ਉਦੇ	10
▁ਬਾਯੋ	10
ਰਵਾਦ	10
ਸ਼ਨਲ	10
▁ਸੂਟ	10
▁ਹਿਲਸ	10
▁ਸੰਭਾਲਣ	10
▁ਗੀਤਾਂ	10
▁ਸਹਸ	10
▁ਲਿਫਟ	10
▁ਡਾਲਫਿਨ	10
▁ਵਿਸ਼ਵਵਿਦਿਆਲਿਆ	10
▁ਓਕ	10
▁ਕਵਾਥ	10
▁ਪ੍ਰੋਫੈਸ	10
▁ਸੂਰਜਕੁੰਡ	10
੮੦੦	10
ਲਾਰਡ	10
▁ਵੈਟ	10
▁ਹਜ਼ਾਰਾ	10
▁ਗਿਯਾ	10
▁ਰਾਜਕੀ	10
▁ਇਕੱਤਰ	10
▁ਲਾਇਲਾਜ	10
ਗਨਲ	10
▁ਵਯਾ	10
▁ਸੌਦਾ	10
▁ਡੇਨ	10
▁ਪਕਾਉਣ	10
ਹਾਡ	10
ਪਲਾਈ	10
▁ਗੈਸਿਟ੍ਰ੍	10
▁੧੮੦੦	10
ਪ੍ਰਕਾਸ਼	10
▁ਡੂੰਘੇ	10
▁ਸਮੇਟ	10
ਸੁਥਰ	10
▁ਛੋਲਿ	10
▁ਵਗਣ	10
▁ਪੋਰਟਰ	10
▁ਸਰਵਜਨ	10
ਜੰਤੂ	10
▁ਓਸਟੀਓ	10
ਮਿਕ	10
▁ਆਈਸੀ	10
▁ਸੋਚਿਆ	10
▁ਥਰੋਚ	10
ੀਜ਼	10
▁ਤਪ	10
▁ਟੀਚ	10
▁ਏਸੇਂਸ	10
▁ਕਾੱਰ	10
ਗਨਵਾੜੀ	10
▁ਪੂਜਣ	10
▁ਮੁਕਟ	10
▁ਦੀਅ	10
ੀਮਾ	10
ਸਾਈਕਲ	10
▁ਪੂੰਜ	10
ਜੰਨਤ	10
▁ਆਸੇ	10
]	10
▁ਤਲਿਆ	10
▁ਉਨਮਾਦ	10
ਜ਼ਲ	10
▁ਜ਼ਹਿਰੀਲਾ	10
▁ਕਿਸ਼ਮਿਸ਼	10
▁ਕ੍ਰਿਸਟਲ	10
ਵਰਜ	10
▁ਇਜ਼	10
▁ਬਹਾਦਰ	10
gerd	10
ਬਾਦੀ	10
ਹੀਣ	10
▁ਪੋਰਬੰਦਰ	10
ਉੱਚ	10
▁ਇਮਯੂਜ	10
ਰਿੰਗ	10
▁ਉਕੇਰ	10
▁ਭੈ	10
▁੧੧੭	10
▁ਸ਼ਲਯ	10
ਮਵਾਰ	10
▁ਧੀਮ	10
▁ਲੀਥ	10
▁ਉਪਨਗਰ	10
▁ਕਾਂਤੀ	10
ਰਜ਼	10
▁ਹੰਝੂ	10
▁ਸ਼ਿਲਪਕਾਰ	10
▁ਲਿਖਣ	10
▁ਡਰਿੰਕ	10
ਭਿਅਤਾ	10
▁ਜੁਲਦ	10
▁ਲਿਵਰ	9
ਲੂਮ	9
▁ਜਾਣਗੀਆਂ	9
▁ਕੇਈ	9
▁ਹਿਤਕ	9
▁ਮਿਟਾ	9
ਵਾਉਣਾ	9
▁ਤੇਂਦੂਆਂ	9
▁ਮਾਇਆ	9
ਵਿਜ਼	9
▁ਮਾਥ	9
ੇਰਾਨ	9
੯੩	9
▁ਤਹਿਸੀਲ	9
ਥਾਨ	9
▁ਪਿਪਰ	9
▁ਮੈਡੀ	9
▁ਸੈਕਟਰ	9
▁ਮਾਰਵਾੜ	9
▁ਨਪੁੰਸਕਤਾ	9
▁੧੯੯੯	9
▁ਏਰੋਮਾ	9
ਪੋਰਟਬਲੇਅਰ	9
▁ਨਿਗਲ	9
▁ਫਿਸਲਣ	9
▁ਬਚਾਉ	9
▁ਬਰਗਦ	9
▁ਰਿਫ਼ਲਕਸ	9
▁ਇਸੋਫ਼ਿਜ	9
ੱਮ	9
੧੯	9
▁ਹਰਿਆ	9
▁ਬਸੰਤਾਗਮ	9
ੁਲਾ	9
ਰੀਅਲ	9
ਿਰਕ	9
ਸੁਡੌਲ	9
▁ਗਹਿਣੇ	9
਼ਾ	9
▁ਔਸ	9
▁ਪ੍ਰਕ੍ਰਿਤ	9
▁ਤੋਰ	9
▁ਪੀਰੀਅਡ	9
▁ਫ਼ਿਜਿਓਥਰੈਪੀ	9
▁ਜੋਂਗ	9
▁ਸਟ੍ਰੋਕ	9
▁ਸਿਨੇਪਸ	9
ਕੁੰਭ	9
ਫ਼ੀਵਰ	9
▁ਪ੍ਰਾਥਨਾ	9
▁ਵਾਈਟ	9
▁ਛਿੱ	9
▁ਏਰੋਮਾਥੈਰੇਪੀ	9
ਕਰਨ	9
▁ਏਲ	9
▁ਕਾੱਫ਼ੀ	9
ਖੁਦ	9
▁ਸਿਪਾਹੀ	9
ਵੇਗਾ	9
▁ਸੰਪਰਦਾਇ	9
▁ਸੇਰ	9
ਾਇਲ	9
▁ਗੋਮ	9
▁ਕਰਤਾ	9
▁ਅਤਿਕ	9
▁ਬਾਈਕਿੰਗ	9
▁ਪ੍ਰ੍ਤੀਕ	9
▁ਵਹਿਮ	9
ਜ਼ਾਈਮ	9
ੰਸ	9
ਮੇਟ	9
▁ਭਾੜ	9
ਚਸ਼ਮਾ	9
ਅਪ	9
▁ਝੂਲੇ	9
▁ਫਟਣ	9
▁ਡ੍ਰਾਈ	9
▁ਐਕਸਟਰ	9
▁ਆੱਟੋ	9
▁ਸੈਮ	9
ਦੁਰਗ	9
▁ਬਗੀਚਿਆਂ	9
▁ਵਿਰਾ	9
▁ਪੱ	9
▁੧੪੫	9
▁ਪਕਵਾਨ	9
▁ਝੋਪੜੀ	9
ਫਾੜ	9
ਆਪਣੇ	9
ਅੰਦਾਜ਼	9
▁ਪਰਿਮਾਣ	9
ਸਵਰੂਪ	9
▁ਜਿਉਣ	9
ਸ਼ਿਲਾਜੀਤ	9
ਮੱਲ	9
ਸੇਲ	9
▁ਆਂਤੜੀ	9
▁ਕੈਂ	9
▁ਰਸਾਵ	9
▁ਲਾਇਨ	9
▁ਚੂ	9
▁ਕਲੀ	9
▁ਦੇਖਰੇਖ	9
▁ਪਾਟਲੀਪੁੱਤਰ	9
▁ਚੀਲਾ	9
▁ਅਣਚਾਹੇ	9
▁ਆਗਰ	9
▁ਘਾਇਲ	9
ਯੂਰ	9
▁ਐਨਜਾਇ	9
▁ਫ਼ਿਸ਼	9
▁੧੦੨	9
▁ਟਕਰਾ	9
▁ਵੇਖੋ	9
ਬੜੀ	9
▁ਗੋਰਖ	9
▁ਖਵਾਓ	9
▁ਸਿੱਕ	9
▁ਲੱਕ	9
▁ਪਿਚ	9
▁ਲੰਘ	9
▁ਭਗਤਜਨ	9
▁ਨੇਚਰ	9
▁ਝੱਲ	9
▁ਵਾਸ਼	9
▁ਬੀਜਾਪੁਰ	9
▁ਖੇਡਦੇ	9
▁ਵਾਕਿਆ	9
▁ਅੰਚੁਤੇਂਗ	9
ਚੰਦ	9
▁ਪਾਲੀ	9
ਨੂ	9
▁ਚਮ	9
▁ਸਤਾ	9
▁ਧੁੰਧਲਾ	9
▁ਸਟ੍ਰੈ	9
▁ਰੋਲ	9
▁ਵਾਸਤੂਕਾਰ	9
▁ਨਿਪਟ	9
▁ਪਰਜੀਵੀ	9
▁ਰਜੋਨਿਵ੍ਰ	9
▁ਪੋਲੀ	9
ਾਊਂਡ	9
ਪੁੱਤਰ	9
ਧਤਾ	9
▁ਬੇਦਨੀ	9
▁ਰੋੜ	9
ਾਲਯ	9
▁ਕੋਸ਼ਾਣੂ	9
▁ਕਹੀਏ	9
▁ਸਨਬਰਨ	9
▁ਆਫਿਸ	9
ਖੂ	9
ੱਖ	9
▁ਤਤਕਾਲੀ	9
ਰਹਮ	9
▁ਅਧੁਨਿਕ	9
ਖਾਨਾ	9
▁ਪਾਵੇ	9
ੋਟ	9
▁ਫੜੋ	9
ਓਪ	9
ਾਮਾ	9
▁ਸ਼ਵਸਨ	9
▁ਰੱਖਿਅਕ	9
▁ਮਨੋਕਾਮਨਾ	9
▁ਧੰਨ	9
ੇਠ	9
▁ਅਸਮਾਨਤਾ	9
▁ਓਦੋ	9
▁ਛਿੜਕਾ	9
ਸਿੰਗ	9
ਕ੍ਰਿਤ	9
੬ਃ	9
▁ਮਰੂਸਥ	9
▁ਕੋਰਲ	9
ੋਲਿਨ	9
਼ਮ	9
▁ਸੰਗ	9
▁ਸਥ	9
▁ਪਿਛ	9
▁ਨੈਸਰਗਿਕ	9
▁ਘੁੰਮਾਉਣ	9
▁੯੭	9
ਆਕਸਾਈਡ	9
▁ਸ਼ੀ	9
▁ਪਹਿਲੂ	9
ਲੌਂਗ	9
ਸਿਵ	9
ਭੱਦਰ	9
ਾਇਕ	9
▁ਲੋਥਲ	9
▁ਵਿਜਨ	9
ੇਤਨ	9
ਤ੍ਰ	9
▁ਉੱਨਤ	9
ਵਿਤ	9
ਸ਼ਣ	9
▁ਸ਼ਰਣ	9
੫੫	9
▁੧੦੩	9
▁ਕੁਮਾਊ	9
ਲਵਾ	9
▁ਲੇਖਕ	9
▁ਦੁਗਣ	9
▁ਮਿਠਾ	9
▁ਪਹੁ	9
▁ਆਲਮ	9
▁ਚਕਾਚੌਂ	9
ਸ਼੍ਰੀ	9
▁ਮਸੂੜ	9
▁ਜੰਬੂ	9
▁ਬੀਮਾਰ	9
▁ਪੋਰ	9
ੂਰੀ	9
▁ਯੋਗਾਸਨ	9
▁ਰੇਨ	9
ਬੋ	9
▁ਬੈਠੀ	9
▁ਲਹਿਰ	9
▁ਪ੍ਰਵਾਸ	9
ਵਣ	9
▁ਮੁਕ	9
▁ਸਫ	9
▁ਅਨੌਖ	9
▁ਭਾਉਂਦੀ	9
▁ਐਕਸਪਰਟ	9
▁ਗਲਣ	9
ਡਾਂਡਾ	9
▁ਲੋਭ	9
▁ਫੁਰਤੀ	9
ਗਾਵ	9
▁ਘੁਲ	9
▁ਕੰਦਾਰਿ	9
▁ਲੱਗੇਗੀ	9
▁ਨਵਰਾਤਰ	9
▁ਮਰਜੀਰਮ	9
▁ਡਾਈ	9
▁ਸਮੀਪ	9
੪੮	9
▁ਪੰਕਤੀ	9
▁ਸੰਗਰਾਮ	9
ਬਿੰਬ	9
▁ਦਸ਼ਕ	9
ਾਇਨੇ	9
ਪ੍ਰੀਤ	9
▁ਬਿਜ	9
▁ਨੇਪਾਲੀ	9
▁ਧੱਕਾ	9
▁ਮਿਕਸ	9
▁ਸਪਾਈਰੂਲੀਨਾ	9
ਾਤਵਿਕ	9
੍ਤ	9
▁ਇਕਾਗਰ	9
▁ਨਾਹਰ	9
▁ਰੂਸੀ	9
ਿਰ	9
ਪੂਜਾ	9
ਾਵਰੀ	9
▁ਨਲਿਕਾਵਾ	9
ਪਾਗਲਪਨ	9
▁ਕੋਠੀ	9
▁ਘੋੜਾ	9
ਲੋਰਾ	9
▁ਵੇਦ	9
▁ਭੌ	9
▁ਪ੍ਰ੍ਤੀਕਿਰਿਆ	9
▁ਬੇਕਰੀ	9
▁ਕੋਕੀਨ	9
ਜੂਰ	9
ਨਾਲੀ	9
▁ਚੂਨ	9
▁ਜੋਤੀਲਿੰਗ	9
▁ਆਯੂਰਵੇਦ	9
▁ਬਿਆਨ	9
▁ਲੰਕਾ	9
ਮੋਕਸ਼	9
▁ਰੈਗੂਲ	9
▁ਬੜ੍ਹ	9
▁ਬਿਤਾਈ	9
▁ਕੱਟਦੇ	9
▁ਸਰੀਖ	9
▁ਭਦਰ	9
ਜ਼ੁਬਾਨ	9
▁ਕਾਸਮੈਟ	9
▁ਕਾਰਬਰਟ	9
ਫੈਲੋ	9
▁ਸੱਜੀ	9
▁ਸਿਨ	9
▁ਗੁਜ਼ਰ	9
▁ਜੌ	9
▁ਪੇਪਰ	9
▁ਮਖਮਲ	9
ਸਟਰ	9
▁੨੬੦	9
▁ਬਾਲਾ	9
▁ਲੈਦੇ	9
▁ਚੁਣਿਆ	9
▁ਇਮਯੂਨ	9
▁ਮਰਾਠ	9
ਮਰਗ	9
▁ਕੁੰਜ	9
▁ਕੋਲਾਹ	9
▁ਖਮੀਰ	9
▁ਥੋ	9
ਾਇਸ਼	9
▁ਲਦਾਖ	9
▁ਸਵਾਧੀ	9
▁ਧੋਤੀ	9
ਰਾਬ	9
▁ਦਰਾ	9
▁ਵਿਵਰਣ	9
▁ਛਿੜਕ	9
▁ਦੌੜਨ	9
▁ਗ੍ਰ	9
ਬੈਠਕਾ	9
▁ਖੰਡੋਲੀ	9
਼ਰ	9
▁ਵਰਡ	9
ਫੂ	9
੬੨	9
▁ਪਲਾ	9
▁ਚੁਭ	9
▁ਕਾਂਚੀਪੁਰ	9
ਸੂਰ	9
▁ਗਠੀ	9
ਬਾੱਕਸ	9
▁ਸਪੇਕੁਲਮ	9
ਾਈਆਂ	9
▁ਚੂੜ	9
▁ਆਇ	9
▁ਮਯੂਰ	9
▁੧੩੫	9
▁ਟਰ	9
ਥੈਲਮ	9
▁ਨਿਰਣ	9
ੋਚ	9
▁ਬੰਨਣ	9
▁ਚੜ੍ਹਾਉਣ	9
▁ਬੇਸ਼ੱਕ	9
੮੫	9
ਪਸ਼ੂ	9
ੇਮਿਸ	9
ਜਾਗਰ	9
▁ਅਜੂਬ	9
▁ਉਤਸਰਜ	9
ਹਰੇ	9
▁ਚੱਪਲ	9
▁ਰਾਖ	9
▁ਮਹਾਰਾਣ	9
▁ਚੜਾਉਣ	9
▁ਸਿਰਮ	9
ਾਅ	9
ਵਿਗਿਆਨ	9
▁ਸਿਕਿੱਮ	9
▁ਮਰਾਠਾ	9
▁ਨੌਕਰ	9
▁ਮੈਥ	9
▁ਆਯਾਤ	9
▁ਫਰਕ	9
ੈਸਟੀਵਲ	9
ਚਾਰੀਆ	9
ਵਿਦ	9
▁ਚੋਖੀ	9
▁ਢਾਣੀ	9
▁ਕੇਲਾ	9
▁ਸੰਵੇਦਨਸ਼ੀਲਤਾ	9
ੌਂਧੀ	9
ਵਾਇਨ	9
▁ਗੋਮਤ	9
ਨਰ	9
▁ਬਾਇਓ	9
▁ਸਿਪਰਿਟ	9
▁ਪੂਨਾ	9
ਦਿਰ	9
▁ਧਰਮਵਲੰਬੀ	9
▁ਰਾਵ	9
ਟਾਈ	9
ਸਾਈਟਿਸ	9
ੈਟਰੋ	9
▁ਸ਼ੰਖ	9
▁ਸਿਗਰ	9
▁ਭਾਰਾਪ	9
▁ਸਵਰਗੀ	9
ਿਅ	9
▁ਫੈਕਟਰ	9
▁ਕੱਢੇ	9
▁ਸਿਖ	9
▁ਪੇਂਟਿੰਗ	9
▁ਤੈਰ	9
▁ਖੁਸਰੋ	9
▁ਫੌਜ	9
▁ਸ਼ਿਸ	9
▁ਕਾਪਰ	9
ਧਾਰੀ	9
ਸੰਸਕ੍ਰਿਤੀ	9
ਰਣਕਪੁਰ	9
▁ਸਾਈ	9
▁ਕੋਲੇ	9
▁ਚਤੁਰ	9
ਿਕਾਵਾਂ	9
▁ਤਰਫ	9
▁ਗਮ	9
ਿਕਸ	9
▁ਪਿੱਠਭੂਮੀ	9
▁ਸਹਿਨ	9
▁ਕਸ਼ਮੀਰੀ	9
▁ਗਗਨ	9
▁ਚਾਮੁੰਡਾ	9
▁ਖਾਨਦਾਨ	9
▁ਲੂੰ	9
▁ਛੂਹ	9
▁ਸੱਤਾ	9
ਹਾਊਸ	9
▁ਬਰਾਮਦ	9
▁ਆਂਚਲ	9
▁ਕਨਿ	9
ੰਘਮ	9
▁ਢਕ	9
▁ਯਾਤਰੀਆ	9
ਾਮਲ	9
▁ਸਾਬੁ	9
ਕਚਰ	9
ਡਲਾ	9
▁ਬੀਆਬਾਨਾਂ	9
▁ਕੁੰਭਾ	9
▁ਗੜਗੜਾਹਟ	9
▁ਮਲੇਰੀ	9
▁ਕੁਰਲਾ	9
▁ਠਹਿਰੇ	9
▁ਪਿਗਮੇਂਟ	9
ਬਰਫ਼	9
▁ਪੈਰਾਗਲਾਈਡ	9
▁ਮਾਸਟਰ	9
▁ਕਿਤਾਬ	9
ਕਾਮਨਾ	9
▁ਫੈ	9
ਇਲ	9
ਹੋ	9
▁ਸੁਨਿਸ਼ਚਿਤ	9
ੀਡੇ	9
▁ਉਤਰੇ	9
▁ਆਮਦਨ	9
ਢਾਈ	9
▁ਲਾਈ	9
▁ਘਰਾਣ	9
▁ਬਿੰਬ	9
▁ਪੱਤਾ	9
ਬਾਰੀ	9
ੱਨ	9
▁ਫ਼ੇਸਿਟਵਲ	9
▁ਹੋਵੋਗੇ	9
ਪਾਦ	9
ੀਂਹ	9
ੜਾਈ	9
਼ਿਅ	9
▁ਫ਼ੁੰਸੀਆਂ	9
▁ਤਲੀ	9
ਐੱਚਡੀ	9
▁ਜ਼ੈਬਰ	9
ਾਂਤਰ	9
▁ਸਿਧਾਰਥ	9
▁ਇਸਾਈ	9
▁ਅੰਧੇ	9
▁ਪਰੋਸ	9
ਛਾ	9
ਸਟੋਨ	9
▁ਡਲਹ	9
ਜਾਤੀਆਂ	9
▁ਐਓ	9
▁ਘਣ	9
▁ਫ਼ੈਸਲ	9
▁ਵਿਧ	9
▁ਬਾਈਕ	9
▁ਕਕਸ਼	9
ਰਾਣੀ	9
▁ਸਬੂਤ	9
ਤਰਾਂ	9
▁ਮੁਟਿਆਰਾ	9
▁ਗੁਜ਼ਾਰਨ	9
ਿਯਮ	9
ਅਸਲ	9
▁ਇਮਲ	9
ਬੇਰ	9
▁ਨਾਰਦ	9
▁ਕੰਢੇ	9
▁ਗੁਠਲੀ	9
▁ਉਠਣਾ	9
▁ਭੀਮਤਾਲ	9
▁ਲੇਬ	9
ਤੀਰਥ	9
▁ਕੈਟਰੈਕਟ	9
ਿਲਕਾ	9
▁ਵਿਰਾਜ	9
ਰੋਮ	9
▁ਬੂ	9
▁ਟੈ	9
ਣਿਆਂ	9
ਯਾਬ	9
ਨਾਮ	9
▁ਸਰਾਵ	9
▁ਦਲਾਈ	9
▁ਮਿਟਦ	9
ਪਤੀ	9
ਥਿਤ	9
▁ਸਿੱਖਣ	9
▁ਸਲਾਨ	9
▁ਡੇਕ	9
▁ਸੋਰਾ	9
▁ਬੱਤੀ	9
▁ਜਟਾ	9
▁ਜਾਗਿੰਗ	9
ਈਏ	9
▁ਧੀਰ	9
▁ਮਸ	9
▁ਜ਼ੀਰ	9
ੰਗਮ	9
▁ਟਾਇਪ	9
▁ਹਿਲਾਉਣ	9
▁ਤਾਰਾਮੰਡਲ	9
▁ਬੂਸਟ	9
▁ਏਂਟੀ	9
ਕ੍ਰਿਕ	8
▁ਸੁੱਤੇ	8
ਮਕ	8
▁ਨਿਮੋਨੀਆ	8
▁ਬੈਠਾ	8
ੀਟੀ	8
ਫ਼ਲੀ	8
ਡ੍ਰੈਗਨ	8
▁ਤੂਫਾਨ	8
▁ਕੈਮੋਮਿਲਾ	8
ਫ਼ਿਕ	8
▁ਮਜਬੂਤ	8
▁ਹਰਸਿਲ	8
▁੯ਵੀਂ	8
ਮੱਠ	8
ਓਰਾ	8
▁ਨਾਈਟ੍ਰੇਟ	8
▁ਕੂੜਾ	8
▁ਉਮੜ	8
ਜਾਇਨ	8
▁ਉਤਕ	8
ਲਾਵਾਂ	8
▁ਚੁਣੌਤੀ	8
▁ਉੱਧ	8
▁ਟੋਕ	8
ੈਸ਼ਨ	8
▁ਉਦਰਸ਼ੂਲ	8
▁ਕੰਜ਼	8
▁ਝੱਗ	8
▁ਹੱਸ	8
▁ਕਮ	8
▁ਲੇਨ	8
ਟੀਡੀ	8
▁ਸ਼ੂਜ	8
▁ਹੋਸ਼	8
▁ਇੰਪਲਾਂਟ	8
ਸ਼ੇਵਰ	8
▁ਪਾਪੂਲ	8
▁ਸੰਸਥਾਪ	8
ਭਰਿਆ	8
▁ਕਬਜ	8
▁ਲੌਕ	8
▁ਨਛੱਤਰ	8
ਿੰਦਰ	8
▁ਆੱਨ	8
▁ਖਿਡੌਣੇ	8
▁ਸ੍ਰਵ	8
ਸਟੇਟ	8
▁ਸੋਸਾਇਟੀ	8
ਦੇਸ਼ਵਰ	8
ਟਿੰਗ	8
▁ਚਤੁਰਭੁਜ	8
▁ਐਂਟੀਕ	8
ਸ਼ੋਭ	8
▁ਸੀਡੀ	8
ਾਗੜ੍ਹ	8
▁ਚਾਲਕ	8
ਧਿਕ	8
▁ਟੇਢਾਪ	8
▁ਬੱਲਭ	8
ਟੇਨ	8
▁ਥ੍ਰ	8
ਤੁਸੀਂ	8
▁੬੮	8
੍ਰ੍	8
ਰਸਾਇਣ	8
▁ਥਾਮ	8
ਇਸ਼ਨਾਨ	8
▁ਇੱਕਲੇ	8
▁ਸ਼੍ਯ	8
ਸੋਜ	8
▁ਇਕਾਈਆਂ	8
▁ਡਿਸਚਾਰਜ	8
ਘ	8
▁ਚਿਨਾ	8
▁ਯੂਨੇਸਕੋ	8
ੋਰਾ	8
▁ਪ੍ਰਸੰਗ	8
▁ਉੜਦ	8
▁ਅਨੁਸੰਧਾਨ	8
ਨੋ	8
▁ਸਦਭਾਵ	8
▁ਪੀਲਾਪ	8
▁ਵਯਸਕ	8
▁ਜਵਾਲਾ	8
▁ਵੈਸਾਖ	8
ਸ਼ਲੇਸ਼	8
▁ਅਜ	8
▁ਸਾਈਕਲਿੰਗ	8
▁ਡੁਬੋ	8
ਮਾਰਕ	8
▁ਖੁੱਲ੍ਹੀ	8
▁ਪ੍ਰਸ਼	8
▁ਬਲੇਡ	8
▁ਸੈਂਚ	8
ਪੱਤੀ	8
ਨੇਲ	8
▁ਪੋਲੈਂਡ	8
▁ਕ੍ਰਾਕ	8
ਲੋਜੀ	8
▁ਵੇਦਨਾ	8
▁ਐਰੋਬਿਕ	8
▁ਮੰਨੀਆਂ	8
ਮਯੂਕਸ	8
▁ਨਿਹਾਰਨ	8
▁ਨਿਸ਼ਾ	8
▁ਕਿਸ਼ਤ	8
▁ਵਟ	8
▁ਜਿੰਕ	8
▁ਹਿੰਸ	8
ਤਾਬੋ	8
ਰਪੁਰ	8
▁ਸਮਝੌਤ	8
▁ਧੁਰ	8
ਬੀਜ	8
▁ਕੈਲੋਰੀਜ਼	8
▁ਪਾਤਰ	8
ਾਰਟ	8
ਆਧੁਨਿਕ	8
▁ਸਵੀਮਿੰਗ	8
▁ਆਰਟੀਡੀਸੀ	8
▁ਤਥਾ	8
▁ਸਿਹਰਾ	8
▁ਗਤ	8
▁ਅਵਰੋਧ	8
▁ਸਬਜ਼ੀਆ	8
▁ਮੇਰੀਅ	8
▁ਕੰਬ	8
ਨੀਂ	8
▁ਜਲਪ੍ਰਪਾਤ	8
▁ਸੋਨਾਰ	8
ਟੇਕ	8
▁ਸ਼ੈ	8
▁ਮਿਨਰਲਸ	8
▁ਹੜੱਪਾ	8
▁ਗਧੇ	8
ਰਦੇ	8
▁ਡੋਰ	8
ੋਥ	8
▁ਬੇਪ	8
ਨਾਹ	8
▁ਬਖਸ਼	8
▁ਕੰਕਰ	8
ੀਟ	8
ਨਵੇਂ	8
ਾਕਸ਼ੀ	8
▁ਡਕਾਰਾਂ	8
▁ਅਭਿ	8
▁ਵਸਾਉਣ	8
ਸੀਜੀ	8
▁ਰਵੀ	8
▁ਬਨਾਉਣਾ	8
▁ਥਰੈਪੀ	8
ਸਥਲ	8
▁ਕੀਟ	8
ੁਨਗੁਨ	8
ਹਾਈਟ	8
▁ਜਾਮ	8
ਆਤਮਵਿਸ਼ਵਾਸ਼	8
▁ਚੰਨਈ	8
▁ਕੀਰਤੀ	8
▁ਵਾਟ	8
▁ਪ੍ਰਕਿਰਤ	8
▁ਆਲਣ	8
ਗਿਨ	8
▁ਟਰਮੀਨਲ	8
▁ਮਾਲਵ	8
ਦਾਦ	8
▁ਟੈਨਿਸ	8
▁ਖੇਡਣਾ	8
▁ਚਲਾਉਣਾ	8
▁ਖੰਡਾ	8
▁ਇੰਦਰਪ੍ਰਸ	8
ਿਉ	8
▁ਚੁਪ	8
ਨਿ	8
▁ਲੱਭਣ	8
▁ਜੋਖਿਮ	8
ਜੁਕਾਮ	8
▁ਬੇਨਤੀ	8
▁ਕਿਤਾਬਾਂ	8
ਹੋਮ	8
▁ਬ੍ਰਾਹ	8
▁ਲੈਮਨ	8
ਸਕੁਲਰ	8
▁ਡਿਸਟ੍ਰ	8
▁ਆਸਿਟ	8
▁ਚੜ੍ਹਾਉਂਦ	8
▁ਤਾਂਬਾ	8
▁ਪਾਗਲ	8
▁ਝੁਕੋ	8
▁ਦੋਰਜ	8
▁ਬੁੱਲ੍ਹਾ	8
▁ਪਾਂਡਵ	8
▁ਸੁਧਾਰਨ	8
▁੧੯੪੯	8
▁ਅੰਧਾ	8
▁ਖਾਸਕਰ	8
▁ਵੱਖਰ	8
▁ਧਸ	8
ਲਾਂ	8
▁ਨਿਤ	8
ਸ਼ੇਤਰ	8
▁ਅਪਨਾਉਣ	8
ਛਯ	8
▁ਦੀਰਘਾਵਾਂ	8
▁ਗਹਿਣ	8
▁ਮੂਕ	8
’(	8
ਮਰਸ	8
▁ਪੜ੍ਹੋ	8
ੰਧਰ	8
▁ਦਿਤੀ	8
ਇਥੋਂ	8
▁ਲੇਸ	8
▁ਸੈਲੂਲ	8
▁ਸ਼੍ਰਾਵ	8
▁ਮੰਡੂ	8
ੇਟਰ	8
▁ਵੇਖੇ	8
ਰਪਿਤ	8
▁ਲੰਗ	8
ਬਾਜੀ	8
▁ਸੰਤੋਸ਼	8
▁ਖੰ	8
▁ਐਜ	8
▁ਬਲਾ	8
▁ਇਨਸ	8
ਖਾਨੇ	8
ਖਾਇਆ	8
▁ਆਬੋ	8
▁ਤਬ	8
▁ਵੇਨ	8
ਲਾਕ	8
ਛੇ	8
ਰਡ	8
ਗੈਸ	8
▁ਪਾਮ	8
ਨੀਲਕੰਠ	8
▁ਚਾਇਨਾ	8
▁ਛੁੱਟ	8
▁ਰਾਹੀ	8
▁ਜਯੰਤ	8
▁ਚਿਤਾ	8
▁ਰੈਂਜ	8
▁ਯਰਕਾਨ	8
▁ਪਿਤ	8
▁ਵਾਹਣ	8
▁ਪ੍ਰ੍ਬੰਧ	8
▁ਮਿਲਕ	8
੩੯	8
▁ਦਫਤਰ	8
▁ਭੂਖੰਡ	8
▁ਅਨੀਂਦਰ	8
੫੨	8
ਬੇਟ	8
੬੩	8
ਸਾਤ	8
ਕ੍ਰਿਤੀਆਂ	8
▁ਕੈਥੇਡ੍ਰਲ	8
ਆਤਮਿਕ	8
▁ਹਾਈਪੋਥਰਮੀਆ	8
ੀਦ	8
▁ਲੱਡੂ	8
▁ਬ੍ਰਾਂਡ	8
▁ਖੋਜੀ	8
ਰੀਅਮ	8
▁ਏਰੀਆ	8
ਹੁੰਦੇ	8
▁ਭੁਲੋ	8
▁ਟੇਪ	8
▁ਸ਼ੂਲ	8
▁ਟਾਂਕਾ	8
ਾਇਦਾ	8
▁ਬੇਗ	8
ਦਸ	8
▁ਮੁਹਾਂਸੇ	8
▁ਸੰਕਰਾਮ	8
ਯਨ	8
ਜ਼ਾਮ	8
▁ਘੁੰਮਦੀ	8
▁ਲੈਗੂਨ	8
ਾੜੀਆਂ	8
▁ਨਿਰਮਾਤਾ	8
▁ਪੈਨੀ	8
ਫ਼ਾਸਟ	8
ਣ੍ਦੀ	8
▁ਬਚਾਉਂਦੀ	8
▁ਅਲੋਪ	8
ਟੂਰ	8
▁ਚੜ੍ਹਨਾ	8
▁ਪੋਟਲੀ	8
▁ਧਾਗੇ	8
▁ਬਾਰਥ	8
▁ਮੰਜ਼ਲ	8
▁ਧਨੀ	8
▁ਗਿਲਟੀ	8
▁ਵੇਲਸ	8
▁ਅਲਟਰਾ	8
ਤੁਲ	8
▁ਚਿੱਤਰਕਾਰ	8
▁ਡੋ	8
ੂਆਂ	8
▁ਹਾਸਟਲ	8
ਵਿਕਾਰ	8
ਕੈਲਕੇਰੀਆ	8
▁ਆਦੀ	8
▁੪੯	8
ਸਾਹਿਤ	8
▁ਪਚਾ	8
▁ਕਲੋਰਾਈਡ	8
▁ਪੇਯ	8
▁ਚੇਕ	8
▁ਥਰੁਮ	8
ਸਿੰਗਲ	8
ਵਿਸ਼ੇਸ਼	8
▁ਅਬ	8
▁ਜਨਣ	8
ਸੁਮ	8
▁ਘੁਟ	8
▁ਪਾਟਨ	8
▁ਮੈਮੋਰੀਅਲ	8
ਤਲਾ	8
▁ਫਲੋਰੇਂਸ	8
▁ਨਿਊਜ਼ੀਲੈਂਡ	8
ਿਸਫੀ	8
▁ਨਿਕੋਲਸ	8
▁ਕਪਾਲ	8
ਹਿਤ	8
▁ਸਾਗਵਾਨ	8
▁ਪਕਸ਼	8
▁ਨਿਕੋਟੀਨ	8
▁ਬਿਠਾ	8
▁ਡਾਚੀਗਾਮ	8
▁ਕਾਕੜ	8
▁ਫ਼ੇਫ਼ੜ	8
ੋਹੜ	8
▁ਪ੍ਰਿਯ	8
▁ਸਟੋਬਰੀ	8
ਰੇਪੀ	8
ੋਏ	8
ੋਰਟ	8
ਾਉਂਦਾ	8
▁ਲਾਹੌਰ	8
ਲੀਕਾ	8
▁ਅਧਿਆਪਕ	8
▁ਟੋਪ	8
▁ਕਿਸਾਨ	8
ਤਬ	8
▁ਪ੍ਰਾਕ	8
▁ਤੋਹਫ	8
▁ਖਾਜ	8
▁ਮੋਨਾਲ	8
▁ਕੈਸਲ	8
ਪਟ	8
▁ਗ੍ਰੈਫਾ	8
ਸ਼ੇਖਰ	8
▁ਸ਼ਾਰਟ	8
ਸਿਨ	8
▁੨੮੦	8
ਸੂਤਰ	8
ਪ੍ਰਕਾਰ	8
▁ਕੋਲੋ	8
▁ਬਰਮਾ	8
ਘਾ	8
▁ਨੱਚ	8
ਵਿਟਾਮਿਨ	8
▁ਮੁਤਾਬ	8
ਗ੍ਰ	8
▁ਹਿਮਾਲਯ	8
▁ਬੰਜ	8
▁ਮੰਮੀ	8
ਤਨ	8
▁ਸੈਰਗਾਹਾਂ	8
ਤੰਕ	8
▁ਸੀਪੀਆ	8
▁ਰਾਫਟਿੰਗ	8
ਸ਼ਠਾਨ	8
ੋਰੀਆ	8
▁ਉਕਰ	8
ਮਾਲਾ	8
▁ਪਾਉਗ	8
▁ਕਿਵਦੰਤੀ	8
▁ਸਾਕਾਰ	8
▁ਉਠਦੀ	8
▁ਵੇਨਿਸ	8
▁ਘੁਰਾੜੇ	8
▁ਮੁਖੀ	8
ਕਾਜ	8
ਟੇਡ	8
ੌਤਾ	8
▁ਤੇਂਦੁਆ	8
ਪ੍ਰਾਣ	8
▁ਮਾਰਸ਼	8
▁ਰੇਤਲ	8
ਸੇਂਟ	8
▁ਆਰਗਨ	8
▁ਸਟ੍ਰਾਬੇਰੀ	8
▁ਸ਼੍ਰੀਰੰਗਮ	8
ੋਦਰ	8
▁ਫ਼ੀ	8
ਰਦਾਸ	8
ਸੀਕਾ	8
ਵਿਲ	8
▁ਅਨੂਠੀ	8
ਥਲ	8
▁ਸਾਬ	8
▁ਯਮੁਨੋਤਰੀ	8
▁ਅਲੋਰ	8
ਰੋਲ	8
ਡੀਅਰ	8
ਗਟ	8
ST	8
ਮੱਖ	8
▁ਦੁਸਹਿਰ	8
▁ਸਿੰਗਲ	8
ਟੈਂਸ਼ਨ	8
ਫੁਲਕ	8
ਜੀਬ	8
▁ਸ਼ਾਤ	8
ਗਰਣ	8
▁ਮੰਦਾਕਿਨੀ	8
▁ਆਰਾ	8
▁ਰਹੀਏ	8
ਯਸਕ	8
▁ਭੇਡਾਂ	8
▁ਯਾਦਦਾਸ਼ਤ	8
▁ਵਿਦਿਆ	8
▁ਉਖੜ	8
▁ਫੈਮ	8
ਪ੍ਰਣਾਲੀ	8
▁ਪਰਾਜਾਤੀ	8
▁ਮੰ	8
▁ਐਡ	8
▁ਟਿਕਾਓ	8
▁ਕੇਸਰ	8
▁ਚੰ	8
▁ਫਿਰਨ	8
▁ਸੰਯੋਗ	8
▁ਦਰਵਾਜ਼ਿਆ	8
▁ਬਾਜ਼ੀ	8
▁ਮਲਟੀਪਲ	8
ਨੂੱ	8
▁ਮਗਰਮੱਛ	8
ਪ੍ਰੋਤ	8
▁ਐਸਡ	8
▁ਏਨੀ	8
▁ਟ੍ਰਾਂਸ	8
ਅੰਗਾਂ	8
▁ਗਾੜਾ	8
▁ਮਿਟ	8
▁ਯੁਕ	8
ਾਡੁ	8
ਸੋਲ	8
▁ਝਾੜ	8
▁ਟਾਨਿ	8
▁ਸਲਫਰ	8
੍ਕ	8
▁ਮੁੰਡ	8
▁ਜੇਨੇਟਿਕ	8
▁ਸਾਬਰ	8
▁ਵਿਕਿਰ	8
▁ਲਿਪੀ	8
▁ਅਸ਼ੀ	8
▁ਹੀਰੇ	8
▁ਪੁੜਪੁੜੀ	8
▁ਦੁਹਰਾ	8
▁ਰੁੱਖਾਪ	8
▁ਗੂੰਜਦੀ	8
ਾੱਟਰ	8
▁ਮਿਲੀਆਂ	8
੪੨	8
੍ਹਾ	8
▁ਬੁਣ	8
▁ਦੇਵਰਾਜ	8
▁ਚਾਲੂ	8
▁ਮਧ	8
▁ਮੈਰੀ	8
▁ਸੱਠ	8
▁ਅਨਿ	8
▁ਖੀਰਾ	8
▁ਦਿਖਾਉ	8
▁ਮੇਵ	8
▁ਸ਼ੱਕਰਰੋਗ	8
▁ਸੇਂਕਚੁ	8
ਝਾ	8
▁ਕਾਟਨ	8
▁ਚੈਤ	8
▁੬੭	8
▁ਚੁਭਣ	8
▁ਜਬਲਪੁਰ	8
ਬ੍ਰੇਨ	8
▁ਛੱਜੇ	8
ਵੇਟਿਕ	8
▁ਅਪਨਾ	8
▁ਸ਼ੀਤਕਾਲ	8
ਜੁਆਏ	8
ਲਪ	8
▁ਸਾਈਨਸ	8
ਵਰਸ਼	8
▁ਲਚਕੀਲਾ	8
ਮਯ	8
▁ਵਿਹੜਾ	8
▁ਪ੍ਰਸੰਸਾ	8
▁ਪੋਸ਼	8
▁੨੭੦	8
ਪਲੱਬਧ	8
▁ਠਾਕੁਰ	8
▁੨੦੦੭	8
▁ਗਿਰੇ	8
ਤਿਤ	8
▁ਸੁਨਣ	8
▁ਸ਼ਰ	8
ਈਆਂ	8
ੀਸ਼ੀਅਨ	8
ਡੋ	8
ਕਨ	8
▁ਫ਼੍ਰੀ	8
▁ਲਗਭ	8
▁ਛੱਤੀਸਗੜ	8
ਨਜ਼ਰ	8
▁ਭਟਕ	8
ਹੂ	8
▁੮੨	8
▁੧੯੫੫	8
▁ਪੀਸੀ	8
▁ਐੱਲ	8
ਹੀਆਂ	8
ਨਦ੍ਰਾ	8
ੇਂਟਸ	8
▁ਨਹਾਉਂਦ	8
੫੬	8
ਨਾਇਆ	8
▁ਫਿਲਹਾਲ	8
ਪ੍ਰਦੇਸ਼	8
▁ਇਮਾਨਦਾਰ	8
▁ਅਗਰਵਾਲ	8
▁ਦਵਾਰ	8
▁ਪੂ	8
▁ਉਪਜ	8
▁ਚਿਕਨੀ	8
▁ਫ਼ਾਰ	8
▁ਬੁੱਢਾ	8
▁ਲੜ	8
ਅੱਖਾਂ	8
▁ਬਾਹਯਾਵ੍ਰ	8
▁ਸੋਧ	8
▁ਗਲਤੀ	8
ਨੀਅਰ	8
▁ਗੁੱਛ	8
▁ਡ੍ਰੈਸ	8
▁ਵਰੁਣ	8
ਸ਼ਰ	8
ਯਦ	8
▁ਲੋਟ	8
▁ਜਾਮਣ	8
▁ਮਿਲਨ	8
▁ਓਪ	8
▁ਮਦਿ	8
ਕੇਰੀ	8
▁ਜੀਜਾ	8
▁ਉੰਨੀ	8
▁ਕਾਸ਼	8
▁ਯੁਵਕ	8
▁ਭਟ	8
▁ਅਘੁਲਣਸ਼ੀਲ	8
ਬੁੱਧਵਾਰ	8
▁ਕੈਸਿਨੋ	8
ਟਿਡ	8
ਖਰ	8
▁ਟੱਕ	8
ਬਸ	8
▁ਸਪੀਤਿ	8
ਥੋੜੀ	8
ਚਰਣ	8
▁ਲਿਟਾ	8
ਛਮ	8
▁ਗਾਉਂਦੇ	8
▁ਗਣ	8
▁ਮਾਸਕ	8
▁ਮਾਨਵੀ	8
ਪ੍ਰਦ	8
▁ਪਥੀਰਾਮਨਾ	8
▁ਸਲੇਟ	8
ਪਤਨੀ	8
▁ਟਾਹਣੀਆ	8
▁ਜਲਭੰਡਾਰ	8
▁ਮੰਜ਼ਿਲਾ	8
▁ਕਰਿਆ	8
▁ਬਾੜਾ	8
▁ਫਨ	8
▁੧੪੭	8
ੌਂਕ	8
▁ਖਿਚਾ	8
▁ਪਰਿਵਰਤਨਾਂ	8
ੇਬਲ	8
▁ਚਿਤਰਕਲਾ	8
▁ਸੋਲਾਂ	8
ਕੰਪਵਾਤ	8
ਮਸਤ	8
ਕਾਰਾਂ	8
▁ਵਿਖਾਇਆ	8
ਹਿਲੀ	8
ਕੁ	8
ਅਰੁਚੀ	8
▁ਖੱਬੀ	8
▁ਘੁਮਾਵਦਾਰ	8
▁ਚੀ	8
▁ਫੁੱਟਣ	8
▁ਜਨਮਸਥਾਨ	8
▁ਬੰਧ	8
▁ਅਨਾਜ਼	8
ਰਸੀ	8
▁ਸਿਲਕ	8
ਕੈਵਿਟੀ	8
▁੭੯	8
▁ਬੇਕ	8
ਰਲ	8
▁ਖੰਬੇ	8
ੇਚਕ	8
▁ਸੰਘਾੜ	8
▁ਸਿਰਹਾਣ	8
▁ਬਚੀ	8
▁ਚੇਤ	8
▁ਇਨ੍ਹ	8
▁ਸ਼ੱ	8
▁ਲਚੀਲਾ	8
▁ਕਯੂ	8
▁ਪ੍ਰਦੂਸ਼	8
▁ਸਪਲੀਮੈਂਟ	8
▁V	8
▁ਥੰਮ	8
ੋਹਾਈਡ੍ਰੇਟ	8
ਸਾਂਗ	8
▁ਬਰਬਾਦ	8
▁ਜਨਕ	8
▁੧੭੬	8
▁ਰੁਪ	8
▁ਮੈਨੇਜ	8
▁ਹਥੇਲੀ	8
ਕੋਡਰਮਾ	8
▁ਡ੍ਰਿੰਕਸ	8
▁ਟਾਇਲਟ	8
▁ਜੁਬ	8
▁ਸਮਾਧਾਨ	8
▁ਉਧਰ	8
▁ਲੋਧ	8
▁ਯੁਗਾਂ	8
▁ਬਦਲਿਆ	8
ਹਨੁਮਾਨ	8
ਸਿਕ	8
▁ਲਿਆਂਦੀ	8
ੀਯਰ	8
ਸ਼ੀਰ	8
▁ਚਿੜ੍ਹੀਆਘਰ	8
ਫੁੱਲ	8
ਵਿਕ	8
▁ਅਵਲੋਕ	8
▁ਸ਼ਵੇਤਾ	8
▁ਪ੍ਰ੍ਦੂਸ਼	8
▁ਸ਼ਾਦੀ	8
▁ਦ੍ਰਿੜ	8
▁ਕੂਲਰ	8
ਗਾਮੀ	8
ਐਕਸ	8
ਸਮੁੰਦਰ	8
▁ਘੂਮ	8
▁ਅਨਕੂਲ	8
▁ਹੂ	8
▁ਰਿਜ਼ਰਵ	8
▁ਕਿੰਨ	8
▁ਬਰਬਸ	8
ਖਿਆਤ	8
ਦਿੱਲੀ	8
▁ਐੱ	8
ਸਭਾ	8
ਕਦਾਈ	8
▁ਖੂਨਦਾਨ	8
▁ਫਲਾਵਰ	7
ਗਾਨਿਸਤਾਨ	7
▁ਸਰਵੌਤਮ	7
▁ਭ੍ਰੰ	7
ਗਰਾਜ	7
ਸਾਹ	7
▁ਚਮੜ	7
▁ਸ਼ਾਰਦਾ	7
ਰ੍ਯੂ	7
ੋਕਸ	7
▁ਸਮਰਣ	7
▁ਝੁਕਣ	7
ਖਾਮ	7
ਲਮ	7
ਸੇਜ	7
▁੪੧	7
▁ਡੱਬ	7
▁ਰੋਕੋ	7
ਭੁਜਾ	7
▁ਚਿਪਚਿਪ	7
▁ਅੰਗਰੇਜ	7
▁ਜੂਨੀਅਰ	7
▁ਹਾਈਡ੍ਰੋਕਲੋਰ	7
▁ਲਿਨ	7
ਛਾਣ	7
ਸੇਟ	7
▁ਦਰਜਨ	7
ਿਆਈ	7
▁ਰੁੱਝ	7
▁ਪੈਡਲ	7
▁ਸਵਿੱਚ	7
▁ਫ਼ੁਹਾਰੇ	7
ੁਲ	7
ਇਹਨਾਂ	7
▁ਹੱਸਦੇ	7
ਪੁਰਬ	7
▁ਚੱਲੀਏ	7
▁੧੭ਵੀ	7
▁ਕੇਂਚੁ	7
▁ਅਮਰੀਕ	7
▁ਲਾਰਵਾ	7
▁ਚਮਕਣ	7
▁ਕੋਬਰਾ	7
ੌਂਡ	7
ਜੀਵ	7
▁ਜ਼ਿਲ	7
▁ਸੀਰਿਯਾ	7
ੂਰਤ	7
▁ਨੁਸਖੇ	7
▁ਘਿਸਾ	7
▁ਸੈਕਸੁਅਲ	7
▁ਨਿਹਾਰ	7
ਰੋਬਿਕ	7
ੋਨਮੂੜ	7
▁ਬ੍ਰਹਮਪੁੱਤਰ	7
ਾਰਤਵ	7
▁੨੦੦੨	7
▁ਸ਼ਰਤ	7
▁ਫੈਲਾ	7
▁ਫਾ	7
ਖਤ	7
ਸਲ	7
ਕੰਠ	7
▁੧੯੯੪	7
▁ਵਿਸ਼ਣੂਪੁਰ	7
▁ਰਾਜਭਵਨ	7
▁ਫੈਮਿਲ	7
▁ਪਾਉਂਗੇ	7
▁ਖਾਮੋਸ਼	7
▁ਕੁਸੁਮ	7
▁ਪਲੀਹਾ	7
▁ਠਿਕਾਣ	7
ਹਲ	7
▁ਬਰਲਿਨ	7
▁ਸਰਦਾਰ	7
ਮਊਰ	7
ੇਲਾ	7
▁ਅਸਧਾਰਣ	7
▁ਖਿੱਲਰ	7
▁ਆਖ਼ਰ	7
ੰਗਾ	7
ੰਗੀ	7
▁ਗੈਸਟ੍ਰੋਏਟ੍ਰਾਇਟ	7
੯੦੦੦	7
ਜਵਾਬ	7
▁ਮਰਕਸੋਲ	7
ਮਾਸ	7
▁ਬਹੁਮੁੱਲੀ	7
੬੯	7
▁ਦਾਵਾ	7
ਜ਼ੂ	7
ਬਤ	7
▁ਵੀਰਾਨ	7
▁ਬੋਧਗਿਯਾ	7
▁ਊਸ਼ਣਕਟੀਬੰ	7
ਦਿਤ	7
▁ਝਾਕੀ	7
▁ਸ਼ੀਲ	7
▁ਮਹਾਯਾਨ	7
▁ਸ਼ੁਕਲ	7
▁ਇੰਮਪ	7
▁ਮਿੱਠੀ	7
ਰੋਪਣ	7
▁ਆਦੇਸ਼	7
▁ਸਾਂਤੀ	7
ਬਿਆ	7
ਿਸ਼ਕ	7
▁ਸਤਨਾ	7
▁ਕੋਇੰ	7
Q	7
10	7
▁ਘੋੜਿਆ	7
▁ਪੁਲਾਂ	7
▁ਵਿੰਧਿਆ	7
▁ਉੱਡਣ	7
▁ਤੋੜਨ	7
਼ਲ	7
ਬਰੰਗ	7
▁ਅਪਣਾਉਣ	7
ਛਿਤ	7
▁ਹੁੰਦ	7
▁ਛਿ	7
ਕਣ	7
ਜ਼ਰਲੈਂਡ	7
ਾਇਣ	7
ੋਮਿਕ	7
▁ਸ਼ਿਵਰਾਤ	7
ਗਯਾਨਿਮਾ	7
▁ਮਾਲਵਾ	7
ਬੱਕਰੀਆ	7
▁ਮੱਝ	7
▁ਖਰਗੋਸ਼	7
▁ਉਡਣ	7
▁ਗਿਲ	7
▁ਬਲਵਰਧਕ	7
ਜ਼ਮਾਨ	7
▁ਮੇਟ	7
ਫਾਈਟੋਲੈੱਕਾ	7
▁ਸੱਚੇ	7
▁ਮੱਜਾ	7
▁ਦਸ਼ਮ	7
▁ਥਲ	7
▁੧੯੭੬	7
▁ਪਾਵਾ	7
▁ਆਂਵ	7
▁ਕੂਹਣੀਆ	7
ਾਫ਼ੀ	7
▁ਲਿਪਸਟਿਕ	7
▁ਦਖਲ	7
▁ਪੈਵੇਲਿਯਨ	7
▁ਬਹੁਰੰਗ	7
▁ਕੁਟੀ	7
ਜੁਲਦੀ	7
ਹੇ	7
ਜਿ	7
▁ਵਿਛਾ	7
▁ਮੋਇ	7
ਸ਼ੂ	7
▁ਸਿੰਗਾਪੁਰ	7
ਰਾਵਾਂ	7
▁ਯਕ	7
▁ਚੌਰਾਹ	7
੯੨	7
ਣਾਂ	7
ਸ਼ਵਨੀ	7
▁ਈਸ	7
▁ਦੁਗਣੀ	7
▁ਖੈ	7
▁ਰੱਖੀਆ	7
▁੧੬੬	7
ਕੋਲ	7
▁ਵਿਗਿਆਪਨ	7
ਨਿਆਂ	7
▁ਅਰਸ	7
▁ਮਾਰੂਥਲ	7
▁ਗੁਲਮਰਗ	7
▁ਵੈਂਗ	7
▁ਲੁਭਾਉਂਦ	7
▁ਬੇਸ਼ਕੀਮ	7
▁ਸਰਵਸ਼੍ਰੇਸ਼	7
▁ਸੰਖ	7
ਹਾਰਟ	7
▁ਦ੍ਰਵੀਪ	7
▁ਭਾਂਤ	7
▁ਬਹੁਲ	7
▁ਝੂਮ	7
▁ਇਰਾਵ	7
ਣਜਾ	7
▁ਨਰਸਿੰਘ	7
ਮੂੰਹ	7
ਿਰਮ	7
▁ਕੋਤ	7
ਖਾਂ	7
▁ਹਜ਼ਰਤ	7
▁ਰੋਗਗ੍ਰ	7
੫੪	7
ਂਡ	7
▁ਮਾੱਲ	7
▁ਤਿੱਤਰ	7
▁ਅਹਿ	7
ਪ੍ਰਾਕ੍ਰਿਤਿਕ	7
▁ਫਾਈਨ	7
▁ਕਟੀ	7
ਢ	7
▁ਚਤੁਰਮੁਖ	7
▁ਮਿਟਾਉਣ	7
▁ਊਰ	7
▁ਗਿਲਸਰ	7
▁ਸੁਪਤ	7
▁ਚਿੱਟ	7
▁ਚਿਤੌੜ	7
▁ਕਲਾਦੀਰਘ	7
ਚਰਕ	7
ੈਟਿਕ	7
ਸੈਚੁਰੇਟ	7
▁ਆਖ	7
ਕਿਉਂ	7
▁ਭਜਨ	7
▁ਪਰਚੀ	7
ਬਾਉਂਦੇ	7
ਲਿਫਟ	7
▁ਜਲਾਉਣ	7
▁ਦਿੰਦੀਆ	7
▁ਮੰਜ਼ਿਲੇ	7
▁ਘੁਮਾਅ	7
ਸੈਂਟ	7
▁ਉਚਾਰ	7
ਾੱਯ	7
▁ਨਰਸ	7
▁ਬੰਗਲਾਦੇਸ਼	7
▁ਈਸ਼ਵਰ	7
▁ਕਰਾਂਗੇ	7
ਬਰਾ	7
▁ਪੁੱਜਦੇ	7
▁ਲਿਯੋਮ	7
ਾਯੋਮਾ	7
▁੬੯	7
▁ਗੰਜਾ	7
▁ਜਿਹ	7
▁ਦਰੱਖਤਾ	7
▁ਮੇਨੋਪਾ	7
▁ਆਂਵਲ	7
ਜਰਪ	7
▁ਸੂਕ	7
▁ਕੂਪ	7
ਕਸ਼ਨ	7
▁ਪ੍ਰ੍ਕਿਰਿਆ	7
ਲੇਨੀਅਮ	7
▁C	7
▁ਪਥ	7
▁ਕਾਲਾਪਣ	7
▁ਬਾਰਾਂਸਿੰਗਾ	7
ਜ਼ਾਨ	7
▁ਫ਼ਰਸ਼	7
ਣਗੀਆਂ	7
▁ਗਾਥਾ	7
ਵਾਂਗਚੁਕ	7
▁ਖੁਸ਼ਹਾਲੀ	7
▁ਨੈਚੂਰ	7
▁ਭੈਰੋ	7
▁ਕੰਟਰੀ	7
▁ਜਪਾਨੀ	7
ਦੂਧਾਤੋਲੀ	7
▁ਰੇਡੀਓ	7
▁ਸੁਧਰ	7
ਬਿਰੰਗੀ	7
▁ਮਡ	7
ੁਲਿਨ	7
▁ਕੱਦ	7
ਾਵਲੀ	7
▁ਫਾਇ	7
▁ਫੈਕੋ	7
ਮੇਢਾ	7
▁ਖਰਾ	7
▁ਸਪਤ	7
▁ਲਕੜੀ	7
▁ਥੋੜ੍ਹੇ	7
▁ਰਿਸਣਾ	7
▁ਲਾਨ	7
ਸਟਾਫ	7
▁ਸਿਵਸ	7
▁ਹੈਂਡ	7
ਬੇਲਾ	7
ਗੋਲਾ	7
▁ਚੜਨਾ	7
ਲੁਆ	7
▁ਸਲੀਮ	7
ਾਗਾਰ	7
▁ਮਾਧਵ	7
▁ਰੰਕ	7
▁ਐਂਟੀਸੈਪ	7
▁ਪਾਈਨ	7
ੋਮੀਟ੍ਰ	7
▁ਉਤਪਾਦਕ	7
▁ਆਲ	7
▁ਪਾਸਿਉ	7
ਜਪੁਰ	7
▁ਨਵਵਿਆਹ	7
▁ਐਕਸਰਾ	7
▁ਕਾਲਾਮੋਤੀਆਂ	7
▁੬੧	7
ਮਰਯੂਰ	7
▁ਮਚਲ	7
ਬੇਦੁੱਲਾ	7
▁ਗੰਦੀ	7
▁ਵਿਭਾਜ	7
ਾਣ	7
▁ਗੁਬੰਦ	7
▁ਈਸਟਰ	7
ਟਾਊਨ	7
▁ਅੰਤਰਿਕ	7
▁ਮੂਵਮੈਂਟ	7
▁ਰੁੱਖਾ	7
▁ਕੌੜਾ	7
▁ਦਾਇਰ	7
▁੧੨੦੦	7
▁ਪਿਚਕਾਰੀ	7
▁ਥੋਰੇਸ	7
▁ਕੜੇ	7
▁ਖਵਾਉਂਦ	7
▁ਕੁਸ਼ਲਤਾ	7
▁ਡਿਯੂ	7
ਜੇਂਟ	7
ਫ਼ਾ	7
▁ਕਛੂਏ	7
ਇਸਦੇ	7
▁ਅਨਿਯੰਤਰ	7
▁ਕੋਨਾ	7
ਜ਼ਮੀ	7
ੋਟਾ	7
ਰਸਾਈਜ਼	7
ਟ੍ਰੀ	7
▁ਸਿਲਚਰ	7
ਭੰਡਾਰ	7
▁ਸਾਨੀ	7
▁ਡਾਲਟਨ	7
▁ਪ੍ਰ੍ਯਟਕ	7
▁ਨਾਗਰਹੋਲ	7
ੌੜਾ	7
▁ਅਪਣਾਓ	7
ਮਿਰਚ	7
ਲੂ	7
▁ਬਕ	7
▁ਫ਼ਾਰਸ	7
ਜਹਾਂ	7
ਮਿੰਗ	7
▁ਕੰਘੀ	7
▁ਤੌਲੀਆ	7
ਬੂਟ	7
ਲਯ	7
▁ਪਲਟ	7
੪੯	7
ਥਮਲ	7
▁ਦਿਸਦੀ	7
ਸ਼ੇਖਚਿੱਲੀ	7
▁ਬਨਵਾ	7
▁ਸੇਂਟਰ	7
▁ਚੁੱਕਣ	7
ਖੇੜਾ	7
▁ਸੁਨ	7
ਮੰਡ	7
▁ਓਹ	7
▁ਨਟਰਾਜ	7
▁ਕੋਪ	7
ਗੁ	7
▁ਜੁੜੀਆ	7
ਉਤੇਜਕ	7
▁ਅਵਿਕਸਿਤ	7
▁ਬਾਂਝ	7
▁ਕੋਸਾ	7
▁ਗੈਸਟ੍ਰੋ	7
▁ਸ਼ਲੇਸ਼ਮਾ	7
ੋਥਿਕ	7
ਤਰੋਬਾ	7
▁ਜਿਹੜ	7
▁ਟੋਨ	7
ਮਰੇਸ਼ਵਰ	7
▁ਸੈਨਾਪਤ	7
▁੧੯੬੧	7
ਤੱਤ	7
▁ਤਾਦਾ	7
▁ਵਾਸ਼ਿੰਗਟਨ	7
▁ਚਾਰਟ	7
▁ਡਿਪ੍ਰੈਸ਼ਨ	7
▁ਖੱਚਰ	7
▁ਓਬੇਸ	7
▁ਢਲਵੀ	7
▁ਵਧਾਈ	7
▁ਪਾਪਾ	7
▁ਬੰਨਿਆ	7
ਪੋਰ	7
▁ਚਿੜਚਿੜਾਪ	7
▁ਐਮਰ	7
▁ਥਰਮੋ	7
▁ਸਵਰਯੰਤਰ	7
▁ਚੱਟਣ	7
▁ਗੁਣਵ	7
▁ਅਸ਼ੌਧੀ	7
▁ਕੋਮਾ	7
▁ਪੁੰਨਿਆ	7
▁ਚੰਨ	7
ਟਾਕਿਸਨ	7
੍ਰਾਮ	7
▁ਤਲਵਾਰ	7
▁ਜੰਗ	7
▁ਜਿਪਸੀ	7
▁ਮਾਰਕਸ	7
ੂੰਦ	7
▁ਨਜਦੀਕ	7
▁ਕੈਪਟਨ	7
▁ਆਭੂਸ਼ਣ	7
▁ਚਨਾ	7
▁੨੦੦੩	7
▁ਸਮੇਟੇ	7
ਬੈਠਣ	7
▁ਬੱਧ	7
ਦੇਹਰਾ	7
▁ਗੇ	7
ਗਸ	7
▁ਸਮੂ	7
▁ਉਹਨਾ	7
▁੭੮	7
▁ਗਲੀਚ	7
▁ਕੇਪ	7
▁ਲਾਹੌਲ	7
▁ਭਜਾਉ	7
ਸਟ੍ਰ	7
▁ਸਰਵਿਸ	7
ੋਂਗ	7
▁ਡੇਂਚਰ	7
▁ਦਰਵਾਜ	7
▁ਢੋਲ	7
▁ਕਰਮਾ	7
▁ਸਵੀਡ	7
▁ਪਵਾਇੰਟ	7
▁ਰੂਮੈਟਾ	7
ਹੰਪੀ	7
▁ਜਿਓਂ	7
ਨਿਨ	7
ਪੋਲੋ	7
ਏਸ਼ਨ	7
▁ਯੋਗਮੁਦਰਾ	7
ਕਬਜ਼	7
▁ਸਾਈਕੋਸ	7
▁ਕਵੈਲ	7
▁ਗੁੰਜ	7
▁ਜੋੜਾ	7
▁ਝੂੰਮ	7
▁ਲਿਪੋਇ	7
▁ਨਿਪਟਾ	7
▁ਚਲੋ	7
▁ਉਰਤਕ	7
ਸਟਲ	7
▁ਗੁਆਚ	7
ੁੱਟ	7
ਬਿਨਸਰ	7
▁ਰਿਸਣ	7
▁ਕੋਲੰਬ	7
▁ਜੋਰ	7
▁ਸਿਮ	7
▁੫੭	7
▁ਦਮਕ	7
▁ਪੋਸ਼ਟਿਕ	7
▁ਫੱਟ	7
▁ਵਿਰਾਟ	7
ਸਮੂਹ	7
ਗ੍ਰੀਕ	7
ਸਿਟੀ	7
▁ਅਖਵਾਉਂਦੀ	7
ਦੈਵ	7
▁ਬੈਰਕ	7
▁ਮੁਨਨਾਰ	7
▁ਭਿੱਜ	7
ਇੰਟ	7
▁ਰੂਬੇ	7
▁ਹਿਮਾਨੀ	7
ਸ਼ਾਂਤੀਪੂਰਣ	7
▁ਚੌਬ	7
▁ਖੈਰ	7
▁ਕਪਿਲ	7
▁ਫ਼ੋੜ	7
▁ਮੈਨਗ੍ਰ	7
▁ਟਹਿਲਣਾ	7
▁ਖੇ	7
▁ਖਾਧੀ	7
▁ਯਕ੍ਰ	7
▁ਦਲੀਆ	7
▁ਜਾਏਗਾ	7
▁ਅੰਨ੍ਹੇਪ	7
ਮਿਆ	7
ਾਸ਼ਰ	7
ਕਿਸਨ	7
ਇੰਗ	7
ਚਬਾ	7
▁ਆੱਰਚਿਡ	7
▁ਸਹ	7
ਨ੍ਦ	7
ੋਗੀ	7
▁ਛੱਡਿਆ	7
▁ਸਿਪਤ	7
▁ਖਵਾਉ	7
ਖਾਨ	7
▁ਕਾਰਣਃ	7
ਸੀਰ	7
▁ਪ੍ਰਵਾਨ	7
▁ਰੋਲਰ	7
ਭਿਸ਼ੇਕ	7
▁ਨਿਰਮ	7
▁ਕਾਰਤਿਕ	7
▁ਭੇੜਾ	7
▁ਅਭਯਾਰਣਯ	7
▁ਪਿਆਜ	7
▁੧੯੫੨	7
▁ਬਰਫੀਲੀ	7
▁ਗਊ	7
▁ਜਾਮੁਨ	7
ਿਸ਼ਿਟ	7
ਸੰਗ	7
▁ਦੁਸ਼ਹਿਰਾ	7
ਾਸੁਰ	7
▁ਬਲੱਡਪ੍ਰੈਸ਼ਰ	7
▁ਆਵਾਜ਼ਾ	7
▁ਬਦਲੋ	7
▁ਮਹਾਰਿਸ਼ੀ	7
ਸੰਗਤ	7
▁ਹਿੰਦ	7
ਮਸ	7
▁ਕੋਲਹੂਆ	7
▁੪੭	7
ਲਿੰਦ	7
▁ਇੰਨ੍ਹ	7
▁ਦਿੱਬ	7
ੁੱਕ	7
ਵਾਯੂ	7
▁ਬਿੱਛੂ	7
▁ਚਕਰਾ	7
ਟਿਸਟ	7
▁ਬਰਥ	7
▁ਮਹਾਬਲੀਪੁਰਮ	7
▁ਰੰਗਮੰਚ	7
ਬਮ	7
▁ਜਸਵੰਤ	7
▁ਭਾਂ	7
▁ਸਕਾਟਲੈਂਡ	7
ੱਦ	7
▁ਅਵਕਾਸ਼	7
ਕਾਊਂਟ	7
ਪਿਨ	7
▁ਪੈਂਟ	7
▁ਪਰਣ	7
▁ਐਂਜੀਓ	7
ੱਚ	7
▁ਹਿੱਲਣ	7
▁ਛਿੱਕਣ	7
ਵਸਥਾ	7
▁ਜਠਰ	7
▁ਜ਼ਹਾਜ	7
▁ਤਵਾਂਗ	7
ਿਲਾ	7
▁ਫ਼ੁ	7
ਾਯਡ	7
▁੨੫੦੦	7
▁ਪਾਂਡੀਚਰੀ	7
▁ਗੁਰਦੁਆਰ	7
▁ਝਿਲਮਿਲਾਉਂਦ	7
੩੬	7
▁ਐਂਟੀਆਕਸੀਡੇਂਟ	7
▁ਮਹਿਮਾ	7
▁ਖਾਂਦੀ	7
ਜਵੇ	7
ਾਇਟਿਕ	7
▁ਧਨੀਆਂ	7
ਯੂਟਰ	7
▁ਮਾਂਡ	7
▁ਮੇਡੀ	7
▁ਸ਼ਾਲਾਂ	7
▁ਬਰਡ	7
▁ਕੋਵਲਾਮ	7
▁ਪ੍ਰੇਰਨਾ	7
▁ਬਾਉਲੀ	7
▁ਪ੍ਰਾਰਥਨਾ	7
▁ਡਾਇਬਟ	7
▁ਫ਼ੈ	7
ਚਿੰਨ੍ਹ	7
▁ਰੱਖੇਗ	7
ਭਰਤ	7
▁ਠੋਕ	7
▁ਫ਼ੈਸ਼ਨ	7
▁ਅਠਵ	7
▁ਉਪਾਸਨਾ	7
▁ਵਰਾਇਟੀ	7
▁ਬੀਟਾ	7
▁ਰੈਪਲਿੰਗ	7
▁ਮੱਦ	7
▁ਡਿੰਬ	7
ਵਤ	7
▁ਵਾਰਾਣਸ	7
▁ਧੁੰ	7
ਆਦਿ	7
▁ਕਾਂਗ	7
੍ਰਿਪਾ	7
▁ਆਕਲ	7
▁ਅਸਤਰ	7
ਸ਼ਾਸਤਰ	7
▁ਆਸਿਟਯੋ	7
ਲੋਡ	7
▁ਟਾਪ	7
▁ਬ੍ਰੇਕਫਾਸਟ	7
ਚੀਗਾਮ	7
▁ਮੰਦਾਗਿਨ	7
▁ਚੁੱਪ	7
▁ਨੋਕ	7
▁ਭਿਉ	7
ਕਟ	7
▁ਪ੍ਰ੍ਤੱਖ	7
ਸ਼ੌਕਤ	7
ੌੜ	7
▁ਵਿਮਲ	7
▁ਵੈਸਟ	7
▁ਨਿਖਰ	7
▁ਦਿਵਾਉਂਦੀ	7
▁ਆਂਜ	7
▁ਵੈਗਨ	7
ਲਜ	7
ਨੋਬਲ	7
▁ਪਤਨ	7
▁ਮੋੜੋ	7
▁ਸੋਰ	7
੧੯੯੮	7
▁ਪੋਖਰਾ	7
▁ਸਮਝੋ	7
▁ਆਰਗੇਨ	7
▁ਬਰਗਮੋਟ	7
▁ਜ਼ਰੀਆ	7
▁ਐਮਬ	7
▁ਬੂਟ	7
▁ਹਿਸਟ	7
ਦਰੱਖਤ	7
▁ਕੋਲਾ	7
▁ਵਿਜਾਤੀ	7
ਰਸ਼ਣ	7
▁ਦੋਰਾ	7
▁ਸਬ	7
▁ਜਦੋ	7
▁ਰਾਈਸ	7
ਆਪੀ	7
▁ਟੀਕਾਕਰ	7
▁ਬਣਾਵਟ	7
ਮਾਯ	7
੯੧	7
▁ਸ਼੍ਰੀਵ	7
ੈਂਕ	7
▁ਉੱਡਾਨ	7
▁ਪੰਛੀਆ	7
੯੫	7
▁ਕਨ	7
ਯੂਲ	7
▁ਕੌਤ	7
ਯੁਵਤੀਆਂ	7
▁ਚਿਤਰਕਾਰ	7
▁ਫ਼ਤਿਹ	7
▁ਰੁਦਰਨਾਥ	7
ਮ੍	7
▁੧੨੪	7
▁ਮਹੇਸ਼	7
▁ਬੇਰੀ	7
▁ਬੁਰਾਂਸ਼	7
ਲੰਗ	7
ਬੋਲ	7
▁ਅਖਾੜੇ	7
▁ਅਨਾਨਾਸ	7
▁ਸਰਾਬ	7
ਪਿ	7
ਅੰਡਗ੍ਰੰਥੀ	7
▁ਮ੍ਯੂਕ	7
▁ਪਾਦਰੀ	7
ਗੁਲਕੰਦ	7
ਾਯਨ	7
▁ਪਗ	7
▁ਬੂਟੀ	7
▁ਗੰਜਾਪਨ	7
ਬਾਪ	7
▁ਵਰਸ਼	7
ਸਿਆਟਿਕਾ	7
▁ਸੌਗਾਤ	7
▁ਸਾਰਨਾਥ	7
▁ਕੋਰਾ	7
▁ਸ਼ਮਸ਼ਾਨ	7
ਦਾਤਾ	7
▁ਭਰੋਸੇ	7
▁੧੪ਵੀਂ	7
ਵਤੀ	7
▁ਤੀਰਥਾਂ	7
▁ਚਾਈਨ	7
▁੧੬੪	7
▁ਜਿਊ	7
▁ਦੁੱਗਣ	7
▁ਅੰਤਃਸ	7
▁ਮੁਰਦ	7
▁ਮੋਨੋਨਯੁਰ	7
▁ਪਾਇਰੀ	7
ਮਲਯ	7
▁ਚੰਦਰਗਿਰੀ	7
▁ਕਰਨੀਆ	7
▁ਸਪੋਰਟ	7
▁ਡਿਜੀਜ	7
▁ਮੇਗਾ	7
ਕੋਈ	7
▁ਅੱਜਕੱਲ	7
▁ਮੂਤਰਲ	7
▁ਸ਼ਹਿ	7
▁ਮੁਲਾਕ	7
ਵਲੀ	7
▁ਗੁਫਾਵਾ	7
▁ਉਤੇਜਿ	7
▁ਯੁਮਨ	7
ਦਰੰਗ	7
▁ਉਚ	7
▁ਤਰਾ	7
ਨੀਲਾ	7
▁ਸੀਜ਼ਨ	7
▁ਚੱਕ	7
▁ਰਾਸ਼ਾਟਰ	7
▁ਅਪਰ	7
▁ਗੋਲੀਆ	7
▁ਉਪਲਬਧੀ	7
ਸਵਰ	7
▁ਝੁਰਮਟ	7
ਪ੍ਰੇਮੀ	7
▁ਪੁਰਾ	7
ਵਾੜਾ	7
ਤਾਜ	7
▁ਅੰਧਵਿਸ਼ਵਾਸ	7
ਲੇਸਿਸ	7
▁ਚੁੱਕੋ	7
▁ਭੁੰਨਿਆ	7
▁ਗੜਬੜੀਆਂ	7
▁ਫਿਨ	7
ੂਲੀਨ	7
▁ਨੌਰ	7
ਿਦ	7
▁੧੯੮੫	7
▁ਕਵਿਤਾ	7
▁ਰਹੋਂ	7
▁ਭਰੋ	7
▁ਚੋ	7
ਵਿਨ	7
▁ਵਾਂਗਦੀ	7
▁ਪੁੱਠਾ	7
ਤਰਿਤ	7
▁ਬਰਾਹ	7
▁ਹਸਤਪਤਾਲ	7
▁ਪੱਟੀਆਂ	7
▁ਵਰਧ	7
▁ਗਰੂੜ	7
▁ਗੰਜੇਪ	7
ਲਨ	7
▁ਗਜ਼	7
▁ਰੂਬ	7
ਕੈਮਫਰ	7
▁ਸ਼ਿਕੰਜ	7
▁ਖੋਜਾਰਥੀ	7
ਿੱਧ	7
▁ਮਿੱਥ	7
▁ਬਹਰਹਾਲ	7
ਘਾਨਾ	7
▁ਸੁਣੋ	7
ਚਰਚ	7
▁ਇੰਫ	7
ਮਣੀ	7
ੁਨ	7
▁ਵਾਚ	7
▁ਏਨੇਸਥੀ	7
▁ਡੈਸਟੀਨੇਸ਼ਨ	7
▁ਕਾਮਾ	7
▁ਦ੍ਰਿਸਟੀ	7
ਭੀਤ	7
▁ਪਾਰਾ	7
੍ਰਾਵੀ	7
▁ਵਾਦ	7
▁ਸ਼ਾਤੀ	7
▁ਤਪੋਵਨ	7
▁ਇਸਪਾਤ	7
ਚੱਕਰ	7
▁ਰੀਤੀ	7
▁ਗਠਿਤ	7
▁ਪਾਠਕ	7
▁ਸਕ੍ਰਿ	7
ਬੜ	7
▁ਅਪਣਾਈ	7
▁ਚਰਿੱਤਰ	7
▁ਰੂਸ	7
▁ਕੈਥੋਲਿਕ	7
▁ਨਗੀਨ	7
▁ਧੌ	7
▁ਦੇਖੀਆ	7
ਵਾੱਕ	7
▁ਵਿਸ਼ਵਵਿੱਦਿਆਲ	7
▁ਐਂਠਨ	7
▁ਪੇਟਿੰਗ	7
ਊਂ	7
ਪਲਾਸਟੀ	7
▁ਕਾਮਰੂ	7
ਵਿਕਾਰਾਂ	7
▁ਜਂਦੀ	7
ਕੌੜੇ	7
▁ਮੰਜ਼ਲੇ	7
▁ਗੁੰਡ	7
▁ਸਮਾਏ	7
▁ਰੁਕਾਵਟਾਂ	7
ਂਬਰ	7
▁ਸਮਗਰੀ	7
▁ਫੀ	7
▁ਮਾਲੇ	7
▁ਪਿਥੌਰਗੜ	7
ੈਂਪਲ	7
▁ਗ੍ਰੇਟ	7
▁ਮੇਰੂ	7
▁ਅਸਿ	7
▁ਚਾਚਾ	7
▁ਕਾਠਮੰਡੂ	7
▁ਸਕਾਈ	7
▁ਰਾਜਨੀਤੀ	7
▁ਆਮਾਸ਼ਯ	7
੮੬	7
▁ਚਾਹਤ	7
▁ਮੌਲਿ	7
▁ਚਿਤੌੜਗੜ੍ਹ	7
ੱਤੀ	7
▁ਅਵਸਥਿਤ	7
੍ਯਾਰ	7
ਅੰਦਰ	7
▁ਬਾਰਡਰ	7
ਟਜ	7
ੈਨੀ	7
ਮ੍ਯ	7
▁ਜਰਨਲ	7
ਲੈਕਸ	7
ਪਾਪੜ	7
▁ਨਿਰਜਲੀਕ	7
▁ਪਚਨ	7
▁ਬਣਾਉਟੀ	7
▁ਰੋਜਰ	7
ਰਯ	7
▁ਲੜਕੇ	7
▁ਝਾ	7
▁ਸਟਾ	7
ਡੁਲਾ	7
ਮੇਟੀ	7
▁ਚਾਹੀਦੀਆ	7
▁ਗਿ	7
▁ਤੈ	7
ਡੋਰ	7
ਨਹਿਲ	7
▁ਦਿਖਾਓ	7
ਟ੍ਰਿਪ	7
▁ਵਿਜਯ	7
ਮਪਾ	7
▁ਭੂਰੀ	7
ਸ਼ਵਾਸ	6
▁ਵਰਤਣੀ	6
ਅਜਿਹੇ	6
▁ਖਵਾਉਣਾ	6
▁ਲੂਈ	6
▁ਲੇਡੀ	6
▁ਚਿਪਸ	6
▁ਸੱਭਿਆਚਾਰ	6
▁ਪੇਰੀਯ	6
▁ਆਉਂਦੀਆ	6
▁ਲਾਈਕ	6
▁ਪ੍ਰ੍ਦਰਸ਼ਨ	6
▁ਰਿਹਾਇਸ਼	6
ਮਿੱਟੀ	6
ਸਪੇਸ਼ੀ	6
▁ਟਕਨ	6
▁ਛੂੰਹਦੀ	6
▁ਬਁ	6
▁ਮੇਡਿ	6
▁ਅਠਖੇਲੀਆ	6
▁ਬੈਗਸ	6
▁ਅਕ੍ਰਿਤੀ	6
▁ਪਾਇਨ	6
ਰੇਸ਼ਨ	6
▁ਫੁਰਸ	6
▁ਏਨ੍ਹੀ	6
▁ਡਿਵੈਲਪਮੈ	6
▁ਹੱਥਕਰਘ	6
ਕਸ਼ਣ	6
ਟੂ	6
ਿਜਮ	6
▁ਓਪੇਰਾ	6
ਹਾਥੀ	6
▁ਫ਼ੈਕ	6
ਲੂਕੋਜ਼	6
ਇੱਛ	6
▁ਬੁਗ	6
▁ਫੋਟੋਗ੍ਰਾਫ	6
▁ਚੁਮ	6
ਲਾਇਨ	6
▁ਪੀਜਾ	6
▁ਫ਼ਾਸਟ	6
▁ਚੋਪੜ	6
▁ਲੈਕਟੋ	6
ਲੈ	6
ਟਕ	6
▁ਸ਼ੁਭ	6
▁ਪਲਾਸ	6
ੌਲ	6
▁੧੯੮੬	6
▁ਘਾਟੀਆ	6
▁ਤੋਤੇ	6
▁ਮੈਨਾ	6
▁ਪੱਸ	6
ਡੌਲ	6
ਪ੍ਰ੍ਭਾ	6
▁ਪ੍ਰ੍ਵਤਾਰੋਹੀ	6
▁ਬੁਲੰਦ	6
▁ਰੂਪਾਂਤਰ	6
ੌਤੀ	6
▁ਮ੍	6
▁ਗੰ	6
ਵਯ	6
▁ਤੱਲ	6
▁ਇੰਗਲੈਂਡ	6
▁ਕਿਵੇ	6
▁ਸੀਰਮ	6
ੈਂਟਸ	6
▁ਸਲੇਜ	6
▁ਡਿਲਵਰੀ	6
▁ਅਗਿਆਨ	6
ਸ਼ੀਲਤਾ	6
▁ਮੁਰੱਬ	6
▁ਟਿਕੀ	6
ਰਿਆ	6
▁ਭੁੱ	6
▁ਖਟਿਆਈ	6
▁ਮਚਲਾਉਣ	6
ਗਲ	6
ਸ਼੍ਯ	6
▁ਡੂ	6
ਕ੍ਰੋਨ	6
▁ਸ਼ੀਰ	6
▁ਪ੍ਰਚੰਡ	6
▁ਖ਼ਤਰ	6
ਾਂਗਪਾ	6
ਕਿਤ	6
▁ਰੋਪ	6
▁ਦੁਹਰਾਉਣ	6
▁ਗ੍ਰਾਹਕ	6
▁ਸ਼ਿਰਾ	6
ਲਰੋਟ	6
▁ਦਸਤਾਨ	6
▁ਟਰਾਂਸ	6
▁ਸਕਵਾਇਰ	6
▁ਅਭਿਸ਼ੇਕ	6
ਾਯੀ	6
▁ਗੰਧਰ	6
▁ਕਾਊਂਟਰ	6
▁ਜਾੱਗਿ	6
ਦੁਪ	6
ਡੋਲਾ	6
▁ਲਟਕਦੀ	6
ਨੇਵਾ	6
▁ਕਰੜਾ	6
▁ਪੈਰੋਕਾਰ	6
▁ਈਸੀਜੀ	6
▁ਸੁਬਹ	6
▁ਮਿੱਲ	6
▁ਮੰਡੋ	6
▁ਤਸੋ	6
▁ਗੋਖ	6
▁ਇਜ	6
ਸਰੋਵਰ	6
▁ਬਸੇਰ	6
▁੧੮੯੧	6
▁ਫਾਗ	6
ਸ੍ਰੋਤ	6
ਸੰਤ	6
▁ਪਾਟਿਲ	6
▁ਮਹਾਂਨਗਰ	6
▁ਘੁਮਾਉ	6
ਊਟ	6
▁ਐੱਲਡੀਐ	6
▁ਉੱਨੀ	6
▁ਡਾਟਸ	6
੮੮	6
▁ਰੱਸ	6
▁ਬਰਨ	6
▁ਸਮਝਾਉਣ	6
ੈਤ	6
▁ਸਨਾਨ	6
▁ਮੋਟਰਬੋਟ	6
ਵ੍ਰ	6
▁ਵਰਤੋ	6
▁ਦੁਸ਼ਟ	6
▁ਚਿੰ	6
ਮੁੰਡ	6
▁ਪਿੰਜਰ	6
▁ਅਸ਼	6
▁ਆਧੁਨਿਕੀਕਰ	6
▁ਬਹਾਦੁਰ	6
ੜੋ	6
ਕਿਲ	6
▁ਵਧਾਉ	6
▁ਦੀਦਾਨ	6
▁ਉਦਾਸੀਨ	6
ਫ਼ੀ	6
ਦੀਨ	6
▁ਕੁਤਬ	6
▁ਚਿੱਤਾ	6
▁ਆਕਸੀਡੇ	6
ਚੁਰ	6
▁ਗੋਲਾ	6
▁ਖਰੀ	6
▁ਗੌਤਮ	6
▁ਅਜਬ	6
▁ਛੱਪਰ	6
ਡਲ	6
▁ਧੰ	6
ਗਦੇਵ	6
ਯੌਗਿਕ	6
ਗੁਦਾ	6
▁ਪੱਲ	6
▁ਆਵਾ	6
▁ਕਾਰਸਿ	6
▁ਸੇਰੀਬ	6
▁ਗਰਭਧਾਰਣ	6
ਕਾਰਸਾ	6
▁ਵਧੇਗਾ	6
▁ਸਾਈਬੇਰੀ	6
▁ਪੁੱਜੇ	6
▁ਕੁਮਿ	6
▁ਪੰਖ	6
▁ਪਿਆਸੇ	6
▁ਜੰਤਰ	6
▁੧੫੫	6
ਥੋੜੇ	6
▁ਪੂਜਨ	6
▁ਘੁੰਮਾਓ	6
ਲਿਨ	6
▁ਏਨਾਫ	6
▁ਗੋਂਡ	6
ਦੇਸ਼	6
ਪਛਾਣ	6
▁ਹਰੀਆ	6
▁ਦੌੜਦੇ	6
▁ਕਾਲਾਜਾਰ	6
▁ਮਯਾਂਮਾਰ	6
ਾਊ	6
▁ਅਨਾ	6
ਉੱਧ	6
ਰੁੱਤ	6
ੀਨਾਥ	6
▁ਪੋਲੋ	6
ਰਾਊਂਡ	6
▁ਲੈਪ	6
▁ਬੰਨ੍ਹੋ	6
ਸੋ	6
▁ਰਾਣੀਆਂ	6
▁ਦੁਰਬਲ	6
੭੪	6
▁ਖੋਜਣ	6
▁ਕਿਲਾਂ	6
▁ਅਹ	6
▁ਅਗੂੰਠ	6
ਾਉਂਦੀ	6
ਹਰਿ	6
ਡੀਲਾ	6
▁ਸਹੇਜ	6
▁ਅੱਛਾ	6
ਜਮੈਂਟ	6
▁ਵਿਫ਼ਲ	6
▁ਵਧੇਗ	6
ਾਲਿਜ	6
▁ਸਮੱਰਥ	6
▁ਭੈਂਸ	6
▁ਸਾਰਬਿ	6
ਲੇਰੀਆ	6
▁ਨਲਟ੍ਰੈ	6
▁ਪਰਕੋਟ	6
ਨਾਹਟ	6
▁ਰੀਵਾ	6
▁ਬਾਲਕੋ	6
੮੩	6
ਾਕ੍ਰਿਤ	6
▁ਖਰਚੀਲ	6
▁ਇਮ	6
ਰੋਧ	6
ਁਚ	6
ਟੈਕਟ	6
▁ਏਕਸ	6
ਗਲੀ	6
▁ਡੀਪੀ	6
▁ਹਾਸ	6
▁ਟੇਸਟ	6
ਖਟ	6
▁ਭਾਈਚਾਰੇ	6
ਾਨੁਗ	6
▁ਸੱਤਵੀ	6
▁ਯਾਤਰ	6
▁ਉਲਟੇ	6
▁ਵਾਈਲਡਲਾਈਫ	6
ਚਿਤਰ	6
▁ਚਿੜਚਿੜੇਪ	6
▁ਗੁਰੂਦੁਆਰ	6
▁ਲੁਧਿਆਣ	6
▁ਸੁਹਾਗ	6
▁ਬੇਫ਼ਿਕਰ	6
▁ਮਰਿਆ	6
▁ਜਲਪਾਈਗੁ	6
ਲੋਚਨ	6
ਲਕਾ	6
▁ਸ਼ੇਖ	6
ਾਨਸ	6
▁ਪਰਸਥਿਤੀ	6
▁ਟ੍ਰੀਹਾਊਸ	6
▁ਸੰਕੋਚ	6
▁ਕਸੌਲੀ	6
▁ਛੇਵੇ	6
▁ਮਿਲਾਨ	6
▁ਖੁਸ	6
▁ਦਸਵੀਂ	6
▁ਚਿਨ	6
▁ਅਠਾਰ	6
▁ਕੈਟ	6
▁ਯੋ	6
▁ਛੰਤੋਲੀ	6
ਲੇਜ	6
▁ਚਾਟ	6
▁ਰੈ	6
ਗਵ	6
▁ਜ਼ਿੰਦ	6
▁ਪੂਰਕ	6
ਇਸ਼ਟ	6
ਮੋਲ	6
▁ਲਿਪਟੀ	6
▁ਹਿਮਸ਼ਿਖਰ	6
▁ਪਿਆਰੀ	6
▁ਰਾਮਤ	6
ਲਾਊ	6
ਤਿਆਂ	6
ਜ਼ਾਰ	6
▁ਚੇੱਟਿਆ	6
ਿਟ	6
▁ਕੱਥ	6
▁ਅਤਿਥੀ	6
▁ਪੂਰਵਜ	6
ਸਾਈਜ਼	6
▁ਸਿਖਾਉਣ	6
▁ਹਿਤ	6
ਧੁਰ	6
▁ਨਾਈ	6
▁ਆਰਥਰਾਇਟ	6
▁ਵਾਇਸਰ	6
▁ਹਵਾਮਹਿਲ	6
▁ਆਂਤਾ	6
▁ਜੋਸ਼	6
ੰਮਲ	6
ਨਟ	6
▁ਜਲਰਾਸ਼ੀ	6
▁ਯੂਜ	6
▁ਕੈਥੇ	6
ਸ਼ਨਿਕ	6
▁ਬੁੱਧੀਜੀਵੀ	6
ਤਾਓਰਮਿਨਾ	6
▁ਏਗ	6
▁ਪਹਾੜਾ	6
▁ਹਾਕੀ	6
▁ਮੈਚ	6
▁ਕਿੱਲ	6
▁ਬਣੋ	6
▁ਫਿਲਾਡੇਲ	6
ਫੀਆ	6
▁ਬੋਮਡਿਲਾ	6
▁ਬਾਈਕਾਰਬ	6
▁ਰਣ	6
ਜੀਤ	6
▁ਚਾਂਗ	6
▁ਗੋਪਾਲਪੁਰ	6
▁ਲਿੰਕ	6
ੂਦੀਨ	6
▁ਲਿਗ	6
▁ਲਿਮਫ਼	6
▁ਅਰਾਈਸ਼	6
▁ਦੀਰਗਾ	6
▁ਧਨੀਆ	6
▁ਹਿਸ	6
ਫਾਰਮ	6
▁ਅਮਬਿਲ	6
▁ਵੇਸ਼ਭੂਸ਼ਾ	6
ੇਸਿਸ	6
▁ਉਜਾਲ	6
ੰਗਲੌਰ	6
▁ਅਸਵਸਥ	6
ਦੰਬਾ	6
ਨਿਆਸ	6
▁ਪੱਤਰਕਾਰ	6
▁ਸੋਇਆਬੀਨ	6
▁ਫਾਰ	6
▁ਪਲੇ	6
▁ਆੱਡਸ਼ੂਰਨ	6
▁ਸ਼ੁਤੁਰ	6
ਮੁਰਗ	6
ਟੈਕ	6
▁ਧੜਕਦ	6
▁ਸਾਂਦਰ	6
▁ਟੁੱਥ	6
ਚਾਰੀ	6
▁ਮੁਸ਼ਿਕਲ	6
ੁਹਾਰੇ	6
▁ਵਰਨ	6
ਗਾੜ	6
ਨੇਤਾ	6
ਸ਼ਠ	6
▁ਰਾਨੀਖ	6
▁ਮਦਨ	6
▁ਅਰਹ	6
▁ਕੈਮਲ	6
▁ਫ਼ੇਲ	6
▁ਖੋੜ੍ਹ	6
▁ਦੰਦਾ	6
ਯਤਨ	6
ੋਸ਼ੀ	6
▁ਅਗਿਆਤ	6
=	6
▁ਮੰਗਲਵਾਰ	6
ਸਵੇਰੇ	6
ਜਗਤਾ	6
▁ਆਪ੍ਣ	6
ਬਹਿਸ	6
ਸੀਨੋ	6
▁ਪੰਚਾਇਤ	6
▁ਨਾਇਕ	6
▁ਪਟਲ	6
▁ਕੇਸਰਿਆ	6
▁ਰਾਕਸ਼	6
ਸ਼ਿਪ	6
▁ਰੂਮੈਟਾਇਡ	6
▁ਪਰਿਭਾਸ਼	6
▁ਲੜਾਕ	6
ਪੈਨ	6
▁ਲਿਜਾਣ	6
▁ਸ਼ੁਕਰ	6
ਖੋ	6
▁ਮਹਿੰਗੀ	6
▁ਹਾਂਲਾ	6
▁ਊਸ਼ਮਕਟਬੰ	6
▁ਵਿਸ਼ਾਕਤ	6
▁ਬੀਚਾਂ	6
▁ਪ੍ਰੋਡਕਟਸ	6
▁ਸ਼ਾਸ	6
੍ਰਾਵਿ	6
▁ਪ੍ਸ਼ੂ	6
▁ਬੁਲਾਇਆ	6
ਘਾਟੀ	6
ਲੰਕਾ	6
▁ਮੁਹਾਂਸਿਆ	6
▁ਜਗਤਾਰਥ	6
੬੫	6
ਰਾਜਸਥਾਨ	6
▁ਸਰਕਸ	6
▁ਰਣਵਿਰੇਂ	6
▁ਟੀ੦ਬੀ੦	6
ਡੁੰਗ	6
▁ਟ੍ਰੇਕ	6
ਜੈਂਸੀ	6
▁ਗੋਡ	6
▁ਉਪਦ	6
ਟ੍ਰਾਈਨ	6
ਕਲੀ	6
▁ਉਕੇਰੇ	6
▁ਮੋਹਨ	6
▁ਆਤਮਹੱਤਿਆ	6
ੰਨੇ	6
ਸ਼ੰਸ	6
ਚਮੜੀ	6
▁ਔਸ਼ਧ	6
ਾਉਂਦੀਆਂ	6
਼ੀਆਂ	6
▁ਸਾਮੰਤ	6
ਲੂਪ	6
▁ਡ੍ਰਾਪ	6
▁ਜਨਸਧਾਰ	6
▁ਲਾਲਚ	6
▁ਚਬੂਤਰਾ	6
▁ਜਯੋਤੀ	6
▁ਪੜੋਸ	6
▁ਕ੍ਰੀੜਾ	6
ਕਿਟ	6
▁ਆਈਸਕਰੀਮ	6
▁ਟੈਨਿ	6
▁ਭ੍ਰਮ	6
੨੮	6
▁ਜੇਹਲਮ	6
ਭਰਾ	6
▁ਫ਼ੁੰਸੀ	6
▁ਕਿਲ੍ਹਿਆ	6
▁ਸਮਝਦਾ	6
▁ਹਮਲਾਵਰ	6
▁ਹਮਲ	6
▁ਅਸਮਰੱਥ	6
▁ਯਹੂਦੀ	6
▁੮੪	6
▁ਚੌਂਕਾ	6
▁ਭੀਸ਼ਣ	6
▁ਵਾਹਿਨੀ	6
▁ਪ੍ਰੋਫ਼ੈਸ	6
ਪ੍ਰਿਯ	6
ਮਾਂ	6
▁ਪੰਜੀਕਰ	6
▁ਸਪ੍ਰੇ	6
▁ਰਿਸ਼	6
ਨਪੁਰ	6
▁ਮਾਰਕੰਡੇ	6
▁ਪ੍ਰਤਿ	6
ਮਾਰੀ	6
▁ਬੰਧੇਜ	6
▁ਪਾਲਕੀ	6
▁੧੭੮	6
▁ਸੰਕ੍ਰਾਂਤੀ	6
ਕਿਨਾਰੇ	6
▁ਅਬੂ	6
▁ਰਹਿਆ	6
ਬਾਬ	6
▁ਘਣੀ	6
▁ਵਿੱ	6
▁ਆੜੂ	6
ਬ੍ਰਾਈਡ	6
ੇਕਸ	6
▁ਪੀੜੀ	6
▁ਐਨੀਮੀਆਂ	6
▁ਗੋਨ	6
▁ਯੂਟੇਰ	6
▁ਸੰਕਲਪ	6
▁ਕਲਾਕ	6
▁ਜ਼ੰਜ਼ੀਰ	6
▁ਰੁਝਾ	6
ਮਰੀ	6
ਲੋਰਾਇਡ	6
▁ਚੱਖ	6
੬੭	6
▁ਨਿਯ	6
▁ਚਾਰਗਾਹਾਂ	6
▁ਬੈਨਜੋਇ	6
▁ਸਿਲਪ	6
▁ਡੇਲੀ	6
▁ਛੂਟ	6
▁ਕਾਂਕੇ	6
ੀਟਿਊ	6
▁ਖੁਬਸੂਰਤ	6
▁ਰਗੜਨ	6
ਰੇਸਟ	6
▁ਬਲਕ	6
▁ਕੋਟਮਸ	6
▁ਲਜ਼ੀਜ	6
▁ਬਾਗਾ	6
▁ਸੰਕਟਾਪ	6
ਕਨਾਟ	6
▁ਅਪੰਗ	6
ਗਰੀਬ	6
▁ਸਹਿਯੋਗੀ	6
ਸ਼ੁ	6
ਕੈਂਡ	6
ਗੇਟ	6
ਪ੍ਰਿਨ	6
▁ਅਪਰਾਧ	6
ਪਤਾ	6
▁ਸਟੇਪ	6
▁ਬੁਲਬੁਲ	6
▁ਪੂਜਨੀਕ	6
▁ਨੀਚ	6
▁ਧਨੁਰਾਸ	6
▁ਕੇਲਾਂਗ	6
▁ਹਾਰਨ	6
ਪਗ	6
▁ਵਾਹਿਕਾ	6
▁ਪ੍ਰੋਜੇ	6
ਲਕਸ਼ਮੀ	6
▁ਰਿਆਇਤ	6
▁ਪੁੰਗਰੀ	6
▁ਆਵਾਜ	6
▁ਸੰਚਰਣ	6
ਨੱਕ	6
ਗਨ	6
ਰੇਣੁਕਾ	6
ੌਲੀ	6
▁ਪੀਲਾਪਣ	6
▁ਲੋਸ਼ਣ	6
▁ਦਿਖਾਉਂਦੀ	6
▁ਮਜ੍ਹ	6
▁ਰਿਡ	6
ਐਸਿਡ	6
ੀਕਰਨ	6
▁ਕੱਡਣ	6
ਪ੍ਰਭਾ	6
▁ਵਿਆਕੁਲ	6
▁ਨਵਰਤਨ	6
ਨਦੀ	6
ਬਾਉਣ	6
▁ਕਚਰ	6
▁ਕੰਦ	6
▁ਤਾਰਕ	6
▁ਅਲਪਤਾ	6
▁ਵਿਲੀ	6
▁ਪੌ	6
▁ਨਿਦੇਸ਼	6
▁ਭੋ	6
ਨਿਕਲ	6
▁ਬਦਨ	6
▁ਅੰਧਤ	6
▁ਮੈਗਾ	6
▁ਪ੍ਰਸ	6
▁ਬਿਰਜ	6
▁ਸਾਦਗੀ	6
▁ਤ੍ਰਿਸ਼	6
▁ਮਲਾ	6
▁ਕੰਟੀਨ	6
ਰੇਨ	6
▁ਨਾਈਲ	6
▁ਛਾਜ	6
▁ਅੱਖਰ	6
ਬਰਮ	6
▁ਯੁ	6
▁ਕਾਰੀਗਰੀ	6
▁ਠੰਢੀ	6
ਰਕੂ	6
▁ਅਭੀ	6
ਨੋਯ	6
ਇੰਦਰੀ	6
▁ਚੀਤਿਆਂ	6
▁ਪੂੰਜਣ	6
▁ਡਿੱਗਦੀ	6
▁ਆਇਓਡਾਈਡ	6
▁ਵਨਜੀਵ	6
▁ਪਾਦ	6
ਹੱਤਿਆ	6
▁ਬ੍ਰ੍ਸ਼	6
ਸਪਾ	6
▁ਕਾਲੇਸਟ	6
▁ਨਰਾਤ	6
▁ਮਿਸ	6
▁ਪਰਾਗ	6
▁ਪਾਂਡ	6
▁ਚੇਸਟ	6
▁ਲਿਆਉਂਦੀ	6
ਪ੍ਰਾਚੀਨ	6
▁੧੮੪੫	6
ਪਟਰ	6
▁ਉਤੱ	6
▁ਰੁਮਾ	6
▁ਉੱਠੇ	6
ਸ਼ੁੱਕਰਵਾਰ	6
▁ਅੰਧੇਰ	6
▁ਨਿਭਾਉਣ	6
▁ਸਾਇਨ	6
▁ਨਿੱਕਲ	6
▁ਐਡਵ	6
▁ਕੋਸਟ	6
▁ਫਾਸਲ	6
ਣੂੰ	6
▁ਸੰਕ	6
ਾਲਾ	6
▁ਚੌਦ	6
▁ਆਸਿਫ਼	6
▁ਮਹਾਂਸਾਗਰ	6
▁ਨਾਸ	6
▁ਢਾਬ	6
੍ਰੋਥ	6
ਲਾਨ	6
ਵਸਤ	6
▁ਦਮਦਮ	6
▁ਵਿਗਿਆਨੀ	6
▁ਆੱਪਰੇਸ਼ਨ	6
ਰਨਿਕ	6
▁ਅਲਟਰਾਵਾਈਲ	6
▁ਉਤਰਾਈ	6
ਕੁਫਰੀ	6
▁ਮਧੂਮੱਖੀ	6
ਜਵਾਲਾਜੀ	6
▁ਸਾਂਝੀ	6
▁ਫੋਟੋਗਰਾਫ	6
▁ਹਿੱਤਕਾਰੀ	6
੍ਰਾਰ	6
ਾਸੀਰ	6
ੁਣਗਾ	6
▁ਸਟੂਡੀ	6
ਾਈਕੁ	6
ਰਾਹਟ	6
ਜਾਂ	6
ਮੈਦਾਨ	6
ਸ਼ਮਾ	6
▁੧੫੬	6
ੇਂਸ਼ਨ	6
▁ਮੁਸਕਾਨ	6
ਸੰਦੇਹ	6
▁ਐਲੀਫੈਂਟ	6
▁ਨੀਰ	6
▁ਬੁੱਧਾਂ	6
▁ਚੈਤਯ	6
▁ਬੋਧਗਯਾ	6
ਿਤਲੀ	6
ਜੋਲ	6
▁ਮੁਕਤਾ	6
▁ਉਲਝ	6
▁ਯੂਟ	6
▁ਖਿਲਾ	6
▁ਫਿ	6
▁ਵਕਰ	6
ਪ੍ਰਭਾਵ	6
▁ਕਵੀਨ	6
▁ਖੱਟੀ	6
▁ਭਾਗੀਦਾਰ	6
▁ਆਇਤਾ	6
▁ਚਿਨਈ	6
▁ਅਸਹਿ	6
ਆਸ	6
ੜਕੇ	6
▁ਜਾਣੋ	6
▁ਕੋਕ	6
ਯੇਨ	6
▁ਸ਼ਰਬ	6
▁ਟੁੱਟੀ	6
ਮਿਰਜ਼ਾ	6
▁ਸੰਪਰਦਾ	6
▁ਬਜ	6
▁ਪਲੇਟਲੇਟ	6
▁ਘਟਣ	6
▁ਨੁਸਖ	6
▁ਮੈਂਗ	6
▁ਡਾਰਵਿਨ	6
ਪਹੇਵਾ	6
ਗਲੇ	6
▁ਬਹਿਰੇ	6
▁ਗੁੜਗਾ	6
▁ਫ਼ਾਸਲ	6
ਇੰਸ	6
▁ਵੰਡਣ	6
▁ਫ਼ੜਨ	6
▁ਜਿਗਿਆਸ	6
▁ਜਵਾਹਰਲਾਲ	6
▁ਗੋਵ	6
▁ਡਿਪਥੀਰੀਆ	6
▁ਜੂਝ	6
ਪੌਂਗ	6
▁ਵਿਜ	6
ਜਾਤੀ	6
▁ਸ਼ੀਸ਼ਮਹਿਲ	6
▁ਪੇਂਟ	6
▁ਸੁੰਘੜ	6
▁ਸੇਵ	6
▁ਸਨੇਹ	6
▁ਦੁਸ਼ਮਣ	6
▁ਪ੍ਰਤੀਨਿਧ	6
▁ਪ੍ਰ੍ਤੀਯੋਗਤਾ	6
▁ਲੈਣਗੇ	6
▁ਫ਼ਲੇ	6
▁ਤਿਲਕਣ	6
ੇਮਾਈਨ	6
▁ਮਹਾਸਾਗਰ	6
੍ਜ	6
▁ਤਵ	6
ਰਾਨਾ	6
▁ਮਹਾਬਲੀ	6
▁ਪਿਥੌਰਾਗੜ	6
▁ਦਿਖਣਗੇ	6
ਾਵਤ	6
▁ਬੀਬੀ	6
ਲਾੱਜੀ	6
੩੫੦	6
▁ਹੇਡ	6
▁ਉਤਰਿਆ	6
▁ਸ਼ਖਸ	6
▁ਚੁੰਗ	6
▁ਕੇਨਯਾ	6
ੂਰੇ	6
▁ਛੇੜ	6
ਵਿਸ਼ਯਾ	6
▁ਜੇਨੀਟ	6
▁ਵਿਚਕਾਰੋ	6
▁ਨਿਜਾਤ	6
ਇਸਦੀ	6
▁ਇਨਕਾਰ	6
▁੧੯੫੪	6
▁ਕ੍	6
▁ਭਾਤ	6
ਚਿਨ	6
ਿਸ਼ਠ	6
▁ਕੁਚਲ	6
▁ਕੋਇਲਾ	6
▁ਫੇਰੇਟ	6
▁ਕਲਾਕ੍ਰਿਤੀ	6
▁ਖੰਭਾਤ	6
▁ਸ਼ੁੱਧੀ	6
▁ਲਾਡਲ	6
▁ਏਅਰਵੇਜ	6
ਰੋਸਕੋਪੀ	6
ਹਾਈਡ੍ਰੇ	6
ਜੁਕ	6
▁ਹਾਲਾਤ	6
▁ਸਿੰਕ	6
ਦਰਾ	6
▁ਨਿਰਮਾਣਤ	6
▁ਹੀਰਾ	6
▁ਸਰਵਧ	6
▁ਕਰਵੀ	6
▁ਭੋਰ	6
▁ਹੇਲੰਗ	6
▁ਮਦਿਰਾ	6
੬੮	6
▁ਤਣਾ	6
▁ਪੋਸਟ	6
▁ਮੇਡੁਲਾ	6
▁ਏਡ	6
▁ਨੋਟ	6
ਨਯ	6
▁ਫਾਲਸ	6
▁ਲੋਕਨਾਚ	6
▁ਲਗੀ	6
▁ਸਤੰਬ	6
▁ਪੱਬ	6
ਲਾਈਡ	6
▁ਉਨਮ	6
ਕੁਚੀ	6
▁ਭੇਜਣ	6
ਿਊਰ	6
▁ਜਿਊਣ	6
▁ਪੜ੍ਹੇ	6
ਉੱਥੇ	6
▁ਮੁੰਗ	6
ਰਿਸਟੀ	6
▁ਤਿਤਲੀ	6
▁ਮੰਨਤ	6
▁ਜਵੈ	6
▁ਈਟਾ	6
ਕੈਸਟਰ	6
ਰਜ	6
▁ਸਟਲੇਗ	6
ਧਯ	6
▁ਮਦੁਰੈ	6
ਰੀਚੂ	6
▁ਲਿਮਿ	6
ੱਕੜ	6
▁ਓਲ	6
▁ਚੌਰਾ	6
▁ਕਚਛ	6
▁ਘਟਾ	6
▁ਕੈਸੇਟ	6
▁ਮਾਰਦਾ	6
ਸੁਆਹ	6
▁ਗੁੰ	6
▁ਛਾਛ	6
▁ਪਿਨਾਕ	6
▁ਅਰਬਿੰਦ	6
▁ਵਾਹ	6
ਚੋ	6
▁ਧਰੁਵ	6
ਕ੍ਰ੍ਮ	6
▁ਡਿਗ	6
▁ਆਕਰਸ਼ਨ	6
ਰਟਾ	6
▁ਪਹਿਚਾਣਿਆ	6
▁ਹਿਦਾਇਤ	6
▁ਸਤਿਕਾਰ	6
▁ਬੈਕਟੀਰੀਅਲ	6
▁ਤਿਉ	6
ਂਠਾ	6
ਮਿਨ	6
▁ਪਹਿਚਾਣਨ	6
▁ਮਾਰੀ	6
ਿਟਵ	6
੍ਰੈਂਚ	6
▁ਹਾਈਪੋਥ੍ਰ੍ਮ	6
▁ਚਿੜੀ	6
▁ਇੰਜਨ	6
▁ਅਭਿਭਾਵਕ	6
▁ਚਟਪਟ	6
▁ਸਰੀ	6
▁ਪਹਿਲਗਾਮ	6
▁ਰਿਨਚਨਜੰਗਪੋ	6
▁ਜਟਿਲਤਾ	6
▁ਮਦੂ	6
▁ਅਮੇਰਿਕੀ	6
▁ਸਿਖਾ	6
ਹੈਲਦੀ	6
▁੨੨੧	6
ੋਈ	6
▁ਮੁਰਦਾ	6
▁ਤਰਕ	6
ਖੁਜਲੀ	6
▁ਹੁਕ	6
▁ਗੰਨ	6
▁ਵਨਾਂ	6
▁ਭੀਸ਼ਮ	6
▁ਬੌਦਰ	6
▁ਵਾਏ	6
ਤਲਬ	6
ਜਕ	6
▁ਧੱਬਿਆ	6
▁ਫਿੱਕਾ	6
▁ਗੱਡ	6
▁ਬੇੜ	6
▁ਉਅ	6
▁ਵੇਦਾਂ	6
ਦੁ	6
▁ਧੁੰਦ	6
▁ਨਾਇ	6
▁ਪਿਗਮੇਟ	6
▁ਕੜਕ	6
ਚੀਆ	6
▁ਪੀਰੂਮੇਡ	6
▁ਦਰਸ਼ਨਾਰਥ	6
ਦਾਸ਼ਤ	6
▁ਲਗਵਾਓ	6
▁ਦਿਨਾ	6
▁ਪੇਮੇਂਗਸੇ	6
▁ਬੇਟਲਾ	6
▁ਆਫ਼ਿਸ	6
▁ਦੁਖਣ	6
▁ਸਲਾਮ	6
▁ਉੱਠੀ	6
▁ਜਬਾੜ	6
੭੫੦	6
ਥੀਨ	6
ਾਰੀਆਂ	6
ਾਹਾਰ	6
▁ਪੇਰ	6
▁ਤਾਣ	6
ੀਨਲ	6
▁ਮਾਡਾਇਯੱਪਾਰਾ	6
▁ਐਂਟੀਬਾਈਟਿਕ	6
ਕੱਪ	6
▁ਯਮ	6
ਬਧ	6
▁ਅਨੁਸ	6
▁ਹੋਮਓਪੈਥ	6
▁ਕੈਂਚ	6
ਯੂਜਨ	6
ਧਨ	6
▁ਮੇਡ	6
▁ਮਸੂੜਿਆ	6
ਸਬਦ੍ਰੁੰਗ	6
▁ਕੋਸ਼ਠ	6
▁ਕਲੋਰੀ	6
▁ਕੱਟੀ	6
▁ਪਦਤ	6
▁ਆਸਟੀਓ	6
ਭਦਰ	6
ਵੈ	6
ਜਾਈਨ	6
ਪੇਸ਼ਨ	6
ਮਾਤਾ	6
▁ਘੜਿਆਲ	6
▁ਮੰਦਾਰ	6
ਤ੍ਰਿਕਾ	6
ਬਾਹੂ	6
▁ਜੁਬਾ	6
▁ਪਲੇਟਫਾਰਮ	6
ਦੱਤਾਤ੍ਰੇਯ	6
▁ਟਰੈਨ	6
ਗੌੜ	6
▁ਨਲਿਕਾ	6
ਟੋਮੀ	6
▁ਫੋਕਸ	6
▁ਨਾਈਟ੍ਰਿਕ	6
▁ਭੁੰਨੀ	6
ੱਤਰ	6
▁ਸਪਰ	6
▁ਲਗਾਉਂਦੀ	6
▁ਘਣਾ	6
▁ਸੰਯੋਜ	6
▁ਸਾਖਰਤਾ	6
ਠਾ	6
▁ਲਾਈਫਸਟਾਈਲ	6
▁ਐਂਟੀਏਜਿੰਗ	6
੭੨	6
▁ਵਿਸ਼ਵਵਿ	6
▁ਬੰਦੀ	6
▁ਇਨਗਿ	6
▁ਫੁ	6
ਗ੍ਰਾਸ	6
▁ਚੱਲੇ	6
ਯੋਨ	6
▁ਮਾਲਿਕ	6
ਤਲਾਬ	6
▁ਕੂਲ	6
▁ਖੁੱਲੀਆਂ	6
▁ਟੋਂ	6
▁ਦੇਵਸਥਾਨ	6
▁ਸਵਿਮ	6
▁ਘਾਘਰੀ	6
▁ਸ਼ੀਰਸ਼	6
▁ਅਰਧਮਤਸਯੇ	6
▁ਮੜ	6
ਇਡ	6
▁ਰੁਕੋ	6
ਬਿੰਗ	6
▁ਨਿਰਮਾਤਾਵਾਂ	6
▁ਸੇਰਾਕ	6
੍ਰੇਂਜ	6
▁ਪਟਨ	6
▁ਅਣੂ	6
▁ਹੱਸਦਾ	6
▁ਸ਼ੇਡ	6
▁ਵਿਲੱਖਣ	6
▁ਰਿਫ	6
ੋਧਰ	6
▁ਕਵਾਇ	6
ਸ਼ਚਾਤ	6
ਲੇਖ	6
▁ਤਾਰੀਫ	6
▁ਆਂਧਰਾ	6
੍ਯੋ	6
▁ਸਤਹਾ	6
ਭੋਰ	6
▁ਸੌਰ	6
▁ਚਰਚਾਂ	6
ਮਾਸ਼ਯ	6
ਰਪਾ	6
▁ਸਮਾਧੀਆਂ	6
▁ਠਹਿਰਿਆ	6
ਮਲਾਣਾ	6
ਾਓਲ	6
▁ਫ਼ੱਟਣ	6
▁ਸੁਚੱਜ	6
▁ਨਗ	6
▁ਸਟਰ	6
▁ਕੱ	6
▁ਲਗਵਾਉ	6
▁ਮੂਰਤ	6
▁ਅਧਰੰਗ	6
▁ਪੌੜੀਆ	6
▁ਪਰਬਤਾਰੋਹੀ	6
▁ਚੈ	6
▁ਵੰਡਰ	6
਼ਾਨ	6
▁ਛੋਲੇ	6
ਉਨ	6
▁ਮਾਣਾ	6
▁ਹਰਮ	6
▁ਰਾਈਨੋਪਲਾਸਟੀ	6
▁ਸੈਕ	6
▁ਆਂਡੇ	6
▁ਇਲੈਕਟ੍ਰਾਨਿਕ	6
▁ਧੂਲ	6
ਤੱਤਵ	6
ਿਵੀਜ਼ਨ	6
▁ਕੇਵਲਾਦੇਵ	6
▁ਅਗਰਬੱਤੀ	6
▁ਬਾਬੂ	6
▁ਪਾਕ	6
▁ਨਿਰਾਸ਼	6
ਾੱਕਸ	6
▁ਵਿਅਕਤਿ	6
▁ਪ੍ਰਵਚਨ	6
▁ਵੋਟ	6
▁੧੮੫	6
▁ਬਹਾ	6
▁ਟੇਲ	6
▁ਲਾਹੁਲ	6
ਾਰਿਸ਼ਟ	6
ੈਂਚ	6
▁ਸ਼ਾਕ	6
▁ਰਿਵਾਜ	6
ਯੂਜ	6
▁ਪਹਾੜੀਆ	6
▁ਸੁਕ	6
▁ਜਲਝਰਨ	6
▁ਜਿਲ੍ਹਿਆ	6
ਸ੍ਰਾਵ	6
ਚਿ	6
▁ਹੇਪੇਟਾ	6
▁ਲਚਕੀਲੀ	6
▁ਸਰਾਹ	6
▁ਘਸ	6
ਨਸੂ	6
▁ਥੁਲਥੁਲ	6
▁ਝੁਡੜੀਆਂ	6
▁ਹਰਿਤ	5
▁ਹਿੰਦੋਸਤਾਨ	5
ਤਾਨਸੈਨ	5
▁ਤ੍ਰਿਪਤੀ	5
▁ਮੁਹਾ	5
▁ਪਰਿਚਾ	5
▁ਸਕਦ	5
ਗੰਧਾਰ	5
▁ਉਪਾ	5
ਸਾਪੂਤਾਰਾ	5
▁ਮੇਜ	5
▁ਸ਼ਕਤੀਵਰਧਕ	5
▁ਧੂਪਗੜ	5
▁ਸਪੇਸ	5
▁ਆਪਣੀਆ	5
ਸਿਟ੍ਯੋਪੋ	5
▁ਭੱਟ	5
▁ਸ਼ੰਤਰੂਜ	5
▁ਪੀਪ	5
▁ਸ਼ਹਿਰਾ	5
▁ਰੋਹਤਾਸ	5
ਕੋਡਾਇਕਨਾਲ	5
ੈਨੋਰ	5
▁ਸਿਲਵਰ	5
ਸੀਮਾ	5
ਕਸਾਈਡ	5
▁੧੯੯੨	5
ੋਤ	5
▁ਕੈਰੀ	5
▁ਐਡੇਨੋਮਾਇ	5
▁੧੮੬੧	5
ਦ੍ਰਿਸ਼ਟੀ	5
▁੭੧	5
ਟਿਲ	5
ਾਜ	5
▁ਓਮੇਗਾ	5
▁ਸੁਰਖ	5
▁ਕਪੜ	5
▁ਗੜਸੀਸਰ	5
▁ਖਾਲਿੰਗ	5
ਿਨਮ	5
ੋਕੇ	5
▁ਭਾਵੁਕ	5
▁ਰਾਮਦਾ	5
▁ਪ੍ਰਾੱ	5
▁ਮੇਨ	5
▁ਜਿੰਮ	5
ਯੂਬ	5
ਟ੍ਰਾਲ	5
ਮੀਨੋ	5
▁ਚੱਲੇਗਾ	5
▁ਪਟਿਆਲ	5
▁ਸਿਰਕਾ	5
ਸੋਡੇ	5
▁ਪੇਪੜੀ	5
▁ਮਜੇ	5
▁ਚੁਭਦ	5
▁ਤਾਰੀ	5
▁ਬਚਾਓ	5
▁ਡੋਡੀਤਾਲ	5
▁ਗ੍ਰ੍ਹਿ	5
▁ਡਿਸਫੰਕਸ਼	5
▁ਮਹਾਕਾਲੀ	5
▁ਪ੍ਰਵੇਸ	5
▁ਦਰਸਾ	5
ਚਰਸ	5
▁ਰਿਕਸ਼	5
▁ਟੋਕੋਫੇਰੋਲ	5
ੇਨਿਨ	5
▁ਯੁਗਲ	5
ਨਮਾਜ਼	5
▁ਟੈਕਸ	5
▁ਡੈਡਮੈਨ	5
ਉਪਯੋਗ	5
ਵੇਲੀ	5
▁ਝੰ	5
ਪੁ	5
▁ਸਟੂਡ	5
ਮੂਵ	5
ਗੁਰੂ	5
▁ਸ਼ੰਕਰਾਚਾਰੀਆ	5
▁ਅੰਚਲ	5
▁ਮੇਹਰਾਬ	5
ਜੀਨ	5
ਉਂਦਾ	5
▁ਮਚਾ	5
▁ਸਿਕੰਦਰਾ	5
ਗੁਡੀ	5
ਡਬਲਯੂ	5
▁ਪ੍ਰਯਾ	5
▁ਕੂਚ	5
ਕੋਨੇ	5
ਾਇਰ	5
ਭੇਦ	5
▁ਡ੍ਰਿੰਕ	5
▁ਸ਼ਿਵਾਲ	5
ਨਦੀਆਂ	5
▁ਘੁੰਮੋ	5
▁ਬਿਸਕਿਟ	5
▁ਸਪਾੱਟ	5
▁ਰਾਜਜਾਤ	5
ਫੋਰ	5
▁ਚੌਂ	5
▁ਕਬਰਸਤਾਨ	5
▁ਨਿਪੁੰਨ	5
ਿਪ	5
▁ਪਿਲਸ	5
▁ਫ਼ਾਇਬਰ	5
▁ਚਿਮ	5
▁ਵੇਸ	5
ੇਂਘ	5
▁ਫਿਸਲਦ	5
▁ਮਿਹਦਾ	5
▁ਰਿੱਛ	5
ਮੂਰਤੀ	5
▁ਤ੍ਰਿਵ	5
▁੮੭	5
ਧਾਨੀ	5
▁ਚਾਬੀ	5
ਮਿਯਾ	5
▁ਏਨੇਸਥੇ	5
ਾਕੇ	5
▁ਮੁਜੱਫ	5
ਵਾਦੀਆਂ	5
ਾਮਕ	5
ਫਾਈ	5
▁ਏਂ	5
ਸ਼ੀਆ	5
▁ਪਾਬੰਦੀ	5
▁ਕੈਫੇ	5
ਵਿਸ਼ਰਾਮਾਸਨ	5
▁ਪਾਸਿਓ	5
▁ਕਰੇਗੀ	5
▁ਫਾਹ	5
ਮੁੰਬਈ	5
▁ਜੁਨ	5
੯੮	5
▁ਪਦਕ	5
▁ਸਬਜੀਆ	5
▁ਬਰਫ਼ੀਲੀ	5
▁ਸਕੈ	5
▁ਗੰਗਾਧਰ	5
▁ਤਿਲਕ	5
▁ਡੋਲ	5
▁ਸਖ਼ਤ	5
▁ਚਿਰਾ	5
ਯਤਾ	5
ਯੋਰ	5
ਭਿਕ	5
ਸਾਹਮਣ	5
▁ਕਾਇਆ	5
▁ਵਿਚਿਤਰ	5
▁ਵਁਡ	5
▁ਕਹਾਉਂਦੀ	5
ਸ਼੍ਰੀਨਗਰ	5
▁ਸੜ੍ਹ੍ਕ	5
ਗਰਾਮ	5
▁ਕੌਸ਼ਲ	5
ੂਲਿਨ	5
▁ਭਰਵੱਟਿਆਂ	5
▁ਕੈਫ਼ੇ	5
▁ਸ਼ਾਸ਼ਕਾ	5
ਰੀਧਿ	5
ੇਵਲਾ	5
▁ਬਹਿ	5
ਸਖਲ	5
▁ਮੋਂਟੇਗ	5
▁ਭ੍ਰ੍ਮ	5
▁ਪ੍ਰਬਤ	5
ਭੁੱਲ	5
▁ਲੂੰਬੜੀ	5
ਚਿੰਕਾਰਾ	5
▁ਇਮ੍ਯੂਨ	5
▁ਸਮਾਚਾਰ	5
▁ਸੁੰਨਸਾਨ	5
▁ਲੱਭੋ	5
▁ਪੁੱਜਣ	5
ਕ੍ਰੋ	5
ਣੀਆਂ	5
▁ਚਾਰਾ	5
ੀਸੀ	5
ਾਲੂ	5
▁ਸੰਕਰਾ	5
੍ਰਟੀ	5
▁ਤੀਰਥਯਾਤਰੀ	5
▁ਮੱਛੀਆਰ	5
▁ਇੰਡੋ	5
▁ਪਾਲਮ	5
ਾਟ	5
▁ਲਿਖੋ	5
ਦਰਸ਼ੀ	5
▁ਈਅਰ	5
▁ਨਹਾਇਆ	5
ਤਾਰ	5
▁ਮਾਯੋ	5
ਬੁਰਜ਼	5
ਹਿਸ਼	5
▁ਟਪਕਾਉਣ	5
▁ਤੇਦੂਆ	5
▁ਨੀਲਗਾਯ	5
▁ਧਰਾਤਲ	5
▁ਮਹੇਂਦਰ	5
▁ਬਾਂਝਪ	5
▁ਬੋਰ	5
▁ਸਮਾਉਣ	5
▁ਵਿਭਿੰਨਤਾ	5
ਕਯੂਲ	5
ਗੋਦਾਮ	5
▁ਮੁਰਗੀ	5
▁੯੧	5
ੌਨ	5
▁ਬਿਰਹ	5
▁੧੪੪	5
▁ਇੰਨਫ਼ੇਕਸ਼ਨ	5
▁ਈਜੀ	5
▁ਉਲੰਘਣ	5
ੂੜੀ	5
▁ਨਿਭਾਉਂਦੀ	5
▁ਬ੍ਰਾਈਟ	5
ੇਲਮ	5
▁ਜਾਂਘ	5
ਸਪਰੂਸ	5
▁ਹੇਮ	5
ਨਿਵਾਰਕ	5
▁ਵਾਸਤੂਵਿਦ	5
▁ਪਾਂਡੇ	5
ਵੰਤ	5
▁ਕ੍ਰਿਸ਼	5
▁ਸਨਕ	5
▁ਚੋਕਰ	5
ਿਲੀਜ	5
▁ਚੰਡੀ	5
▁ਅੱਖਾ	5
ਪੰਦਰਾਂ	5
▁ਠਹਾਕ	5
▁ਸਟਾਫ	5
▁ਮੂਰਤੀਆ	5
ਪਟਾਈ	5
ਅਰਥ	5
ੀਕਾ	5
ਕ੍ਰਿਸ਼ਨ	5
ਥਾਹ	5
▁ਤੰਜਾ	5
ਵੁਰ	5
▁ਰੋਟ	5
▁ਰਜਿਸਟਰ	5
▁ਇੰਡੋਸਕੋਪ	5
ਸਰਾਏ	5
▁ਡਿਪ	5
▁ਪੰਚਮਹਿਲ	5
▁ਦੁਖਦਾ	5
▁ਭੀਮਕਾ	5
▁ਪੈਂਦੀਆ	5
▁ਗੈਸਟ੍ਰ	5
▁ਚਾਈਲਡ	5
▁ਫ਼ੇ	5
▁ਰੋਕੀ	5
▁੧੯੯੫	5
▁ਦੇਹਾਤ	5
▁ਫੰਬ	5
ਕਸੋਨ	5
▁ਮੌਨ	5
▁ਪੈਡੂ	5
ਸੋਲੰਕੀ	5
▁੧੮੭	5
ੇਕਸ਼	5
ਯੁੱਧ	5
▁ਏਲੋ	5
▁ਬ੍ਰ੍ਹਾ	5
▁ਮਿਲਣਗ	5
▁ਫਲੋਰ	5
▁ਮਾਨਸਰ	5
▁ਸਾਂਸਕ੍ਰਿਤ	5
▁ਮਿਸ਼ਨ	5
▁ਹਲ	5
▁ਬ੍ਰੋਮਾਈਡ	5
▁ਆਰਲ	5
▁ਨੈਸਗ	5
▁ਸ਼ੇਖਾਵ	5
ਾਂਚਲ	5
▁ਯਾ	5
▁ਨਾਰੀ	5
ਰਬਰ	5
▁ਢੋ	5
ਟ੍ਰੀਟ	5
▁ਥੈਲੇ	5
▁ਅੰਬਾਲਾ	5
▁ਫੁੱਲਿਆ	5
▁ਵੈਲ	5
ਾਰੇ	5
ਂਡੀ	5
▁ਕੋਠ	5
▁ਕ੍ਰਾਂਤੀਕਾਰੀ	5
▁ਸਜ਼ਾ	5
▁ਕੋਹਰਾ	5
▁ਛੱਤਰ	5
▁ਗੂ	5
ਿਸ਼ਤੀ	5
▁ਪੰਚਵ	5
▁ਰਮਾਇਣ	5
ਲ੍ਹਿਆ	5
▁ਕਲਾਤਮਿਕ	5
▁ਉਨਮੂਲ	5
▁ਜੈਕੇਟ	5
▁ਭਾਗਯਚੰਦ	5
ਾਕਾਇ	5
▁ਬੁਨਿਆਦ	5
▁ਇੰਜਨੀਅਰ	5
▁ਮੈਗਜ਼ੀਨ	5
ਿਅਲ	5
ਹਰਾ	5
▁ਜਾਨਕੀ	5
ਕਲਚਰ	5
▁ਪ੍ਰ੍ਦਰਸ਼	5
ਮੱਧ	5
▁ਬੰਦੂਕ	5
▁ਕਵਰ	5
▁ਗੰਜ	5
▁ਗੌਂਡ	5
ਰਮੁੱਖ	5
ਾਈਕਿੰਗ	5
ਜਾਲ	5
ਦੌਲ	5
ਸ਼ਿਲਪ	5
ਸਤੰਭ	5
▁ਕੁੰਭਸਵਾਮ	5
ਸਭ	5
ਾਂਡ	5
▁ਹੀਟ	5
▁ਮਿਗ੍ਰਾ	5
▁ਟਾਂਗ	5
▁ਚੀਰਨ	5
▁ਮਿਊਜ਼ਿਅਮ	5
▁ਸ਼੍ਰੀਰੰਗ	5
ਫੁਲ	5
▁ਸੁਵਾ	5
ਮੁਨਾ	5
▁ਬੂਰਾ	5
ਸਯ	5
▁ਲੋਕਨ੍ਰਿਤ	5
▁ਚੇੱਟਿ	5
▁ਭੈੜ	5
▁ਫਲੂਕ	5
ਸਕੀਇੰਗ	5
▁ਯਸ਼	5
▁ਬ੍ਰ੍ਹਮ	5
▁ਸੁਕਾਉਣ	5
▁ਦਬ	5
▁ਪਰਗਨ	5
▁ਬਿਹ	5
▁ਪਿਲਾਉਂਦੀ	5
▁ਛੱਤਰੀਆਂ	5
▁ਸਮੁ	5
▁ਹਰਿ	5
ਲ੍ਯ	5
▁ਧਾਗਾ	5
ਵਾਧਾ	5
▁ਸਕਰਾਂਤ	5
ਸੰਚਾਰ	5
▁ਪੇਟਿੰਗਸ	5
▁ਚੁਨਾ	5
▁ਪਰਿੰਦ	5
▁ਪੋਪ	5
▁ਆਈਟਮ	5
▁ਕੁਸ਼	5
▁ਜਾਦੀਆ	5
▁ਇੰਤਜਾ	5
▁ਫੀਲਡ	5
▁ਟੇਮਪਾ	5
▁ਗ੍ਰਾ	5
▁ਹੇਲ	5
▁ਧੁੰਧ	5
ਸਹੀ	5
ਸਪ	5
ੇਟਿੰਗ	5
▁ਮਧੂਕਰ	5
▁ਸੀਤਾਮੜ	5
ੇਟੀਨ	5
ਰਾਈਡ	5
▁ਗੋਂਦ	5
▁ਤ੍ਰੇ	5
▁ਪ੍ਰਮੁੱਖਤਾ	5
▁ਦਿਖੇ	5
▁ਸਲਫੇ	5
▁ਉਰਦੂ	5
▁ਲਾਈਸੈਂਸ	5
ਰਕਸ਼ਾਸ	5
▁ਦਿਆ	5
▁ਝਰੋਖ	5
▁ਮਹਰਿਸ਼	5
ਪੁਤ	5
ਾਂਗੇ	5
ਸ਼ਤਰੰਜ	5
▁ਚੁਸਤੀ	5
ਨਿਯਾ	5
▁ਅਸਥਿਰ	5
▁ਬੇਸ਼ਕ	5
▁ਰੰਗੀ	5
ਮਹਾ	5
▁ਨਿਕਲੀ	5
ਫਾਲ	5
▁ਕੈਮਰਿਆਂ	5
ਜੰਗ	5
▁ਤੰਤ੍ਰ	5
▁ਸਿਮਟ	5
▁ਨੀਲਮ	5
▁ਮਣ	5
ਟੀਡੀਸੀ	5
▁ਵਨਰ	5
ਗਰਹੋਲ	5
▁ਸ਼ੇਪ	5
ਕਰਦੇ	5
ੀਲਾ	5
ਖਾਣਾ	5
▁ਪਾਂਡੂਲਿਪੀਆਂ	5
▁ਚੰਪਾਰ	5
ਯੁਗੀਨ	5
▁ਲਹਿਰਾਉ	5
▁ਤੱਤਾ	5
▁ਆਯ	5
▁ਐਨਾ	5
▁ਸਾਰਕ	5
▁ਐਨੀਮੀਆ	5
ੇਨਸ	5
▁ਅਮਲੀਯ	5
ਨੇਜਾ	5
ਸੂਲ	5
ਵੰਸ਼	5
▁ਸ਼ਾਹਜਹਾਨਾਬਾਦ	5
ਈਆ	5
ਫਾਈਡ	5
▁ਇਸਲਾਮ	5
▁ਅਫ਼ਗਾਨ	5
▁ਫਰਨੀਚਰ	5
ਲੋਪ	5
ਮਣ	5
ਰਾਗ	5
▁ਵਿਰ	5
▁ਜੰਗਾਲ	5
▁ਸੁਵਰ	5
ੁੰਮਾ	5
ਬੇਲ	5
ਸਾਊਂਡ	5
▁ਕਿੰਗਡਮ	5
ਰੋਇਨ	5
▁ਬੁਰਕੀ	5
▁ਫਾਸਫ	5
▁ਕੁੰਠਾ	5
▁ਸਟ੍ਰੈਂਥ	5
▁ਮੈਂਟਲ	5
▁ਸਰਵਿਕਸ	5
▁ਮਿੱਤਰਾਂ	5
ਯੁ	5
ਗੋਡ	5
▁ਘਟਕ	5
▁ਆਇਓਡੀਨ	5
ਟਿੰ	5
▁ਐਕਸਟ੍ਰੈਕਟ	5
ਪੀਣਾ	5
ਪਿੱਠ	5
▁ਸਲਫ਼	5
੍ਰ੍ਤਿਕ	5
ਕੇਸ਼ਨ	5
੦੫	5
▁ਐਵਰੈਸ	5
ਿਊਲ	5
▁ਕਾਮਦ	5
▁ਹਰੀਤਿ	5
▁ਰੋਨ	5
ੇਸਤ	5
ਪਿਆ	5
ਤਸਾ	5
ਦੌਰ	5
▁ਢਲਾ	5
ਘਾਘ	5
ਾਕੂ	5
ਪੋਰਟ	5
ਤਾਉਣ	5
ੀਕ੍ਰਿਤ	5
▁ਪਿੱਠੂ	5
ਸ਼ਕਿਤ	5
ਪ੍ਰਭਾਰੀ	5
▁ਗੁਲਾਮ	5
ਟੀਸ਼ੀਅ	5
▁ਰਾਧਾਕ੍ਰਿਸ਼	5
▁ਮੁਕਾ	5
ਸ਼ਿਵਰਾਤ	5
▁ਪਿਲ	5
▁੨੧੦	5
▁ਔਰਤਾ	5
ਵਰਕ	5
▁ਖੁਬਾਨੀ	5
▁ਮਿਰਜਾ	5
ਪਾਪ	5
▁ਪੱਧਰਾ	5
▁ਸੰਯਮ	5
ਬੰਬਈ	5
ਜ਼ੰਜ਼ੀਰ	5
ਕਮਰ	5
ਰਦਨ	5
▁ਪਰਿਦ੍ਰਿਸ਼	5
▁ਏਪੀ	5
▁ਟੀਕ	5
▁ਭੁੰ	5
▁ਨਗਾਰ	5
▁ਅਫ਼ਸਰ	5
▁ਜਿਉਂਦੇ	5
▁ਡਵੈਲ	5
ਨਹੀਂ	5
▁ਝੁਕੀ	5
ਲੇਸ	5
▁ਮਾਰਨਾ	5
▁ਮੀਰਾ	5
▁ਪੁਤਲੀਖੋਹ	5
ਰੂਮੇਟਿਕ	5
ੱਸੇ	5
▁ਟੇਢੀ	5
ਪੋਸ਼ਨ	5
▁ਤੀਵ੍ਰ	5
▁ਤਿਰਪੁਰਾ	5
▁ਐਂਟੀਸੈਪਿਟ	5
▁ਫੇਮ	5
▁ਗਲਾਈਡਿੰਗ	5
ਹੇਲੀ	5
ਪਟਲ	5
▁ਐਫ਼	5
▁ਡਿਸ਼	5
▁ਹੋਵੋਂ	5
੯੫੦	5
▁ਲਿਟ	5
▁ਮਾਊਂਟੇਨਿ	5
▁ਵੱ	5
▁ਕੌਰਵਾਂ	5
▁ਜਲਦ	5
▁ਮਦਮ	5
▁ਫੈਸਟੀ	5
ਵੋਮਿਕਾ	5
▁ਪੇਪ	5
ੇਟਿਨ	5
▁ਡਿਜ਼ੀ	5
ਮੋਨੀਅ	5
▁ਹਾਫ	5
▁ਪੇਡ	5
▁ਸੰਦੂ	5
ਗ੍ਰੈਂਡ	5
▁ਕੰਦਰਾ	5
▁ਡਾਇਵਿੰਗ	5
ੀਮਤਾ	5
▁ਪ੍ਰੈਸ	5
ਦੇਵਦਾਰ	5
ਲਾਪ	5
▁ਟਿਨੇਟਸ	5
▁ਆਰਥਰਾਈਟਸ	5
▁ਰਾਜਘਰਾਣ	5
▁ਕਾਰਜਕਰਤਾ	5
ਕੰਮਾ	5
▁ਝੂਠ	5
▁ਪ੍ਰਦੇਸ	5
▁ਅਜ਼ਮਾ	5
▁ਗਰੁ	5
▁ਅਪਣਾਉ	5
▁ਜਮੀਨ	5
▁ਜਵਾਹਰਾਤ	5
ਨੁਸਾਰ	5
▁ਈਕੋ	5
▁ਭਰੂਚ	5
ੱਰ	5
▁ਕਹਲ	5
▁ਅਧ	5
▁ਰਜਿ	5
▁ਘੁਮਾਉਂਦ	5
▁ਵਿਕ੍ਰਤ	5
ਮਿਆਨ	5
▁ਮਿਜ਼ਾਜ਼	5
▁ਵਾਹਕ	5
ਤਾਬ	5
▁ਅਲਬਯੂਮਿਨ	5
▁ਪਹ	5
ਟੀਆਂ	5
▁ਮਦੁਰ	5
▁ਰੇਡਿਓ	5
ਫਿਲ	5
▁ਚਮਕਦੀ	5
▁ਜੈਮ	5
ਸ਼ਤਾ	5
ਵੇਂਡਰ	5
▁ਸ਼ੁਕਰਵਾ	5
▁ਅਟਕ	5
▁ਉਤਕੀਰਣ	5
▁ਵਰਤੀ	5
▁ਕਿਲ	5
ਮੀਆ	5
ਸੰਵਾਦ	5
▁ਟ੍ਰਾਸਫ	5
▁ਰੇਲਿੰਗ	5
▁ਬਲਿਤਸਤਾਨ	5
ਧਰਾਸੂ	5
ਰਦ	5
ਸ਼ਾਸਨ	5
▁ਮਦਾਰ	5
▁ਕਚ	5
ੰਕੂ	5
ਰਹਦ	5
ਿਸਕੋ	5
▁ਬੌ	5
ਰੈ	5
▁ਗਹਰ	5
ਵਰਡ	5
▁ਫ੍ਰੇ	5
ਲਾਨਾ	5
ਖਾਰ	5
▁ਗੁਜਾਰ	5
ਰੁਕ	5
▁ਅਜ਼ਾਦ	5
ਾੱਨਗ	5
▁ਡੇਲ	5
ਲੇਮ	5
▁ਡ੍ਰਾਇ	5
▁ਬ੍	5
ਡੇਢ	5
▁ਸੋਭਾ	5
▁ਗੁਪਤਕਾਲ	5
▁ਯੂਨ	5
ਪੈਕ	5
▁ਯੂਰੀ	5
੍ਯਾਲ	5
▁ਵੱਖਰਾ	5
▁ਸ਼ਿਲਪੀ	5
ੋਸਾ	5
▁ਰਣਵ	5
ਰੇਲ	5
▁ਦੋਰਡਡਾਬੇਹਰਾ	5
▁ਖੁਰਦਰ	5
▁ਵਹੀਲ	5
▁ਵਾਚਿੰਗ	5
▁ਮਲ੍ਯਾਲ	5
ਣਾਲੀ	5
▁ਸ੍ਰ੍ਵ	5
▁ਮਹਾਮਸਤ	5
ਬੰਧ	5
▁ਮੌਰਫੀਨ	5
▁ਖਾਂਡ	5
ਜ਼ਨ	5
▁ਅਣਦੇਖ	5
▁ਮਹੋਬਾ	5
▁ਅਮਲਪਿੱਤ	5
▁ਕਵਕ	5
▁ਪ੍ਰ੍ਜਾਤੀ	5
ਆਭਯਨਤਰ	5
ਵ੍ਰਤਿ	5
ਐੱਫ	5
▁ਆਪਸ਼ਨ	5
ਪੋਤ	5
ਕਲਬ	5
▁ਅਮਾਵ	5
▁ਤਿਰਸ਼ੂਲ	5
ਵਾਈਨ	5
ਨੂਸ	5
ੇਸਰ	5
▁ਨਿਹਾਰਦ	5
ਜੂਨ	5
▁ਅਸਿਹ	5
ਬਰਟ	5
ਸੰਸ	5
▁ਪਰਿਪੂਰ	5
▁ਤਿਮ	5
▁ਕਾਂਬ	5
▁ਹਾਲਾ	5
▁ਘੁੰਮਿਆ	5
▁ਸੰਗ੍ਰਹਿਣ	5
▁ਭੱਜਦ	5
▁ਕੁਮਾਰਪਾਲ	5
▁ਪ੍ਰਾਸਾਦ	5
▁ਉੱਦਮ	5
▁ਇੰਟ੍ਰਾ	5
▁ਡੋਂਡ	5
▁ਥਰਮੋਗ	5
▁ਮੁਰਗ	5
▁ਜੋਧਾ	5
▁ਬੈਂ	5
▁ਅਫ਼	5
▁ਭਗ	5
▁ਟਾਰ	5
▁ਫੀਵਰ	5
▁ਇੰਗਲਿ	5
▁ਇਛ	5
ਰਾਸ	5
▁ਖਾਲਿਸ	5
▁ਮੂਰਛਾ	5
ਰਸ਼	5
▁ਪਹਿਰਾਵ	5
▁੧੦੭	5
▁ਮਣਿਕਰਣਿਕ	5
▁ਇਹਨਾ	5
▁ਕਾਕਟੇਲ	5
ਅਸ	5
ਡਾੱਨ	5
ਵ੍ਰਕਕ	5
▁ਡੁੰਗ	5
ੂਰਿਜਮ	5
▁ਕਰੜੀ	5
ਗੈ	5
ਤਿਹਾਸਿਕ	5
ਅਗਨੀ	5
ਕੋਸ਼	5
ਰਜਨੀਸ਼	5
▁ਕਾਰਟੂਨ	5
ਾਈਜਰ	5
ੇਪਨ	5
▁ਖੰਨਾ	5
ਾਡ	5
▁੬੫੦	5
▁ਕੁਮਾਰਕੋਮ	5
ਥਨ	5
▁ਡੋਗਰਾ	5
ਿੰਜੀ	5
▁ਮਹਾਮਾ	5
▁ਨਾਕਾਮ	5
▁ਭਾਫ	5
▁ਆਮਵਾਤ	5
▁ਸੰਭਾਲੀ	5
ੋਸ	5
ਸੁ	5
▁ਫਾਇਬ੍ਰ	5
ਹਾਵੀ	5
▁ਫੰਕਸ਼ਨ	5
▁ਸੁਮ	5
▁ਅਰਵਿੰਦ	5
▁ਪ੍ਰ੍ਚਲਿ	5
▁ਚੁੱਕੀਆ	5
▁ਆਲਪ	5
▁ਲਾੱਸ	5
▁ਬੇੜੀ	5
▁ਕਰਾਉਂਦੀ	5
ਕੋਜੀ	5
ੋਲੀ	5
ਖਾਣ	5
ਜੇਨ	5
▁ਬਾਇਓਕੈਮਿ	5
ਕ੍ਰਸ	5
ਫਰੈਸ਼	5
ਪ੍ਰਵਾਹ	5
ਤੀਆਂ	5
▁ਅਪਸਰਾ	5
▁ਰਜਤ	5
▁੧੬੮	5
▁ਵਿਲੇਜ	5
ਿਯੋ	5
▁ਹੋਮਿਓਪੈਥ	5
▁ਸਮਰਥ	5
ਤਰੇ	5
▁ਅੱਠਵੀਂ	5
ਗਾਧ	5
▁ਰੇਸ਼	5
▁ਦਵਾਉਂਦ	5
▁ਖਰਾਸ਼	5
ਖਰੀ	5
▁ਏਅਰਲਾ	5
ਲੋਕਨ	5
▁ਕੈਫੀਨ	5
▁ਉਬਟਨ	5
▁ਇਜਿਪਟ	5
ਸੋਨੋਗ੍ਰਾਫ	5
▁ਤਿੱਖੇ	5
ਨਾਦ	5
▁ਦੁਸ਼ਟਪ੍ਰਭਾਵ	5
▁ਕੋਲੰਬੋ	5
▁ਨਾਗਵੰਸ਼ੀ	5
ਸਫੋਰ	5
ਕੈਥੀਡਰਲ	5
ਨੀਲ	5
▁ਫ਼ਾਸਫ਼ੋਰਸ	5
▁ਗੱਟ	5
▁ਅਣਜਾਣੇ	5
▁ਫ਼ੋ	5
ਟ੍ਰੋਪੀ	5
▁ਲੈਮ	5
▁ਰੇਤੀਲ	5
▁ਪੁਤਲੀ	5
▁ਹਾਈਟ	5
▁ਸਹਾ	5
▁ਕਰਦੀਆ	5
ੋਂਗੇ	5
▁ਅਮਲਤਾਸ	5
▁ਯੋਂਗ	5
ਾਲਾਚਾ	5
ੰਡਰਾ	5
▁ਅਸ਼ਾਂਤ	5
▁ਅਣਦੇਖਿਆ	5
▁ਅਣਜਾਣ	5
▁ਵਾਂਝ	5
ਸਟਾਰਚ	5
ਬੱਚਾ	5
▁ਐਸੋਸ਼	5
▁ਪਰਮਿਟ	5
▁ਪੱਤ	5
▁ਖਜ	5
▁ਚੌਪਾਟੀ	5
▁ਸਕਾਯਰ	5
▁ਕੈਨੇਡਾ	5
▁ਅਸਫਲ	5
▁ਚੋਪਤਾ	5
ਦਲ	5
ਤਿੱਬਤ	5
▁ਕੰਚਨ	5
ਸਾਖੀ	5
▁ਆਁਵ	5
▁ਹਮਾਮ	5
ਅਰਧ	5
▁ਸਦਾਹਰਿਤ	5
▁ਸ਼ਾਨੋ	5
▁ਰਸਮ	5
▁ਚੱਲੀ	5
▁ਆਕਸੀਡੈਂਟ	5
▁ਪਾਸ਼ਾਣ	5
▁ਵੇਣੂ	5
ਰਤਾ	5
▁ਈਸੋਫ਼ਿ	5
▁ਪ੍ਰਿੰਟ	5
▁ਮਾਸ਼ਾ	5
▁ਹਿੰਸਾ	5
▁ਲੈਪ੍ਰੋਸਕੋਪ	5
ਸ਼ਤਰੂ	5
▁ਬਾਹਯਾਭਯੰਤਰ	5
ਸ਼ਪੀ	5
▁ਸੰਕਲ	5
▁ਸਿਖਿਆ	5
▁ਅਵਧਿ	5
▁ਸਹਾਰਨ	5
▁ਸੈਂਡਲ	5
▁ਇਫ਼ੈਕਟ	5
▁ਕੋਂਕਣ	5
▁ਸਤ੍ਰਾ	5
▁ਦਲਾਨ	5
▁ਗੁਣਗੁਣ	5
▁ਦਮਪਤੀ	5
▁ਜਲਕੁੰਡ	5
▁ਅਸ਼ਮਰੀ	5
▁ਘੁਮੱਕੜ	5
▁ਮਲਾਵਰੋਧ	5
ਰਸ਼ਕ	5
ੀਗੜ੍ਹ	5
▁ਤ੍ਰਿਪਤ	5
▁ਅਲੰਕਰ	5
▁ਫ਼ੌਰ	5
▁ਵਰਸ	5
▁ਫਲਾਈਟ	5
▁ਲੇਪੇਰੋ	5
▁ਨਿਊਟ੍ਰੀਸ਼ੀਅ	5
▁ਲੋੜ	5
▁ਚਰਾ	5
▁ਬੁਢਾਪਾ	5
ਬਾਨੀ	5
▁ਹਫਣ	5
ਕੜਾ	5
▁ਮੁਨਾ	5
▁ਵਹੀਟਜਰਮ	5
▁ਸਾਧਕ	5
ਗੁੜ	5
▁ਛੁਡਾ	5
▁ਉਛਲ	5
ਜਵਲ	5
ਉਵੇਂ	5
▁ਪ੍ਰਜਣਨ	5
ਸੰਨ੨੦੦੧	5
▁ਫਲਾਇੰਗ	5
ਪਾਏ	5
ੋਗ	5
ਬਾਜ	5
▁ਬਟੇਰ	5
▁ਨਿਰਜ	5
▁ਸਵੀ	5
ਹਾਰੀ	5
▁ਸਾਧ	5
▁ਸੁਧਰਦ	5
▁ਸ਼ੁੰਗ	5
ਆਪਣੀ	5
ਖਲਾ	5
▁ਦ੍ਰਿੜਤ	5
▁ਪਰਬਤਰੋਹਨ	5
▁ਗੈਲ	5
ਰਮਾਤਾ	5
▁ਲਾਈਕੋਪੋਡਿ	5
▁ਧੀਮਾ	5
▁ਜ਼ਿਲ੍ਹਿਆ	5
ਵਾਂਗ	5
▁ਵਾਸਤੁ	5
▁ਕੁਰਸ	5
ਟ੍ਰਾਂਸਮੀਟ	5
▁ਕ੍ਰਿਆਸ਼ੀਲ	5
▁ਵਜੋ	5
▁ਵਿਹੀਨ	5
▁ਗਹਿ	5
ਰਨੀ	5
ੁਤਾ	5
▁ਝਰ	5
▁੧੮੫੬	5
▁ਪੰਜਾ	5
▁ਨਿਮ	5
▁੬੬	5
▁ਕਾਂਟ	5
▁ਬਾਲੀ	5
ਮਤਾ	5
▁ਪੋਂਗ	5
▁ਵਜਾਉਣ	5
ਫ਼ੋਰਟ	5
▁ਅਸਵਾਸਥ	5
▁ਜੰਗਲਾ	5
▁ਉੱਕਰ	5
▁ਨਾੜੀਆ	5
▁ਅੱਥ	5
ਸ਼ਹਿਦ	5
▁ਫੁਫਫੁਸ	5
ਵਿਡ	5
ਨੀਵ	5
▁ਚੰਦਰਪੁਰ	5
ੈਸ	5
▁ਆਰਥਰਾਰਾਈਟ	5
ਮੇਘਾਲਿਆ	5
ਸਾਈਲੀਸ਼ੀਆ	5
▁ਚੂਰ	5
▁ਝਗੜ	5
ਾਗੇਂ	5
▁ਸਨੋਰਕ	5
ਕੁਰੰਜੀ	5
▁ਅੰਨ੍ਹਾ	5
ਾਗ	5
▁ਘਾਟਾ	5
▁ਲਾਈਮ	5
▁ਸ਼ੀਤੋਛਣ	5
ਭੂ	5
ਤਾਬਦੀ	5
▁ਸੰਪ੍ਰਦਾ	5
ਲਿਵਰ	5
ਹੀਂ	5
▁ਅਲਮ	5
▁ਕਟਾਰ	5
ਰ੍	5
▁ਸੰਗ੍ਰ੍ਹਿ	5
▁ਫੁਹਾਰਿਆਂ	5
ਬੱਚਿਆਂ	5
▁ਸ੍ਥਾਨ	5
ਡ੍ਰ	5
▁ਜੀਵਾਣੂਆ	5
▁ਹੌਜ	5
▁ਖਿਲਜੀ	5
▁ਚੇਰਾਪ	5
ਖੜ	5
ਦਸ਼ਾ	5
▁ਘਿਸ	5
▁ਕਹਾਉ	5
▁ਚੌਰਸ	5
▁ਪੂਰ	5
ਚਾਂਦਪੋਲ	5
▁ਗਰਵ	5
ਫਿਨ	5
▁ਰੇਟਿਨ	5
▁ਤਾਮਸਿ	5
▁ਚਿਕਿਤਸ਼ਾਲਯ	5
▁ਸਯਾਜੀ	5
▁ਪ੍ਰੋਡਕਟ	5
ਰੋਟੀ	5
ਟੰਕਾ	5
▁ਮੁਰਗੀਆਂ	5
▁ਠੱਪ	5
▁ਲਿਪੋ	5
▁ਕਾਫ਼	5
▁ਪੁਰਾਣ	5
▁੮੦੦੦	5
▁ਡੱਬਿਆ	5
▁ਲਕਵ	5
▁ਵਿਰੇਚ	5
▁ਕੁਕਰੀ	5
▁ਮੁੰਹ	5
▁ਅਸਾਮਾਨਿਆ	5
▁ਸਵਾਮ	5
▁ਸ਼ੋਧਕ	5
ਕੋਬੈਕਟ	5
ਾਜਤ	5
▁ਮਿਸ਼	5
ੰਸਰ	5
▁ਮਾਰਜ	5
ਥੇਨ	5
ਦਮਕ	5
ਕ੍ਰਿਯਾਜ	5
▁ਮੁਹਾਸ	5
ਚੌੜਾਈ	5
ਕਰੀਬ	5
▁ਰੇਸ਼ਾ	5
▁ਸ਼ਿਆਮ	5
ਟਾਈਟ	5
▁ਦ੍ਰਿਸ਼ਾਵਲੀ	5
ਵਾਕਿੰਗ	5
ਮੀਨਾਖਸ਼ੀ	5
ਦ੍ਰਿਸ਼	5
ਹਾਗ	5
ੇਂਜ	5
▁ਰੇਸ਼ਮ	5
ਨੀਲੇ	5
ਰੇਪਿ	5
ੀਚਕ	5
▁ਮਹੱਲ	5
▁ਬਸਾਸਤ	5
ਜੂ	5
ਪਾਲੇਰਮੋ	5
ਚੌਕੋਰ	5
▁ਹੌਦ	5
ਕਿਟਵ	5
ਦੱਖਣ	5
ਪੁਰਸ਼ਾਂ	5
▁ਸਿਲਮ	5
▁ਨੋ	5
▁ਸ਼ਿਕਾਰਖਾਨ	5
▁ਝੂਲਦੀ	5
▁੫੦੦੦	5
▁ਟਾਇਰ	5
▁ਤੀਰਥਕਾਰ	5
▁ਸ਼ਿ	5
ੱਕਰ	5
▁ਇੰਨ	5
▁ਯੋਗੀ	5
▁ਸਪਾੱ	5
ਟੇਜ	5
▁ਪਾਈਪ	5
▁ਓਬੋਸ	5
▁ਬੈਕਸਨ	5
ੇਪੀ	5
▁ਸੁੰਡ	5
ੁੱਚ	5
ਸ਼ੀਸ਼	5
ਚਿੰਤਾ	5
ੋਤੀ	5
▁ਨਿਸ਼ਕਾਸ	5
▁ਵੀਥਿਕਾ	5
▁ਫੁਲਕ	5
ਮਗੇਲ	5
▁ਧੋਖ	5
੍ਰੇਅੰਸ਼	5
▁ਅੜਚਨ	5
ਕਿਸਮ	5
ਸਿਟਕ	5
ੰਡਲ	5
ਸ਼ੇਰ	5
▁ਬਿਖੇਰਦ	5
▁ਉਧਰਵ	5
▁ਬੁਢੇਪ	5
▁ਟੋਲੀ	5
▁ਸ਼ਿਲਪਾਂ	5
▁ਪਹਿਰ	5
ਚਾਵਲ	5
▁ਪੂਰੀਆ	5
▁ਸੰਜੋਈ	5
ਾਇੰਡ	5
▁ਟੇਕ	5
▁੧੬੯	5
▁ਓਮ	5
ਪ੍ਰ੍ਵਾਹ	5
▁ਪ੍ਰਾਚੀਨਤਾ	5
▁ਸਾਂਤ	5
▁ਅਰੂ	5
ਛੋ	5
▁ਪ੍ਰਦ	5
ੂਹਲ	5
ਵੰਸ਼ਿਕ	5
ਕਰਣਪ੍ਰਯਾਗ	5
ਸੀਤਾ	5
੍ਣਾ	5
ਦਿਆਲਪੁਰ	5
▁ਅਲਟਰਾਸੋਨੋਗ੍ਰਾਫ	5
ਓਐੱਲ	5
▁ਯੂਰੋਲੋਜ	5
▁ਅੰਡਰ	5
▁ਵਯਾਧੀ	5
▁ਸ਼ਾਮਲ	5
▁੧੧੫	5
ਅੰਬੋਲੀ	5
ਕੁਟ	5
▁ਸਮੋਕਿੰਗ	5
ਖਿਰਸੂ	5
ੋਜੀ	5
ਦ੍ਰਾ	5
ਉਤਰ	5
ਪਲਬਧ	5
▁ਫਿਰੋਜ਼	5
▁ਜੈਸਲ	5
▁ਮੰਗਲਾ	5
▁ਜ਼ਿਆਦ	5
ਧੱਬੇ	5
▁ਖੁਲਾ	5
▁ਖੇਚਰ	5
▁ਛੱਡਦੀ	5
▁ਨਿਡਰ	5
ੋਤਰ	5
▁ਗੱਦੇ	5
ਮਡਿਲ	5
▁ਗੰਡੋਲ	5
▁ਮਾਰਾ	5
ਡਚੇ	5
▁ਲਾਇਨਾਂ	5
▁ਵਿਕਰਮ	5
▁ਸੰਮਤ	5
▁ਖ਼ਾਨ	5
▁ਪੁਲੇ	5
▁ਜ਼ਮ	5
▁ਸਮਾਉਂਦ	5
ਮੁਸ	5
ਵਾਲਵ	5
▁ਅਡੋਲ	5
ਕਾਂਠਾ	5
ਭਵ	5
▁ਫਾੱਸ	5
ਨਸੀਆਂ	5
ਨਾਂਹ	5
ਾਟਨ	5
▁ਝੁਕਾਓ	5
▁ਅਭਿਵਿਅਕਤੀ	5
ਤਰਾਖੰਡ	5
ਤੁਰ	5
▁ਬੇਟ	5
ਮੋੜ੍ਹ	5
ਨਿਸ	5
▁ਨੀਲਗਾਂ	5
▁ਵੇਵ	5
▁ਬਟਵਾਰ	5
ਸਪਰਸ਼	5
▁ਭੇੜੀਆ	5
ਟਾਈਨ	5
ਸੇਨਟਸ	5
ਜਿਸਟ	5
ਸੂਦ	5
ਗੰਗੋਤਰੀ	5
▁ਮੁੰਦਰਾ	5
ਾੜ	5
ਡਨ	5
▁ਗਲੂਕੋਮਾ	5
▁ਗੱ	5
ਕਰੌਲੀ	5
ੜਾਦ	5
▁ਮਿਜੋ	5
ਤੀਤ	5
▁ਤਵੇ	5
ਵਾਏ	5
▁ਹੱਡ	5
▁ਚਿੱਤਰਕਾਰਾਂ	5
▁ਕੁਬੇਰ	5
▁ਜ਼ੋਨ	5
▁ਸਾਂਵਲ	5
▁ਭਾਂਡਿਆ	5
▁ਸੰਗੀਤਕਾਰ	5
ਮਿੱਟ	5
▁ਸਾਰਿਆ	5
ਲੈਸ	5
ਨਧ	5
▁ਨੈਨੀ	5
▁ਹੇਲੀ	5
ੂਲਰ	5
▁ਆਯੋਧਿਆ	5
ੁਅਲ	5
ਕਟਰ	5
▁ਸੁਦ੍ਰਿੜ	5
▁ਕੈਰੀਅਰ	5
▁ਮਹਾਸ਼ਿਰਾ	5
ਮੋ	5
ਸਪੈਰੀ	5
ਪੈਰਾਸੇਲਿੰਗ	5
ਸਰਫਿੰਗ	5
▁ਮੁਨੱਕ	5
▁ਨੇਤ੍ਰ	5
▁ਹੇਰਿ	5
▁ਪਰਿਪੂਰਨ	5
ਰੰਗੀ	5
▁ਤੈਲੀ	5
▁ਗੇਲ	5
▁ਚਟਕ	5
▁ਊਧਮ	5
ਮੇ	5
▁ਫੈਲਦੀ	5
੍ਕੇ	5
▁ਚੌਰਸਤ	5
▁ਅਨਵੇਸ਼ਣ	5
ਕੋਲੀ	5
▁ਵੀਥੀ	5
▁ਸਾਈਲ	5
ਭੋਜਨ	5
▁ਉਖਾੜ	5
▁ਛੜ	5
ਪੂਰਾ	5
▁ਦਿਵ	5
▁ਸਪਾਂਡ	5
▁ਵਿਰਕ	5
▁ਪਰਬਤਾਰੋਹਣ	5
▁ਲਾਵਣਯ	5
ਫਿਨਸ	5
ਟੀਸੀ	5
▁ਟੇਟ	5
ਬਲਗਮ	5
ਜਾਕ	5
ਹਿਲਾ	5
▁ਲਛਮੀ	5
ਵਾੜ	5
▁ਖੁੱ	5
▁ਪੇਪਿ	5
▁ਪਰੂਫ	5
▁ਕੰਸਲਟ	5
▁ਰਿਪਲ	5
▁ਬਾਏ	5
▁ਥੈਰ	5
▁ਸੁਨਾ	5
▁ਦੰਗ	5
ਹਰਾਰ	5
▁ਧੁ	5
▁ਦਿਲਵਾੜ	5
▁ਬੰਨੇ	5
▁੧੧੬	5
ਹਾਬਾਦ	5
▁ਕੈਟਰ	5
ਅਭਰਕ	5
ਗਨੀ	5
▁ਤੇਜ	5
ਾਇਸਿਸ	5
ੁਨਾਵਤ	5
ਤੰਤਵ	5
▁ਪ੍ਰਿ	5
▁ਛਤਰਪ	5
▁ਦਰਖ਼ਤ	5
ਨਟੇਨ	5
▁ਕੋਪਾਨ	5
▁ਕ੍ਰਾਫ	5
▁ਪ੍ਰਦਰਸ਼ਨੀ	5
ਖਾਵ	5
ਮੜੀ	5
▁ਮਿਊਂਸੀਪਲ	5
▁ਮਲਹਾਰਰਾਵ	5
▁ਟੀਕੇਆਰ	5
ੈਂਗੂ	5
ਪੱਟ	5
ੰਡੂ	5
▁ਡਰਬ	5
ਪਾਰਦਰਸ਼ੀ	5
▁ਨਰਵਾ	5
▁ਅਸਫ਼ਲ	5
▁ਖਜਾਨ	5
▁ਵਾਈਨ	5
ਥੋਥ	5
ੈਂਸੀ	5
ੋਪਲਾਸਟੀ	5
▁ਗੂੜ	5
▁ਉਪਭੋਗਤਾ	5
ਸੁੰਦਰ	5
ਡਿਸੀ	5
▁ਕਿਸ਼ਨ	5
▁ਮਲਿਆਲਮ	5
▁ਚੁਸਕੀ	5
▁ਅਦੇਸ਼	5
ਸ਼ਸ਼	5
▁ਫਟੇ	5
▁ਨਾਗਰਾਜਾ	5
▁ਚਯਾਪਚਯ	5
▁ਬਲਾਤ	5
ਏਸਿਸ	5
▁ਢਿੱਲੇ	5
▁ਪੈਂਟੀ	5
ਵੁੱਡ	5
ਵੱਡੀ	5
▁ਵਿਸ਼ਨੂ	5
▁ਆਲਟ	5
▁੧੬੩	5
▁ਕੋਰੀਆ	5
▁ਕੈਲੇਂ	5
ਮੱਜਾ	5
▁ਗ੍ਰੇ	5
▁ਹੁਸੈਨ	5
▁ਗੁਲਾਬਜ	5
▁ਐਪੀ	5
▁ਏਡ੍ਰ	5
ਟੇਲ	5
੍ਭ	5
▁ਕਾਂਜੀ	5
▁ਢਿ	5
▁ਲਾਠੀ	5
▁ਸੋਰੀ	5
ਐਸਿ	5
ਟੈਂਟ	5
ੈਕਿਟ	5
ਰੰਟੀ	5
▁ਬਨਾਸ	5
▁ਹਨੂਮਾਨਜੀ	5
ਅਣ	5
▁ਪਿਸੀ	5
▁ਸਪਰੇ	5
▁ਸਤਵ	5
ਯਾਯ	5
▁ਜੂਮ	5
▁ਤ੍ਰਿਕੋਣ	5
▁ਸਤਾਰਾ	5
ਜੈ	5
ਕੋਅ	5
▁ਦਿਸਣਾ	5
▁ਅਲਮੋੜ੍ਹਾ	5
▁ਤੁਮ	5
ੜੂ	5
▁ਪੇਨਿਸਿਲੀਨ	5
▁ਕਾਰਜਕਰਮ	5
▁੮੮	5
▁ਸਟੈ	5
ਲੋਰੀ	5
ਨੇਰ	5
▁ਸਵੀਟ	5
▁ਫ਼ਿਟ	5
ਿਜ਼ਾ	5
▁ਕੁੰਡਲਾ	4
▁ਕੋਤਾ	4
ਕੋਹਲਾਪੁਰ	4
▁ਪਾੱਨਡ	4
▁ਮਣੀਪੁਰੀ	4
▁ਵੱਲ਼ਪੱਟਣਮ	4
▁ਚੱਕਤ	4
ਲਿਖਤ	4
▁ਦੋਗੁਣ	4
▁ਜੋਂਕ	4
▁ਲੇਟਣ	4
▁ਵਾਯਸ	4
▁ਨੌਬਤ	4
▁ਸੋਹਣੀ	4
ਜਾਮ	4
ਕੈਲ	4
ਆਉਂਦੇ	4
▁ਕਾੱਨਟ	4
ੇਮਿਕ	4
▁ਬ੍ਣ	4
ਟੂਰਿਜ਼ਮ	4
▁ਸੈਕਚ	4
▁ਗਾੜ੍ਹ	4
ਕਰਕਟ	4
▁ਮੈਕਲ	4
ਸੰਘਣੇ	4
▁ਮਰਦਾਨ	4
▁ਤਹਿਖਾਨ	4
▁ਦੁਅ	4
ਗੰਧ	4
▁ਮਨਾ	4
ਸ਼ਾਪ	4
▁ਸਾਈਪ੍ਰ	4
▁ਹੁਲੀ	4
ਡੁ	4
ਪਿੱਛੇ	4
▁ਆਬਾਦ	4
▁ਬਕਾਸ	4
ੈਸ਼	4
▁ਗੁਲਜ਼ਾਰ	4
▁ਮਰਾ	4
▁ਅਪਾ	4
▁ਦੀਵਾਨਾ	4
ਲਾਈਟ	4
▁ਵਿਕਲਾਂਗਤਾ	4
▁ਮੌਸ	4
▁ਚੀਕੂ	4
ਜੁਲਣ	4
ਫ਼ੋਰਮ	4
ਕੁਨ	4
ਕੋਸ	4
▁ਸ਼ਰਧਾਂ	4
▁ਐਥਲੀਟ	4
▁ਐਡ੍ਰ	4
ਅਸ਼ਟ	4
ਟਾਲ	4
ਵੰਸ਼ੀ	4
▁ਰਾਜਪ੍ਰਸਾਦ	4
ੁਗਾ	4
ੋਜ	4
ਸ਼ਿਮਲਾ	4
▁ਆਬ	4
▁ਮੂਰ	4
ਕਾਂਤੀ	4
▁ਜੋੜੀ	4
▁ਰੋਇੰਗ	4
▁ਅੱ	4
▁ਡੈਡ	4
ਕੋਟ੍ਰਾਈ	4
ਨੋਲ	4
ਪੁਲ	4
▁ਡ੍ਰ੍ਗ	4
▁ਸੰਸਕਾਰ	4
ੇਗੀ	4
▁ਹਰਿਅਲ	4
▁ਕਿਲਕਿਲਾ	4
▁ਡੇਲਟਾ	4
▁ਅਪਸ	4
▁ਹੌਸਲ	4
ੁਤ	4
▁੧੦੬	4
▁ਜਾਮ੍ਦ	4
▁ਕੂਹਣੀ	4
▁ਉੰਨੇ	4
▁ਵਜਦੇ	4
▁ਹਿਸਟਰੀ	4
ਟੁੱਟ	4
▁ਹਿੱਤ	4
▁ਮਰਮ	4
▁ਪੇਚੌਲੀ	4
▁ਜਿਰੇਨ	4
▁ਰੈਫ	4
ਬਜੀ	4
▁ਸੇਪਟ	4
ਸੀਮੀਆਂ	4
ਪਿਸ਼ਾਬ	4
▁ਸਫੁਰਤੀ	4
ਲਣ	4
ੋਮ	4
ਦੰਤੀ	4
ਾਂਗੀ	4
▁ਬਾਜਰ	4
▁ਪਰਿਸ਼ਦ	4
ਜੈਪੁਰ	4
ਐਂਡ	4
▁ਕਿਰਕਿਰ	4
▁ਮਿਊ	4
ਰੇਨਿਯਮ	4
ਚਛਾ	4
ਊਰਜਾ	4
ਜੁਵ	4
ਸਖਸ	4
ਅੰਤ	4
ਜਨਵਰੀ	4
ਸ਼ਵ	4
ਹਾਪੁਰ	4
▁ਬਰਬੀਨਾ	4
ਮਿੰਟ	4
ਡੌਨ	4
▁ਮੁਸਤ	4
▁ਹਾਈਡ੍ਰੋਸ	4
▁ਫ਼ਲਾਈਟ	4
▁ਤਾਲੁਕਾ	4
▁ਜਗਮਗਾਉਂਦ	4
ਉਲਟੀ	4
▁੧੫੮	4
▁ਰੇਜ	4
ਈਟ	4
ਗਾਰਡਨ	4
▁ਕਾਨਨ	4
ਯੁਰੀ	4
▁ਜੁਟਾ	4
▁ਕੈਲੇ	4
ਸਾਈਨੋਪਨ	4
▁ਭਾਰੀਪਨ	4
ਤਾਨ	4
ਬਗਲ	4
▁ਟਾਰਚ	4
ਬਦਲ	4
▁ਪਰਿਲੱ	4
ਿਯਾਮ	4
ਤੁ	4
▁ਮਰਤੋਲ	4
▁ਰਥਯਾਤਰਾ	4
ਵਾਹੀ	4
▁ਅਲਬ	4
▁ਮਾਇਕ	4
▁੬ਵੀਂ	4
▁ਆਨਾਸਾਗਰ	4
▁ਬਣਵਾ	4
▁ਦਾਖਲ	4
▁ਹਿੰ	4
▁ਪਤਰਾ	4
ਹਿਰੀ	4
▁ਤਾਮਰਪੱਤਰ	4
▁ਢ	4
▁ਪਹੁੰਚਾਉ	4
ੰਬੀ	4
ਿਥ	4
ਾਈਪੋਗਲਾਇਸੀ	4
▁ਪ੍ਰੋਸੀਜ	4
▁ਮਾਊਥਵਾਸ	4
੨੫੦	4
▁ਹਾਜ਼ਮ	4
▁ਕਾਰਜਸ਼ੀਲ	4
ਮੇਟਿਕ	4
ਥੱਕਿਆ	4
ਕਾਕ	4
▁ਤ੍ਰ	4
ਯੰਬ	4
ਟਾਨ	4
▁ਫੈਲਾਉਂਦ	4
▁ਕਾੱਟ	4
ਨਾਇਕ	4
▁੭ਵੀਂ	4
▁ਦਾਰੂ	4
ੰਧ	4
▁ਬੈਟਰ	4
▁੧੫ਵੀਂ	4
ਹਮਣੇ	4
▁ਸੁੰਘੜਨ	4
▁ਪ੍ਰੀਮ	4
▁ਉਭਰੇ	4
ਕਾਯਕ	4
▁ਸ਼ੰਖਨ	4
ਾਦ	4
▁ਸਿਲਸਿਲ	4
▁ਕੇਲੋਸ	4
▁ਵਿਕ੍ਰਿਤੀ	4
▁ਟਿੱਬ	4
▁ਫੇਰੀ	4
▁ਵਿਖਿਆਨ	4
▁ਰਿਵਾਲ	4
▁ਸਿਪ੍ਰ	4
ਾਣੇ	4
ੱਤਰੀ	4
▁ਫ਼ਿਸਲ	4
▁ਸੰਗ੍ਰ੍ਹਿਲਿਆ	4
ਟਰੇਨਿੰਗ	4
ਮੁਨੀ	4
▁ਸਥਿ	4
▁ਟਾਈਫਾਈਡ	4
▁ਵਿਖਰੀ	4
▁ਭੁਗਤਨ	4
▁ਥਪਥਪਾ	4
▁ਚਮਕੀਲੀ	4
ਟੋਪ	4
▁ਵਾੜ	4
ੱਵਲ	4
▁ਕਿਲੋਮੀਟ	4
▁ਚੁੱਕਣਾ	4
▁ਬਰਫੀਲ	4
▁ਬੱ	4
▁ਨਾਵ	4
ਫਿਜ	4
▁ਹਫ	4
▁ਟਿਫ	4
▁ਕਲਕੇਰੀਆ	4
▁ਡਾਈਆਕਸਾਈਡ	4
▁ਸ਼ਤਿ	4
ਟਾਪੂ	4
ਸਵੱਛ	4
▁ਫ਼ੁਟ	4
ਯਕ	4
▁ਏਮੀਨ	4
▁ਨਾਈਟ੍ਰੋਸੀ	4
▁ਅਸ਼ਵੇਤਾਂ	4
ਵਿਆਹ	4
ੜ੍ਹ	4
ਆਦ	4
ੁਮਨਾ	4
▁ਨਾੜ	4
▁ਐਜਾਇਨਾ	4
▁ਸੰਜੀਦ	4
ਉਦੇਸ਼	4
ਵੀਐੱਲਪੀ	4
▁ਕੋਟੀ	4
ਬੁੱਧ	4
▁ਕੇਰਲਾ	4
▁ਸਮਰਪ	4
▁ਪਟੜੀ	4
▁ਬਣਵਾਉਣ	4
ਮੰਨੇ	4
ਸ਼ਨੀ	4
▁ਆਰਟਸ	4
▁ਰੇਵਾ	4
▁ਸੰਹਿਤਾ	4
▁ਵੇਲਕ	4
▁ਲਿੰਫ	4
▁ਫੈਲਦ	4
ਸੰਨ	4
▁ਤੰਦੂਰ	4
▁ਡਾਇਸਟ	4
▁ਤਰਸ	4
▁ਟਾਨਿਸਲ	4
ਰੇਰੀ	4
▁ਫ੍ਰੇਂ	4
▁ਬੋਲਬਾ	4
▁ਗੁੱਡ	4
ਟਰੀਜ	4
▁ਭੰਗਰ	4
ਫ਼ੁੱਲ	4
▁ਸ਼ਿਤਿ	4
ਟਾਲਿਕ	4
▁ਖਿਡੌਣ	4
ਾਡੀ	4
▁ਬਜ਼	4
▁ਘੋੜਸਵਾਰ	4
▁ਏਜੀ	4
▁ਵਾਰਡ	4
▁ਫਾਂਗਪੁਈ	4
ਰਿਸ਼ੀ	4
▁ਨਾਗਾਪੱਟ	4
ਵਾਇਰਸ	4
▁੧੯੬੦	4
▁ਲਲਗ	4
ੂੰਆਂ	4
ਪਾਲੀਤਾ	4
▁ਕੈਲੋ	4
▁ਜਮਾਲ	4
▁ਡਾਈਰੀਆ	4
਼ਾਰਾ	4
▁ਫਾਰਮੂਲ	4
ਲਿੱਪੀ	4
▁ਨਾਗਰਾਜ	4
ਆਪਤਾਨੀ	4
ਾਂਸ਼	4
▁ਜੌਹਰ	4
ਿਓ	4
▁ਸੋਕਣ	4
▁ਜਾਇਕੇ	4
▁ਉਹੋ	4
▁ਅਹਿੰਸਾ	4
▁ਆਯੁਰਵ	4
▁ਯਾਂਗ	4
▁ਚਬਾਉਂਦੇ	4
ਾਫੀ	4
▁ਫੁੱਲਣ	4
ਰੌਲਾ	4
▁ਬਾਮ	4
ਲੇਸ਼ਮਾ	4
▁ਕਵ	4
ਹੋਟਲ	4
▁ਉਮਾ	4
ਕੁਲੀ	4
▁ਪ੍ਰੌੜ	4
▁ਲੈਂਦੀਆ	4
▁ਬੇਖੌਫ	4
▁ਪਾਓਗੇ	4
▁ਬੇਵਜਹ	4
▁ਮਟਮੈਲਾ	4
▁ਬਾਂਝਪਣ	4
ਨਤਾ	4
▁ਰੁਕੀ	4
▁ਬੰਧਨ	4
ਬਕ	4
▁ਐਸ਼	4
ਚਾਈ	4
ਸ਼ਿੰਗ	4
ਿਫ਼ਟ	4
ਿਗਮੇ	4
▁ਚਕ੍ਰ	4
▁ਫ਼ੁਰਤੀ	4
▁ਫੜਿਆ	4
▁ਊਤਕ	4
ਪਰਿਸ਼	4
ਰਕਤ	4
ਹਿਰਦੇ	4
▁ਫਰੂਟਸ	4
ੈਪੀ	4
▁ਰਿਸ਼ਤਾ	4
ਟਾਇਡ	4
▁ਟਾਟਾਨਗਰ	4
▁ਉਗਾਈ	4
ੋਲੇ	4
ਕਿਤੇਂ	4
ਾਇੰਸ	4
▁ਆਰਥ	4
ੇਰੀਆ	4
ਗਿੱਦੜ	4
ਜਾਰ	4
▁ਚੱਪ	4
▁ਖੱਟੀਆਂ	4
▁ਅੰਦੋਲਨ	4
ਮੰਡਪ	4
ਸਫਾਈ	4
▁ਸੰਮੋਹ	4
▁ਨੈਣ	4
ਿਲਿਸ	4
ਲਮਾ	4
▁ਭੱਜਣਾ	4
▁ਥਕਾ	4
ਲੰਬੇ	4
▁ਸੇਲਿ	4
▁ਇਤਰ	4
ਪੱ	4
▁ਟਾ	4
▁ਗੁੱਡੀ	4
▁ਪ੍ਰਬਤਾਰੋਹਣ	4
ਬੰਦ	4
▁ਵਿਆਪ	4
▁ਸ਼ੂਨਯ	4
▁ਫ਼ੇਸ਼	4
ਇੰਡੀ	4
ੈਲੂ	4
ੱਬੇ	4
▁ਪ੍ਰੋਬਲਮ	4
▁ਜੜੇ	4
ਦਰਾਜ	4
▁ਮੰਤਰਾਲ	4
▁ਕੋਸਟਰ	4
▁ਟ੍ਰੈਕਰ	4
▁ਤਹ	4
▁ਜਮੁ	4
▁ਚੜ੍ਹਾ	4
▁ਮਾਨ੍ਸ	4
ਾਚਾਰੀਆ	4
▁ਰਾਮਪੁਰਹਾ	4
▁ਲੈਪਰੋਸਕੋਪ	4
▁ਮੇਟਾਬੋਲਿਜਮ	4
▁ਢਾਕ	4
▁ਪ੍ਰਸ਼ਸ	4
▁ਕੈਂਪਿੰਗ	4
ੈਫ਼ੀਨ	4
ਲੈਂਡਸਕੇਪ	4
▁ਮਾਈਕ੍ਰੋਵੇ	4
ਿਕਲਸ	4
▁ਬ੍ਰੋਕ	4
▁ਛੁ	4
▁ਕੈਥੇਡ੍ਰ	4
▁ਮੰਝ	4
▁ਘੁਲਣ	4
੍ਰਮ	4
▁ਚਿੰਗ	4
ਭਸਮ	4
ਾਹੜਾ	4
ਪਸੀਨ	4
ਗਿਆ	4
ਨਾਨ	4
▁ਬਾਜਬਹਾਦ	4
▁ਫ਼ਾਰਮ	4
੬੪	4
ਕੋਪੀ	4
▁ਕਿਆਰੀ	4
ਮਿਕਾ	4
▁ਰੋਡੋਡੇਂਡ੍ਰ	4
▁ਬਾਫਨਾ	4
ਿੱਛ	4
▁ਬਿਸਕੁਟ	4
ਸੰਸਕ੍ਰਿਤ	4
ਰੈਸਟ	4
▁ਹਸਤਕਲਾ	4
▁ਮੋਨੋ	4
▁੧੯੧੧	4
▁ਸਾਖਸ਼	4
▁ਸਟ੍ਰੇਸ	4
▁ਬਹੇੜ	4
ਘੜੇ	4
ਪੂੰਛ	4
▁ਕਾਲਕ	4
ੱਯਮ	4
▁ਖੂਬੀ	4
▁ਮਨੋਕਾਮਨਾਵਾਂ	4
▁ਇਡ	4
▁ਚਹਲ	4
▁ਕਾਫ	4
▁ਧਾਰੀ	4
▁ਗਲਾਈਕੋਜ	4
▁ਹਾਫ਼	4
▁ਚਹਿਕ	4
▁ਸਕਲ	4
ਲਾਵਾ	4
▁ਸਟੈਨ	4
▁ਬਲਦ	4
੍ਮਿਤ	4
▁ਅਖਾੜਾ	4
▁ਪੱਲਵ	4
▁ਜਵਾਲ	4
▁ਫ਼ਰਿਜ਼	4
▁ਮਿਆਦ	4
▁ਕਲਪਤ	4
▁ਮਿੰਜ	4
▁ਡਟ	4
▁ਪ੍ਰ੍ਤਿ	4
ਲਾੱਰ	4
ਗੋਜਮ	4
▁ਪੜ੍ਹ੍	4
ਸਰੀ	4
ੋਲਾਜੀ	4
▁ਕਾਸਮੇਟਿਕ	4
▁ਹਨੇਰੀ	4
▁ਸਥਿਰਤਾ	4
▁ਕਾਲੀਮ	4
▁ਲੰਮੀਆਂ	4
▁ਪੋਲਿਨ	4
▁ਡੋਨ	4
▁ਕੁਕੁਰ	4
▁ਚਸ਼ਮਿਆਂ	4
ਕੂੰ	4
▁ਦਸ਼	4
ਦੁੱਧ	4
▁ਤਬਦੀਲੀ	4
▁ਠੇਕੇ	4
▁ਯਕੁ	4
▁ਵੱਡ	4
▁ਫੇਰਮ	4
▁ਇਰਾਨ	4
ਸ਼ੀਅਨ	4
ਔਰਤਾਂ	4
ਵੈਦ	4
▁ਯਤ	4
▁ਚੁਨਣ	4
ਡਾਈਜ	4
ਸੰਧੀ	4
▁ਲਾਵਾ	4
▁ਲੱਕੜਬੰਘਾ	4
ਰਾਫ	4
▁੧੧੩	4
▁ਮਿਟਰ	4
▁ਆਲਮੰਡ	4
▁ਆਸਟੀਓਆਰਥਰਾ	4
ਪੇਸਟ	4
ਾਈਜ਼	4
▁ਸਿਟਲ	4
▁ਪੱਛ	4
▁ਵਾਈਕੀਕੀ	4
▁ਸਾਈਟ੍ਰੇਟ	4
▁ਬੁਟੀਕ	4
▁ਪੇਟਿਟ	4
▁ਸਿਵਿਲ	4
ਟ੍ਰਟ	4
▁ਰੋਜ਼ਾ	4
▁ਬਾਊਲ	4
▁ਸਫਦਰ	4
▁ਭੇੜੀਆਂ	4
ਉਤ	4
ਕਿਸਤਾਨ	4
ਾਟਾ	4
੍ਰੇ	4
▁ਡ੍ਰਾਯ	4
▁ਅਸ਼ਟਧਾਤੂ	4
▁ਅਲਬਮ	4
ਬਾਂਦੀਪੁਰ	4
▁ਧਨੁਛ	4
▁ਖੂੰ	4
▁ਲੇਨਟਾਊ	4
ਲਾਮ	4
▁ਲਸ਼ਮਣ	4
ਕੇਦਾਰਨਾਥ	4
▁ਕੋਟੱਯਮ	4
ੇਨੀ	4
▁ਪ੍ਰ੍ਜਾਤੰਤ	4
▁ਫ਼ਲੋਰਾ	4
▁ਫ਼ਾਊਟੇਨ	4
▁ਸ਼ਯਾਮ	4
ਧਾ	4
▁ਫਲੇਵਰ	4
▁ਸਾਈਟ੍ਰ	4
▁ਨਵਗ੍ਰਹਿ	4
ਨੈਹਰੂ	4
ਉੱਧਾਨ	4
ਨਵਾਸ	4
ਪਾਟਨ	4
ਵਿਗ	4
▁ਸਟੈਪ	4
▁ਪਚੇ	4
▁ਸੰਗਰਾ	4
ਵਾਹਕ	4
▁ਅੰਜ	4
▁ਟਹਿ	4
▁ਖ਼	4
▁ਡਿਟ	4
▁ਆਸ਼ੀਆਨਾ	4
ਅਕਸ਼	4
▁ਰਾਮੇਸ਼ਵਰਮ	4
▁ਸਹਸਰ	4
▁ਵਾਗਾ	4
▁ਨਮਾਉ	4
▁ਕਰਸੋਂਗ	4
▁ਚੁ	4
▁ਇਨਟ	4
▁ਭਾਸ਼ਣ	4
▁ਦਿਸਦੇ	4
▁ਛੱਜ	4
▁ਮੰਡ	4
ਨਾਟਕ	4
▁ਹਿਸਟੀਰਿਆ	4
▁ਡਰਮਟਾਈਟਿਸ	4
ਲਿਪ	4
ਪੰ	4
▁ਟ੍ਰਾਈ	4
▁ਅਲੰਕਰਣ	4
▁ਸਮਝਾ	4
▁ਪਰੌਂਠ	4
ਤਾਨੀ	4
▁ਥੂਜਾ	4
▁ਮੌਜਮਸਤੀ	4
ਮਬੋਲ	4
▁ਸੈਂ	4
ਪ੍ਰਾਪਤ	4
▁ਪਹਿਚਾਣਨਾ	4
▁ਐਬਡੋਮ	4
ਤ੍ਰਕ	4
▁ਕੋਵ	4
▁ਰੇਡਿਓਥ	4
▁ਫ਼ੜਕਨ	4
▁ਵਾਨ	4
ਖੀ	4
▁੮੬	4
੮੪	4
ਧਾਰਮਿਕ	4
ਸੁਥਰੀ	4
▁ਔਰ	4
▁ਐਕਸਪਰੈ	4
▁ਮੌਰੀ	4
▁ਖਲ	4
▁ਪੱਦਤੀ	4
▁ਗਡ	4
▁ਗਿਰਜਾਘਰ	4
ਚਾਂ	4
ਮਾਉਣ	4
▁ਇਮਾਮਬਾੜ	4
ਪ੍ਰ੍ਸਿੱਧ	4
▁ਘਾਵ	4
▁ਫ਼ਫ਼	4
▁ਹਿਪਰ	4
ੁਸ਼ਹਿਰ	4
ਨਗੰਗਾ	4
▁ਜਿੰਮੇਦਾਰੀ	4
▁ਰਤਨਾਲ	4
▁ਕਤਯੂਰ	4
▁ਵਿਕਟ	4
▁ਇਫ਼ੇਕਟ	4
▁ਡਰਮਾ	4
ਦਿਕ	4
ਵਾਨੀ	4
▁ਵਿਰਹ	4
▁ਕ੍ਰਾਸ	4
ਬਰਡ	4
ਖਿਅਤ	4
▁ਉਬਾਲਕੇ	4
▁ਸੁਪਨਦੋਸ਼	4
▁ਬੇਜਾਨ	4
▁ਦੰਦਕਥਾ	4
▁ਇੰਨਸ	4
ਠਾਂ	4
▁ਵ੍ਰਸ਼	4
▁ਦ੍ਰਿਸਟੀਹੀਨ	4
▁ਥਾਇਮ	4
ਚਲਦੇ	4
▁ਡੰਕ	4
ਮਿਸਰ	4
▁ਕਾਮਰੂਪ	4
▁ਦਾਦਰ	4
ਊਨਾ	4
▁ਏਬੀਸੀ	4
▁ਖਿਸਕਣ	4
ੈੱਡ	4
▁ਬੰਗ	4
ਇਨਫਲੂਏਂਜਾ	4
ਪਿਸ਼ਟੀ	4
ਪੀਂਦੇ	4
▁ਕੁੱਦਣ	4
੍ਤੀ	4
▁ਗਾੜ	4
ੱਪ	4
ਮਨਾਲੀ	4
▁ਅੰਦਰੋ	4
ਅਦਲ	4
▁ਕਲੋਰ	4
▁ਨਿਰ੍ਯਾਤ	4
▁ਮੁਰਾਨਾ	4
ਸਰਵਾਈਕਲ	4
ਸੋਜ਼	4
ੇਂਗਲ	4
ਕਾਲਾ	4
▁ਸਹਯਾਦ	4
▁ਹਰਬ	4
▁ਦੀਵਾਰਾ	4
▁ਘੁਮਿਆਰਚੱ	4
▁ਧੂ	4
ਤਰਣ	4
੍ਵ	4
▁ਕਚੌਰੀ	4
▁ਸਮੋਸਾ	4
▁ਉਤੀਕਰ	4
▁ਮਹਾਂਮੰਡਪ	4
ਖੋਗੇ	4
ਬੇਦਾਗ	4
ਰੁਦਰ	4
▁ਬ੍ਰਹਿਮੰਡ	4
▁ਸੇਰੇ	4
▁ਨੋਜ	4
▁੧੭੪	4
▁ਚੁੰਮਣ	4
▁ਜਿਰਾਫ	4
ਕਰਤਾ	4
ਜੈਕਟ	4
▁ਜੀਰਾ	4
▁ਅਲਟਰਾਵਾਇਲ	4
ਉਂਗੇ	4
▁ਡਾਚੀਗ	4
▁ਨਿਯਾ	4
ਤੁਹਾਨੂੰ	4
▁ਨਿਖਰਦ	4
▁ਤਰੀ	4
ਨ੍ਹਾਂ	4
▁ਫੋ	4
▁ਬਰੰਗੀ	4
▁ਆਲਣ੍ਹ	4
੍ਕਿ	4
▁ਬੈਲਾ	4
▁ਤਿਲਯਾਰ	4
▁ਘਾ	4
▁੧੯੩	4
▁ਮਿਹ	4
ਨੈਰੋਬੀ	4
ਨੈ	4
ਟੋਟ	4
▁ਫ੍ਰੈ	4
ਵੈਸਕੁਲਰ	4
ਬੋਧ	4
ਟਾਕਸ	4
▁ਚਾਲੀਸ	4
ਫੀਵਰ	4
▁ਪ੍ਰਤੀਯੋਗੀ	4
▁ਆਰੋਗ	4
▁ਕੰਨਿਆ	4
▁ਕਾਲੇਪਾਣੀ	4
ੁਲਾਬ	4
ਪਰਬਤ	4
▁ਮਸਾ	4
▁ਇਸਲਿਸਫੀਕੇਸ਼ਨ	4
▁ਚਿੜ	4
▁ਚੰਪਾਵਤ	4
▁ਜੋਖਿਮਪੂਰ	4
▁ਵਿਕਦੀ	4
▁ਰਾਏਗੜ	4
▁ਕਲਪੇ	4
ੱਟਾ	4
ੇਰੀਅਮ	4
ਟਾਈਲ	4
ਡੀਸ਼ਨ	4
ਹੱਥ	4
▁ਕ੍ਰੋਮੋਸੋ	4
▁ਪਹੜੀ	4
▁ਰਾਮਲੀਲਾ	4
▁ਇਰਾਦ	4
ਪਾਰਵਤੀ	4
▁ਗਦਰ	4
▁ਸ਼ੁਸ਼	4
▁ਠਿਕਾਨ	4
▁ਖੁਜ਼ਲੀ	4
▁ਲੰਬ	4
▁ਉਗਰ	4
▁ਪੈਕਟ	4
ਾਸ਼੍ਯ	4
▁ਪ੍ਰਾਬਲਮ	4
▁ਮਮ	4
▁ਜੁਲ	4
ਫ਼ੀਮ	4
ਸਮੈਕ	4
ਕਸੀ	4
▁ਖਰੀਦੀ	4
ਪੋਰੇ	4
▁ਨਵਜਾ	4
ੱਬਰ	4
ਤਫਰੀ	4
▁੧੯੬੬	4
▁ਵਿਲਾ	4
ਗਰੀ	4
ਬਿਨ	4
▁ਵਿਜ਼ਿਟ	4
▁ਕਨਾਡ	4
ਗੋੜਾ	4
▁ਲਾਂਗ	4
▁ਕਿਨਾਰ	4
▁ਮਰਾਠੇ	4
▁ਮਾਰੋ	4
▁ਵਾਤਾਨੁਕੂਲ	4
ਫ੍ਰ	4
ਵ੍ਰ੍ਸ਼	4
ਨੌਰ	4
▁ਭਗੰਦਰ	4
੍ਯੇ	4
▁ਡਿਟਾ	4
▁ਕੋਲਾਰ	4
▁ਵਾਸਤੁਕਲਾ	4
▁ਐਂਟੀਬਾਡੀਜ	4
▁ਗੋਤੇ	4
ਵਰਤ	4
▁ਆਜਾਦ	4
▁ਸ੍ਰੀਰਾਮ	4
▁ਜਲਸ੍ਰੋਤ	4
▁ਡੰਡੇ	4
▁ਸੰਪਾਦ	4
▁ਤਾਸ਼ੀ	4
<	4
▁ਵਾਸਕੋ	4
ਪੋਸ਼ਣ	4
▁ਸਰਿੰਜ	4
▁ਫੈਲਾਓ	4
ਤਿਕ	4
▁੧੩੦੦	4
▁ਜ਼ਹਿਰੀਲੀ	4
▁ਮੋਨੋਨਿਊਰੋ	4
▁ਰੀਡਿੰਗ	4
ਏਟ	4
ਸ਼ੇਕ	4
▁ਟ੍ਰਾਇ	4
▁ਵ੍ਰ੍ਹ	4
ੋਟੋਨਿ	4
▁ਜਲੋਦਰ	4
▁ਟੈਂਕੀਆਂ	4
▁ਹੀਮੋਫਾਈਲੀਆਂ	4
):-	4
▁ਸ਼ਬਦਾ	4
▁ਜਮਦਗਿ	4
▁ਕਲਾਗ੍ਰਾਮ	4
▁ਪਲਾਈ	4
ੈਵਿਲਾਸ	4
ਨਗੜ	4
▁ਪਪ	4
ਮੀਨ	4
▁ਆਤਮਵਿਸ਼ਵਾਸ	4
▁ਡੀਪ	4
▁ਇੰਡੀ	4
▁ਪ੍ਰਿਟੋਰੀਆ	4
ੇਯ	4
▁ਵਾਕਿਫ	4
ਫਿਲਮ	4
ੇਪਾਰ	4
▁ਹਰਪਾਲਪੁਰ	4
ਰਿਜ਼	4
▁ਕਗਾਰ	4
ਸਟੇਮ	4
▁ਕਬੀਲ	4
▁ਮਿਰ	4
▁ਏਥੇ	4
▁ਪ੍ਰ੍ਮਾਣ	4
▁ਕਮਪ੍ਰ	4
▁ਸਮੰਦਰ	4
ਾਹ	4
▁ਕਾਨਰਿਸ	4
ਅਕਤੂਬਰ	4
ੁੰਜ	4
▁ਮਨ੍ਹਾ	4
▁ਅਲਮਾਰੀ	4
ਿਯਾਂ	4
▁ਬਾਇ	4
ਛੋਹ	4
ਸ਼ਤ	4
▁ਹਿਲਾ	4
▁ਬ੍ਰਜ	4
ਮੋਟੇ	4
▁ਉਨਮੁਕਤ	4
▁ਈਚ	4
ਫਿਸਚੁਲਾ	4
▁ਇਗਨੇਸ਼ੀਆ	4
▁ਟੂਥ	4
▁ਭਗੀਰਥ	4
▁ਰਜ	4
▁ਖ਼ਤ	4
ਪਹਿਲਾ	4
▁ਭੂਲਭੂਲਈਆ	4
ਕੰਨ	4
▁ਬਾਯ	4
▁ਢੇ	4
▁ਅਔਸਤ	4
ਪਸੀ	4
ੇਂਚ	4
ਯੂਰੇਥਾ	4
▁ਫ਼ਫ਼ੋਲ	4
ਅਰੰਬੋਲ	4
▁ਵਕੀਲ	4
▁ਨਰਸੰਹਾਰ	4
▁ਅਣਵਿਆਹੀ	4
ਮੀਟ੍ਰੀ	4
▁ਪ੍ਰ੍ਤ	4
▁ਹੌ	4
ਿੱਬ	4
ਗਵਾਲ	4
▁ਲੱਛਣਾ	4
▁ਤੌ	4
▁ਆਈਣਟਮੈਂਟ	4
▁੧੦੫	4
▁ਮੇਜਬਾਨ	4
▁ਚੰਦਰਬ	4
ਦਨੀ	4
▁ਕਾਈ	4
ਰਾਹੋ	4
▁੧੧੨	4
ਸੱਤ	4
▁ਟਰੈਂਡ	4
▁੧੮੧੯	4
ਤਹਿ	4
ਦਸ਼ੀ	4
▁ਨੁਕੀਲੀ	4
▁ਕਸਾਵ	4
▁ਵਿਰਲ	4
▁ਮੁਖਮੰਡ	4
▁ਪੂਣੇ	4
▁ਉਧਮ	4
▁ਰੂਦਰ	4
ਕੇਦਾਰ	4
ਗਨਯ	4
▁ਕਟੀਲ	4
▁ਟ੍ਰੇਨਰ	4
▁੧੯੩੬	4
ਪ੍ਰ੍ਟ	4
▁ਉਰਵ	4
▁ਸਿੰਥੇ	4
▁ਸੇਠ	4
▁ਪਲੁਰ	4
▁ਰੱਸਾ	4
ਾਣੀ	4
ਪੀਲੇ	4
▁ਸੱਚਮੁ	4
ੇਨਾਈਲ	4
▁ਯੂਰਪੀਅ	4
੮੧	4
▁ਹਲਕ	4
▁ਗੁਡ	4
▁ਹਿਪੋ	4
▁ਇੰਜੀਨੀਅਰ	4
▁ਬਗਲੇ	4
ਫ੍ਰੇ	4
▁ਯੂਰੋਪ	4
ਪਾਲੀ	4
▁ਜੋਗ	4
▁੨੩੦	4
ਉਤਸਵ	4
▁ਟੀ੦	4
▁ਸਬਰ	4
▁ਮੋਨਾਸਟ	4
▁ਪੇਟਿੰਗਜ਼	4
▁ਚੁੱਲ	4
▁ਮੁੰਡੇ	4
ਸਟ੍ਰੀ	4
▁ਸਗਰ	4
ਰੋਮਾਂਸ	4
▁ਸਲ	4
▁ਰੁੱਕ	4
▁ਸੰਗ੍ਰਾਹ	4
▁ਆਦਿਮ	4
ਿਊਰੋ	4
ਐਂਟ	4
ਸਲਰ	4
▁ਇੰਟਰਨੈ	4
▁ਫ਼ਾਈ	4
▁ਪਰਯਾ	4
▁ਅਸਾਧ	4
▁ਗਵਾਉਣ	4
▁ਜਾਵੋਗੇ	4
▁ਡ੍ਰ	4
▁ਨਿਊਟ੍ਰਿਸ਼ਨ	4
▁ਸ਼ਡ	4
▁੧੯੨੧	4
▁ਐਸਪਰਿਨ	4
ਸਬਰੀ	4
▁ਪ੍ਰ੍ਕ੍ਰਿਤਕ	4
▁ਸ਼੍ਰ੍	4
▁ਚੇਲ	4
▁ਸੇਰੀ	4
ਡਿਪਰੈਸ਼ਨ	4
੍ਰੋਵ	4
▁ਡਰਾਉਣ	4
▁ਆਰੀਆ	4
▁ਵਿਪਰ	4
▁ਜਾਚ	4
ਅਸਥ	4
▁ਛਿੰਨ	4
▁ਕਰੇਜ਼	4
ਸਿਲਾਈ	4
▁ਤੱ	4
▁ਕੱਤਕ	4
ਪਟਿਕ	4
▁ਵੀ੦	4
▁ਪੋਸਟਰ	4
▁ਉਲਝਣ	4
ਿੰਦ	4
▁ਪਾਇ	4
▁ਪਲਾਜਮੋਡੀਅ	4
ਕਾਦਮ	4
▁ਕਾਬਿਲ	4
▁ਰੈਡੀਕਲ	4
▁ਲੱਦੀ	4
▁੩੨੦	4
▁ਪੜ੍ਹ੍ਨ	4
▁ਐਂਟੀਬਾਇਉਟਿਕ	4
▁ਲਗਾਵ	4
▁ਰਾਕਸ	4
ਮੀਟ	4
▁ਜਗਨਨਾਥਪੁਰ	4
▁ਟੇਲੀ	4
▁ਨੌਲ	4
ਬੈਰੀ	4
ਮਿਰਗੀ	4
▁ਧੜ	4
ਹੈਂਡ	4
▁ਬਲਬ	4
▁ਸੇਂ	4
ਨਵੰਬਰ	4
▁ਕੁਮ	4
▁ਛੁਟ	4
ੰਦਾ	4
▁ਅਣਚਾਹ	4
ਹੋਲੀ	4
ਵੀਰਜ	4
▁ਭੱਜਦੇ	4
▁ਅਟਲਾਂਟ	4
▁ਫੇਜ਼	4
ੂਤ	4
ਿਲਵਾੜ	4
▁ਕਲਾਕਾਰੀ	4
▁ਡ੍ਰਾਮ	4
ਸਕਲੇਰੋਸਿਸ	4
▁ਬ੍ਰਾਇਓਨੀਆ	4
ਾਨਗੜ੍ਹ	4
▁ਕਟਵਾ	4
▁ਬੁਮਥਾਂਗ	4
▁ਅੰਕੁਰ	4
▁ਬਿਰਸ	4
ੱਵ	4
ਥੋਸਾਈਨਿਨ	4
▁ਮੁੰਡਾ	4
ਖੂਨ	4
ਾਵਲਾ	4
ਲੇਸ਼ਵਰ	4
▁ਧਾ	4
▁ਗੰਡ	4
ਲੀਏ	4
ਗਿ	4
ਪੰਚ	4
ਜੰਗਲੀ	4
ਸ਼ਵਨਾਥ	4
▁੬੨	4
▁ਸ਼ਬਜੀਆਂ	4
▁ਗੱਡਿਆ	4
▁ਵਣਪ੍ਰਾਣੀ	4
ਗਾਹੜਾ	4
ਯਨਾਭਿਰਾ	4
▁ਪੰਚਕੁਲਾ	4
ਜੁਲੂ	4
▁ਬਿਨ	4
ਿਸਾਰ	4
▁੨੫੮	4
▁ਤ੍ਰਿਕੂਟ	4
ਛਾੜ	4
▁ਨਵਰਾਤ	4
▁ਅੱਲਾ	4
▁ਪਰੌਂਠਾ	4
▁ਕ੍ਰਿਸਮ	4
▁ਫਟੀ	4
ੁੰਗ	4
▁ਕੁਲਦੇਵ	4
▁ਯੂਕੇਲਿਪਿਟਸ	4
▁ਪ੍ਰਜਨ	4
▁ਤਾਲੀ	4
ਜਾਦ	4
▁ਤ੍ਰਿਯੁਗੀ	4
▁ਰਾਗ	4
▁ਚੈਰੀ	4
ਥੀਆਂ	4
▁ਦਿੱਤੀਆ	4
▁ਉਧਵ	4
ਯਮੁਨਾ	4
▁ਜਮਾਈ	4
▁ਹਮੀ	4
ਸੰ	4
ਸਤਰੀ	4
▁ਹੀਮੋਸਿਡ੍ਰ	4
▁ਅਰੁਣ	4
▁ਦਰਜ਼ਨ	4
ਜਵੇਲ	4
ਗਨਾਥ	4
▁ਰਣਥੰਭੌਰ	4
ਪੇਰਿਯ	4
▁ਬੁਨ	4
▁ਜ਼ਿੰ	4
ਗਦੀ	4
▁ਸਕਾਟ	4
ੋਸ਼ਣ	4
ਭੂਮ	4
▁ਅਨੁਸ਼ਾਸ਼ਨ	4
ਫੁੱਲਾਂ	4
ਕਰੋਚ	4
ਸਕੋਪੀ	4
▁ਚੌਖ	4
▁ਖਟ	4
▁ਕਨਹ	4
ਦਰੀ	4
▁ਬਹਿਤ	4
▁੭੩	4
▁ਪਾਰੰਗ	4
▁ਦੁਨਿਆ	4
▁ਕੋਹਿ	4
▁ਤੋਮਰ	4
▁ਮੋਨੇਸਟ੍ਰੀ	4
▁ਨੰਦਾਘ	4
▁ਨਿਯੂਰੋ	4
ਸਿਟ੍ਰ	4
▁ਸੰਕੁਚਨ	4
▁ਵਾਅ	4
▁ਸਰਵਵਿ	4
▁ਕਲੀਜ	4
ਵਿਧਾ	4
ਿੱਤ	4
▁ਚੰਦਰਮਾ	4
ਦਾਹ	4
ੀਨਿਕਾ	4
▁ਖੜਕ	4
▁ਪ੍ਰੈਗਨੈਂ	4
ਡਾਂਗ	4
▁ਡਯੂ	4
▁ਚੇਅਰ	4
ਟ੍ਰ	4
▁ਪਿਘਲਦ	4
▁ਲਾਟ	4
▁ਸੁੰ	4
▁ਆਦਮਕ	4
▁ਖਿਲੀ	4
▁ਨਹਰ	4
ਗੁਨ	4
▁ਧਮ	4
ਭਾਈ	4
▁ਸਹੇਲੀ	4
▁ਡਾੱਲਫਿਨ	4
ਵੇਧ	4
▁ਕਪ	4
▁ਓਰੀਐਂਟ	4
▁ਰੋਹਾਂ	4
▁ਇੰਦਰਪੁਰ	4
▁ਮਹੱਤਵਪੁਰ	4
▁ਸੇਮੀ	4
▁ਬਾਹੁ	4
▁ਧੱ	4
ਮਾਈਲਿਨੇ	4
▁ਰਕਤਸਰਾਵ	4
▁ਮਲਾਰੀ	4
ਸ਼ੀਯਾ	4
▁ਘੀ	4
ਲੋਹ	4
ਬ੍ਰਿਕ	4
▁ਅੰਜੂ	4
▁ਥਾਪ	4
ਲੇਸੇਂਟ	4
ਆਰਾਮ	4
ਨਿਯੂ	4
▁ਮੈਜ	4
ਸ਼ਿਸ਼ਟ	4
▁ਸਿਵਨੀ	4
▁ਨਮੋਲੀਆ	4
▁ਟ੍ਰੇਵੈਲ	4
▁ਲਿਮ	4
▁ਅਮੇਰਕ	4
ਟਾਇਟ	4
RD_SY	4
▁ਮੁਨ	4
▁ਸਾਮਾਜਿਕ	4
ਜਾਇਆ	4
ੁਰਭੁ	4
▁ਪਾਦਾਂਗੁਸ਼ਠ	4
▁ਸੀਵਨੀ	4
▁ਧਰਮਸ਼	4
▁ਰੇਟੀਨ	4
▁ਦੁਬਲਾਪਣ	4
▁ਰਹ	4
▁ਖਿ	4
▁ਔਖੇ	4
▁ਮੇਮ	4
▁ਰੰਗਨਾਥ	4
▁ਪਰਲਵੈਲੀ	4
ੂਅਲ	4
▁ਮਨਭਾਉਂਦ	4
▁ਵੇਸਟ	4
▁ਪੈਂਟਸ	4
▁ਕੱਬ	4
▁ਸਚਿਵਾਲ	4
ਸ਼ਗੜ੍ਹ	4
ਵਗੜ	4
▁ਚਿਪ	4
▁ਛੋਟ	4
▁P	4
ਸੇਵਨ	4
ਚਵਨਪ੍ਰਾਸ਼	4
ੇੜ	4
▁ਸੋਇਆ	4
▁੫ਃ	4
▁ਰਾਜਮਲਾ	4
▁ਜੰਮਦੀ	4
▁ਅਪਮਾਨ	4
ਦਾਰੀ	4
▁ਲਯੂਕ	4
▁ਮੇਲਬ	4
▁ਬਜਾ	4
▁ਸ਼ੌਰ	4
▁ਪੁਤਲ	4
ਬਰਾਬਰ	4
▁ਪਵੋ	4
▁ਕਾਸਟ	4
▁ਰਿੰਕ	4
▁ਕਾਰਟੀ	4
▁ਹਾਈਡ੍ਰੋ	4
ਾਣਡੂ	4
JJ	4
ਗ੍ਰਾਫ	4
▁ਲੌਂ	4
ਕਲੀਅ	4
▁ਭੁਲਾ	4
ਿਅਸ	4
▁ਦੌਲਤ	4
ਰਟਨ	4
ਬਿਸ	4
ਨ੍ਰਿਤ	4
▁ਹੋਟਲਸ	4
▁ਰੂਮਾਨੀ	4
▁ਘੋ	4
▁ਤਰਤੀਬ	4
▁ਕੰਡਾਰ	4
▁ਤਿਰੰਗ	4
▁ਫ਼ੁੱਲਾ	4
▁ਸਬਦ	4
ਿਰੂਪਤੀ	4
▁ਖਣ	4
▁ਰਕਸ਼ਾ	4
▁ਪ੍ਰੋਤਸ	4
ਾਹਨ	4
▁ਏਨੋਰੇਕਿਸ	4
ਗਰੀਨ	4
▁ਵਾਤਰੋਗ	4
▁ਲੋਦੁਰਵ	4
▁ਡੇਂਸਿਟ	4
▁ਛੱਤਰੀ	4
▁ਉਠਦੀਆਂ	4
▁ਰਜੋਨਿਵ੍ਰਤ	4
ੇਲਖੰਡ	4
▁ਪ੍ਰ੍ਸ਼ਾਸ਼	4
ਪਾਈ	4
ਰੋਗਰਾਮ	4
▁ਅਗਵਾਈ	4
▁ਧਵਲ	4
▁ਨੈਨ	4
▁ਲੈਂਪ	4
▁ਧੁੱਪਗੜ	4
▁ਹਜਾਰਾਂ	4
ਮਸਾਲੇ	4
▁ਤੀਰਥਰਾਜ	4
▁ਫੋਰਸ	4
ਦੁਆਰਾ	4
ਅਕ	4
ਸੀਲੇ	4
▁ਘਾਘ	4
ੇੱਕ	4
▁ਅਚ	4
▁ਆਗੰਤੁ	4
ਮਹਿਲ	4
▁ਗੁਫ਼ਾਵਾ	4
ਫੁੱਟ	4
▁ਅਫ਼ਰ	4
ਨੀਅਲ	4
▁ਲੁਉ	4
▁ਪਰਮਾਨ	4
ਟੌਬ	4
ਗੰਡੋ	4
▁ਲਹਾਸਾ	4
ਸਿ	4
▁ਵਾਣ	4
▁ਜਰਬ	4
▁ਗੈ	4
ਜਾਦੂਈ	4
ਪ੍ਰੋਟੀਨ	4
ਜਾਗ	4
▁ਰਣਨੀਤੀ	4
▁ਇੰਦਰਧਨੁਸ਼	4
ਵਰਨ	4
▁ਧਵਜ	4
▁ਵੱਢ	4
▁ਅੱਟਾਕਲ	4
▁ਪਿਤਾਮਹ	4
ਿਆਨਾ	4
ਜਾਉਣ	4
ਆਥ੍ਰਾਰਾ	4
▁ਪੀਜ਼	4
ਣ੍ਚ	4
▁ਬਚਾਵ	4
▁ਸੁੰਨਾਪਣ	4
▁ਫਤਿਹ	4
ਪੱਤਰ	4
▁ਹਾਜ਼	4
▁ਕੋਟਟਾਯ	4
▁ਪ੍ਰਮੇਹ	4
ਸਫੈਦਪ੍ਰਦਰ	4
ਸੈਨਾ	4
ਕੈਲਾਦੇਵੀ	4
ਤਾਈ	4
ਾਰਾਸਨ	4
ਆਨ	4
੍ਰਾਨਿਕ	4
ਵਕ	4
▁ਦਵਾਈਆ	4
▁ਸੁਪਾਚ	4
▁੨੪੯	4
▁ਸਹੂਲਤਾਵਾਂ	4
ਲੀਡੇ	4
ਸਿਰਫ਼	4
▁ਵਿਘ	4
ਸੇਰੀਚੂ	4
▁ਪਦਰਮ	4
▁ਭਵਾਨੀ	4
▁ਕੁੱਕਰ	4
ੋਲਬਾ	4
ਮੋਤੀਏ	4
▁ਐਵਰ	4
▁ਗੈਂਗ	4
ਭਿ	4
ਸਾਈਡ	4
▁ਦੰਤੇ	4
ਨਿਰੋਧਕ	4
▁ਬ੍ਰਾਡ	4
▁ਟਾਈਮਸ	4
ਟਿਰਕ	4
ਜਿਸਦੀ	4
▁ਮਾਰਗਦਰਸ਼ਕ	4
▁ਵਿਕਲਾਂਗ	4
▁ਤਸੱਲੀ	4
▁ਹਾਊਸਬੋਟ	4
ਨੈਨੀਤ	4
▁ਝੁਨਝੁਨ	4
▁ਅਗ	4
▁ਮੈਮੋਰਿ	4
ਬੰਗ	4
ੜਾਉਣ	4
▁ਐਡਿ	4
▁ਸ਼ਿਪ	4
▁ਕਾਰਲ	4
▁ਸ਼ੌ	4
▁ਪਰਮਹੰਸ	4
▁ਝਨ	4
▁ਆਦਮੀਆਂ	4
▁ਜਿਊਂਦਾ	4
੧੪੦	4
▁ਅਰਧਚੰਦਰਾ	4
ਮਰਦ	4
▁ਰੋਂਗ	4
▁ਤੈਰਦੀ	4
▁ਨਾਨਕ	4
▁ਜਲਾਲ	4
ੁੱਦ	4
▁ਤਾੜੀ	4
▁ਲੱਗਣਗੇ	4
▁ਬਾਂਕੀ	4
ਤ੍ਯਾ	4
ਚਰਬੀ	4
▁ਦਰ੍	4
ਰਹਾਟ	4
▁ਯੋਧ	4
ਲਿਮਪੋ	4
ਸਿੱਧਾ	4
▁ਬਨਾਈ	4
▁ਡੈਲਟਾ	4
▁ਪ੍ਰਿਵ	4
▁ਹਥਿਆ	4
ਉਣ	4
ਮਾਸਪੇਸ਼ੀ	4
ਨਾਥਜੀ	4
▁ਅਨਾਮ	4
▁ਥੱਕਣ	4
ਰਿਧੀ	4
ਡੀਏਸ਼ਨ	4
▁ਮਹੂ	4
▁ਨੌਕਾਯਨ	4
ਰਖਾ	4
▁ਨੁ	4
▁ਫੂਕ	4
▁ਅੰਡਵੇਸ	4
ਡਿਓ	4
▁ਵਿਸ਼ੈਲ	4
▁ਭੋਟ	4
▁ਰਿਹੂਮੇਟ	4
ਲਾਸਟ	4
▁ਖਿੱਲਰੀ	4
▁ਝਿਝਕ	4
▁ਗਰਭਨਿਰੋਧ	4
਼ੈਕਸ਼ਨ	4
▁ਖਿੜਿਆ	4
▁ਮੇਟਾਬਾਲਿ	4
▁ਬੰਗਾਲੀ	4
▁ਸ਼ੂ	4
ਕੁਮਾਰ	4
ਪਿਲ	4
ਬੱਤੀ	4
ਾਪ	4
▁ਵਿਸ਼ਵਵਿਦਿਆਲੇ	4
▁ਆਪਾਤਕਾਲ	4
ਜਵਰ	4
ਦੋਂ	4
▁ਛੁਪੀ	4
▁ਚੇਤਨ	4
▁ਪੁਲੀਟਸ	4
▁ਮੋਢਿਆ	4
ਬਿਲ	4
▁ਸ਼ੌਚ	4
ਜਦੋਂ	4
▁ਮਿਲੀਆ	4
▁ਹੰਸ	4
ਾਗੇ	4
▁ਸੰਸਕਰਣ	4
▁ਪੈਥਾ	4
▁ਕੋਕੀ	4
▁ਚੈਪਲ	4
▁ਤੇਨਜ	4
ਲੁੰਗ	4
▁ਤਾਕਿ	4
ਪੇਸ਼ੀ	4
▁ਗੜਵਾ	4
▁ਪੋਜੀ	4
▁ਚਿਕਿਤਸ	4
ਰੌਂਗ	4
ਿੰਦਾ	4
ਖਲ	4
▁ਸਰਵਾਂਗ	4
▁ਛਿਦ	4
੩੭੫	4
ੇਟਾ	4
▁ਲੱਛ	4
▁ਮਸੀਹ	4
▁ਫਾਈਟੋ	4
▁ਡਿਸਟਰਬ	4
▁ਸਾਂਗ	4
ਵਿਕਾ	4
▁ਸਿਫ਼ੰਕਟਰ	4
ਧੋ	4
▁ਡਲਹੌਜ	4
ਠਾਕ	4
▁ਬੇਡ	4
ਨੌਕਾ	4
ਗੰਧਾ	4
▁ਥਿ	4
ਮੋਗਲੋਬਿ	4
ਟੀਰੀਅਲ	4
ਜਮ	4
▁੬੩	4
ਕਾਵੇਰੀ	4
▁ਛਤਰੀ	4
ਧਨੁਸ਼	4
▁ਫਟਣਾ	4
ਸੁਰ	4
▁ਪੈਂਗੁਇਨ	4
ਦੋਰਚੁਲਾ	4
▁ਚੋਰਟਨ	4
ੌਂਠ	4
▁ਉੜ	4
ਦੁਰਾਡੇ	4
▁ਚਮਚਮਾਉਂਦ	4
ਬਦਰੀਨਾਥ	4
▁ਸ਼ਲਭਾ	4
ਹੀਦਾ	4
▁ਆਕਸ	4
▁ਫਾਰਸ	4
▁ਨਾਈਟ੍ਰੋਸ	4
▁ਅਭਯਾਰਣ	4
▁ਬੁਲਾਉਂਦ	4
ਚਾਂਦੀ	4
▁ਮੁਕੁ	4
▁ਫ੍ਰ	4
▁ਲਹਿਰਾ	4
ਰੈਪੀ	4
ਨਿਯਮ	4
▁ਫਾੱਰ	4
ਸਰੀਨ	4
▁ਇਨਫ਼	4
▁ਟੋਹ	4
ਖਣ	4
▁ਸੇਪਿਟਲਿਨ	4
▁ਬਥੇਰ	4
ਣਗੇ	4
▁ਘਟਣਾ	4
▁ਕ੍ਰਾਈਸਟ	4
▁ਉੱਭਰਨ	4
▁ਛਿਛਲ	4
ਤੱਟ	4
▁ਟਲਣ	4
▁ਰਾਵਣ	4
▁ਖੂ	4
▁ਸਦਮਾ	4
ਿੱ	4
ਰੋਨ	4
ਸੈਂਸ	4
▁ਬੇਰ	4
ਅੱਠ	4
ੂਤੀ	4
ਰਿਗ	4
ਏਜ	4
▁ਏਂਜਲ	4
▁ਫਾਈਵ	4
▁ਅਲਫ਼ਾ	4
▁ਸੋਆਬੀਨ	4
▁ਲਿਊਕੋ	4
▁ਸਬਮਯੂਕ	4
▁ਸ਼ਿਵਰ	4
ਸਾਰੇ	4
▁ਫਾੱਸਫੋਰਸ	4
▁ਡੰਡ	4
▁ਫੁਹਾਰਾ	4
ਮ੍ਧ	4
▁ਮਾਚਿਸ	4
▁ਪ੍ਰ੍ਦਰ	4
▁ਰੇਗਸਤਾਨ	4
ਸ਼ਰਮ	4
▁ਪਨੀ	4
▁ਦਿਖਿਆ	4
▁ਮੁਸਕਰਾਉਂਦ	4
▁ਹਿਡ	4
▁ਐਂਟੀਕਨਵ	4
ਪ੍ਰਾਇ	4
▁ਸਾਇਜ	4
ਡਮਿਰਜ਼	4
ਵਿਦਿਆਲਿਆ	4
ਟੈਂਪਲ	4
▁ਅੰਧਕਾਰ	4
ਪਾੜ	4
▁ਆਰਦਰ	4
ਨਾਰੀ	4
▁ਨਰਤਕ	4
▁ਫਤਿਹਪੁਰ	4
▁ਜਿਊਂਦੀ	4
▁ਬ੍ਰੈ	4
ਥੁਨ	4
▁ਵਿਖੇਰਦ	4
▁ਜੰਘ	4
ਅੰਗ	4
▁ਟੋਟਲ	4
ਬੱਬ	4
▁ਗਜਰੌਲਾ	4
ਭਾਉਣ	4
▁ਅਗਸਤਯ	4
▁ਉਤਰਣ	4
▁ਪਿੱਪਲੀ	4
ਾਇਨ	4
▁ਅਭਿਯਾਰਨ	4
▁ਪੰਜਵੇ	4
▁ਸ਼ਲ	4
▁ਅਧਿਆ	4
▁ਪਾਣੀਪਤ	4
▁ਟਕਰਾਉਂਦ	4
▁ਬਹੂ	4
▁ਕੁੰਡਲਿਨੀ	4
ਪਿਟਲ	4
▁ਨਿਊਜ	4
ਉਪਰਕੋਟ	4
▁ਖਵਾਇਆ	4
ਨਾਮੀ	4
ਲੂਵ	4
ਚਿਕਿਤਸਕ	4
▁ਕਿੰ	4
ਵਦੰਤੀ	4
ਆਊਟ	4
▁ਦੌ	4
▁ਛੁਡਾਉ	4
▁ਆਟੋਜ	4
▁ਪਿਥੌਰਗੜ੍ਹ	4
ਕਬੀਰ	4
▁ਤੰਤਰਿਕ	4
ਸਪੋਰਟ	4
▁ਧੁੰਦਲੇ	4
ੁਰੂ	4
▁ਬਿਉਰ	4
▁ਗਜ਼ਨਵ	4
ੋਬਰਾ	4
ਨੇਪਾਲ	4
ਨਿਵਾਸ	4
ਾਨਾਥ	4
ਿਨਸ	4
ਮਫਾ	4
▁ਸ਼ੰਕਰਚਾਰ	4
▁ਸ਼ੁਭਾਸ	4
▁੧੨੬	4
▁ਐੱਮਜੀ	4
▁ਖਿਆਤ	4
▁ਸਿਪ	4
ਿਮਕ	4
ੀਅਰਸ	4
ਕੈਂਪ	4
▁ਸਹਿਮਤ	4
▁ਸੈਨ	4
▁ਸ਼੍ਰੀਰੰਗਪਟ	4
▁ਫ੍ਰਿ	4
▁ਸੇਮ	4
▁ਰਾਈਫਲ	4
▁ਇੰਨ੍ਹੀ	4
ਇਪੀਕਾਕ	4
ਖੱਬੇ	4
ੀਯੋਲ	4
▁ਕੈਲੀਪਰ	4
▁ਸਕਿਰਿ	4
▁ਗਣਤ	4
▁ਪਾਉਣੀ	4
▁ਸਿਨਡ੍ਰੋਮ	4
▁ਉਲਾਸ	4
▁ਸਵੱਛਤਾ	4
▁ਹਲਦੁ	4
▁ਲੋਗ	4
▁ਇੱਕਲਾ	4
ਮੋਚੂ	4
ਹਿੰਦੇ	4
▁ਇੰਫੈਕਸ਼	4
▁ਸਮੇਟੀ	4
ਰਾਸਾਈਕਲ	4
ਪੁਰਾਣਾ	4
▁ਟਹਿਲਦੇ	4
ਾਮਿਨ	4
▁ਉਪਨਿਵੇਸ਼	4
ਗਠੀਆ	4
▁ਗਾਇਕ	4
ੜਾਪਨ	4
▁ਖਦਿਰ	4
ਮੋਟਾਪਾ	4
ਨੀਂਦ	4
▁ਸ਼ਕਰਕੰਦ	4
▁ਫਾਰਨ	4
▁ਚੌਖੰ	4
▁ਸਿਕਨੇਸ	4
▁ਲਾਊਡ	4
ਪੀਕਰ	4
▁ਡਾਊ	4
ਜਯੰਤ	4
▁ਗੁਸਤਾਵ	4
ਰਨੀਆਂ	4
ਵਾਹਿਨੀ	4
ਆਈ੦	4
▁ਲਵਾਂਗ	4
ਚਨਾ	4
੩੧	4
▁ਪੈਸਿਆ	4
▁ਸੁਲਝਾਉਣ	4
ਕਡਡ	4
ਮਾਈਸੀਨ	4
▁ਲੱ	4
▁ਰੂਮੇਟਿਜ	4
ਨਾਈਟ	4
ਮਗਨ	4
ਵੜਨਗਰ	4
▁ਸਕਾੱਟ	4
▁ਪਨਾਰ	4
ਹੋਰ	4
▁ਮਟਕ	4
▁ਬੈਡ	4
ਧਾਵਾ	4
ਿਨਲ	4
ਬਾਹ	4
ੇਂਸੀ	4
▁ਨਿਯੋ	4
▁ਲਟਕਾ	4
▁ਘੁੰ	4
ਭੂਤੀ	4
▁ਕਾੱਰਨ	4
▁ਗੁਰਸੋ	4
▁ਵਿਵਸਾ	4
▁ਸਿਸ	4
▁ਆੱਪਰੇਟਰ	4
▁ਬੋਰੀ	4
▁ਪੈਲੀਵਸ	4
▁ਫ਼ੰਗਸ	4
ਸ਼ੇਪ	4
ਰਵ	4
▁੮੩	4
▁ਫਿਸਲ	4
▁ਪਿਸ	4
ਈਸਾਈ	4
▁ਤਨੇ	4
▁ਨਾਰੇ	4
▁ਛਾਤੀਆ	4
▁ਲੈਣੀਆ	4
▁ਜਯੋਤ	4
ਿਸਰ	4
ਲੋਜਿਸਟ	4
ਸ਼ਟਰ	4
▁ਅਸੰਖ	4
ਯਤ	4
ਸੈਟ	4
▁ਹੀਨਯਾਨ	4
ਪਹਿਲਾਂ	4
▁ਫੁਰਤੀਲ	4
▁ਵਿਖਾ	4
ਤੀਯ	4
▁ਉੱਥਾਨ	4
ਮੋਥੇਰੇ	4
ਰੈੱਡ	4
ਵਾਂਗੇ	4
ਰੋਗਾਂ	4
▁ਏਕਿਊਟ	4
▁ਬਰੌ	4
▁ਬੋਲਾ	4
▁ਦੁਸ਼	4
ਠੀਕ	4
▁੨੦੦੪	4
▁ਫਾਈਲ	4
▁ਕ੍ਰੋਮੋਜੋਮਸ	4
▁ਪੰਚਾ	4
▁ਮਾਨਵਤਾ	4
▁ਕਮਿਸ਼ਨਰ	4
▁ਕਾਰਟ	4
ਫ਼ਿਨ	4
▁ਚੇਨਨ	4
ੈਲ	4
▁ਲੇਮਨ	4
ਧੀਸ਼	4
▁ਛਤੀ	4
▁ਰਾਈਡਿੰਗ	4
▁ਲੰਘਣ	4
▁ਪੁਰੇ	4
▁ਨਿਓ	4
▁ਪਕਾਈ	4
ਉਚਿ	4
▁ਉੰਨ੍ਹੇ	4
▁ਕ੍ਰਿਸਟੋਫ	4
ਜਰ	4
▁ਓਪਰੀ	4
ਟ੍ਰਾਪਿਕ	4
ਦਕ	4
ੇਰੀਅਨ	4
ਬੀਆ	4
ਮਕਾ	4
ਵਾਸਤਵ	4
▁ਵਿਵਾਹ	4
▁ਕੰਕਾਲ	4
▁ਟੰਗ	4
ੀਲੇ	4
ਰਾਣਾ	4
▁ਕਾਲਿੰਦ	4
▁ਕਵਾ	4
ਸ਼ਿਰ	4
▁ਕੰਚਨਜੰ	4
▁ਪ੍ਰੌੜ੍ਹ	4
▁ਤੂਫ	4
▁ਕੈਨਥਰਿਸ	4
▁ਨਿਮੋਨੀ	4
▁ਕਿਫ਼ਾਇਤ	4
ਸਪਾਇਨ	4
▁ਤਰਨ	4
▁ਕੂਟ	4
▁ਰਿਏਕ	4
▁ਐਕਟਿਵ	4
▁ਬਾਵੇਰਿ	4
▁ਅਭਿਵਿਅਕਤ	4
▁ਸਾਂਗਾ	4
▁ਮਾਲਕਾਂ	4
ੇਰਿਨ	4
▁ਸਪੀਤ	4
ਲਤਾ	4
▁ਬਦਤਰ	4
ਮੁਸਲਿ	4
ਪਿਡਯ	4
▁ਚਿਮਨੀ	4
੭੬	4
▁ਕੈਪਿਟ	4
▁੧੮੬੦	4
▁ਕੋਲੇਸਟਰ	4
ੈਲਾ	4
▁ਸ੍ਰ	4
ਆਰਕਿਡ	4
ਫੋਮ	4
ਗੋਆ	4
ਘਰਾਂ	4
▁ਧੋਂਦ	4
▁ਹਰਿਆਣ	4
ਪ੍ਰਭੂ	4
ਅਜਾਇਬਘਰ	4
▁ਪ੍ਰ੍ਸ	4
▁ਭੱਦ	4
▁ਚਿਲਡਰਨ	4
▁ਫੋਟੋਗਰਾਫਰ	4
▁ਉਦਾਨਾ	4
▁ਮਦ	4
ਕੇਤ	4
ਗਰਮੀ	4
▁ਟਾਇ	4
▁ਇਵੇਂ	4
▁ਜਯ	4
ੁਮਕਿ	4
▁ਕੈਦੀ	4
▁ਸ਼ਟੇਸ਼ਨ	4
▁ਸੁਖਮ	4
ਥਾਈਰਾਈਡ	4
▁ਪਾਡਵ	4
▁ਅਮੀਨ	4
▁ਹਿਰਦੇਰੋਗ	4
ਮੁੱਖੀ	4
▁ਪਾਂਡੂਲਿੱਪੀ	4
▁ਭੋਜਪੱਤਰ	4
▁ਸ਼ੋਸ਼	4
▁ਦਿਁ	4
ੁਰਾ	4
ਨੋਰੇਕਿਸ	4
▁ਜਾਨੁ	4
▁ਚੜ੍ਹ੍ਦ	4
▁ਮਿਊਜ਼ਿਕ	4
▁ਸੰਜੀਵ	4
ਖੀਮਠ	4
▁ਭੀਤਰ	4
▁ਟੋਇਆ	4
▁ਛਿੱਲੀ	4
▁ਪ੍ਰਤੀਰਕਸ਼ਣ	4
ਚੂਰ	4
▁ਇਨੇਮਲ	4
▁ਕੰਘ	4
▁ਜਾਣੀਆ	4
▁ਵਜਾਓ	4
▁ਐਂਟ	4
▁ਨੀਮ	4
▁ਫ਼ੈਲਾ	4
▁ਸੁਆਦ	4
ਮਾਥਰੇ	4
▁ਮਨੋਚਿਕਤਿਸਕ	4
▁ਉਦਯੋਗਾਂ	4
ਟ੍ਰੋਲ	4
ਕਫ	4
ਮਿ	4
ਨਾਵਾ	4
ਵਾਹਾ	4
▁ਓਰੀ	4
▁ਪ੍ਰਵੀ	4
ਮੋਨੇ	4
▁ਵ੍ਰਿੰਦਾਵ	4
▁ਭਿੱਤੀ	4
▁ਰਜਾਈ	4
ਨੰਦ	4
ਨੱਈ	4
ਭੀ	4
ਾਖੋਰ	4
▁ਸੁਣਾਉਂਦ	4
▁ਟੈਪ	4
▁ਕਰਤੱਵ	4
▁ਪਰੀਖ	4
ਮੁ	4
▁ਕੱਛੂ	4
ਰਾਏ	4
ਨੀਆ	4
ਰਿਖ	4
▁ਬਾਗਬਾਨੀ	4
▁ਕੁਤਿ	4
ਸਨਸ	4
▁ਐਟ	4
ਕਮਲ	4
▁ਖੋਲੋ	4
▁ਸਕੇਗੀ	4
▁ਕਰੋਗੀ	4
▁ਭਰਲ	4
▁ਕਨਾ	4
▁ਮਾਈਕਰੋਸਕੋਪ	4
▁ਮੋਤੀਏ	4
ਬਿੰਦ	4
ਿਟਸ	4
▁ਲਬਰੇਜ	4
ਸ਼ਾਂਤੀ	4
▁ਰੁਮਾਂਚ	4
▁ਬਾਗਵਾਨੀ	4
▁ਐਪ	4
ਪਹਾੜੀ	4
ੇਨਲ	4
ਤਿਵੇਂ	4
▁ਚੀਕ	4
▁ਸੈਂਟੀਗ	4
ਪੁੱ	3
▁ਮੂੱ	3
ਡ੍ਰੀਨ	3
▁ਉਚੇ	3
▁ਹੈਪੇਟਾ	3
▁ਸ਼ੱਲਿਆ	3
▁ਕ੍ਰਾ	3
ਵਿਸ਼ਕਾਰ	3
ਰਾਵਤ	3
▁ਡੈਸ	3
ਫ਼ੂਡ	3
ੇਟੋ	3
ਪਾਕਿਸਤਾਨ	3
ਯਡ	3
ਸ਼ਾਂਤ	3
▁ਮਾਲਵਾਹਕ	3
▁ਐਪਿਸ	3
▁ਕਹਾਉਦ	3
▁ਫ਼ੁਲ	3
ੌਰੀ	3
▁ਹਿਸਟ੍ਰੋਸਕੋਪ	3
▁ਗਰੀਛਮ	3
▁ਬਾਰਾਂਸਿੰਘਾ	3
▁ਚੌਸਿੰਘਾ	3
▁ਗ੍ਰੈ	3
▁ਘੁਮੱਕੜੀ	3
▁ਬੈਨ	3
▁ਨਮਾਉਣਾ	3
▁ਏਲੂਮ	3
▁ਇੰਬੋਲਾਈਜ	3
▁ਤ੍ਰੀ	3
▁ਮਲਾਸ਼ਿਆ	3
▁ਰਿਕੇਟਸ	3
ਮੀਨਾਰ	3
▁ਟੈਨ	3
▁ਸੈਲੀ	3
ਲੋਸਰ	3
▁ਕਾਸਮੋਪ	3
▁ਕੈਪੀਟ	3
▁ਚਿਯ	3
▁ਜੂਆ	3
▁ਟੱਟੀਆ	3
ਮਲਟੀ	3
▁ਬਿਗ	3
ਡੋਡਡਾਈਲ	3
ਵੀਹ	3
▁ਖਿੜ੍ਹ	3
▁ਡਯੋਡ	3
▁ਪ੍ਰੇਗਨੇਂ	3
ਹਿਪ	3
੍ਰੇਸਟ	3
▁ਕੋਕੋ	3
ਚਾਹ	3
ੁੰਮਥਾਂਗ	3
ੰਬਰ	3
▁ਏਕਯੂ	3
▁ਫਾਸ	3
▁ਪਾਸਿਆ	3
▁ਬਿਲਡ	3
▁ਡੈਨ	3
▁ਕੋਲੋਸ	3
▁ਜੜੀਆਂ	3
ਯੁਗ	3
▁ਰੱਜ	3
▁ਅਜੈ	3
www	3
▁ਵਾਸ਼ਨਾ	3
▁ਤੁਹ	3
▁ਡ੍ਰੇਸ	3
▁ਖਿੰਨ	3
▁ਗਾਯ	3
ਜਿਕਲ	3
▁ਨਵਲਗੜ	3
▁ਪਛਤਾ	3
▁ਟੇਰ	3
▁ਸੁਹਾਵਣੀ	3
ਸ਼ਠਾ	3
▁ਸੰਥਾਲ	3
▁ਸਟੋਨ	3
ਯਲ	3
▁ਓੜੀਸ	3
ਾਉ	3
ਕੇਲਾ	3
▁ਊਂਘਦ	3
ਮੇਰੂ	3
▁ਬੀਹ	3
ਨਤਾਲੀ	3
▁ਚੁੰਮਦ	3
▁ਕੰਡਕਟ	3
ਛੂਆ	3
▁ਪੀੜ੍ਹ	3
ੇਨਬਰਗ	3
ੜਿਆ	3
▁ਮਾਊ	3
▁ਕ੍ਰੰਚ	3
▁ਕਲੇਸ਼	3
ਕ੍ਯੂ	3
ਨਰਤਕੀ	3
▁ਤਾਰਾਗੜ	3
▁ਦੱਖਣਪੂਰਬ	3
▁ਸਹਸਰਾਅਰਜੁਨ	3
ਪੈਨੀਮੱਠ	3
▁ਬਿਰਧਬਦਰੀ	3
▁ਚੱਪਾ	3
▁ਰਿਕਾ	3
▁ਸਾਈਲੀਸ਼ਿਆ	3
▁ਨਵੀਨੀਕਰ	3
੍ਰਾਬ	3
ਭਾਗਾ	3
ਪੈਕ੍ਰਿਆਜ	3
▁ਟਾਈ	3
▁ਰਾੱ	3
▁ਟੈਲਕ	3
ਫੁਲਕਾ	3
▁ਗੇਰ	3
ਪਰਾਜ	3
QTO	3
▁ਇੰਟਰਾ	3
▁ਪੇਲ	3
▁ਯਥਾ	3
ਪਹੁੰਚਦੇ	3
▁ਲੁਭਾ	3
▁ਸੁੱਕਾਪਣ	3
▁ਓਲੰਪ	3
ਲੂਣ	3
ਬਸਟਰ	3
ਸਮਰੱਥਾ	3
ਨੇੜੇ	3
ਿਤਵ	3
ਕੁਮਾਰਕੋਮ	3
▁ਮਾਈਸ਼ਚਰਾਈਜ	3
▁ਯੂਕੇਲੀਪਟ	3
ਤਾਂਬਰ	3
ਛੂ	3
ਸਵਕੁਟੇਨੀਅ	3
▁ਸਪੈਨ	3
▁ਮੈਲਿਸਾ	3
ਮੈਦ	3
▁ਲੋਕਕਥਾ	3
▁ਸਥੂਲ	3
ਪਾਲਣ	3
▁ਕੌਤੁਹਲ	3
▁ਐਕਸਪੀਡੀਸ਼ਨ	3
▁ਤੋਪਖਾਨ	3
EG	3
▁ਪਰਜਾ	3
▁ਸ਼ਾਂਤੀਪ੍ਰਿਯ	3
ਜ਼ਿੱਦੀ	3
▁ਸਜ	3
▁ਫੂ	3
▁ਸਿੱਧੀਆ	3
▁ਫਾਇਦ	3
ੰਸਾ	3
ਥ੍ਰ	3
ਕਚੰਦ	3
▁ਛੁੱਟਣ	3
ਵੱਧ	3
੍ਹ੍ਮ	3
▁ਟੋਕਰੀ	3
ਵਜਦੇ	3
ਉਲਲੂਰ	3
▁ਬੋਲਾਪ	3
ਟੋਨ	3
▁ਹਾਜ਼ਿਰ	3
ਫੋਰਟ	3
▁ਉਜਲ	3
▁ਬੰਬ	3
▁ਬਲਾਸਟ	3
▁ਅੱਤਵਾਦੀ	3
▁ਹਕੀਕੀ	3
ਸਥਾਨਾਂ	3
▁ਵਹ	3
▁ਡਰਮੇਟਾ	3
ਦਿਕਪਾਲ	3
ਂਖਰ	3
ਜੁਲਾ	3
▁ਚਪਾਤੀ	3
▁ਆਵਾਰਗੀ	3
▁ਸ਼ਲੈ	3
ਲਵ	3
▁ਸੇਡ	3
▁ਟ੍ਰੇਕਰ	3
▁ਕਾਇਦ	3
▁ਪਸੂ	3
ਟਾਸ	3
▁ਟੈਮਪਲ	3
▁ਬੀਮਾਰੀਆ	3
੪੩੪	3
▁ਯਾਯਾਵਰ	3
▁ਪ੍ਰਾਪਰਟੀ	3
ਚੁੰਗ	3
▁ਫ਼ੇਕ	3
▁ਤਾਜਮਹਲ	3
▁ਅਮੇ	3
ਕਾਮ	3
ਿਰੀ	3
▁ਨਿਵੇਸ਼	3
▁ਦਿੱ	3
ਨਿਸਤੇਜ	3
▁ਖੁਮਾ	3
▁ਅਭਿਯੰਤਾ	3
ਰੀਅਰ	3
▁ਊਸ਼ਣਕਟੀਬੰਅ	3
▁ਜੌਲੀ	3
▁ਦੂਹਰੀ	3
▁ਫਿਦਾਈ	3
▁ਘਟਾਉ	3
▁ਕਲੋਲ	3
ਸ਼ੋ	3
ਘੇ	3
▁ਕਾਂਕ	3
ਸਤੂਸ਼ਿਲਪ	3
ੜਾਂ	3
▁ਕਾਂਟੇ	3
▁ਬੇਸਟ	3
▁ਉਤਸ	3
ਾਰੂੜ	3
ਹੀਮ	3
ਜੇਕ	3
▁ਚਿਪਕਾ	3
▁ਪੋੜੀ	3
▁ਵਾਲਕਨੀ	3
▁ਟੈਂਕ	3
ਹਰਲਾਗੁ	3
ਦੂਸਰ	3
▁ਦਿੱਵਿਆ	3
▁ਰਕਤਵਾਹ	3
ਕੋਕਲੀਆ	3
▁ਕਾਰੋਬਾਰ	3
ਾਮਿਲ	3
▁ਸਿਕਨ	3
ਪਕ	3
ਸਟੋਰੈਂਟ	3
▁ਸਮੁਦਾ	3
ੀਜ	3
▁ਅਵਿਸ	3
ਣੀਯ	3
▁ਛੱਟ	3
ਲਸਾੜ	3
ਲਿਯੋ	3
▁ਚਾਮਰਾਜ	3
ਲਬ	3
ਮਪੇਨ	3
▁ਲੋਲੇ	3
▁ਮਾਊਥ	3
ੀਆਘਰ	3
ਅਭਿਆਸ	3
▁ਮੇਹਤਾ	3
▁ਮੁਸੰਮਨ	3
ਚਰਾਈਜਰ	3
▁ਸ਼ੁੱਧੀਕਰ	3
▁ਕ੍ਰਤ	3
ਪ੍ਰਾਕਿਰਤ	3
▁ਸਿਯਾਲਦ	3
▁ਨਿਜ਼ਾਮੁਦ	3
▁ਖਵਾਜ	3
▁ਬਖਤਿਆਰ	3
▁ਚਰਦੇ	3
▁ਨਾਮਨਾਥ	3
ਈਟਿੰਗ	3
▁ਚੇਲਿ	3
ਿਸੰਗ	3
▁ਕੇਦਰ	3
ਕਾਰਬ	3
▁ਵਿਖਾਉਣ	3
ਨੇਟ	3
ੌਤ	3
▁ਕਾਲੀਮਿਰਚ	3
ਝਰਨੇ	3
▁ਕਾਂਚੀ	3
ਖੱਟੀਆਂ	3
▁ਏਕੀਕਰ	3
▁ਅਨਾਦ	3
ਲਭ	3
▁ਬਣਾਉਦੀ	3
ਕਾਂਤ	3
▁ਸੁਸ਼	3
▁ਟਾਹਿਣੀ	3
ਸ਼ਮ	3
▁ਹਾਈਡ੍ਰੇਸਿਟਸ	3
▁ਲਖਾਂਗ	3
ਈਕਯੂ	3
ਰੇਟ	3
▁ਸੰਸਕ੍ਰ	3
▁ਕੋਨੀ	3
ਫਰਸ	3
ਵਾਉ	3
ਚੇਰੇ	3
ਫਟੀ	3
▁ਲਿਮਫ	3
ਰਾਇ	3
ਮਾਈਗ੍ਰੇਨ	3
ਣ੍	3
▁ਸਚਿਵਾਲਯ	3
▁ਬਿਤਾਇਆ	3
ਆਗਰਾ	3
▁ਲੁੜਕ	3
ਡਿਸਕ	3
ਸਫੋਟ	3
▁ਲਾਸ਼ਾਂ	3
▁ਲੇਯਰ	3
▁ਲਾਇਬ	3
▁ਨਿਰਵਿ	3
ਸ਼ੀਅਮ	3
▁ਪ੍ਰਵ	3
ਲੁਕਿਆ	3
▁ਜਾਇ	3
▁ਮੰਜ਼ਲੀ	3
▁ਸਾਦ	3
੍ਰ੍ਣ	3
▁ਮਛਵਾੜ	3
ਟਾਯਾ	3
▁ਆਉਣਗੀਆਂ	3
▁ਦਰਾਸ	3
▁ਰੁਦਰਨਾਥਜੀ	3
▁ਸਾਇਕਲ	3
▁ਭਰੀਆ	3
▁ਉਜੜ	3
▁ਉਛਲਦੇ	3
▁ਚੂਕ	3
▁ਲੀਵ	3
▁ਖੋਖਲ	3
ਾਇਜ਼	3
▁ਡਿਸਕੋਥਿਕ	3
ਡੀਹਾਇਡ੍ਰੇਸ਼ਨ	3
ਭਾਸ਼ੀ	3
▁ਨਕਸਵੋਮਿਕਾ	3
▁ਸਮੱਸਿਆਵਾ	3
▁ਚਾਣਕ	3
ੈਕਟਰ	3
੭੭	3
▁ਮੰਡਲਾ	3
▁ਖੰਡਵਾ	3
▁ਜ਼ਨਾਨ	3
ਟਾਪ	3
▁ਏਸ਼ਿਆ	3
ਕੋਰੀਆ	3
ਡੀਆ	3
ਲਾਓ	3
▁ਫਿਲਪੀਨਸ	3
ਸ਼ਤਰ	3
ਮੋਤੀਲਾਲ	3
▁ਵਲਰਡ	3
੮੨	3
ਰੇਂਜ	3
ਰੋਲੀ	3
▁ਬਰਗਾਮੋਟ	3
▁ਗਲਿਹਰੀ	3
▁ਪਸ਼ਿਚਮੋਤਤਾਨਾ	3
ਛਕ	3
▁ਯੂਨੇਸਕ	3
ਟੇਂਡ	3
▁ਨੋਜ਼	3
ਪ੍ਰਾਣੀ	3
▁ਕੂਰਮਾ	3
ਵਤਾਰ	3
▁ਇਮ੍ਯੂ	3
ੂਟੀ	3
▁ਪੁਨਾ	3
ਪ੍ਰਤੱਖ	3
▁੧੮੮੪	3
▁ਕੱਡ	3
ਪਾਵਾਗੜ੍ਹ	3
ਚੌੜਾ	3
▁ਵੈਭਵਪੂਰ	3
ਨ੍ਗ	3
▁ਤੀਖਣ	3
ਕਮਰੇ	3
▁ਲਾਮਜਾ	3
ੇਸਿਥ	3
ੋਫਾਈਲ	3
▁ਕਿਵਾੜ	3
▁੧੧੮	3
▁ਸਨਾਯੁ	3
ਸ਼ਾਰ	3
▁ਤਜਾਕਿਸਤਾਨ	3
ਮੁਗਧ	3
ਸਟੈਮ	3
ਟੀਨਾਇ	3
▁ਬਾਂਕੁ	3
▁ਗੁਗਲ	3
ੈਰਾਮਬ	3
▁ਬਨਣਾ	3
▁ਨਯੂਰ	3
▁ਮਲਬ	3
ਰੋਡ	3
▁ਕਾਮਨ	3
ਂਚਲ	3
▁ਫਿੱਕ	3
▁ਫੋਟੋਗ੍ਰਾਫਰ	3
੦੩	3
ਿਯੋਟ	3
▁ਸੰਦੇਸ਼ਵਾਹਕ	3
▁ਥਿਰਕਣ	3
ਪਿਤ	3
ਕਲਾਕਾਰ	3
ਢਾ	3
ਡੀਆਂ	3
▁ਡੋਂਗ	3
ਜ਼ੀਅਮ	3
▁ਅਨੁਸ਼ਾਸ਼	3
ਟਾਬੋਲਿਕ	3
▁ਹਿਚਕੋਲੇ	3
ਨਬਾੜੀ	3
▁ਜੀਲ	3
▁ਸਾਜਿ	3
ਫੇਅਰ	3
ਯਾਗ	3
ਫੋਨ	3
ਕਿਸਮਤ	3
ਬੇਚੈਨੀ	3
▁ਅਭਿਆਰ	3
ਲਾਂਕਣ	3
ਬਾਰਾ	3
▁ਲੋਹਾਰਖੇਤ	3
ਖੁਰ	3
▁ਰਾਮਕੁੰਡ	3
▁ਆਯੋਡਾਇ	3
▁ਸਿੰਜ	3
▁ਉਪਹੱਡੀ	3
▁ਚੋਤ	3
ਹਣ	3
ਰੀਨਾਥ	3
ਵਿਚਾਰ	3
▁ਨਾਮੋ	3
ਨਿਸ਼ਾਨ	3
▁ਨਿਪੁੰਨਤਾ	3
▁ਲਵੋਗੇ	3
▁ਕਛਾਰ	3
ਹੱਟ	3
ਸਿਲ	3
ਮਠ	3
▁ਵਿੰਟਰ	3
▁ਪ੍ਰੋਟੇਕ	3
▁ਸਟਰੈ	3
ੱਲੀ	3
▁ਪਲੱਸ	3
ਰਨੀਚਰ	3
ਨਾਤਮਕ	3
ੁਨੀ	3
▁ਊਂਟਾਧ	3
▁ਇਕਲਿੰਗ	3
▁ਨਿਕ	3
▁ਕਮਾਨ	3
ਬ੍	3
ਇਫੇਕਟ	3
▁ਮਾਨਚਿਤਰ	3
ਯੂਨ	3
▁ਕ੍ਰਿਸ਼ਨਾ	3
▁ਸਮੱਗਰ	3
ਹਿੰਦੀ	3
▁ਚਿਕਮੰਗਲੂਰ	3
▁ਹਾੱਸ	3
ਨਬੀ	3
ਲਿਯਾ	3
ਵਾੜੇ	3
ਥਰੀ	3
▁ਸ਼ੁਭਾਅ	3
▁ਕਾੱਨ	3
ੋਣ	3
ਅੱਗੇ	3
▁ਬਧ	3
ਰੋਜ	3
ਬਾਨ	3
ਚੌਲੀ	3
▁ਨਿਸ਼ਚ	3
ਟੋਜ਼	3
▁ਘੁੰਮਾ	3
▁ਬੁਝਾਉ	3
▁ਕਾਗ	3
▁ਸਪਤਾਹ	3
▁ਗਲੀਯਾਰ	3
▁ਕੁਰਜੇ	3
▁ਪੱਖਾ	3
ਜਾਂਦੇ	3
▁ਪਿਲਾਉਂਦ	3
ਵਾਯਰ	3
▁ਕਲਿਆਣਜੀ	3
▁ਜ਼ਰ	3
ਟੇਰ	3
ਸੜਨ	3
▁ਕਰਵਾਉਂਦੀਆ	3
ਲਤਾਵਾਂ	3
▁ਗਲੀਆ	3
ਇਸੇ	3
ਖਿੱਬਰ	3
▁ਅਪਿਤ	3
▁ਰਚਿਆ	3
ਸੋਮਨੀਆ	3
▁ਚਿਖਲਦਾਰ	3
▁ਪੌਦਿਆ	3
▁ਬੰਗਲੋ	3
ਕਾਲਕਾ	3
▁ਪੂਨ	3
▁ਆਰਥਰ	3
੍ਰ੍ਫ਼	3
▁ਮਾਈਸ਼ਚਰਾਈਜ਼	3
▁ਖਿੱਚਦੀ	3
▁ਸੂਬੇ	3
▁ਚੌਬੀ	3
▁ਆਪਣ	3
▁ਥਕ	3
▁ਰੈਨ	3
▁ਅਸਮੀਆਂ	3
ਜਾਇਨਾ	3
▁ਚਿਕਨਾ	3
ਟੋਆ	3
▁ਮੀਰ	3
▁ਨੀਲੂਫਰ	3
ਦਿਵਾਰ	3
ਖਾਉਣ	3
▁ਲੋਕਗੀਤ	3
▁ਕੈਸਿ	3
▁ਲਭਾਉ	3
ਰੀਜੈਂ	3
਼ਨ	3
▁੧੮੪	3
ਵਹਿਣ	3
ਗਲੌਰ	3
▁ਇਅ	3
ਗੱਡੀ	3
ਡਨਸ	3
▁ਵਧਾਊ	3
▁ਨਿਸਰਗੋਪਚਾਰ	3
ਰੇਲਾ	3
▁ਬਟੋਰ	3
▁ਨਜ਼ਰੀਆ	3
▁ਨੰਦਾਖਾਟ	3
▁ਛੋਟੀਆ	3
ਸੰਖਿਆ	3
▁ਸ਼ਾਹਪੁਰ	3
▁ਹਾਵ	3
ਹਕੀਮ	3
▁ਜਹ	3
ੁੱਧ	3
▁੧੮੭੯	3
ਰਵਾਰ	3
▁ਸਮਝੀ	3
▁ਅੰਡਾਣੂ	3
ਕਤਾ	3
▁ਮਿਯਾ	3
▁ਇੰਨਫਲ	3
ੁਇੰ	3
▁ਡਿਫਥੀਰੀਆਂ	3
▁ਫਲੇਕਿਸ	3
▁ਪ੍ਰਤਯਾ	3
▁ਸੇਵਕ	3
ਵਿਸ਼ਵਾਸ	3
▁ਸੰਜੋਇਆ	3
ਖੜੇ	3
▁ਕਰੋਧ	3
▁ਕਹਾਂਗੇ	3
▁ਖਿਸਕਣਾ	3
▁ਛੱਲ	3
ਖੰਘਦੇ	3
ਰ੍ਤ	3
ਤਲ	3
ਜਵਾਨ	3
ਸ਼ੇਛ	3
ਗੋਮੁਖ	3
ਹਲਕਾ	3
ਟੀਲ	3
ਰੇਟ੍ਰਮ	3
▁ਗੱਦ	3
▁ਲੱਜ	3
ਰਜ਼ੀ	3
▁ਰੇਡੀਉਧਰਮ	3
ਰੇਟਰ	3
▁ਡਸਟ	3
ਸੈਲਾਨੀਆਂ	3
ਯਾਯਨ	3
▁ਟੇਡਾ	3
▁ਭੁਗਤ	3
ੱਕਰੀ	3
▁ਕਲੇਰੀ	3
ਸੇਂਜ	3
▁ਐਂਠ	3
ਫ਼ਤੇ	3
ਸੋਮ	3
▁ਸੀਲੋਨ	3
ਪੁਸ਼ਟੀਕਾਰਕ	3
▁ਸ੍ਰੇਤਹ	3
ਅਧਿਐਨ	3
▁ਤਾਸ਼	3
▁ਜਰਮਨ	3
ਉਤਰਾਂਚਲ	3
▁ਔਸ਼ਦੀ	3
▁ਬਲੈਂਡ	3
▁ਆਇਨ	3
ਇੰਟਲ	3
ਸੂਰਜ	3
▁ਬਰਤ	3
ਾਨੀਆਂ	3
▁ਖੁਸ਼ਕਿਸਮਤ	3
ਸਟਾ	3
ਗਰਦਨ	3
੍ਹੀ	3
▁ਅਨਚਾਹ	3
ਜ਼ੀਲ	3
ੇਰੋਲ	3
▁ਚਟਾਨਾਰੋਹ	3
ਮੰਤਰ	3
▁ਹਿਸਪ	3
ਾਈਲਟ	3
▁ਆਧਿਕਤ	3
▁ਸਹਿਯਾਤਰੀ	3
▁ਦਸਤਾਵ	3
▁ਮੁਖੌਟ	3
▁ਮੁਕਤੀਧਾਮ	3
▁ਤੇਜੱਸਵ	3
ਚੁਰੇਟ	3
▁ਕਾਬ	3
ਰਾਂਸੀ	3
▁੧੯੨੦	3
▁ਪੁਨਰਜਨ	3
▁ਜਨਮਦਾਤਾ	3
ਸ਼ਾਈ	3
▁ਕੁਲਫ਼	3
▁ਹੁੰ	3
ਰਿਕ	3
▁ਵਭਿੰਨ	3
ਮੇਡੁ	3
ਪੁਲਾ	3
ਟਮਾਟਰ	3
▁ਸ਼੍ਰ	3
ਲੂਆਂ	3
ਸੋਨਾ	3
▁੧੩੪	3
▁ਯਾਟ	3
▁੭੪	3
ਬਲੇਸ਼ਵਰ	3
ਜੈਨ	3
▁ਚਾਂਡ	3
ਫਾਸ	3
ਿਲਹਾਲ	3
▁ਆਂਗ	3
▁ਹਾਈਡ	3
▁ਝਾਲਰਾ	3
▁ਮਰੇ	3
ਲੂਡ	3
▁ਨਾਗੌਰ	3
▁ਰਾਠੌਰ	3
ਹਣੀ	3
ੰਮੇਦ	3
▁ਆਂਕੜ	3
▁ਅਸਾਧਾਰਨ	3
▁ਕਲਕੱਤ	3
▁ਪੁਰਤਗਾਲ	3
ਖਾਵਾਂ	3
▁ਭੌਂ	3
ਯੁਰਵੈਦ	3
ਪਪੜੀ	3
ਾਪਿੱਲ	3
ਕੋਲੇਰੇਡੋ	3
ਬਲਮ	3
▁ਕਿਲਿ	3
ਇਤਿਹਾਸ	3
▁ਸਲੀਕੇ	3
▁ਜਿਹਨਾ	3
ਖਿਮ	3
▁ਇੱਡ	3
▁੧੬੫	3
▁ਮੁਨਾਫ਼	3
▁ਕੇਵ	3
ਾਕੀ	3
▁ਧਰਮਾਵਲੰਬੀ	3
▁ਅਬਦੁ	3
ਰੋਪਾ	3
▁ਕੋਪੇਨਹੇਗ	3
▁੨੨੦	3
▁ਉਪਲੱਬਧੀ	3
▁ਆਂਤ੍ਰ	3
▁ਕਾਰਬੋਵੇਜ	3
ਟਾਮੀ	3
ਸਾਈਟ	3
▁ਥੇਰਾਪਯ	3
ੂਟਿਕ	3
ਰਿਆਂ	3
▁ਸਦਰ	3
▁ਜਲਮੁਰਗੀ	3
▁ਕਿੰਗਫਿਸ਼ਰ	3
ਪੀਰੀਅਡਸ	3
ਉਤਰਾਈ	3
▁ਮੁਸ਼ਕਲ	3
▁ਵੁਵਕ	3
▁ਤਾਤਪਰ	3
▁ਵਕ	3
▁ਮਛੇਰ	3
▁ਮੂਲਤਃ	3
▁ਅਮੋਨੀਆ	3
ਯੂਰੇਟ	3
ਮਿਲੇਨੀਅਮ	3
ਹਾਂਸੇ	3
▁ਫੇਅਰ	3
ਰਿਟ	3
੍ਰੇਜੀ	3
▁ਅਰੁਨ	3
▁ਉਜਾੜ	3
▁ਅਣਵਾ	3
▁ਅਗਨਾਸ਼ਯ	3
▁ਲਹਿਲਹਾਉਂਦ	3
▁ਹਿਚਕ	3
▁ਇੱਕੀ	3
ਸਾਡ	3
▁ਰਿਸਾੱਰਟ	3
ਬੀਬੀ	3
▁ਅਸ਼ਵ	3
▁ਵਿਰੇਚਨ	3
ਸਵਾ	3
▁ਅਖਵਾਏ	3
▁ਤੈਲ	3
▁ਰੋਡਵੇ	3
ਿਯਾਲ	3
▁ਈਦ	3
▁ਵਰਸਾ	3
▁ਹਮ	3
ਡਿਨ	3
ਏਂਟ	3
ਣ੍ਗ	3
ਕ੍ਰਮਾ	3
▁ਬੋਡੋ	3
ਜੁ	3
▁ਅਹਿੱਲਿਆ	3
ਮਣੇ	3
▁ਪ੍ਰੋਸੈਸ	3
ਮੱਖਣ	3
▁ਤਿਕੋਣ	3
▁ਡੈਂਡ੍ਰਫ਼	3
ਕਿਜਮਾ	3
▁ਕੁਕ	3
▁ਪ੍ਰਚਾਰਕ	3
▁ਅਭੀਯਾਰਣ	3
▁ਰੌਸ	3
ਗੋਪਾ	3
▁ਜੀਵਕ	3
▁ਏਮੇਨ	3
▁ਫੋਰਮ	3
▁ਵਿਸ਼ੇਸ਼ਕਾ	3
ਵੀ੦	3
ਪ੍ਰਸਾਰ	3
▁ਮਦੁ	3
▁ਹਿਲਣ	3
ਲਾਵ	3
ਸ਼ਾਬ	3
▁ਤਾਈਪੇ	3
▁ਮਛਰ	3
ਕਰਮਣ	3
੭੯੫	3
੍ਦਾ	3
▁੫੮੦	3
▁ਫ਼ਰੈਚ	3
▁ਡਗਮਗ	3
▁ਗੋਦੀਬਾੜ	3
ਭਾਰੀ	3
ਪੂਰੀ	3
ੰਦਰਤੱਟ	3
ਜੀਓ	3
▁ਪੋਖਰ	3
ਪੈ	3
▁ਗੋਟੇ	3
▁ਸੰਦ	3
▁ਛੇਃ	3
ਮਸਜਿਦ	3
▁ਕ੍ਰਾਸਿੰਗ	3
▁ਵਾਈਰ	3
ਸ਼ਹਿਰ	3
ਲਗਣ	3
▁ਸਿੱਪੀ	3
ਸਿਲਪਡ	3
ੂਮਲਾ	3
ਸੁਰਾਖ	3
▁ਜੰ	3
▁ਕਲੇਜ	3
▁ਰੁਕਕੇ	3
I	3
▁ਰਸੀਲੇ	3
ਮਿੱਠ	3
ਕਥਨ	3
▁ਅਰੇਂਜਮੈਂਟ	3
▁ਡਲਹੌਜੀ	3
ੁੰਡੀ	3
ਚੰਬਾ	3
ਪਾਠ	3
▁ਕੰਧਾ	3
ਚੰਡੀ	3
▁ਯੌਂਗਤ	3
ੋਂਗਲ	3
▁ਘੰਟਿਆ	3
▁ਕੰਟਰਾਸੇਪ	3
▁ਚੁੱਭ	3
ਨਾਵਾਂ	3
ਵਾਇਜ	3
ਲਾਇਟ	3
▁ਵਿਦਿਆਰਥਣਾਂ	3
ਬਯਾਨਾ	3
ਰਬਲਤਾ	3
▁ਸਪੋਂਡਲਾਈਟ	3
ਚੋਟ	3
▁ਉਖਰੂਲ	3
▁ਚੂੜਾਚਾਂਦਪੁਰ	3
▁ਵਿਗੜਿਆ	3
▁ਨਾਰਵੇ	3
ਸ਼ਾਕਾਹਾਰੀ	3
▁ਬੰਦਰ	3
▁ਚੂੜੀਆਂ	3
▁ਤੱਤਕਾਲ	3
ਿੰਗਬਰ	3
▁੨੨੫	3
▁ਮਿਚਲਾਉਣ	3
▁ਅਸੰਤੁਲ	3
▁ਵੇਲਾਂ	3
▁ਰਕਤਦਾਤ	3
▁ਗਾਰਸ	3
▁ਸਵਯੰਭੂ	3
▁ਸਪੋਣਡੋਲਾ	3
ਕ੍ਰਮੀ	3
▁ਕੰਗ	3
▁ਪੈਦਾਇਸ਼	3
▁ਸੰਭਲ	3
ਕਾਰਾ	3
▁ਮਾਈਕਲਏਜ	3
▁ਮੁਸਕਰਾ	3
ੀਪਦਾ	3
ਵਰਗ	3
ਚਾਅ	3
▁ਛਰਹਰ	3
▁ਐਡਿਨ	3
ਾਈਡਸ	3
▁ਹੜਬੜ	3
ਾਪਨ	3
▁ਪੂੰਛ	3
ਊਲੀ	3
ਭਗ	3
▁ਕੁੜੀ	3
ਯੋਪੋਰ	3
▁ਮੱਲਾ	3
▁ਰੈਲੀ	3
▁ਸਾਜ਼	3
ਾਵਾ	3
▁ਪ੍ਰ੍ਤੀਬੰਧ	3
ਘਾਹ	3
ਬੀਸੀ	3
ਕੱ	3
▁ਡਰਾਈ	3
▁ਸਲੀਵਲ	3
▁ਲਗਾਊਣ	3
੨੭੩	3
▁ਵਲਡ	3
▁ਹਾਦਸ	3
▁ਉਪਕੇਂਦਰ	3
ੰਬਈ	3
▁ਬੱਤਖਾਂ	3
▁ਪਹਿਰਾਵਾ	3
▁ਤੁਰੇ	3
ਾਲਨਕਰਤਾ	3
▁ਬਦਰੀ	3
▁ਖਸ਼ਰ	3
▁ਖੌਲਦ	3
▁ਰੱਜੂ	3
▁ਸਾਈਕਲੋ	3
▁ਵਸਤੁ	3
▁ਸਪਿ	3
ਰਚੁਅਲ	3
ਸ਼ਿਵ	3
▁ਕੈਥਰੀਨ	3
▁ਅਹਿਜ	3
ਕਫ਼	3
ਨਟੇਸਟਾਈਨ	3
ੇਰਿਅਮ	3
ਤਾਨਾਸ	3
▁ਕਮਾਊ	3
ਬੜੌਦਾ	3
▁ਛੂੰ	3
ਫੀਟ	3
▁ਰੋਗਕਾਰਕ	3
▁ਐਂਟੀਆੱਕਸੀਡੇਂਟ	3
ਬੇਦ	3
ਕਾਨਫਰੰਸ	3
ਪਰਣ	3
ਲੀਨਮ	3
▁ਟੇਲ੍ਯੂਰਿ	3
▁ਦਸਤਕ	3
▁ਰੋਹਡ	3
▁ਫੁਲਾ	3
ਕਾਲਜ	3
▁ਨਿਉ	3
▁ਕਿਲਕ	3
▁ਸਾਸਣ	3
ਬਰਸ	3
▁ਹਾਈਪੋਗਲ	3
ੇਮੀਆ	3
▁ਸ਼ੋਅ	3
▁ਕਾਲੇਸਟੇਰਾ	3
▁ਆਹ	3
▁ਸੁਭ	3
ਰਾਊਨ	3
▁ਐਕਵ	3
▁ਅੰਨ੍ਹੇ	3
▁ਪ੍ਰਜਾ	3
▁ਹੈਂਡੀਕ੍ਰਾਫ	3
ਸਿਟ	3
▁ਆਈਆਰਸੀ	3
▁ਰੈਡੀਏਸ਼ਨ	3
▁ਕਲਾਇਨ	3
▁ਗਰਭਸ਼ੈਅ	3
▁ਫਿਲੀਪ	3
ਕੋਪ	3
▁ਸ੍ਵ	3
ੈਰ	3
▁ਸਨਾਤਕੋਤ	3
ਨਜਰ	3
▁ਪਾਣਡੂ	3
▁ਛਿਟ	3
▁ਗ੍ਰਾਸ	3
▁ਮਾਧੋ	3
▁ਗਿੜਕ	3
▁ਸੰਧ	3
▁ਠਹਿਰੋ	3
▁ਅਨਜਾਨੀ	3
ਸ਼ੀਅ	3
ੜਿਆਂ	3
▁ਗਾਇਨ	3
ਕੜੇ	3
▁ਲੈਕਟ	3
▁ਲਾਈਵ	3
ਪ੍ਰਸਾਦ	3
ਲਗਾਮ	3
▁ਪਿੱਤਾ	3
▁ਕਿਲੋਮੀ	3
▁ਚਾਂ	3
▁ਭੂਚਰ	3
▁ਕੀਮੋਥ	3
ਾਟਕ	3
▁ਚੋਗ	3
▁ਘੁੰਮਕੇ	3
▁ਚਿਪਕੀ	3
▁ਗੜਵਾਲੀ	3
▁ਪਾਲੇ	3
▁ਦੁਹਰਾਉ	3
ਲੋਂਗ	3
ਤਲੀ	3
▁ਪਾਲਾ	3
ਣੋ	3
▁ਪਰਸ਼ਿਸ਼ਨਿੱਕਟਵ	3
▁ਵਸੂ	3
ਸ਼ਰਣ	3
ਮੀਆਂ	3
ਫੇਲ	3
▁ਖਾਵੇ	3
▁ਅਜਾ	3
ਗਰਬਾ	3
▁ਸੋਕ	3
ਪੋਸਟ	3
▁ਕੋਰੇ	3
ਡਾਂਡੀ	3
ਦੱਖਣੀ	3
▁ਨਿਗਾਹ	3
▁ਸੈਟਾਈਵਾ	3
▁ਮੁਰਕ	3
▁ਖਤਿਜ	3
▁ਪੁਲਗਾ	3
ਬੈਸਡ	3
ਹਿਲਾਉਂਦ	3
ਨਿਰਵਾ	3
▁ਦਾਵਤ	3
▁ਬਿਛ	3
▁ਮਣਿ	3
▁ਘੁਲੇ	3
▁ਟੈਬਲੈ	3
ਫਨ	3
▁ਟਪਕਦ	3
ਚਿਨਸ	3
ਾੱਲਜ	3
▁ਪਰਬਤਲੜੀ	3
▁ਕੰਨੜ	3
▁ਬਾਵੜੀ	3
▁ਰੁਕਦੀ	3
ਲਪਕੇ	3
▁ਝਪਟ	3
ਇੰਪਾਲਾ	3
▁ਪਾਂਡੀਚ	3
▁ਗਯਾਲ	3
ਗੀਰਦਾਰ	3
▁ਸ਼ੇਤਰ	3
▁ਪ੍ਰ੍ਸਤੁਤ	3
▁ਫ਼ਿਨਾ	3
ਲਿ	3
ਨਾਇਨ	3
▁ਥਿਓ	3
ਪਾਪਾ	3
ਨਰੀ	3
▁ਸਾਂਝੇ	3
▁ਵਿਸਮ੍ਯ	3
▁ਸਕਰਵ	3
▁ਤੁਰਕਾ	3
ਕ੍ਰ	3
▁ਦਾਇਰਾ	3
▁ਤਾਮਰ	3
▁ਰਾਜਵਾੜਾ	3
ਿਨਾਥ	3
▁ਪਿੰਝ	3
▁ਬ੍ਰੋਕਾਟਿਸ	3
▁ਅੱਧੀਆਂ	3
੪੬	3
ਪਪੂਰ	3
▁ਪੱਯ	3
▁ਹੌਟ	3
▁ਆਈਪੀਐੱਸ	3
▁ਪੇਰੂ	3
ਰੋਪ	3
ਪੇਂਡ	3
▁ਰਤਨਾ	3
▁ਲਾਮ	3
ਪੋਖਰ	3
▁ਇਥ	3
▁ਐਸੀਟ	3
▁ਵਿਨਮ	3
ਪੀਪਾਕ	3
ਟੰਗ	3
▁ਦੁੱ	3
▁ਫਿਲਾਡੇਲਿਫ	3
▁ਸੰਗਠ	3
▁ਸਦ	3
▁ਫਲੈ	3
▁ਅਧਿਐਨਕਰਤਾ	3
ਫਿੰਸੀ	3
▁ਦਈਏ	3
▁ਬ੍ਰੈਂਡ	3
▁ਮੁਸ਼ਪਿ	3
ਪਲੰਗ	3
▁ਪੋਤੇ	3
ਬੀਕਾਨੇਰ	3
ਦੇਵਕੁੰਡ	3
▁ਸੁਤੰਲ	3
ਿਗ	3
▁ਯੋਧਾ	3
▁ਅਵਰ	3
▁ਪ੍ਰਵਿਸ਼ਟ	3
▁ਮੁਸ਼ਕ	3
▁ਪੁਰਾਤੱਤਵਾਦੀ	3
▁ਮੀਨ	3
▁ਕਮਾਉਣ	3
▁੧੮੬	3
▁ਇੰਗ	3
▁ਚਤਰਭੁਜ	3
ਫਰਵਰੀ	3
ਨਾਸ਼ਤ	3
▁ਅਨੰਗ	3
ੰਦੂਰ	3
ਿਗਿਆਨ	3
ਟ੍ਰਾਈਮ	3
ੇਸਟਰ	3
▁ਅਸੁਰ	3
ਦੱਸ	3
▁ਟ੍ਰੈਂਕ	3
ਪਾਦਾਂਗੁਸ਼ਠ	3
▁ਰੇਸਟੋਰੇਂਟ	3
▁ਪਾਈਰੀਆਂ	3
▁ਪਬ	3
ਾਗੜ	3
▁ਸਿਧੇਸ਼ਵਰ	3
▁ਸਿੰਪ	3
▁ਮਨਚਾਹ	3
▁ਘਟਾਉਂਦ	3
ਅਗਰਵਾਲ	3
▁ਆਨੁਵਾ	3
▁ਯਮਨ	3
▁ਢੋਣ	3
ੱਸਿਆ	3
▁ਭੇਜੀਆਂ	3
ਸੇਵਾ	3
▁ਟਪਕਾ	3
▁ਸੇਲੀਨ	3
ਾਲਿਆਂ	3
▁ਡਾਲਿਫ਼ਨ	3
▁ਹੰਟ	3
ਿਲਯ	3
ਕਿਵਟ	3
ਲੇਅਰ	3
ਸੋਸ	3
▁ਬੈਠਦੀ	3
▁ਲਾਲਟੈਨ	3
▁ਚਿੱਤੜ	3
▁ਸੇਂਚ	3
▁ਰੋਕਣਾ	3
▁ਸੋਮੇ	3
ਿੰਟ	3
▁ਪਿਰ	3
▁ਤੈਹ	3
▁ਕੋਸ਼ੀ	3
▁ਆਮਾਸ਼੍ਯ	3
▁ਪੀਪਲ	3
ਨਬਰਗ	3
▁ਕਲਚੁਰੀ	3
ਕੀਰਤਨ	3
▁ਕੂਤ	3
▁ਨਾਸਿਰ	3
ੂਡ	3
▁ਐਂਟ੍ਰ	3
▁ਪਾਇੰਟ	3
▁ਪਹੜ	3
▁ਡਿੱ	3
▁ਜੈਕਾਰ	3
▁ਗੰਗੇ	3
▁ਥਰਮ	3
▁ਪੰਡਾਲ	3
▁ਰੈਫ਼ਰ	3
▁ਛਾਨ	3
▁ਸ਼ਵੇਤ	3
ਗ੍ਰੈ	3
▁ਡਰਨਾ	3
ਦੰਦ	3
▁ਬੁਖ	3
ਸਥਾਨਕ	3
▁ਪਰਬ	3
▁ਖੁਜ	3
ਗਹਿਰੇ	3
ਡਾਈਵਿੰਗ	3
▁ਨਵੀ	3
▁ਭੱਜਣ	3
ਸਿਨਥ	3
ਬੇਸਿਲ	3
▁ਮੀਨੋਪਾਜ	3
▁ਭਾਅ	3
ਸਟੇਥੇਸਕੋਪ	3
ਓਟ	3
▁ਰੋਮਾਂ	3
▁ਦਾਣਿਆ	3
▁ਬੁਕ	3
▁ਉਗਲਦ	3
ਭਰੀਆ	3
▁ਹਸਤਮੈਥ	3
ਬੁ	3
ੱਡਾ	3
▁ਸ਼੍	3
ਰੰਖਲਾ	3
ਲੀਯਨ	3
▁ਇਸ਼ਟ	3
▁ਟਯੁ	3
ਟੇਕਟ	3
ਲਾਦੇਵ	3
੧੯੯੪	3
▁ਰੇਡਿਕਲਸ	3
▁ਮੇਹਰਾ	3
ਗਾਮਾ	3
▁ਵਿਰਧ	3
▁ਪਰਵਤ	3
▁ਸ਼ਿਸ਼	3
▁ਮੌਢ	3
▁ਮਾਓ	3
▁ਮਾਰੂ	3
ੁਲਸ	3
▁ਦਸਤਕਾਰੀ	3
ੈਨਿਨ	3
ਜੀਜ	3
▁ਗਿਆਰ੍ਹਾ	3
▁ਜਾਓਂ	3
▁ਕ੍ਰਿਸ਼ਨਾਬਾਈ	3
ਸ੍ਥਿਤ	3
ੈਂਟਲ	3
ਅਕਾਰ	3
ਵਿਲੰਬ	3
ਵਰਧਨ	3
▁ਹਿਰਦੇਸ਼ੂਲ	3
▁ਫੋਰਸੇਪਸ	3
▁ਕਾਰਬਾਲਿਕ	3
ੋੜ	3
ਸਟੇਡ	3
▁ਰਾਸ਼ਟਰੀਅਤਾ	3
▁ਸੂਲ	3
▁ਮਰਾਯੂਰ	3
ਊਚਰਸ	3
▁ਭੱਦਰ	3
▁ਜਲਧ	3
ਿਅਤ	3
▁ਮਿੰਤ	3
ਸਿਪ	3
ਖੇਤ	3
ਦਰਖਤ	3
▁ਸ਼ਿਕਾ	3
▁ਸੈਲਸ	3
ਨਾਸੋ	3
▁ਅਫੀ	3
▁ਫ਼ਿੰਸੀ	3
ਯਮਬ	3
ਤੇਜ਼	3
▁ਸੁਝਾ	3
▁ਟੇਸਟੀ	3
▁ਮਾਨੀਟਰ	3
ਸਦਾ	3
ੂੜੇ	3
▁ਜ੍ਯ	3
ਸਾਤਵਾਹਨ	3
ਜੋਨਾ	3
ਚਰੀ	3
▁ਹਰਨ	3
ਸਫੈਦ	3
ਗੋਰੋ	3
▁ਫ਼ਿੰਨਸੀਆ	3
ਰੀਚਾਰਜ	3
ਯੰਗ	3
▁ਬਾਵਲੀ	3
▁ਸਚ	3
ਵਾਣ	3
ਰਾਧਿਕਾਰੀ	3
▁ਅਣਨਿਯੰਤਰ	3
▁ਹਿਲਣਾ	3
ਹਿਮ	3
ਗਵਾਨੀ	3
▁ਚੋਖੀਢਾਣੀ	3
▁ਘੁਮ	3
▁ਰਿਹ	3
▁ਸਮੋਕ	3
▁ਲਾਚਾਰ	3
ਮਾਤ	3
ਓਸ	3
▁ਬੋਲਾਡੇਨਾ	3
▁ਦੇਵਰਾਈ	3
▁ਕਿਰਚਣ	3
▁ਵੈਰ	3
▁ਵੇਖੀਆ	3
▁ਜੇਠ	3
▁ਕੋਹਰ	3
ਪੁਲਟਿਸ	3
ਥਾਰ	3
ਜੰਪਿੰਗ	3
▁ਮਸਿਤ	3
▁ਏਸੀ	3
▁ਆਦਾਨ	3
▁ਤੁਤਲਾਉਣ	3
▁ਹਕਲਾਉਣ	3
ਸਿਫ	3
▁ਤੁਰਕ	3
੍ਯਾਵ	3
▁ਪ੍ਰੇਸ	3
ੋਨੋਮਾ	3
▁ਡੂਘਾ	3
ੱਸ਼	3
▁ਮੌਲ	3
▁ਇਡਲੀ	3
ਸ਼ਮਾਂ	3
▁ਵਾਪਾਰ	3
▁੭੬	3
ਸਤਾਨ	3
ਪੱਥ	3
▁ਚੌਸਿੰਗ	3
▁ਮੇਢ	3
▁ਕੇਸਰੀ	3
▁ਮਹਾਂਨਦੀ	3
▁ਮਾਫੀਆਂ	3
▁ਆਂਤਰਾਸ਼ੋਥ	3
▁ਫ਼ਾਲਸ	3
▁ਅਣਥ	3
ਡਿਜੀਟੇਲਿਸ	3
▁ਜਯਾਮਿਤੀ	3
ਬੇਲਾਡੋਨਾ	3
▁ਕੁਕਰ	3
▁ਕਨਾੜਾ	3
ਭਾਵਨ	3
▁ਛਿਨ	3
▁ਲਵਰਸ	3
ਲੁਕ	3
ਇੱਛਾ	3
▁ਭਸ਼	3
ਕ੍ਰਿਸ਼ਣ	3
ਾਜ਼	3
▁ਉਡਾਉਂਦ	3
▁ਝਾਕੀਆਂ	3
ਬੀਟੀ	3
▁ਖਰਬੂਜ	3
ਟ੍ਸ	3
▁ਕਲਾਈਮਿਬ	3
▁ਐਜਿਯੋ	3
ਖੁ	3
ਗੋਰ	3
▁ਪ੍ਰਤੀਰੱਖਿਆ	3
▁ਕੈਥਲ	3
▁ਮ੍ਯੂਕੋਸਾ	3
▁ਸਬਕ	3
▁ਬੁਰ	3
▁ਕਤਲ	3
ਘੋੜੇ	3
▁ਊਦੈ	3
▁ਰਾਜ਼	3
▁ਗਲੋਬਲ	3
▁ਗਣਗੌਰ	3
ਜਿੰਕ	3
ਬੋਰ	3
▁ਸੈਲਨੀ	3
ਝੀ	3
▁ਸ਼ਿਰੋਮਣ	3
ਹੁਲ	3
▁ਪਲਮੋਨ	3
▁ਲਾਉਂ	3
ਆਰਾ	3
ਪੱਖ	3
ੁਸ਼	3
▁ਆਤੰਕਵਾਦ	3
ਚਿਆਂ	3
▁ਕਾਊਂਟ	3
▁ਮੁਨਸ	3
ਿਆਰੀ	3
ਲੀਆ	3
ਫੀ	3
▁ਖਰੀਦਿਆਂ	3
ਸਿੱਧ	3
▁ਕਾਮੇ	3
ਬਾਰਕ	3
▁ਗਿਣਨ	3
ਨਾਂਦੇੜ	3
▁ਮਾਪਦ	3
▁ਚਮਤਕ	3
ਕਕਾੜ	3
▁ਡਾਂਗ	3
ਸਬਜ਼ੀ	3
ਤ੍ਰਿਪਤ	3
▁ਧਨੁਸ਼	3
ਬ੍ਰੇਰੀ	3
▁ਫ਼ਟਕ	3
ੋਕੋਕ	3
▁ਬੋਰਡੀ	3
ਵਾਹ	3
▁ਜਖਮਾ	3
ਧੀਨ	3
▁ਰੈਡਿਕਲ	3
ਫ਼ੇਰ	3
▁ਬੜਾਵਾ	3
▁ਲੀਕ	3
ਲੇਕਿ	3
▁ਫ਼ੜ੍ਹ	3
▁ਏਸ਼ਮੋਲ	3
ਐਸ	3
▁ਅਨਿਸ਼ਚਿਤ	3
▁ਲਖੀਮਪੁਰ	3
▁ਸ਼ੇਅਰ	3
▁ਤਜਰਬੇ	3
▁ਤਾਲੁਕ	3
ਕੌਫ	3
▁ਅਲੰਕਾਰ	3
▁ਇਮੇਜ	3
ੰਪੂ	3
ਹੈਲਮਟ	3
ਪੁਰੋਹਿਤ	3
▁ਐਕਯੂ	3
▁ਪ੍ਰੇਮੀਆ	3
▁ਡਾਲ	3
▁ਡਿਪ੍ਰੇਸ	3
ਕਦੰਬ	3
▁ਤਾਅਲੁ	3
▁ਫੁਲਣ	3
▁ਪਤੰਗ	3
▁ਅਜਮਾ	3
▁ਛਟਪਟਾਉ	3
ਧਿਅਮ	3
▁ਭੌਂਕਣ	3
ਗਣੇਸ਼ਜੀ	3
▁ਥ੍ਰਿਲ	3
▁ਚਾਹੋਗੇ	3
▁ਅਬਲੇਸ਼ਨ	3
ਸਮਝਣ	3
▁ਬਾਬੀ	3
▁ਸਪਲੀਨ	3
▁ਅਰਣ	3
▁ਝੰਜਟ	3
ਟੀਜ	3
ਰਮਾ	3
▁ਡੀਜ਼	3
ਸੁਪਰ	3
▁ਆਪਰੇਟਰ	3
▁ਘਬਰਾਉਂਦ	3
▁ਡਾਇਗਨੋਸਿਟ	3
▁ਮਾਈਕ੍ਰੋਵੇਵ	3
▁ਸਟ੍ਰੇ	3
▁ਪਿਪਰਿਆ	3
ਁਲ	3
▁ਯੋਜਨਾਕਾਰ	3
ਟੋਲਾ	3
▁ਸਾੜੀ	3
▁ਸਟੈਚ	3
▁ਪਰਬਤਆਰੋਹ	3
ਫ਼ਿਟ	3
ਛੜਿਆ	3
ਸਪਤੀ	3
▁ਸਾਈਕੋਲਾਜਿਸਟ	3
ੈਦੀ	3
▁ਮੈਦਾ	3
▁ਵਿਗਰਹ	3
▁ਸੁੱ	3
▁ਸੁਣੀ	3
▁੪੧੪	3
▁ਵੱਲਭ	3
▁ਸੰਤੋਖ	3
▁ਅਮੀਤ	3
▁ਬਦਲੀ	3
▁ਵੈਸਾ	3
▁ਸਿਫ਼	3
▁ਤਾਵਾਂਗ	3
ੈਣੀ	3
▁ਸਲੀਪਰ	3
▁੧੧੦੦	3
▁੧੯੧੭	3
ਭਵਨ	3
▁ਸੰਰਛ	3
▁ਵਿਕਾਰਾ	3
▁ਧਸਣਾ	3
ਜਾਰਾ	3
ਨਪੁੰਸਕਤਾ	3
▁ਸਥਾ	3
ਯਾਕ	3
ਸਟਰਡ	3
▁ਸੇਟ	3
▁ਸਵਤ	3
▁ਮਿੰ	3
▁ਇੰਨ੍ਹੇ	3
▁ਏਪਿਸ	3
ਕਾਮਯਾਬ	3
ਲੇਡ	3
▁ਟੁਕੜੀਆਂ	3
▁ਸਪੂਨ	3
▁ਸਵੇਤ	3
ੌਂਸਲ	3
ੋਸਕੋਪੀ	3
ਕਾਲੋਸਿ	3
▁ਗਲੈ	3
▁ਬੱਤਖ	3
▁ਚੈਤੀ	3
ਹੰਸ	3
ਟੋਰਾ	3
ਪਲੈਕਸ	3
ੋਰਾਂ	3
▁ਪੜਵਾ	3
ਂਚੁਰੀ	3
▁ਉੱਤਰਨ	3
ਹੋਸਟ	3
▁ਵਿਛੜ	3
▁੧੯੩੧	3
▁ਅਣਜਾ	3
ਟੁਕ	3
▁ਪਿਗਮੈਂਟ	3
ੈਕਟਿ	3
ੋਜੇਨ	3
▁ਅਭਿਐਨ	3
▁ਹਾਈਪਰਗਲਾਈਸ	3
▁ਜੋੜਦੀ	3
ਸ਼ਲੀਲ	3
ਿਜ	3
▁੧੦੩੦	3
ਟਾਨਗਰ	3
▁ਆਮਦ	3
▁ਪ੍ਰ੍ਸੰਗ	3
ਰੰਡੀ	3
▁ਪੱਠ	3
੭੩	3
▁ਕੈਪਿਸਕਮ	3
▁ਮਰਦਾ	3
▁ਸਰਵੌੱ	3
▁ਕਾਰਨਾਮ	3
ਰਜੇਂਟ	3
▁ਕਟਕ	3
ਸਦੀ	3
▁੧੫੬੫	3
▁ਸਿਨੇਮ	3
▁ਪੈਦਲਯਾਤਰਾ	3
ਊਰ	3
▁ਉਕਸਾਉਂਦ	3
ਾਤੰਰ	3
ਗਾਂ	3
▁ਲਵੇਗਾ	3
ਕਸੌਲ	3
▁ਸੜੀ	3
ਫੇਰ	3
▁ਚਿਨ੍ਹ	3
ਲੈਮਨਗਰਾਸ	3
▁ਰੈਥਲ	3
▁ਦ੍ਯਾਰ	3
੯ਃ	3
ਵਾਈਡ	3
ਸੁੱਖ	3
ਕਾਰਟਿਕੋਸਟੇਰਾਈਡ	3
ਇਫੈਕਟ	3
▁ਭੋਜਵਾਸਾ	3
▁ਗਲੂਟਾ	3
▁ਗੁਲਮ	3
ਛਾਂਟ	3
▁ਸੁਰਭੀ	3
ਿਊਲਰ	3
▁ਡਿਜ਼ਾਈਨਰ	3
▁ਪ੍ਯੂ	3
▁ਚੌਗੁਣ	3
ਤੇਜੂ	3
੍ਰਾਗਿ	3
▁ਵਿਵਸਥ	3
▁ਪਸ਼ਮੀਨਾ	3
▁ਚੁੱ	3
ਰੇਂਟ	3
ਯੂਨਿਟ	3
ਸੰਪੰਨ	3
▁ਬੰਗਲੂਰ	3
▁ਹੱਡੀਆ	3
ੇਡੋ	3
ੂਲਮ	3
ਸਟਿਕ	3
▁ਸੰਚ	3
ਕੋਸ਼ਟ	3
▁ਰੋਕਦੀ	3
੧੯੦੭	3
▁ਸਲਾਹੁਣ	3
ਲਿਨਨ	3
ੰਗਣ	3
▁ਸ਼ਿਵਗੰਗਾ	3
ਸੰਦਕਫੂ	3
▁ਉਪਾਪਚ	3
▁ਕੁਸ਼ਾ	3
▁ਰਜੋ	3
ਸ਼ਸ	3
ੱਕੇਡ	3
▁ਪ੍ਰਾਇਦੀਪ	3
▁ਝੁਕਾ	3
ਮੰਥ	3
ਫ਼ਟ	3
ਂਟੇਨ	3
ਵਿਧੀ	3
▁ਭੂਗਰਭ	3
ਗ੍ਰੰਥੀ	3
▁ਥੌੜ	3
ੁਕਾਓ	3
▁੬ਃ	3
▁੧੦ਃ	3
▁੨ਃ	3
ਇਰਵਿਕੁ	3
ਨਿਧਿ	3
▁ਬੱਤ	3
▁ਵੇਖਦ	3
▁ਅੰਦੋਲਣ	3
ਯਾਨੀ	3
ੋਨਾ	3
▁ਲੂ	3
▁ਪ੍ਰਭਵ	3
▁ਰਾਮਾਕ	3
ਲਮੇਡ	3
▁ਟਰਾਈ	3
▁ਹਲਕਾਪਣ	3
ਕੁਨੀਨ	3
▁ਤਿਰੁਵ	3
▁ਟ੍ਰੋ	3
ਪੈਠ	3
▁ਪਹਿਚਾਨਣਾ	3
ਸਟੇਰਾਈਡ	3
ਕੋਸਟੇਰਾਈਡ	3
▁ਡੇਕਸਾ	3
ਲੋਨ	3
ਕੋਰਟੀਸੋ	3
ਤੁਮਕ	3
▁ਐਕੀ	3
ਜਮਾ	3
▁ਹਿਲਾਉਂਦ	3
▁ਵਾਹੀ	3
▁ਜੈਲੀ	3
ਛਣ	3
▁ਰਿਪੇਅਰ	3
ਸਟੇਂਟ	3
▁ਜਬਲ	3
▁ਟਰੱਕ	3
▁ਬਾਹਯ	3
ਘਣ	3
ਪਾਊਂਡ	3
ਕਿਓਰ	3
▁ਕਮਾਂਡਰ	3
▁ਕੈਨੇ	3
ਧੁੰਦ	3
▁ਚੰਪਾਨੇਰ	3
▁ਚਲੋਗ	3
ਗਣੇਸ਼	3
▁ਵਿਸ਼ਵਵਿਦਆਲਿਆਂ	3
ਿੱਖਿਆ	3
▁ਸੇਵਕਾਂ	3
▁ਕੁਸ਼ਾਣ	3
▁ਮਿਲੋ	3
▁ਲਮਜਾ	3
▁ਫੰਡਾ	3
ਉਦੀਨ	3
▁ਸੁਮਿਤ	3
▁ਤੁਲ	3
ਬੁਖਾਰ	3
▁ਸਪਰੀਲ	3
▁ਫ਼ੈਲਦ	3
▁ਐਲੀਫ	3
▁ਹਕੀਕ	3
▁ਹੁਸ਼ਿਆਰ	3
੨੫੨	3
▁ਆਰਟੀਫਿਸ਼	3
▁ਟਿਸ਼ੂਜ	3
▁ਮਿਯੂਕੋ	3
▁ਕੈਰੇ	3
ਲੇਮੀ	3
ਫ਼ੂ	3
▁ਮਾਰਕੰਡ	3
ਫ਼ਤ	3
▁ਸੋਮਯ	3
▁ਸਧਾਰਣਃ	3
▁ਵਿਸ਼ਵਪੱਧਰ	3
ਭਜਨ	3
ਸ਼ੰਕਾ	3
ਗਤੀ	3
▁ਜਲਸੇ	3
ਥਰ	3
ਸੂਟਕੇਸ	3
▁ਵਰਜਿ	3
▁ਸਰਫ਼	3
ਜਿਹੇ	3
▁ਰਿਸ਼ਤ	3
▁ਵਿੱਦਿ	3
ਚਾਨਣ	3
ਜ਼ੋਰੀ	3
▁ਵਿਨੋਦ	3
▁ਡਾਈਬਿਟ	3
ਊਮਰ	3
▁ਛਲਿਆ	3
▁ਕਾਫ਼ਿਲ	3
ਚਿਨ੍ਹ	3
▁ਅੰਨਪੂਰਣ	3
▁ਵਰਟ	3
ਿਗਾ	3
▁ਸੰਬ	3
ਯੁਰ	3
▁ਮੀਨਮੁ	3
▁ਟਾਹਣੀ	3
▁ਗਿਰਗਿਟ	3
▁੧੮੩	3
▁ਸਿਮਲ	3
ਚਿੰਗ	3
ਰਗ	3
▁ਆਈਡੀਆ	3
▁ਨੌਕਾਰੋਹਣ	3
▁ਵੋਦ	3
ਜੋਰੀ	3
▁ਕਮਿਸ਼ਨ	3
▁ਧਨੇਸ਼	3
ਲੀਫ਼	3
ਸੀਨਾ	3
ਲੀਥ	3
ਵੀਨ	3
▁ਭੁਲਾਇਆ	3
▁ਖਾਤਮ	3
▁ਦਾਨਵੀਰ	3
▁ਆਈਕ	3
ਰਾਇਡ	3
ਆਰਥਰਾਈਟਸ	3
▁ਗਠੜ	3
▁ਖੱ	3
ਖੜੀ	3
ਗੋਭੀ	3
ੈਟ	3
▁ਕੈਲਾ	3
▁ਲੁਕਾਛਿਪੀ	3
ਤਰੂਜੈ	3
>	3
▁ਭੂਸੀ	3
▁ਲੇਟੇ	3
▁ਰਾਮਬਾ	3
ਬਾਂਦਰਪੂਛ	3
ਹਿਯਾਤ	3
▁ਫ਼ਫ਼ਾਰ	3
ਲਾਈਟਿਸ	3
▁ਕਟਨੀ	3
▁੯੨	3
▁ਤੇਜ਼ਪੁਰ	3
ਾਰਕ	3
ਯੋਨੀ	3
▁ਗਰਭਾਸ਼ਯ	3
▁ਹਾਈਪਰਟ	3
ਰੇਕਟ	3
▁ਪੇਲਿ	3
▁ਕੁਕੀਜ	3
ਤਿਆ	3
▁ਮੋਨੇਸਟ	3
ਖੱਟੀ	3
ਮੌਸਮੀ	3
▁ਕਨੈ	3
▁ਥਪਕ	3
ਧਮਨੀ	3
▁ਕਾੱਸਮ	3
▁ਪਿਯੂ	3
ਖੀਮੱਠ	3
ਿਲਾਂ	3
ੇਲੀਨ	3
▁ਬਾਰਾਦਰੀ	3
▁ਦਰਭੰਗਾ	3
▁ਹਿਰਦਾਵੇਸ਼ਟਨ	3
ਪਲਾ	3
▁ਮਹਾਲੱਛਮੀ	3
▁ਮੈਕਲੁਸਕੀਗੰਜ	3
ਛੀ	3
ੱਤਵ	3
▁ਕੁਟ	3
ਹਿਮਾਚਲ	3
ੰਜ਼ੀਰ	3
ਸਟੈਟ	3
▁ਮਵੇਸ਼ੀ	3
▁ਪੈਨਾ	3
ਥਿ	3
ਠੀ	3
▁ਚਿੱਠੀ	3
▁ਮਸੂਰ	3
▁ਸ੍ਰੇਸ਼ਠ	3
▁ਉਅਸ	3
▁ਮਿਨਾਰ	3
ਾਪਣ	3
ੁਲਰ	3
ਮੋਰ	3
ਕਾਰਨ	3
ਫੁਲਾ	3
▁ਬ੍ਰ੍	3
ਭਾਅ	3
ਵੇਗੀ	3
੯੦੦	3
▁ਅਰਧਮੰਡਪ	3
▁ਫੋੜ	3
ਰਬਾਦ	3
ਏਗਾ	3
ਜਮਟਾ	3
▁ਅਜੀਬੋ	3
▁ਟਿਵ	3
▁ਉੱਲੇਖ	3
ਨਾਰਾਇਣ	3
ਸਖਤ	3
▁ਉਤਰਕ	3
▁ਸੁਰਾਗ	3
ਗਮੇ	3
ਮਰੇ	3
▁ਚੋਰਤਨ	3
ਛਠ	3
ਧੌਲਗਿਰੀ	3
▁ਬ੍ਰੋਨਕਾਈਟ	3
▁ਨਫਖ	3
▁ਤਰਾਸ਼ੀ	3
▁ਨਿਸਚਿ	3
▁ਕੁਪ੍ਰਭਾਵ	3
▁ਲਯੂਕੋਰੀਆ	3
▁ਬੈਟ	3
ਮੀਜ	3
▁ਚੁਕੰਨ	3
▁ਤਫ਼ਰੀ	3
▁੧੧੧	3
▁ਸ੍ਰੀਮੁਤ	3
ੇਟਸ	3
▁ਰਾਈਬੋਫ	3
ਪਦਮਸੰਭਵ	3
▁ਲਵ	3
▁ਕੁਛ	3
▁ਸਿਨਕ	3
▁ਜੋਸ਼ੀ	3
▁ਕੋੜਾ	3
▁ਆਰਟਿਸਟ	3
ਾਈਲਡ	3
▁ਐਨੀ	3
▁ਪ੍ਰਬੰਧਕ	3
▁ਕਟੋਰ	3
▁ਖੋਲੀ	3
▁ਛਤ	3
ੋਲੀਆਂ	3
ੈਂਡਲ	3
▁ਵੰਡੀ	3
▁ਲੈਪਰ	3
▁ਤਿਓ	3
ਗੰਜਾਮ	3
▁ਮੇਗਨੋਲ	3
ਟ੍ਰੋਕਸ	3
▁ਲੈਕਟੇ	3
ਜਾਮਨ	3
ੇਕਟੋ	3
ਰਿਸ	3
ਹਕਾਰ	3
ਔਰਤ	3
ਸ਼ੀਤਲ	3
▁ਫਲੋਰੀ	3
▁ਅਵਿਸ਼ਕਾਰ	3
ਸੀਅਸ	3
ਹੁਣੇ	3
ਦਰਸ਼ਿਤ	3
▁ਵੈਭਾਰ	3
▁ਅੰਦਾਜ	3
▁ਸਾਈਨ	3
ਬੋਰਡ	3
▁ਕਰ੍ਤ	3
▁ਮੌਰ	3
▁ਚਾਮੁੰਡ	3
▁ਮਹਿਸ਼	3
▁ਆਕਿਸਡ	3
ੋੜਾ	3
▁ਪਿੱਛੋ	3
▁ਬੋਲੀਆ	3
ਮੇਨ	3
ਥੋ	3
ਵੜ	3
▁ਵਡੇਰ	3
▁ਵਿਸ਼ਾਲਕਾਯ	3
▁ਮਗ	3
ਪੰਨਾ	3
▁ਜਹੀ	3
ਦਾਈ	3
▁ਲਾਕ	3
੍ਰਾਸ	3
▁ਰੋਗੀਆ	3
ਸਨੈਕ	3
ਬੇਨ	3
ਨਮਨ	3
ਬੈਕਟੀਰੀਅਲ	3
ਰ੍ਕ	3
ਪੁਰਾਣ	3
▁ਕਾਰਬੋ	3
ਛੋਟੀ	3
਼ੇ	3
ਪਤਨ	3
ਵਿਰਤੀ	3
ੱਕੁਟ	3
ਨਾੜੀ	3
▁ਫੂੱ	3
▁ਵਿਸ਼ੇਸ਼ੇਗ	3
▁ਮੇਨੀ	3
▁ਸੂਝ	3
▁ਜਰਦਾਲੂ	3
ਸ਼ਰਨ	3
ਜਿਤ	3
ਸਬਜ਼ੀਆਂ	3
ਸੀਫੂਡ	3
▁ਇਮੇਨ	3
▁ਪਰੀਪੂਰ	3
▁ਪੀੜਬਲ	3
▁ਦੁਬਲਾ	3
ਬੈ	3
ੰਕਾ	3
ਕਿਲੇ	3
▁ਡੇਹ	3
▁ਗੋਪੀ	3
ਬਗੇ	3
▁ਵਿਨਾਇ	3
ਹਿਲਿਆ	3
▁ਤੁੰਗਾ	3
▁ਆਰਥਾਰਾਈਟ	3
▁ਫ਼ੁੱਟਬਾਲ	3
ਸਤਵ	3
▁ਭੇਂਟਾ	3
▁ਫਰੈਂਕ	3
▁ਉਠੋਗੇ	3
▁ਲਪੇਟਣ	3
▁ਕਨਪ	3
▁ਕੋਰਲਸ	3
ਕਿਰਤੀ	3
ਂਸੀ	3
▁੧੮੫੩	3
ਵਾਜ	3
ਕਸ਼ਤ	3
▁ਇਮੇਜ਼	3
ੁਸ਼ਮਨਾ	3
ੁਰੀ	3
ੁਮਥਾਂਗ	3
▁ਸ਼ੁਮ	3
ਵੇਯਰ	3
▁ਮਾਨਤ	3
+	3
▁ਨਿਯੂਰ	3
ਕਲਾਪ	3
▁ਡਰਨ	3
ਨਾਚ	3
▁ਕਲਾਬਾਜ਼ੀ	3
▁ਫ਼ਿਰਨ	3
ਯਾਲਾ	3
ੀਓ	3
ਵਾਯੀ	3
▁ਬਹੁਮੁੱਲ	3
▁ਮੁੱਛਾਂ	3
▁ਬੰਨੀ	3
▁ਮਾਲਸ	3
▁ਅਮ੍ਰਿਤ	3
▁ਸੈਲੂਨ	3
ਹੱਡੀਆਂ	3
ੁਲਕ	3
ਛੋਟਾ	3
▁ਅੱਤਿਆਚਾਰ	3
ਲੇਂਟ	3
▁ਫ਼ੈਕਟਰ	3
ਪਲਾਮੂ	3
ੋਪਾ	3
▁ਪ੍ਰਦੀਪ	3
ਸ਼ੁੱਧੀ	3
▁ਫ੍ਰੀਕ	3
▁ਫ਼ੇਮ	3
▁ਜਣੇਪ	3
▁ਨੱਚਦੇ	3
ੇਰਾਵ	3
▁ਗਵਾਲ	3
▁ਭਰੋਸ	3
ਸਲਫ	3
▁ਮੇਨਾਲ	3
▁ਬਗ਼ੀਚ	3
▁ਚਾਹਿਦ	3
▁ਕ੍ਰਾਂਗ	3
▁ਖਤ	3
ਸ਼ਿਆਮ	3
ਸੀਬ	3
▁ਕੇਬਲ	3
ਟੂਣਾ	3
ਬਿਤਰ	3
▁ਖਿੰਡ	3
ਸਟੀਨ	3
▁ਪ੍ਰਦਾਯ	3
▁ਹਿਯ	3
▁ਆਰਸ	3
▁ਪਾਤਾਲ	3
ਮਪੋਰ	3
▁ਘੰਟ	3
▁ਕ੍ਰੇਗਨੇਨ	3
▁ਨਿਰਾ	3
▁ਰੰਗਮਹਿਲ	3
▁ਅਧਿਕਾਂਸ	3
ਗਿਨੀ	3
▁ਸੁਸ਼ੇਗਾਤ	3
ਵਿਆਸ	3
▁ਧਵਜਾ	3
▁ਮਹੱ	3
▁ਚਿਲਾਉਂਦ	3
▁ਗਿਲਟ	3
ਊਠ	3
▁ਰਾਸ਼ਤਰ	3
▁ਆਪਾਤਾ	3
੍ਟ	3
ਁਖ	3
▁ਜੈਰ	3
ਸ਼ੋਥ	3
ਮੋਟ	3
▁ਮੈਡੀਕੇਸ਼ਨ	3
▁ਅੰਕੋਲਾ	3
▁ਭੋਟੀ	3
ਮਾਂਡਲਾ	3
▁ਪ੍ੱਰ	3
▁ਉੱਠਦੀ	3
ਵਸੇ	3
▁ਜਾਗੀ	3
੍ਸਿਤ	3
▁ਸ਼ੇਰਾ	3
▁ਪੀਤ	3
੯੯੯	3
▁ਬੇਸ਼	3
ਮਿਚਲੀ	3
▁ਗਿੱਟ	3
ਰਟਿਬ	3
▁ਹਿਸਟੇਰ	3
▁ਨਿਰਧ	3
▁ਚਿਕਿਤਸਕਾ	3
▁ਸੁਹਾਵਨ	3
▁ਘਟਾਉਂਦੇ	3
ਲਾਡੋ	3
ਯੁਮਨ	3
ਮਾਨਸਿਕ	3
▁ਦੌੜਦੀ	3
ਪਰੂਰਾਈਟਿਸ	3
ਰਾਫਟ	3
▁ਆਰਥੋ	3
▁ਚਕਰਾਉਣ	3
▁ਸੱਸ	3
▁੧੧੯	3
▁ਫਿੰ	3
ਪੁਲਟ	3
▁ਮਾਚ	3
ਰੋਥ	3
▁ਜੁਲੀ	3
ਪਲੇਕ	3
ਹੈਮਾਮੇਲਿਸ	3
ਗਾਈ	3
▁ਮੜ੍ਹੀਆ	3
▁ਖੁੱਲਦੀ	3
੦੩੫	3
▁ਜੇਬਰਾ	3
▁ਕਟਾਨੀਆਂ	3
ੈਜ	3
▁ਲੈਅ	3
▁ਬਦਰੀਕਾ	3
ਘਬਰਾਹਟ	3
ਮੰਜ਼ਿਲ	3
▁ਵਰਚੁਅਲ	3
▁ਲੇਜਰ	3
▁ਚੇਨ	3
▁ਸੀਤਲ	3
ਤਪਰ	3
ਭੰਗ	3
ਕਾਰਣ	3
ਹਾਂਤ	3
▁ਮੂਰਤੀਕਾਰ	3
▁ਨਾਈਟ੍ਰੋਜਨ	3
▁ਲਁ	3
▁ਯਾਤ੍ਰ	3
ਚਿੜਚਿੜਾਪਣ	3
▁ਹੋਨੋਲੁਲ	3
▁ਟਾਰਨ	3
▁ਸਿੰਥੈਟ	3
▁ਕੇਂਦਰਸ਼ਾਸ	3
▁ਭਿਕਸ਼ੂ	3
ਸਾਧਨ	3
▁ਅਛਨਕਟ	3
▁ਨੀਲੀਆਂ	3
▁ਰਕਤਹੀਨ	3
▁ਵਿਦਿਸ਼	3
ਲੀਲਾ	3
ਿਸ਼ਪ	3
ਲਾਕੇ	3
▁ਚੜ੍ਹਾਇਆ	3
▁ਫ੍ਰੈਂਚ	3
▁ਵਜਾਉਂਦ	3
ਪਾਈਰੀਨ	3
▁ਬਾਨਾ	3
▁ਵਾਸੁ	3
ਪੂਜ	3
▁ਮਚਲਣ	3
▁ਮਾਸ਼	3
▁ਸੋਵੀ	3
▁ਰਿਓਜ	3
ਧਵਗੜ	3
▁ਤੰਤ੍ਰਿਕਾ	3
▁ਟੂਥਪ	3
ੋਹ	3
▁ਨੈਤਿਕ	3
▁ਸੰਭਾਗ	3
▁ਚੁਨੌਤੀ	3
▁ਪੈਂਗ	3
▁ਸੈਲੀਸਿਲ	3
ਪਾਈਰ	3
ੀਅਸ	3
▁ਆਕਰਸ਼ਣਾ	3
ੜ੍ਹਕ	3
ੋਫਟ	3
ਗਿਆਨ	3
▁ਪੋਟੈਂਸੀ	3
ਐਲ	3
ਵਿਮਾਨ	3
▁ਬੰਦਗੋਭੀ	3
▁ਵਸਤੁਆਂ	3
▁ਕੋਪਲਾ	3
ੜਖਾਨ	3
ਪੁੜ	3
▁ਅਸਾਮਾਨ	3
ੌਰਾਗੜ	3
ਿਜਨ	3
੧੯੪	3
▁ਵ੍ਰਣ	3
▁ਏਜੇਂਟ	3
▁ਤਰਾਸਦ	3
ਗਰਾ	3
ਸੈਕ	3
▁ਮੁੜੋ	3
▁ਵੇਦਸ਼ਾਲਾ	3
ਜੈਂਟ	3
▁ਮੁਗ	3
▁ਅਧਿਐਨਕਾਰੀ	3
▁ਮਾਲਿਨੀ	3
ਡਿੰਬ	3
▁ਰੰਗਾਰੰਗ	3
ਮੋਟਾ	3
▁ਲਯੁ	3
▁ਬਾਂਦ	3
ਦਿਨੀ	3
ਉੱਤਮ	3
▁ਪਹੀਏ	3
▁ਪ੍ਰਤਾਪਗੜ	3
ੰਤੁ	3
▁ਅੰਨਾ	3
ਗ੍ਰੀਵ	3
▁ਅਚੰਭ	3
ਸਪਰਮ	3
ਰਾਇਣ	3
▁ਪਾਰਟੀਕਲ	3
▁ਨਕਾਰਾ	3
ਾਊਡ	3
ਕਾਂਤੀਹੀਨ	3
ਰਨਰ	3
੯੭	3
ਬ੍ਰਾ	3
ਪੇਟਾ	3
ਰੈਸ਼ਰ	3
▁ਬੌਣਾ	3
ਮੈਂਟਲ	3
ਾਈਕਲੋ	3
▁ਸਕਤੀ	3
▁ਸਾੱਫ	3
▁ਲਿਆਉਣੀ	3
ਆਲੂ	3
ੀਅਰ	3
▁ਛੱਤਰਪ	3
▁ਫ਼ੁਹਾਰ	3
▁ਝੋਲ	3
ੁਰਮ	3
ਦੁਗੜ	3
▁ਦਿਖੇਗੀ	3
▁ਫਿਨਸੀ	3
ਲੋਵਾ	3
▁ਜਿੰਦ	3
ੇਸ਼ੀਅ	3
▁ਨਾਗਾਅਰਜੁਨ	3
ਬੌਰ	3
▁ਕੋਕਾ	3
▁ਗੋਮਫ	3
▁ਬੇਂਗਲੂਰ	3
▁ਬ੍ਰਿੰਦਾਵਨ	3
ਾਲਾਂ	3
▁ਮਰਤ	3
▁ਸੁਤ	3
▁ਸਪੰਦ	3
▁ਨਿਯਤ	3
ਗ੍ਰੀਸ	3
▁ਲੱਗੀਆ	3
▁ਲਾਕੇ	3
▁ਸ਼ੱਤਮਿ	3
▁੩੦੫	3
ਜੁਲਾਈ	3
▁ਦੇਵਾਂਗ	3
▁ਖੁਬ	3
ਨਵਾਂ	3
ਨਿਕੋਬਾਰ	3
▁ਵੰਨ	3
ੂਦੌ	3
▁ਕੈਕਟਸ	3
ਮੰਦਰਾਂ	3
▁ਨਿਸ਼ਾਨਾ	3
▁ਉਪਾਸਕ	3
ਲਿਡ	3
▁ਕੁਸ਼ਠ	3
▁ਲੰਗੜਾ	3
▁ਏਡੇ	3
▁ਰਾਯ	3
▁ਉਛਲਣ	3
▁ਬ੍ਰਾਹਮ	3
ਜਬਾੜ	3
ਕਿਤਾਬ	3
▁ਸੰਵੇਦ	3
▁ਕਲੇਜੀ	3
▁ਸੰਧਿਵਾਤ	3
▁ਝੂਮਦੇ	3
ਿੜ	3
▁ਭੇਸ	3
ਸਰੀਰਿਕ	3
▁ਉਡਾ	3
▁ਰੇਂਜਰ	3
▁ਮਹੁਆ	3
ਮਰਾ	3
ਫਾਇ	3
ਭਰੂ	3
▁ਪੁਖਤ	3
ਜੌਰ	3
ਉਤਰਨ	3
▁ਸੁੰਨ੍	3
▁ਸੇਲਾ	3
ਰਾਂਗ	3
▁ਨਮਾਉਣ	3
ੁੱਠੀਆਂ	3
ਚੋਰ	3
▁ਸਮਮੋਹ	3
▁ਦੁਵਾਰ	3
▁ਦਿਵਾਉ	3
ਨਸਿਲਵੇਨ	3
▁ਮਾਟੁੱਪ	3
▁ਸਕ੍ਰੋਟ	3
ਆਨੀ	3
ੇਖ	3
ਗੈਰ	3
ਫੇ	3
▁ਲਕਜ਼ਰ	3
▁ਚੌਕੋ	3
▁ਪ੍ਰ੍ਦਾਹ	3
ਫੋ	3
▁ਕਲੋਨੀ	3
ਵਾਯ	3
▁ਸ਼ਕ	3
ੀਟੋਰ	3
ਰੋਮਕੂਪਾਂ	3
▁ਚਕੋਰ	3
ੰਚ	3
▁ਪ੍ਰਤੀਰਕਸ਼	3
▁ਡੀਸੀ	3
ਜਾਮੁਨ	3
ਬਿ	3
▁ਜਲਪ੍ਰਵਾਹ	3
▁ਏਪਿ	3
▁ਆਰਮ	3
▁ਆਰਕ	3
▁ਹੱਸੀ	3
▁ਪਾਵ	3
▁ਚੌਸ	3
ਠ੍ਯੋਗ	3
▁ਜੋਹਨ	3
ਤਿਲਕ	3
▁ਅਵਯਵ	3
ਗੁੱਦੇ	3
ਸੁਭਾਵਿਕ	3
▁ਸੰਜੀਵਨ	3
▁ਮੋਨਾਲਿ	3
▁ਟੈਲ	3
▁ਫੈਕਟਰੀ	3
▁ਹਿੱਸੇਦਾਰ	3
ਯਾਤਰਾ	3
▁ਡੇਲਾ	3
▁ਅਣਛੋਹ	3
▁ਉਸਤੂਖ	3
ਿਆਟਿਕਾ	3
▁ਰੋਹਤ	3
▁ਓਬੇਰਾ	3
▁ਦੂਹਰ	3
ੁੰਤ	3
▁ਟਰਨ	3
▁ਸਿਧ	3
ਪੈਲੇਸ	3
▁ਅਪਚਣ	3
▁ਪੈਡ	3
ਫੋਟੋ	3
ਕਤੀ	3
ਕਲਾਵਾਂ	3
ਪੋਟ	3
▁ਐਵੇਨ	3
ਿਊ	3
▁ਅਪਰਿ	3
▁ਕੈਬ	3
ਚਲਾਊ	3
ਵਿਲੇ	3
ਫੁਟ	3
▁ਨੌਕ	3
ਰਾਣੀਆਂ	3
▁ਐੱਚ੦	3
▁ਜਨਮੋਤ	3
▁ਵਸੂਲ	3
ਮਾਕੂਲ	3
▁ਜੌਲੀਗਰਾ	3
▁ਉਪਸ	3
▁ਸਨਾਯ	3
▁ਨਾਕਰੇ	3
ਮੂ	3
▁ਸਰੋਜ	3
▁ਧਾਤੂਰੋਗ	3
▁ਸੰਭਵਤ	3
▁ਲਕੋਰੀਆ	3
ਯਵ	3
▁ਚੂਰਾ	3
ਜ਼ਮ੍ਹਾਂ	3
ਦੇਅਵ	3
ਖਰੇ	3
ਦੜ	3
ਰਿਯਟ	3
▁ਕਰੂਪ	3
ਬਾਓਪ	3
▁ਖੇਲਣ	3
▁ਪਿਸਤਾ	3
੨੧	3
▁ਇਕਾਗਰਚਿ	3
▁ਧਰਮਪੁਰ	3
▁ਸਿੱਕਿ	3
ਅਸ਼ਵਗੰਧਾ	3
▁ਮਝ	3
ਪਥਰੀ	3
ਟ੍ਰਲ	3
ਮਰਸ਼	3
ੁਗਤ	3
ਕਿਸ	3
▁ਬੁੱਢ	3
▁ਭਦਰਾ	3
ਸੀਟੀ	3
▁ਗਿਣੀ	3
▁ਕੁਰੇਦ	3
▁ਆਸ਼ਿਆਨ	3
▁ਡਿਜ਼ਾਇਨਰ	3
▁ਸਿਕਯੂ	3
▁ਫ੍ਰਾ	3
ਲਗਭਗ	3
▁ਮਾਜੂਲੀ	3
▁ਡੈਲ	3
▁ਦਈ	3
▁ਤਾਈਵਾਨੀ	3
ਡਾਰ	3
▁ਸੇਹਤ	3
ਲੰਬੋ	3
੨੦੦੦	3
▁ਬੱਤੀਸ	3
▁ਦਵਾਫਰੋਸ਼	3
▁ਅਧੀਸ਼ਵਰ	3
▁ਹਵਨ	3
▁ਤਲਾਕ	3
▁ਹਾਸੀ	3
ਮੋਸ਼ਨ	3
▁ਚੌਂਸ	3
ਸਰਾ	3
▁ਫ਼ਿੰਨਸੀ	3
▁ਅਭਿਯਾਰਣਯ	3
▁ਪੇਲਿੰਗ	3
▁ਲਛਮਣ	3
▁ਸਦਨ	3
ਲੱਛਣ	3
ਵਰਚ	3
ਗਵਾਨ	3
▁ਵਿਘਟਨ	3
ੰਜਨ	3
ਪਲੈਨ	3
▁ਜਸਰਾਏਜੀ	3
ਾਰਤ	3
▁੧੭੭	3
▁ਸਾਇਟ	3
ਲਿਤ	3
▁ਪੂੰਝ	3
ਸਾਫ਼	3
੍ਰ੍ਤ	3
▁ਟ੍ਰਿ	3
▁ਗਾਇਨਾਕੋਲੋ	3
▁ਮਹਾਰ	3
▁ਮਤਾਵਲੰਬੀ	3
ਜੇਮਿ	3
▁ਨ੍ਯੂਰ	3
▁ਪਹੁੰਚਨ	3
▁ਸ਼ੀਸ਼ਮ	3
▁ਈਪਿ	3
▁ਸੰਚਾਲਕ	3
▁ਸੱਭਿਆਤਾਵਾਂ	3
▁ਜ਼ਾਇਜ	3
▁ਜਾਗਰ	3
ਵੁਡ	3
▁ਸਨਾਟ	3
▁ਮੈਡ	3
▁ਜਿਹਨ	3
ਵਸਤਰ	3
ਨਜ਼ਲੇ	3
▁ਮਾਂਡਲੇ	3
ਭਾਸ਼ਾ	3
▁ਕੰਬਣਾ	3
▁ਢਾਲਣ	3
ਐਲਬੂਮਿਨ੍ਯੂਰੀਆ	3
▁ਰਾਸ਼	3
▁ਗੋਤਰ	3
▁ਭਾਰਤਪਾਕ	3
▁ਸਿੱਲ	3
ੰਡਨ	3
▁ਸਫ਼	3
▁ਜ਼ਰੁਰ	3
▁ਏਰੀ	3
▁ਵੈਕ	3
▁ਵੈਵਸਕ	3
▁ਪੁਣ	3
▁ਡਾਲਿਫਨ	3
ਭੰਡਾਰਦਰਾ	3
▁ਪ੍ਰੇਗਨ	3
▁ਨੈਸਰਿ	3
ਗਕ	3
ਅਜ	3
ਕਿਸ਼ੋਰ	3
ਸ਼ੁਰੂ	3
▁ਸਤੰਭਕ	3
▁ਸਵਾਰੀਆਂ	3
ਚਾਕਲੇਟ	3
ਕਾਫ਼ੀ	3
▁ਬਲਰਾਮ	3
ਸੰਬੰਧੀ	3
▁ਚੋਕ	3
▁ਗਜ਼ਨੀ	3
▁ਬਾਲਟੀ	3
▁ਫਫੂੰਦ	3
▁ਜਾਣੂੰ	3
▁ਦਿਸੇ	3
੍ਰਾਈਨ	3
ਰ੍ਫ਼	3
▁ਰਾਮਰਕਸ਼	3
ਹੇਮਾਰਘਾਟ	3
▁ਡੇਵ	3
ਕੂਪ	3
▁ਪਵਾਲੀ	3
ਇਟਲੀ	3
੍ਰ੍ਕਟ	3
▁ਸਾਊ	3
ਵਿੱਚ	3
ਟੋਨਿ	3
▁ਮੋਟੋ	3
▁ਅਬਜ਼ਰਵ	3
ਸੈਰ	3
▁ਮਰੀਜ	3
▁ਸਿਵ	3
ਡਿੱ	3
ਕੁਲ਼	3
▁ਸ਼ਾੱਕ	3
੧ਃ	3
▁ਪੈਬੰਦ	3
▁ਖੰਡਗਿਰੀ	3
ੜਕੀਆਂ	3
▁ਡਾਂਡੀਆ	3
▁ਖੋਦ	3
▁ਆਈਓਐੱਲ	3
▁ਰੁਦਰਕੁੰਡ	3
ਗਲਸ	3
▁ਦੱਖ	3
ਚੰਚਲ	3
▁ਉਪਜੀ	3
▁ਗਧਾ	3
▁ਬਿਗੁਲ	3
▁ਟੈਂਪੂ	3
ੰਜੁਮ	3
▁ਕੁਨ	3
ੋਲਪੋਸ	3
▁ਦੇਵਗ੍ਰਾਮ	3
ਜੀਵਕ	3
ਲਾਯਨ	3
▁ਪ੍ਰੋਲੀ	3
ਵਧ	3
ਪ੍ਰਤੀਦਿਨ	3
▁ਅਪਰਾ	3
ੂਲ	3
▁ਲੇਪਰੋਸਕੋਪ	3
▁ਗਰਜ	3
ਬਰਿਕ	3
▁ਸਰਕੂਲ	3
▁ਚਬਾਉ	3
▁ਡ੍ਰੈਸਿਜ	3
▁ਸਿਰਜਣ	3
▁ਸਿਡੋਮੋਨਾ	3
▁ਇਟਾ	3
▁ਦਿਖੇਗ	3
▁ਜੈਦ	3
੍ਰਥ	3
▁ਨਿਊਰੋਥਰੈਪ	3
▁ਤੇਜਸਵ	3
▁ਛਟਾਈ	3
ਰਾਨ	3
▁ਬੋਰਾ	3
ਪ੍ਰੇਮ	3
▁ਰੋਜ਼ਗਾਰ	3
ੁਰੇ	3
ਦਹਸਤ	3
ਅੱਧ	3
▁ਕੋਕਲਾਸ	3
ਇੱਥੇ	3
▁ਮੁਖਾਰ	3
ੇਦਾਰ	3
ਰੋਮਾ	3
ੁਰਲ	3
ਾਈਮਸ	3
▁ਚੰਗ	3
▁ਝਾੜੀਆ	3
▁ਫੋਰ	3
▁ਮਹਾਸਰਸਵਤੀ	3
ਸੰਪਤੀ	3
ਲਕੋਹਲ	3
ਨਾਜ਼	3
ਦਰਸ਼ਨੀ	3
▁ਬ੍ਰਹਾ	3
ਧਵ	3
ਵਿਰੀਡ	3
▁ਬਣਾਉਦੇ	3
▁ਰਿਕਵਰ	3
ੰਚੀ	3
ਕੀਰਤਪੁਰ	3
▁ਟੇਸਟੋਸਟੇਰ	3
▁ਖਾਂਧ	3
▁ਯੂਰ	3
੬੯੦	3
▁ਘੜ	3
ਘੜ	3
▁ਮੈਟ	3
ੁਬਰ	3
▁ਤੁੜਵਾ	3
ਭ੍ਰਲ	3
▁ਮੈਮੋਗ੍ਰਾ	3
ਦ੍ਰ	3
ਬੋਨ	3
ਥੇਲ	3
▁ਨੋਰਗ	3
▁ਫ਼ੂ	3
▁ਵਿਅ	3
ੋਵੇਸ਼	3
▁ਤਿਨਕ	3
੧੫੯	3
▁ਮਹਾਂਕਾਲੀ	3
ਬੀਆਂ	3
▁ਅਪਣਾਉਂਦ	3
ਾਰਣ	3
W	3
H	3
O	3
ਦਾਰਜੀਲਿੰਗ	3
ਜਾਗਦੀ	3
ਿਯਾਗਰਾ	3
▁ਔਪ	3
ਓਥੇਰੈਪ	3
▁ਸਮਾਯੋਜ	3
▁ਨ੍ਯੂਰੋ	3
ਲਾਜੀ	3
▁ਝੱਲਣ	3
ਝਿ	3
▁ਮੇਟਾਬੋਲਿਕ	3
ਵਿਤਰੀ	3
▁ਵਿਸਮ	3
ਕਿਰਤੀਆਂ	3
ਪ੍ਰਤੀਰੋਧਕ	3
▁ਖ਼ੁਸ਼	3
ੰਤੀ	3
ਸ਼ਿਖਰ	3
▁ਗਿਰਡੀਹ	3
▁ਪੰਜਵੀ	3
ਯੂਰੀਆ	3
ਬਾਇਓਟ	3
ਡਯੂਸ	3
▁ਪਰਿਸ਼	3
▁ਮੁਸਕਰਾਉਣ	3
▁ਰੇਖ	3
▁ਰਣਥੰਭ	3
ਿਖਾਇਆ	3
ਕੋਯ	3
▁ਖ੍	3
▁ਸੁਮਦਾ	3
ਅਥਵਾ	3
▁ਈਰਾਨ	3
▁ਆਰੀ	3
▁ਚੌਪਾ	3
▁ਫ਼੍ਰ	3
▁ਵਰੁਣਾ	3
▁ਗ੍ਰਾਹਮਸ	3
ਾਡਾਂਗ	3
▁ਗਰੰਥ	3
▁ਸੁਵ	3
▁ਸਾਰੰਗ	3
▁ਚਿਤਵ	3
ਨਗੁਨੀਆ	3
▁ਪੇਰਿਸ	3
▁ਨੰਨ੍ਹੇ	3
▁ਸਟਾਪ	3
▁ਚੌਰ	3
ਲਾਸ	3
▁ਇੰਡੋਨੇਸ਼ੀ	3
▁ਕੰਬਣ	3
▁ਵੈਧ	3
ਡਾਈਗਨੋਸ	3
▁ਸੰਮ	3
ਨਿਊ	3
▁ਪਹਿਚਾਨਣ	3
▁ਸਾਹਿਤਕ	3
▁ਰੇਗ	3
▁ਗੋਰਾਈ	3
▁ਫਾਲਿ	3
ਲਖਾਂਗ	3
▁ਆਸਟਰੇਲਿ	3
▁ਉੱਲੂ	3
▁ਬਾਇਕ	3
▁ਪਾਏਲੋਰੀ	3
▁ਮੇਕਲ	3
ਜਗ੍ਹਾ	3
ਫਲੂ	3
▁ਲੁਭਾਉਣ	3
▁ਫ਼ੋਰ	3
▁ਜਾਯਸਵਾਲ	3
ਕੋਰਟ	3
ਾਨਾਂ	3
▁ਏਕਾਂਤ	3
ਦੁਮ	3
▁ਸੇਲਿੰਗ	3
ਰਾਯਡ	3
▁ਟ੍ਰੈਕਰਸ	3
▁ਪਰਯ	3
▁ਵੈਜੀਟੇਬਲਸ	3
▁ਦੁਰਭਾਗ	3
੯੪	3
▁ਐਨਜਾਈ	3
▁ਪਰਬੱਤ	3
ਜਿਲਸ	3
▁ਟੁੱਟਿਆ	3
ਢਾਲ	3
▁ਹਾਈਡ੍ਰੇਟ	3
▁ਬਾਸ਼ਿੰਦ	3
ਮੇਸ਼ਵਰਮ	3
▁ਹੋਸ਼ਾਂਗ	3
▁ਅਫਗਾਨ	3
▁ਸ਼ਹ	3
▁ਕੱਛੂਕੁੰਮੇ	3
▁ਬਿੱਲ	3
▁ਸ਼ੇਲ	3
▁ਰਤਲਾਮ	3
▁ਪੇਰਾਟ	3
▁ਝਿੜਕ	3
ਖਾਂਗ	3
▁ਮਸ਼ਵਰ	3
▁ਸਟੇਨ	3
▁ਚਿਲਗੋਜ	3
ਨੇੜਲ	3
▁ਜਰਾ	3
▁ਟਾਈਲ	3
▁ਕਰੂਰ	3
ਭਾਵਾਂ	3
ਰਾਸੇਲਿੰਗ	3
▁ਕਹਾਇਆ	3
▁ਟਾਲਰੇਸ	3
ਗ੍ਰਿ	3
ਭਾਰ	3
ਲਾੱਨ	3
▁ਬਾਸੀ	3
ਮਕੌੜ	3
▁ਕੁਲੀ	3
▁ਲਿਸ	3
▁ਘਰੇ	3
ਲਗੰਡ	3
ਕੋਲੀਆ	3
▁ਕੰਮਪਲੇਕਸ਼	3
ਸਵ	3
ਬ੍ਰੇਕ	3
▁ਸਮਮਾਨ	3
▁ਯੇਰ	3
ਕੌਡ	3
▁ਢਕੀਆ	3
ੂਪ	3
ਦੈ	3
▁ਕੈਨੋਇੰਗ	3
▁ਬੈਂਗਨੀ	3
▁ਚੌਦਾ	3
ਏਟਿਵ	3
▁ਨਟ	3
▁ਚੌਦਾਂ	3
▁ਆਚਾਰ	3
▁ਪ੍	3
ਠਾਰ	3
▁ਵਿਯਾਧੀ	3
▁ਵਾਤਾਨਕੂਲ	3
▁ਸਵੈਸੇਵ	3
▁ਸਿੱਖਣਾ	3
▁ਭੂਗ	3
ਰੰਜੀ	3
▁ਮੋਲ	3
▁ਬਲੇਫ	3
▁ਕਸੀ	3
▁ਜ਼ੁਰਾਬ	3
ਕੂਤ	3
▁ਅੰਜੁ	3
▁ਆਤੰਕ	3
▁ਜਬਰਦਸਤ	3
ਿਬ	3
▁ਏਂਠਨ	3
▁ਡੱਚ	3
ਧਿਤ	3
▁ਚੋਗੇ	3
▁ਗੰਕਰ	3
▁ਠਾਠ	3
▁ਨੌਕੁਚੀਆ	3
ਗੋਨ	3
▁ਪੁਸਤਕਾ	3
ਸੰਨ੧੭੫	3
▁ਮਰਹਮ	3
▁ਬਾੱਲ	3
▁ਬੌਟ	3
ਨਾਯ	3
▁ਕੋਲਾਕ	3
ਖੂਨੀ	3
▁ਪੁਨਰਵ	3
▁ਪ੍ਰਮਾਣੂ	3
ਿਤਿਕ	3
▁ਸ਼ੰਕੁ	3
▁ਭਜਾਉਂਦ	3
▁ਪਾਰਿਪ੍ਰ	3
▁ਲਖ	3
ਉਦ	3
ਮੇਹ	3
▁ਟੇਰੇਸ	3
▁ਕਮਲਬਾ	3
▁ਮੱ	3
ਭਾਲੂ	3
ਹਰਣ	3
ੱਤਾ	3
▁ਗਾਇ	3
ਨਿਕਾਸ	3
▁ਪਹਿਰੇਦਾਰ	3
▁ਡਾਕੂ	3
ੰਦਾਕਿਨੀ	3
ਮਲਾ	3
ਲਪਟ	3
▁ਜਾਂਚੋ	3
ੀਵ	3
▁ਰਕ	3
▁ਆਲੋਚ	3
ਸੁਸਤ	3
▁ਘਸਣ	3
ੀਨੀਆ	3
੩੯੦	3
▁ਵਿਸਾਖੀ	3
ਯੰਟ	3
▁ਨੱਪ	3
▁ਲਟਕਾਉਣ	3
ਪ੍ਰਾਯ	3
ਪੋਲੀਅਨ	3
▁ਫ਼ੈਸਟੀ	3
ਧੇ	3
▁ਦੀਰਟਾ	3
ਿਕਲ	3
▁ਦਿਖਣਾ	3
ੋਸਾਈਨ	3
ਨਵੇ	3
▁ਸ਼ਿਲ	3
ਚਨ	3
▁ਸੁਚ	3
▁ਹਦਾਇਤ	3
▁ਵੱਢੀ	3
▁ਪਰਿਧਾਨ	3
▁ਸੰਗ੍ਰਿਹਾਲ	3
ਸਿਤਾਰ	3
▁ਵੰਢਿਆ	3
ਰੁਜ਼ਗਾਰ	3
ਟਾਈਡ	3
▁ਕੌਸ਼	3
ਠੰਡਾ	3
▁ਕੋਲੀਨ	3
ਏਸਟੇ	3
▁ਛਾਤ	3
▁ਜੈਕਸਨ	3
▁ਪਰਿਚ	3
▁ਘ੍ਰਿ	3
▁ਸਿਟ੍ਰਕਨੀਨ	3
▁ਉਛ	3
▁ਲਾੱ	3
ਾਈਟਸ	3
▁ਵਰਤਾਉ	3
▁ਰਿਫ਼ਾ	3
▁ਪ੍ਰਾਪਰ	3
▁ਪੰਥ	3
▁ਫ੍ਰਾਂਸ	3
▁ਸਪਤਸ਼	3
▁ਸਿਖਾਈ	3
▁ਕਲਾਪ	3
ਯੌਨ	3
ਫਿੰਗ	3
ਡਾਈਵਰਸਿਟੀ	3
ੈਪ	3
ਗੇਜ	2
▁ਮੁਦਰ	2
ਰਤਨਾਂ	2
▁ਪੀਲ	2
ਚਿਕਿਤਸਾ	2
▁ਗਿਰਾ	2
▁ਝੋਪੜਾ	2
▁ਮਸਲੀ	2
▁ਮੈਸ਼	2
▁ਪਾਸਤਾ	2
ੰਤਾਗ	2
ਸ਼ਪ੍ਰ੍ਭਾਵ	2
ਵੋਂ	2
▁ਪਾਲਿਆ	2
▁ਰਾਸ਼ਨ	2
ੀਕਯ	2
▁ਘਾਘਰਾ	2
▁ਥੱਕੀਆਂ	2
ਸਟ੍ਰੇਪਟੋਕ	2
ਟਰਡ	2
▁ਪਕਾਉਣਾ	2
▁ਹੈਜਲੀਨ	2
ਲਿਵਿਕ	2
▁ਸਿਆਰ	2
▁ਸੀਡ	2
▁ਦੇਸ਼ਵਿਦੇਸ਼	2
ਹਰੀਆਂ	2
▁ਪਰਬਤਮ	2
ਮਾਉਣਾ	2
▁ਮਾਇਗ੍ਰੇਨ	2
▁ਜ਼ਹਿ	2
▁ਉਭਰਦੀ	2
▁ਝੁਲਸਦ	2
▁ਆਰਾਮਤਲਬ	2
▁ਕਪਾਹ	2
੍ਲੀ	2
▁ਸਪਲ	2
▁ਮਾਮ	2
▁ਆਗ	2
▁ਪ੍ਰਸ਼ਿ	2
ਲਗਾਵ	2
ਨਮਕੀਨ	2
ਮਾਨਸ	2
▁ਝੋਪੜ	2
▁ਲਿਬਾਸ	2
▁ਕੰਸ	2
ਸਪੇਕਟ	2
▁ਮੇਨੀਨਜਾ	2
▁ਚੜ੍ਹ੍	2
▁ਮਾਨੇਸਟਰੀ	2
ਮਾਅ	2
ਰੋਜਨ	2
▁ਕੰਪਾਊਡ	2
ਪ੍ਰੀਕ	2
ਜਗਾਂ	2
in	2
ੰਮਪ	2
ਡੋਨਲ	2
ਬਰਮਾ	2
ਮਿਆਓ	2
▁ਸਿਯ	2
ੁਗਧ	2
▁ਪ੍ਰ੍ਸੰਸਕ੍ਰ	2
ਕੋਲਾ	2
ਪੈਠਣ	2
ਦੋਹਰ	2
ਬਾਗ਼	2
▁ਪੇਪੀ	2
ੋਟੇ	2
▁ਮਿਰਰ	2
▁ਬੇਲੀ	2
▁ਰਾਮਸ	2
ਮੈਲ	2
ਦੱਬਿਆ	2
▁ਮੀਨੂ	2
ਪਹਾ	2
▁ਸਰਾਈ	2
ਹਮ	2
ਿਹਾ	2
▁ਲੁੰਗਲ	2
▁ਫੁਲਵਾੜੀ	2
▁ਬੇਨਜੋਯਨ	2
ਮਨੁੱਖ	2
▁ਬੇਚਣ	2
ਵੈਸ਼	2
ਝਟ	2
▁ਸੈਵ	2
▁ਸਹਸਰਾ	2
▁ਕਾਹ	2
ਮੰਦਿਰਾਂ	2
ਰੀਫ਼	2
ਚੌਕੜੀ	2
ੋਲਡਰ	2
▁ਬੇਂਜ	2
▁ਰਾਸਾਇਣ	2
▁ਜਾਗਣਾ	2
ਗੋਟ	2
▁ਅਨੁਭ	2
ੈਂਸਟ	2
ਹਾਟੀ	2
ਈਜਾਪਾ	2
▁ਪਿਤਰ	2
ਚਾਲੂ	2
ਛੋਡ	2
▁ਹਾਇ	2
ਸਨਾਯੂ	2
▁ਏਡ੍ਰੀਨ	2
▁ਕੁਜੀਨ	2
ਪਾਰਕ	2
ੇਲਿੰਗ	2
ਕੜ	2
▁ਬਜਰ	2
ਗੋਬਿੰਦ	2
▁ਉਡੀਸ	2
▁ਕੁਲਫ	2
▁ਪ੍ਰੋੜ	2
ਂਚ	2
▁ਭਿਤਿਰ	2
▁ਸਰਵਸ	2
ਤਿਯਾ	2
ੜਫ਼	2
ਬੁਟ	2
▁ਰੈਡ	2
▁ਕੈਲਸੀ	2
੍ਰੋਨੇਟ	2
▁ਜੋਹਾਨ	2
ਕਾਉਣ	2
▁ਸੁਵਿ	2
▁ਗੋਸ਼ਟੀ	2
▁ਲੜਨਾ	2
ਝਗੜ	2
ੋਇਨ	2
ਸੱਟ	2
▁ਧੁੰਧਲ	2
ਕਰੁਣਾ	2
▁ਐਕਸਪੀਰੀ	2
ਉਧਮ	2
▁ਹੈਲੀਕੈਪਟਰ	2
ਵਿਹੀਨ	2
▁ਟ੍ਰੇਵ	2
ਕਟੀਬੰਧ	2
ਚਮਗਿੱਦੜ	2
▁ਟਰੈਕਰ	2
▁ਦਰੁਤ	2
▁ਦਿਵਾਓ	2
ਟਾੱਨਿਕ	2
ੁਲੂ	2
▁ਕੁਚੇਲਾ	2
▁ਨੋਵਲ	2
ਾਰਮ	2
ਸੋਡੀ	2
▁ਬਾਹਮ	2
ਣਿਆ	2
▁ਐੱਸਪੀ	2
▁ਲਮਹੇ	2
▁ਕਲਾਪ੍ਰੇਮੀ	2
▁ਬਾਰਾਂਦਰੀ	2
ੁਲੋ	2
ਸਰਪਾਣੀ	2
▁ਫੁਰ	2
ੋਸਿਡ	2
▁ਲੋਈ	2
ਦਰਮ	2
▁ਬੇਵਕੂਫ	2
੍ਰੋਪ	2
ਸਪੀ	2
▁ਵਿਦ੍ਰ੍	2
ਅੱਧੇ	2
ਪਹਾੜ	2
▁ਨੰਦਾਕੁੰਡ	2
ਰ੍ਡ	2
▁ਜ਼ਿਆ	2
ੱਦਾ	2
ਭੁਲੇਖ	2
▁ਸਕਾਰਤ	2
▁ਦਿਸ਼	2
▁ਤੁਹਾਨੂ	2
ਾੱਰਟ	2
▁ਸ਼ਾਇ	2
ਰੀਡ	2
ੋਖਾ	2
ਤੇਲ	2
▁ਅਸਿਮ	2
▁ਰਾਯਲ	2
▁ਸਾਇਨੂਸਾਈਟਿਸ	2
ਮਨਾ	2
ਏਸਟ੍ਰਾ	2
▁ਪ੍ਰਾਂਤਾ	2
:	2
ਬਾਂਸ	2
ਡਬਲ੍ਯੂ	2
▁ਜਰਾਸ	2
▁ਪ੍ਰਿਵੇ	2
▁ਮੁਚਲਿੰਦ	2
੧੬ਵੀ	2
ਮੜ੍ਹੀ	2
▁ਦੱ	2
ਮੇਘ	2
ੀਕਯੂਟਿਵ	2
▁ਟਾਈਕੋ	2
ੀਸਟ	2
▁ਭੂਮੱਧ	2
▁ਸੁਰਕਥ	2
ੁਰਤੀ	2
▁ਉਪਾਚਿਆ	2
▁ਨੋਰਵ	2
▁ਰੋਮਯਾ	2
▁ਰੋਲਾ	2
▁ਕੈਬਰੇ	2
▁੧੭੨	2
▁ਕ੍ਰੀ	2
ਉਂਗ	2
▁ਬੋਰੀਵਲੀ	2
ਨੰਦਨ	2
▁ਸਕੀਮ	2
ਾਤਤਰਵ	2
ਭਦਾਇਕ	2
ਅੰਤਰਰਾਸ਼ਟਰੀ	2
▁ਸੈਟ	2
▁ਡੈਡਬਾਯ	2
▁ਪੈਰਾਸ	2
▁ਸਿਵਮਿੰਗ	2
▁ਭੋਗਣ	2
ੂੰਠ	2
ਪਰਿਣਾਮ	2
ਸਾਉਣ	2
ਵਾਤਰ	2
▁ਸੂਜਨ	2
▁ਥ੍ਰਾਮਬ	2
▁ਸ਼ੇਰਪਾ	2
▁੩੨੫	2
ਲੈਂਗ	2
▁ਜੈਰੇਨ	2
▁ਮੇਲਿ	2
ਰਫੀ	2
▁ਛੋ	2
ਿੱਲਾ	2
▁ਫ਼੍ਰੈਕਿੰਸੰਸ	2
▁ਵੋਡ	2
▁ਚੌੜੀਆ	2
▁ਰਫ	2
▁ਝੋਕਿਆ	2
▁ਪਰਮੇਸ਼	2
▁ਕਾਪ	2
▁ਸਟਡੀ	2
▁ਉੱਚੀਆ	2
ਜਿਸਨੂੰ	2
▁੧੬੫੮	2
ਕਾਲੀਬੰਗ	2
ਮਾਈਸ	2
ਟੈਨ	2
ਨਿਹ	2
▁ਪੌਸ਼	2
ਗਲੈਂਡ	2
ਡੋਲ	2
▁ਸਲਾ	2
ਟਾਮ	2
▁ਚੌਕੀਦਾਰ	2
▁ਯੁਸ਼ਿਟਰ	2
▁ਪਾਰਲੀ	2
ਦੋਸਤ	2
▁ਕੋਸ਼ਟ	2
੍ਸਥਿਤ	2
▁ਠਾਕਰ	2
▁ਵੱਲ਼	2
▁ਕਰਿਸ਼ਮ	2
▁ਅਸ਼ਮ	2
▁ਛਯ	2
▁ਚੰਡ	2
ਚੱਕੀ	2
▁ਨੂਰਪੁਰ	2
ਣਛੋ	2
ਰਾਏਜੀ	2
ਲੇਕ	2
ਖਾਣੇ	2
ਪਿਆਸ	2
▁ਨਾਈਟ੍ਰ	2
ਘੁਣ	2
▁ਗੁਦ	2
▁ਪੈਗੋ	2
▁ਤਿਲਵਾ	2
▁ਬਾਕਸ	2
▁ਐਡਜ	2
▁ਰਿਫਲੇਕਸ	2
▁ਮੈਰੂਦੰ	2
▁ਜਨੂੰਨ	2
ਸਦੇ	2
ਗਰਭਾਸ	2
▁ਫਾਰੇਨ	2
ਲਾੱਕ	2
ਬਗੀਚਿਆਂ	2
ੁਸ਼ੀ	2
▁ਹਮੀਦ	2
▁ਸੱਜਣ	2
ਛਯੂਡਾਂਗ	2
ਰਿਯਾ	2
ਫਾਈਲੇਰਿਯਸਿਸ	2
▁ਰੋਹਿੱਲਾ	2
ਭੇਦਕ	2
ਹਿੰਦੂ	2
▁ਤਿਥੀ	2
ਡੇਂਡ	2
▁ਕਬਾਬ	2
▁ਖੋਜਕਾਰੀ	2
ਕਿੰਸ	2
▁ਐੱਲਪੀਏ	2
▁ਫਲੈਕਸੀ	2
ਨਗਰੀ	2
ਪ੍ਰਤਿਸ਼ਠਾ	2
▁ਅਮਿਤ	2
▁ਜੁਆਇੰਟ	2
▁ਤੀਰਥ੍ਯਾਤ	2
▁ਤਿਨਸੁ	2
▁ਪਰਟਯੂਸਿਸ	2
▁ਨਿਊਜ਼	2
ਆੱਕਸ	2
▁ਜੇਰੀਨਿਯਮ	2
ਸੁੱਟ	2
▁ਸੁਰੂ	2
ਬਘ	2
ੀਰਾ	2
ਤਵਾ	2
▁ਰੌਲੇ	2
ਸ਼ਯਗ	2
ਵਿਵ	2
▁ਟਟੋਲ	2
▁ਕੰਬਾ	2
▁ਕੁਟੇਟ	2
ਡਲਕਾਮਾਰਾ	2
ਪਰੀ	2
ਆੱਨ	2
ਚਾਉ	2
▁ਨਕਸਵੋਮ	2
▁ਯਯਾਤ	2
▁ਪ੍ਰਤਿਸ਼ਠਾ	2
▁ਸੰਦੀਪ	2
ਪੱਧਤੀ	2
ਗੁਰਦਾ	2
▁ਤਪੋ	2
▁ਕੈਪਸਾਯ	2
੍ਸਿ	2
ਨਿਦੇਸ਼	2
ਬਾਯੋਟਿਕ	2
▁ਸਾਂਤਾ	2
ਸੂਕ	2
ਡੀਨ	2
ਹਾਉ	2
ਕਕਾਡ	2
▁ਡਿਜ਼ਨੀ	2
ਿਧੀ	2
ਖਾਲੀ	2
▁ਨਾਜ	2
▁ਹਿਸਟੋਰ	2
ਵਿਅਤਨਾਮ	2
ਮਾਤਰਾ	2
▁ਮਾਨਮੰਦ	2
▁ਜੂੜ	2
ਭਾਰਾ	2
੍ਲੇ	2
▁ਰੇਡੀ	2
ਮੇਡ	2
▁ਅਭਿਆ	2
ਡਾਧੀ	2
▁ਸਨਸਨ	2
▁ਖੋਪੜੀਆਂ	2
▁ਤਿਰੂਅਨੰਤ	2
▁ਲਚਕੀਲੇ	2
ਪਲਸੰਟਾ	2
ਰਿ	2
▁?"	2
ਮਾਹ	2
ਰਾਇਨ	2
ਵਾਈਆਂ	2
▁ਖੇਤੀਬਾੜੀ	2
ਕੰਮ	2
ਟੀਵਾਈਟ	2
▁ਬੀਕਾ	2
▁ਵਿਅਸਨ	2
▁ਵਿਆਯਾਮ	2
tocopherol	2
▁ਝਪਕ	2
▁ਸੰਸਥਾਵਾ	2
▁ਛੱਦ	2
▁ਲਖਨਪੁਰ	2
▁ਝੁਨਝ	2
ਜ਼ਰੂਰਤ	2
▁ਵਿਸਮਯ	2
▁ਚਾਲੁਕਿਆ	2
▁ਮ੍ਰਦੁ	2
▁ਟ੍ਰਾੱ	2
ਯੋਗੀ	2
ਬੋਲਿਜਮ	2
ਫਾਸਟ	2
▁ਬੜਕਾ	2
ਜੋਸ਼ੀ	2
▁ਵਿਚਿੱਤਰ	2
▁ਰੋਸਟ	2
▁ਊਸ਼ਮ	2
ੋਸੀਨ	2
▁ਛੂਹਣਾ	2
▁ਕੁੰਭਸਿਆ	2
ਲਾੱਗ	2
▁ਇਨਹੇਲ	2
ਿੰਦਰਾ	2
▁ਅਗਨਾ	2
▁ਸਵੀਟਸ	2
ਬਿਟੀਜ਼	2
ਨਾਲਿਆਂ	2
▁ਕੁਆ	2
ਿਰ੍ਯੋ	2
▁ਭਿੰ	2
ਹੁਣ	2
▁ਦੁਬਿਧਾ	2
▁੨੯੫	2
▁ਖਾਡੂ	2
▁ਚਕਰ	2
▁ਕਾਲਬੇਲੀਆ	2
▁ਸੰਯਤ	2
▁ਮੋਖ	2
▁ਸੈਂਕਚੁਰੀ	2
ਟਰਨ	2
ਚੱਪ	2
▁ਹਿਮਾ	2
▁ਪਿਘਲਾ	2
ਛੂਹ	2
ਕਾੱਫ਼ੀ	2
ਪਨਦੋਸ਼	2
▁ਉਂਗਲੀਆ	2
ਭਰਮ	2
ਮਹਿਮ	2
▁ਸੋਚੇ	2
▁ਲੇਪ੍ਰੋਸਕੋਪ	2
▁ਸੇਰੂਲਾਟਾ	2
ੇਟਿਲਾ	2
ਨਯੂਟੀਸ਼ਨ	2
▁ਸਕੀਇ	2
▁ਤ੍ਲਕ	2
▁ਟਸਕ	2
▁ਬੈਸ	2
▁ਫ਼ੋਰਸ	2
▁ਭਵ	2
ਸ਼ੁਰ	2
▁ਸੁਗ	2
ੱਧ	2
▁ਇੰਸ	2
ੂਕੇਸ਼	2
ਪੀਤਾ	2
▁ਲੂਮੜੀ	2
ਬਾਜ਼	2
▁ਮਹਿਫ਼ਿਲ	2
▁ਕਬਾਲੀ	2
▁ਪੈਕਿਜ	2
ਸੁਰਈ	2
▁ਸਰਗ	2
▁ਲਕਸ਼ਮਣ	2
ਦੇਖੀ	2
ਨੀਕ	2
ਸੇਲੀਬ੍ਰ	2
▁ਦੀਰਗ	2
ਤੋੜੇਦਾਰ	2
ਅਫਾਰਾ	2
▁ਮਚਲਣਾ	2
▁ਚਿਕਾਰਾ	2
▁ਰਿਜੁ	2
▁ਅਖਬਾਰ	2
ਿਵਲ	2
▁ਉੱਛਲ	2
ਮੁਸ਼ਕਿਲ	2
ਰੀਂਗ	2
▁ਪਿਥੌਰਾਗੜ੍ਹ	2
ਾਲਮ	2
▁ਉਦਯੋਗੀਕਰ	2
▁ਪਾਂਚ	2
▁ਚੇਪਡਯੂ	2
▁ਫ੍ਰੇਕ	2
▁ਜਲਸਰੋਤ	2
▁ਵਾਤਸਫ਼ੀਤ	2
ੀਥ	2
▁ਛਿਤਰਾ	2
▁ਜੈਬਰਾ	2
ੁਚਾ	2
▁ਕੀਰਤ	2
▁ਫਰਲਾ	2
ਕਰਸ਼ਣ	2
ਗਾਲੈਂਡ	2
ਨਿਮੋਨੀਆਂ	2
ਪਿਸ	2
▁ਇੰਜੇਕਟ	2
ਡਿ	2
ਰਗੀ	2
ਲਸੁਬ	2
▁ਸ਼ਕਤ	2
▁ਹੈਂਡਲ	2
▁ਪੀਪਲੀ	2
ਃਮੀ	2
ਸ਼ੱਕਰ	2
▁ਚਹਿਚਹਾਉਂਦ	2
▁ਫ਼ੈਲਾਉ	2
ਵਾਤਨਾਸ਼ਕ	2
ਸਿਟਕੀ	2
▁ਬੁਝ	2
▁ਪਾੱਇ	2
▁ਅਨੁਕੁ	2
ਕਾਨਨ	2
▁ਅਲਾਈ	2
ਪ੍ਰਤਿਮ	2
ਕੋਕੋਨਟ	2
▁ਨਿਕਲੋ	2
▁ਸਕੇਬੀਆਈ	2
ਧਿਰ	2
ਜਵਾਇਨ	2
▁ਤੋਹਫ਼	2
▁ਕੀਚਕ	2
ਆਕਾਸ਼	2
▁ਪਟੁਆ	2
▁ਫੁਦਕਦ	2
▁ਡੈਂਡ	2
ਅਧਿਆਤਮ	2
ਵਿੱਦਿਆ	2
▁ਸਮਰਿੱਧ	2
ਸ਼ਟਰੀ	2
▁ਪ੍ਰੇ	2
▁ਫ਼੍ਰਾ	2
ਜੁਲੀ	2
▁ਸਥਾਅਨ	2
▁ਅਨਸੇਚ	2
ਰੇਟਸ	2
▁ਟੋਬ	2
ਗੰਜਾਪਨ	2
ਕਾਲੇ	2
੍ਰਾਂਤੀ	2
▁ਮਸਕੂਲ	2
▁ਉਛਲਦੀ	2
ਹਾਁ	2
▁ਸੋਆ	2
ਬੂਆ	2
▁ਲਮ	2
ਝਰਨਿਆਂ	2
ਾਤ੍ਰਾ	2
▁ਆਉਲੇ	2
ਹਰੜ	2
ਬਰਤਨ	2
▁ਖਿੜੀ	2
ਬਿਲਾਵ	2
▁ਕਤਰ	2
▁ਕੇਂਦ	2
▁ਲੁਭ	2
ਾਏਗੀ	2
▁ਦੱਤ	2
ਨਿਜ	2
▁ਪਤੰਗਬਾਜ਼ੀ	2
▁ਕੰਫ਼ਰਟ	2
ਾਜੀਕਾਰਕ	2
▁ਤਲਵਾਰਬਾਜ਼	2
ਲਿਕਨਸ	2
▁ਸਾਰਸਾਪ	2
ੁੜੀਆਂ	2
ਛੋਟੀਆ	2
▁ਦ੍ਰੁਕ	2
ਆਈਨ	2
▁ਘਾਂਘ	2
੍ਜਿਕ	2
▁ਇਮਲਸ	2
▁ਕੈਸੀਨੋ	2
▁ਗਿਰਨਾ	2
▁ਭਾਗੀਰਥ	2
ਪੋਂਗ	2
ਲੰਮੀਆਂ	2
ਗ੍ਰੇਨ	2
▁ਦਦਾਹੂ	2
▁ਸੀਜ	2
▁ਸਟਾਰਟ	2
ਮੰਨਾ	2
▁ਵਸ਼ਿਸ	2
ਤੁਹਾਡ	2
ਸਪਾਈਨ	2
ਫਿ	2
▁ਕਲਯੁ	2
▁ਕੂਜ	2
▁ਮਨੋਸਥਿਤੀ	2
▁ਸੁੱਜੀ	2
▁ਯਥਾਵ	2
▁ਅੰਗ੍	2
ਾਰਾਮ	2
ਡਵੇਂਚਰ	2
ਸ਼ੰਕਰਪੁਰ	2
▁ਡਿਸਟ	2
▁ਡਾਇਰੈਕਟ	2
ਯੋਂਗ	2
▁ਖਿਡ	2
▁ਵੁਕਕ	2
ਾਸ਼ਮ	2
ਨੋਰੇਜਿ	2
▁ਕੋਇ	2
ਸ਼ੋਤ	2
▁ਭਾਤਘਰ	2
ਰਾਈਟਿਸ	2
ਅੰਗਜਾਈਟੀ	2
ਡੀਉ	2
▁ਪੈਥ	2
ਕ੍ਰਤ	2
▁ਕਾਰਬਾਮੈਜ	2
▁ਸਵਾਰਥ	2
ਮਿਲੀ	2
ਕਲਾਇਨ	2
▁ਝੁ	2
ਖੋਜ	2
▁ਲੀਗ	2
▁ਪੁਲੀਸ	2
ਲਡ	2
▁ਬਹੇਲ	2
▁ਕੈਲਸੀਅਮ	2
ਕੁੱਦਣ	2
ਫੁਰਤੀ	2
ਹਿਰ	2
ਬਗ	2
੧੭੪੯	2
ਲੁ	2
੧੭੫੦	2
▁ਡੀਡ	2
੧੭੫	2
▁ਦੁਸ਼ਮਨ	2
▁ਕਾਲਰ	2
▁ਸੰਗ੍ਰਾਹਕ	2
ਪੌਸ਼ਟਿਕ	2
▁ਮੁਰਗਾ	2
ਬੂਤ	2
ੂਰਾ	2
ਗਿਆਲ	2
ਚੀਨੀ	2
▁ਇਸੋਫ਼ੇਗਾ	2
ਕਾੜ	2
▁ਤਹਾਡ	2
▁ਕ੍ਰਤ੍ਰਿਮ	2
▁ਖਗੋਲ	2
▁ਇਲੈਕਟ੍ਰੋਮੈਗਨ	2
ੋਪੀ	2
▁ਦੂਸ	2
ਆਰਸੇਨਿਕ	2
ਮੰਚ	2
▁ਸੋਹ	2
▁ਗੋਂ	2
▁ਸਲੇ	2
▁ਆਰਨ	2
▁ਨੈਰੋ	2
ਅਮਰ	2
▁ਭਿਲੰਗਾਨਾ	2
▁ਤਿਰੂਵਨੰਤਪ	2
ੂਰਮ	2
ਡਰੂ	2
ਹੁਤਾਤ	2
▁ਸਿਯਾਲ	2
ਟਿਆ	2
ਅਮਰੂਦ	2
ਪਾਲਕ	2
▁ਡੇਰ	2
▁ਸਵਰਜਨ	2
ਗਹਿਣੇ	2
ਨਾਲੰਦਾ	2
ਸ਼ੁੱਧ	2
▁ਲਲਕ	2
ਕਿਊ	2
▁ਪੰਛੀਘਰ	2
ਵਲੋਕ	2
▁ਪੀਵ	2
ੇਂਡ	2
ਪਸਿਨ	2
▁ਮੱਧ੍	2
▁ਸ਼ਾਟ	2
▁ਕੰਪ੍ਰੇਸ	2
▁ਜਲਮਹਿਲ	2
ੂਦ	2
▁ਐਬੋ	2
ਝਲ	2
▁ਸੈਨਫ੍ਰਾਂਸਿਸਕੋ	2
ਲੇਕਜੇ	2
੍ਰਿਯਾ	2
▁ਅਜ਼	2
ਾਇਬਘਰ	2
ਇੰਡੀਅਨ	2
▁ਯੂਰੋਲਾਜ	2
▁ਵ੍ਧ	2
▁ਰੇਸਤੋਰਾ	2
▁ਜੇਮਗਾਂ	2
ਪੁਜਾਰੀ	2
▁ਸੁਧ	2
▁ਰਸਟਾ	2
ੱਕਸ	2
ਸਰੇ	2
ਉਨਮਾਦ	2
ਜਰਨਲ	2
ੀਗੇਸ਼ਨ	2
ੇਸ਼ੋਦ	2
ਦਰ੍ਸ਼	2
ਰਜੀਵ	2
ਦੁਵਾ	2
▁ਸਪੋਟ	2
੍ਰ੍ਸ	2
▁ਰਾਫਿ	2
ਰਿਤੂ	2
▁ਬੱਕ	2
▁ਗੁੰਗਾ	2
ਵਾਇਰ	2
▁ਮੋਟਰਸਾ	2
▁ਸ਼ੀਤਪਿਤ	2
▁ਅਭ੍ਯਾਰਣ	2
▁ਸੇਲਸ	2
ੱਤਾਨ	2
▁ਢ੍ਕ	2
ਭਾਸਾ	2
▁ਫੁੱਲਦਾ	2
ਰੰਡ	2
▁ਮਨੂ	2
ਜ਼ਾਨਾ	2
▁ਬਾਕੇ	2
▁ਸਾਂਤਾਕ	2
ਿੰਕ	2
ਮੋਨੀਆਂ	2
ਊਡ	2
▁ਮੋਰੀ	2
▁ਛੀੜ	2
ਦਾਵਾ	2
▁ਲਹਿਰਾਉਂਦੀ	2
▁ਸੋਚੀਏ	2
▁ਕਾਲਪ	2
▁ਕਲਬ	2
ਅਪਰਸ	2
ਛੇਕ	2
ਕੰਡੇਦਾਰ	2
▁ਨੀਰੋ	2
▁ਪੇਮਾਲਿੰਗ	2
ਿਜੀਜ	2
▁ਸੈਲਿਸਿਲਾਸ	2
ਬਰਨ	2
ਾਚਲ	2
ਰਸ਼ਨ	2
ਾਊਮ੍	2
▁ਮਾਈਲੋਸਾਈਟਿਕ	2
▁ਲਿਮਫੋਸਾਈਟਿਕ	2
੮੭	2
ਮੇਦਾ	2
▁ਘਰਵਾਲ	2
ਜੁਸ਼ਾਦ	2
▁ਰਿਸ਼ਤੇ	2
ਗਾਥਾ	2
ਟਾੱਪ	2
ਵਸਤਿ	2
▁ਫ਼ਾਸਫ਼ੇਟ	2
▁ਨਿਰੰ	2
▁ਗੁੰਡਲ	2
ਤਸੁ	2
▁ਬੇਦਨੀਕੁੰਡ	2
ਬਗੂਆਬ	2
ਾਸਾ	2
ਕਲੱਬ	2
▁ਅਟਾਰੀ	2
▁ਵਹੀਟ	2
▁ਲਯੂ	2
ਗਾਲ	2
ਰੀਦਿੰਗ	2
▁ਕੰਫ	2
ਗ੍ਰੰਥ	2
ੈਲਿਰਿ	2
▁ਵਿਸ਼ੇਸ਼ਤ	2
▁ਪ੍ਰਵਤਾਰੋਹੀ	2
ਗੁਜ਼ਰਦ	2
ਬੀਰ	2
▁ਕਲੈਰੀ	2
▁ਬਾਅ	2
ਬਾਮ	2
▁ਰੁਕਾਵਟਾ	2
▁ਕੂਰਡ	2
▁ਡਾਇਫ	2
▁ਪਾਵਾਂਗ	2
ਜਾਜ	2
ਉਤੇਜਨਾ	2
ਸ਼ਟਾ	2
ਬੇਹੋਸ਼ੀ	2
▁ਕੈਲੰਡ	2
▁ਜਰਮ	2
ਵਿਵਹਾਰ	2
ਆਇਲ	2
▁ਪੈਰਾਮੈਡੀਕ	2
ਰਾਵੀ	2
▁ਵੇਣ	2
▁ਜਗਤੀ	2
▁ਮੰਡਰਾ	2
▁ਬਛ	2
ੇਂਦਰੀ	2
ਹੱਥਾਂ	2
▁ਗਿਲਟੀਆਂ	2
▁ਵੇਜੇਨਾਈ	2
ਘਾਟੀਆਂ	2
੍ਰਿਸ਼ਟੀ	2
ੰਮ	2
▁ਸਤਨਧਾਰੀ	2
▁ਰੇਪਟਾਇਲ	2
▁ਫਿੰਗਰ	2
ੜਾਕ	2
੍ਰੰਪ	2
ਦਾਇ	2
ਰਟਮੈਂਟ	2
ਗਜ਼	2
ਤਰੋ	2
▁ਉਨੀਰਿਆ	2
ਾਤੀ	2
▁ਚਿਲਡ੍ਰਨ	2
▁ਅਨਪੜ੍ਹ	2
ੇਕਿੰਸੰਸ	2
▁ਮੈਡੀਸ	2
ਫਰੈਸ਼ਨਰ	2
▁ਨਾਈਨ	2
▁ਟੋਲ	2
▁ਮੁਰਤੀ	2
ਵਿਸ਼ਣੂ	2
▁ਵਿਅਕਤੀਆ	2
ਕੁਚਛ	2
ਨੇਰੀਆ	2
ੰਥ	2
▁ਖੀਲ	2
▁ਚੜ੍ਹੇ	2
▁ਪੂਜਨਾ	2
▁ਗ੍ਰਭ	2
ਿਰੂਕ	2
ਪਿਪਲੀ	2
ਚਿਥੜੇ	2
੍ਸਤ	2
ਇਥੂਜਾ	2
▁ਟਹ	2
ਵੇਰਿਸਿਲ	2
▁ਪਾਊ	2
▁ਪੰਚਮੜ	2
ਮਸ਼ਰੂਮ	2
▁ਮਫ਼ਲਰ	2
▁ਮੈਗਨੇਸ਼	2
▁ਫੋਸ	2
ਨਿਯੋਜ	2
▁ਪ੍ਰਤੀਬੰਧ	2
ੱਤਿਆ	2
▁ਕੋਸ਼ਾ	2
▁ਭਵਾਲੀ	2
NF	2
ਹੁ	2
▁ਕਟਾਵ	2
▁ਆਕਰ੍ਸ਼	2
▁ਦੋਰਸ	2
ਵਾਇਸ	2
ਲਵੇ	2
▁ਯਾਤ	2
ਲਕੋਏ	2
▁ਘੁਮਾਓ	2
ਫ਼ਲਸ	2
ੇਲ੍ਯੂ	2
ਮੋਹਰਾ	2
▁ਅਭਯ	2
ਗਡੰਡੀ	2
ਗੋਡਿਆਂ	2
ਿਸਕ	2
ਾਦਿ	2
ਧਾਤੂਖੀਣਤਾ	2
ਅਤਿਅੰਤ	2
ਮਲੇਰੀਆ	2
ੁਆਇ	2
▁ਕਲਾਕਿਰਤੀਆ	2
▁ਕੁਸ਼ਕਾ	2
▁ਅੱਛੀ	2
ੇਂਗੂ	2
ਸੱਜ	2
▁੧੮੬੨	2
▁ਗੁਟਕ	2
▁ਮਨਮ	2
ਚੌੜੇ	2
▁ਇਟ	2
▁ਸਾਹਿਤਕਾਰ	2
▁ਨਵੰ	2
▁ਏਬੀ	2
ਏਕਿਊਟ	2
ਫਾਰਾ	2
▁ਟੈਟੂ	2
▁ਨਵਦੰਪਤੀ	2
▁ਪ੍ਰਤੀਸ਼	2
ਿਠ	2
▁ਚਮਚਮਾ	2
▁ਅਮੂ	2
▁ਸਪਤਧਾਤੂ	2
▁ਔਜ	2
ਟੀਕਨ	2
ੇਲੋ	2
▁ਡੋਲਾ	2
ਕਾਰਡੀ	2
ਵਿਦਿਆਰਥਣਾਂ	2
▁ਸੰਬੱਧ	2
ਟਯੂਟ	2
ਐ	2
▁ਦਓ	2
ਲਿਕਾ	2
▁ਵੁਡ	2
ਰਬੁਲ	2
▁ਬਾਦਾਮੀ	2
ੌਸ	2
▁ਕਵਕਨਾਸ਼	2
▁ਵਸ਼ਿਸ਼	2
▁ਹਾਈਜਿਨ	2
▁ਸੁਲਝਾ	2
▁ਜੁੱਬਾ	2
▁ਵਢ	2
ਤਿਸ਼	2
▁ਭਿਜ	2
▁ਐਡੋ	2
ੋਮਾਇਓ	2
ਪੇਂਸੀ	2
▁ਮੁਸ਼	2
ਕਾਜੀਰੰਗਾ	2
ਐਡਮ	2
ਨੰ	2
▁੦੧੨	2
▁ਮੋਰਨੀ	2
▁ਪਾਰਿਸਥਿਤ	2
ਈਪਿਡਸਿਰਜ਼	2
▁ਉਖੜਨਾ	2
੍ਨਾਥ	2
ਾਰਣਯ	2
ਪੁਸ਼ਕਰ	2
▁ਖੱਟ	2
ਊਂਟੇਨ	2
▁ਹਮਪੀ	2
▁ਰਿਗ	2
ਲਿਹਾਜ਼	2
▁ਕਿਉਮ	2
ਦੇਖਦੇ	2
ੰਟੇ	2
▁ਅੜ	2
ਬਿਜ	2
▁ਧਮਨੀਆ	2
▁ਭਗਨਾਵਸ਼ੇ	2
▁ਛਁ	2
ਬੀਸ	2
ਕਵੈਰੀ	2
ਕੇਨਾ	2
ਕੌਰਟ	2
ਬੈਲਾਗਰਨ	2
▁ਸਿਰੀਜ	2
▁ਦਵਾਰਕਾ	2
▁ਸਿੰਡਰੋਮ	2
▁ਪੈਂਪਰ	2
▁ਇਤ	2
▁ਬਲਿ	2
▁ਜਾਫਰਾਨ	2
ਤਰੂਨ	2
▁ਅਕ	2
▁ਡਿਜ਼ਾਈਨ	2
▁ਟੱਟ	2
ਭੈਣਾਂ	2
▁ਜਿੰ	2
ਹਵਾਈ	2
▁ਫਰਮਾਓ	2
▁ਗੂੰਗੇ	2
ਮਾਉਂ	2
▁ਸੁਆਦਲ	2
▁ਸਪੰ	2
ੂਗਾ	2
▁ਮੰਕੀ	2
ੂਕ	2
ਮੁੱ	2
▁ਲਲਚਾ	2
▁ਵੁਵਕਦੋਸ਼	2
ਰਲੈਂਡ	2
▁ਮਾਂਗ	2
ਸੁਲ	2
▁ਸਥਿਲਤਾ	2
▁ਛੋਤੀ	2
▁ਟ੍ਰੇ	2
▁ਨਕਸਲ	2
▁ਯੁੰਗ	2
▁ਕਾਰਪੇਟ	2
▁ਟਰਾਉ	2
ਜਰਸ	2
▁ਝੁਲ	2
ਫੈਲ	2
ਸਤਨ	2
▁ਪੁਰਸਥ	2
ਅੰਡਕੋਸ਼	2
ਿੰਸ	2
ਸੌਂਧੀ	2
ਲਿਟ	2
ਪਹਾੜੀਆਂ	2
▁ਚਲਾਉਦੀ	2
▁ਮਾਟਟ	2
▁ਭੜ	2
▁ਗੁਣਗ	2
▁ਮਿਊਜ	2
ੱਇਲ	2
▁ਪੈਰਾਫਾਈਮੋਸਿਸ	2
▁ਪ੍ਰਤਿਸ਼	2
▁ਰਜੋਨਿਵ	2
ਮਾਸਿਕਧਰਮ	2
▁ਕਮਹੇੜੇ	2
▁ਲਯੂਕੀਮੀਆਂ	2
▁ਪਾਂਡੂਰੋਗ	2
▁ਰਸ਼ੌਲੀ	2
▁ਕੱਛੂਕੁੰਮ	2
▁ਭੰਵਰ	2
▁ਸ਼ਹਿਰੀਕਰ	2
▁ਏਟ	2
▁ਟ੍	2
▁ਏਮਏਮ	2
▁ਚੰਦਨਵਾੜ	2
ੋਵੋ	2
▁ਲੋਮੋ	2
ਪਾਨੇਰ	2
ਧਵੰਸ਼	2
▁ਸਧ	2
ਯੋਜਨਾ	2
ਾਹਰਲ	2
▁ਸਲਨਾ	2
▁ਸਹੇਜਨ	2
ਵਣਫੁੱਲ	2
ਖਾੜੀ	2
▁ਕੈਪੀਟੋਲ	2
ਹਕ	2
▁ਫ਼ੋਟ	2
▁ਸੰਤਰ	2
▁ਦੇਸ਼ਭਗਤ	2
▁ਸਕ੍ਰਬ	2
ਸ਼ੂਨ੍ਯ	2
▁ਅੰਬਰੀ	2
▁ਜੰਬ	2
▁ਬੁਸ਼	2
▁ਕਾਰੋਬਾਰੀ	2
▁ਬਰਜ	2
▁ਉੱਨ	2
ਆਨੰਦ	2
ੋਨਮਾ	2
੍ਰਿਸਟ	2
▁ਇਨਵੇ	2
ਸਿਟਗ	2
ਪੱਥਰਾਂ	2
▁ਮਸਾਨਜੋਰ	2
਼ੇਰਿਨ	2
ਬਾਕਸਿੰਗ	2
▁ਭਿਲੰਗ	2
ਲੀਵਰ	2
ਦੀਘਾ	2
ਸਰਕਾਰੀ	2
ੋਨੈਨਥ	2
▁ਟ੍ਰਾ	2
ਕੋਮਾ	2
▁ਪ੍ਰੋਫ	2
▁ਜਿੰਜੀਵਾਈਟ	2
ਸੇਨਾ	2
ਏਵੇ	2
▁ਖੂਬਸੂਰ	2
▁ਗੈਂ	2
▁ਮਹਾਂਪਰ	2
ਛਾਈ	2
▁ਬਿਰਹੋ	2
ਉਰਾ	2
▁ਚੂਜ	2
ਜੌ	2
▁ਸੁੰਤਲ	2
▁ਥੈਲੇਸੀਮੀ	2
▁ਲੈਕੀਟ	2
ਟੱਲ	2
ਭਰਾਵ	2
▁ਡੁੰਘ	2
▁ਮਾਈਗ	2
▁ਆਯੂ	2
▁ਮੇਟਾਸ	2
▁ਬਿਲੇ	2
ਬਿਰਤਾਂਤ	2
▁ਡੈਨਜ	2
ਅਨੁਸਾਰ	2
▁ਬੋਗ	2
ੋਰਡ	2
ਗੋਂਡਾ	2
▁ਬਨੀ	2
੧੮੩੨	2
ਮੈਂ	2
ੋਮਿਨਾ	2
▁ਤੰਜ	2
▁ਪ੍ਰਾਕ੍ਰ	2
▁ਵਿਆਧੀ	2
ਨਡਾ	2
ਪਲੇ	2
ਰਿਜ	2
▁ਸੰਗ੍ਰਾਹਿ	2
▁ਪ੍ਰੋਟੋਜੋ	2
▁ਜਲਚਰ	2
▁ਚੁਕਾਉਣ	2
▁ਡਾਇਬਟੀਜ	2
▁ਪ੍ਰੋਸ	2
▁ਉਤਪ੍ਰੇਰ	2
▁ਗਵਾਚ	2
ਗਾਜ਼	2
ਟੈਕਸੀ	2
▁ਅਜਮਾਉਂਦ	2
ਾਰਿਕ	2
ੰਯ	2
▁ਬੱਦ	2
ਰੰਗਾ	2
▁ਕੈਲ੍ਸ਼ੀਅਮ	2
ਸੀਜ਼	2
ਰਹਿ	2
ਕ੍ਰੀਮ	2
ਤਾਲਵੀ	2
▁ਪਾਂਡੁ	2
▁ਐਕਲ	2
ਯੂਰਪ	2
▁ਪਲਪ	2
▁ਜੰਸਕਾ	2
▁ਫ਼ੰਬ	2
ਜਣਾ	2
▁ਪਾਲਮੀਰਾ	2
▁ਅਮੋਨੀਆਂ	2
ਟ੍ਰਸ	2
▁ਡੋਵ	2
ੁੜ	2
ਲੰਬੀਆਂ	2
▁ਗਾਹਕ	2
▁ਛੱਤਰਪੁਰ	2
ਂਗੇ	2
▁ਰਯੂਮੇਟ	2
▁ਕੰਚ	2
ਕੁੱ	2
▁ਮਯੂਟੇਸ਼ਨ	2
▁ਰੇਂਜਰਸ	2
ਾਹਿਣੀ	2
ਗਠਿਤ	2
ਜਨੇਰ	2
ਿਆਲ	2
▁ਬੋਮ	2
▁ਜੀਜ	2
▁ਸੱਤਿਆ	2
ਸਤੋਪੰਥ	2
▁ਚੌਖੰਭਾ	2
ਸਕੇਟਸ	2
ੜਕਣ	2
▁ਵਿਸਫ਼ੋਟ	2
▁ਟਿੱਪਣੀ	2
▁ਜੇਵਰਾ	2
▁ਫ਼ਾ	2
▁ਕੰਪਾ	2
ਲਿਪਟਸ	2
▁ਰਾਖਸ਼	2
▁ਬੈਨਜ	2
▁ਸਬਸਟੇਨਸ	2
▁ਨਾਈਗ੍ਰ	2
▁ਬੈਨਰ	2
▁ਮਕਰ੍ਯੂਰ	2
▁ਲੁਟ	2
ਇੰਡੀਆ	2
▁ਅਸਮੱਰਥ	2
ਸੌਣ	2
ਦਿਮਾਗੀ	2
▁ਜਵੇਲ	2
▁ਜਾਣਗੀਆ	2
▁ਰਖ	2
▁ਦੇਵਲਟਾਂ	2
▁ਚਟਟੀ	2
▁ਗਾਇਡਲਾਈਨ	2
▁ਅਨ੍ਯ	2
ਹਨਾ	2
▁ਪਲੂਰਿਸੀ	2
▁ਹਿਸਟੀ	2
▁ਪਾਟਲੀਪੁ	2
ਯੰਤ	2
ਸਪੀਟਲ	2
▁ਫਿਜੀਸ਼	2
▁ਸੋਮਾ	2
▁੩੪੦	2
▁ਵਾਪ	2
▁ਵਿਭਿੰ	2
▁ਪ੍ਰੋਬ	2
▁ਭਿਤ	2
▁ਸਿੰਧੀ	2
ਾਚੀ	2
ਸੁਖ	2
▁ਬਲਾਕੇਜ	2
ਸ਼੍ਰੇਸ਼ਟ	2
ਕਵੀ	2
ਸੇਹਤ	2
▁ਪਿਯਾ	2
▁ਇੰਨਫ਼	2
ਬੇਵਕ	2
ਚਾਲਾ	2
▁ਫਾਰਮੇਸੀ	2
▁ਖੌ	2
▁ਰੇਚਕ	2
ਸਪੋਰਟਸ	2
▁ਦੁੱਖਦਾ	2
▁ਗੋਗ	2
ਮੁੰਡੋ	2
▁ਮਸਕ	2
▁ਦੇਖੋਂ	2
▁ਅਵਿਵਸਥ	2
▁ਹੈਂਡੀਕ	2
▁ਅਣਸ	2
ੇਫ਼	2
ਗ੍ਰੇਫ	2
▁ਕਰਾਉਦੀਆ	2
▁ਅਪਨ	2
ਪਾਚਨ	2
▁ਦਖਾਉ	2
▁ਸਾਹਰੋਗ	2
▁ਐਨਕਾ	2
ਯੂਨਿ	2
ਕੁਡ	2
ਾਲਿਆ	2
੧੮੯੬	2
▁ਸਮੋ	2
▁ਉਪਭੋਗ	2
▁ਚੜ੍ਹੋ	2
ੀਯਨ	2
ਅਜੀਰਣ	2
ਆਸ਼ਰਮ	2
ਦੰਡ	2
▁ਅਠ	2
ਗਾਜੀ	2
▁ਪ੍ਰ੍ਸ਼	2
▁ਖਾਦਾ	2
▁ਬਰਾਡ	2
▁ਸ਼ਿਮ	2
ਕੁਚ	2
▁ਸਰਾਫ਼	2
▁ਨੀਡ	2
▁ਪਰਾਅ	2
▁ਰੀਫ	2
ਕਾਨਿਟਨ	2
▁ਕੈਟਾ	2
ਫਰਸਟ	2
ਏਡ	2
▁ਮੋੜਨ	2
ਮਰੋੜ	2
▁ਸਰਸ	2
▁ਦੀਪਾ	2
▁ਮਾਨਵਸ਼ਾਸਤਰ	2
▁ਯੂਕੇ	2
ਚਿੰਨ	2
▁ਸੌਂਕ	2
▁ਦੌਲਤਾਬਾਦ	2
ਯਾਦਵ	2
▁ਪ੍ਰਦਿਕ	2
ਛਣਾ	2
▁ਓਸ਼	2
ਚਮਪਾਵਤ	2
ਕਲਿਆਣ	2
▁ਫੁਸਫੁਸ	2
ਕਰਯੁ	2
ਜਿਗਰ	2
▁ਵਯਪਾਕਸ਼ਯ	2
ਾਵਟੀ	2
ਚਿਛਕ	2
▁ਸਿਟ੍ਰ੍ਪ	2
▁ਸੁਣਾ	2
ਫ੍ਰੀ	2
▁ਬਿਰਾਦਰੀ	2
▁ਸੰਪ੍ਰ੍ਦਾਇ	2
▁ਪੇਰੀਟੋਨੀਅ	2
ਰਾਮੇਸ਼ਵਰ	2
▁ਕੋਲਮ	2
▁ਕੋਟਟ	2
ਪ੍ਰ੍ਦਰ	2
▁ਸੂਡਸਾਗਰ	2
▁ਗਡਗ	2
▁ਲੋਂ	2
▁ਖਿਚਵਾ	2
▁ਬੁਲਬਲਿਆ	2
▁ਨਿਯੰ	2
ਜੁੱਲਣ	2
▁ਢੋਲਾ	2
ਾਗਿਨ	2
▁ਬੇਇੱਜ਼ਤ	2
ਰੋਸਿ	2
▁ਨੀਲਾਕ	2
ਭੱਜ	2
▁ਸ਼ਾੱਪ	2
▁ਦੁਬਲਾਪਨ	2
▁ਊਟ	2
ਕਮੰਡ	2
▁ਅਪੀਲ	2
▁ਫ਼ਲੋ	2
▁ਤਰਾਸ਼ਿਆ	2
▁ਸਰਪ	2
▁ਭੁਜੰਗਾ	2
ੂਚ	2
▁ਤਪੱਸਵ	2
ੂਚਨ	2
▁ਜਨਨਾਂਗ	2
▁ਅਰਧਕ	2
ੀਆਈ	2
▁ਏਸਿ	2
▁ਥੋਰੋਸਕੋਪ	2
▁ਕੋਹੜੀਆਂ	2
ਕੋਹੜ	2
▁ਸੰਕਟਮੋਚ	2
ਵਧਦੇ	2
ਗੁਧ	2
੍ਰੰਸ	2
▁ਕੋਲਾਯਤ	2
▁ਚੜ੍ਹ੍ਨਾ	2
ਲਕੋਟ	2
▁ਬਨਾਉਂਦ	2
▁ਬਘਨਖ	2
▁ਲਿਨੀਮ	2
ਡੇਲ	2
▁ਬੀ੦	2
▁ਕੰਨਟ	2
ੂਨਿਯ	2
ਲਿੱਪੀਆਂ	2
▁ਕੌਟਿ	2
ੀਨਮ	2
▁ਤ੍ਰਿਰੂਪਤੀ	2
▁ਤਿਰਪੁਰ	2
▁ਚੇਰੂਤੋਣੀਪ	2
ੁੱ	2
ਸਾਲਾ	2
▁ਕਿਲੋਂ	2
ਫ਼ੋਨ	2
ੀਨੇ	2
▁ਜਮਾਉਂਦ	2
▁ਸ਼ਾਦਿ	2
▁ਤਤਵ	2
▁ਵ੍ਯਾ	2
ਯਾਮ	2
ਮਿਲਨ	2
ਾਰਡ	2
▁ਅਰੇ	2
੍ਲਕ	2
▁ਬਾਂਦੀ	2
ੰਘ	2
▁ਬੇਨੀ	2
ਡਿਅਮ	2
):	2
▁ਮੰਜੂਸ਼ਾ	2
▁ਸੰਭਾਵਤ	2
▁ਅਖਬਾਰਾਂ	2
▁ਸੇਂਕ	2
▁ਓਆਹੂ	2
▁ਸ਼ੇ	2
ਰਬ	2
▁ਪ੍ਰ੍ਵ	2
▁ਤਿਰਛ	2
ਐਕਸਰਸਾਈਜ਼	2
▁ਕਿਰਿਆਕਲਾਪ	2
▁ਪਰੈਗਨੈਂ	2
ਜੇਲ	2
▁ਪਰਿਸਥ	2
ਸਿਮਫਾਈਟ	2
▁ਪਥਰੀਆਂ	2
▁ਹਾਥੀਆ	2
▁ਹਰੀਤਕ	2
▁ਮੂਰਖ	2
ਦੁਰ	2
ਚਿਕਤਿਸਾ	2
ਬਹਾਦਰ	2
ਵਿਰਤ	2
▁ਸੌਂਦਰੀ	2
ਪਚਾਰ	2
ਂਗਤ੍ਰਕ	2
▁ਜੁੜਦੀ	2
▁ਹਿੱਪ	2
▁ਪਰਫ਼ਿਊਮ	2
ਦਰਵਾ	2
ਸੰਖਿਅਕ	2
ਾਜੋਲ	2
ਅਨਸੈਚੁਰੇਟ	2
ਅਬ	2
▁ਬੈਸੀਲੀਨਮ	2
▁ਮੋਨੋਅਨਸੈਚੁਰੇਟ	2
▁ਲੱਬੀ	2
▁ਸਨਾਯੂਤੰਤ	2
ਸੋਫੇਜ	2
▁ਬਿਊਟੀਪਾਰਲਰ	2
ਕਟਿਵ	2
▁ਫਰਾ	2
▁ਡਿਕੇ	2
ਨਡ੍ਰਾ	2
ਤੰ	2
ਅਦਵਾਨੀ	2
ਅਲਪਾਈਨ	2
ਪਿਲੇਪਸੀ	2
ਦਰੂ	2
ਚਿੱਤ	2
ਬਲਾਕੇਜ	2
ਕਿਲੋਮੀਟਰ	2
▁ਫੇਫੜ	2
▁ਸਿਮੀ	2
ਯੂਗਾ	2
▁ਤੜੋ	2
ਭਾਰਤੀ	2
▁ਮੋਰਾ	2
ਫੇਰਮਫਾ	2
▁ਰਿਕ	2
▁ਬਿਲਵ	2
▁ਇੰਡੀਜ	2
▁ਆਂਧਰ	2
ਜਿਲ	2
ਤਃ	2
▁ਸੰਕੁਚ	2
ਕਾਂਸੁਵਾ	2
▁ਫ਼ਟਣਾ	2
▁ਐਲੋ	2
ਈਸਟ	2
ਆਕਸੀਡੈਂਟਸ	2
▁ਅੰਥੋਸਾਈਨਿਨ	2
ਲਾਜਿਟੇਨਿ	2
ਗੌਰ	2
੦੮	2
੨੧੭	2
▁ਹੱਦੀ	2
ਮੇਂ	2
ਹਰਿਗੰਗਾ	2
▁ਕ੍ਰਮੀ	2
▁ਲੰਘੀ	2
ਉਡੀ	2
▁ਰਕਤਸ੍ਰ	2
▁ਗਰਭਸਥ	2
▁ਸਾਨ	2
੨੦੧੦	2
▁ਪਿਛੜ	2
▁ਅੰਕੁ	2
▁ਗਢਸੀ	2
▁ਪ੍ਰੋਫ਼	2
ਜ਼ਾਇਨ	2
▁ਚਾਹੁੰ	2
▁ਓਨਰ	2
ੀਬਾੜੀ	2
▁ਹਿਫ	2
ਨੈਤਿਕ	2
▁ਨਗਾ	2
▁ਗੁਲਮੋਹਰ	2
▁ਨੀਲਕੁਰ	2
ਰੀਬਾ	2
▁ਛਿੱਪੀ	2
▁ਨੋਚ	2
ਿਨਥੀ	2
▁ਪਰਵਤਾ	2
▁ਅੰਡਰਗਾਰਮੈਂਟ	2
ਪਦਮ	2
▁ਫ਼ੋਲ	2
ਸਹੂਲਤ	2
▁ਫ਼੍	2
ਵਿਅਸਤ	2
▁ਕਾੱਮ	2
ੀਣਤਾ	2
ਵੈਧ	2
ਕ੍ਰਿਸਮ	2
ਫਿਸ਼	2
ਚਿੜੀਆ	2
ਚੁਪ	2
ਾਰਿਆਂ	2
ਨਵੀਆਂ	2
▁ਹੌਬੀ	2
▁ਆਜੀ	2
▁ਸਿਸਟਰ	2
▁ਜੋਗਿੰਦਰ	2
▁ਵਾਸ਼ਿੰਦ	2
▁ਸੰਤੁਲ	2
ਮਾਰੂਥਲ	2
▁ਕੋਬਾਲਟ	2
ਰਾਜ਼	2
▁ਗਵਰਨ	2
ੋਲਾਜਿਸਟ	2
▁ਸ਼ਿੰ	2
ਜਵੀ	2
ਰਿਯ	2
▁ਕਾਂਟਿਨ	2
▁ਜਹਾਂ	2
▁ਹੌਲ	2
ਹੱਥਕਲਾ	2
ੰਦੇ	2
▁ਕੰਢ	2
▁ਵਾਤਾ	2
▁ਚੌਪ	2
▁ਟੁਕ	2
▁ਪੇਲੀ	2
ਓਲੀਟਿਸ	2
▁ਜ਼ਿੰਮੇਦਾਰੀ	2
▁ਬੰਨੋ	2
ਗਲਿਸਰੀਨ	2
▁ਆਕਸੀਡ	2
ਦੇਹਰਾਦੂਨ	2
ਫਾਈਟਿਸ	2
ਪੱਧਰ	2
ਨੋਰਮ	2
▁ਸ਼ਰਾਰਤ	2
▁ਉਦਯੋਗਪਤੀ	2
ਸ਼ਾਂ	2
ਤਾਬਾਂਖਾ	2
ਨੀਕਾਂ	2
ਉੱਚੀ	2
▁੮੩੪	2
ਟੇਂਸ਼	2
▁ਪਿਸ਼ਾਬਘਰ	2
ੋਤਸਵ	2
ੈਂਤੀ	2
ਗ੍ਰਿਹ	2
ਪੱਟੀ	2
▁ਓਰੇਲ	2
▁ਪ੍ਰਫ਼ੁਲਿ	2
▁ਉਦੀਪਕ	2
ਨਿੰਮ	2
ੱਗਿਆ	2
▁ਅਸੰ	2
▁ਬਨਾਉਂਦੀ	2
ਬਰਹਟਟ	2
ਚਾਲੀ	2
ਮਿੱਤਰ	2
▁ਸੈਮੀ	2
ੂੰਗਾ	2
ਮੋਨੋਪਾਜ	2
ਸਲਾ	2
ਟ੍ਰਾਮ	2
ਸਮਾਜਿਕ	2
ਮਹਾਂਰਾਸ਼ਟਰ	2
ਬ੍ਰੋ	2
ਟੇਨਮ	2
▁ਸਕਿ	2
ਬਜਰੀ	2
▁ਰੋਹਤਾ	2
ਕਮਜ਼ੋਰੀ	2
ਘੋਲ	2
▁ਚੁੰਘ	2
▁ਸਟੀਮੁਲੇ	2
▁ਇਠਲਾ	2
ਡ੍ਯੂ	2
ਅਸਮ	2
ਜੌਂਗ	2
▁ਭੂਲ	2
ਭੂਲਈਆ	2
▁ਪਦਾਰਥਾ	2
▁ਨੁਮਾਇ	2
▁ਚੌਕੀ	2
੨੦੦੧	2
▁ਮੱਕਾ	2
ਕ੍	2
▁ਕੈਫ਼	2
ਹਾਨੀ	2
▁ਗੁਰਹਾੜ	2
ਸਧਾਰਨ	2
ਚੜ੍ਹਾ	2
▁ਮੈਨਿਕ	2
▁ਬੁੰਦ	2
ਸਥਿਤੀ	2
▁ਅਵਮਿਸ਼ਰ	2
▁ਉਨੀ	2
ਨਾਵ	2
▁ਵਿਸ਼ੇਸ਼ਤਾਵਾ	2
ੱਤੀਆਂ	2
ਫਰੀ	2
▁ਦਹਾੜ	2
▁ਕੁੱਤ	2
▁ਵੱਧੇਗੀ	2
਼ਮਾਨ	2
▁ਤਿਰੁਚਿ	2
ਕਿਆ	2
▁ਚੁਟ	2
▁ਯਦੁ	2
▁ਰੁਚੀਕਰ	2
ਂਜਰ	2
ਛੋਲਿੰਗ	2
ਬੱਲਾ	2
▁ਟ੍ਰੇਂਡ	2
ਚੋਲ	2
▁ਕੌਰਵ	2
▁ਊਸ਼ਾ	2
ਵਟ	2
▁ਘੂਰ	2
ਸਟੀਟ੍ਰ੍ਯੂਸ਼ਨ	2
▁ਸਮਨਵ	2
▁ਪਿੱਤਾਸ਼ਮ	2
▁ਸੀਮ	2
▁ਕ੍ਰਮਵਾਰਃ	2
ਉਅਣ	2
▁ਮਯੂਕੋ	2
ਇਕੋਸਿਸ	2
▁ਕਠਨਾਈ	2
▁ਚਿੱਤਰਕ	2
▁ਜਵਲਨਸ਼ੀਲ	2
▁ਅਨਜਾਨ	2
ੀਸ਼	2
ਗੇਲ	2
▁ਲੱਗੋ	2
▁ਲੁਭਾਉਦ	2
ਬਯਾਨ	2
ਾਗੀਸ਼ਵਰ	2
ਖੜਾ	2
ਬਾਂਧਵਗੜ	2
▁ਸਾਮੰਜਸ	2
▁ਇੰਵੇ	2
▁ਜੇਮਸ	2
▁ਸੰਪ੍ਰ	2
▁ਢਾਚ	2
ਇਮਬ	2
▁ਬ੍ਰਹ	2
▁ਬਿਹੇਵੀਅਰ	2
▁ਦੁਹਰਾਉਂਦ	2
ਡੁੱਬੀ	2
ਪਰਿਯੋਜਨਾ	2
ਥੀਏਟਰ	2
੧੬੨	2
▁ਨੁਕਲ	2
▁ਚਿਲਾਉ	2
ਚੌਰਾ	2
ਰੈਕਸ਼ਨ	2
ੁਝਾ	2
▁ਮਾਉਨੀ	2
ਪ੍ਰਮੰਨ	2
ਖਸੀਅਤ	2
ਡਾਈਜੇਸ਼ਨ	2
▁ਵਾਹਨਾ	2
▁ਜਾਵਾ	2
▁ਪਾਰਥ	2
▁ਮਾਈਕ੍ਰੋਬਾਇਓਲਾ	2
▁ਐਕ੍ਯੂ	2
▁ਸੋਨੀ	2
ਤਪੁਰ	2
▁ਮੈਮਿ	2
ਬੁਰਾਂਸ	2
▁ਪੰਦਰਵੀ	2
▁ਗੂਜਰ	2
ਮ੍ਰਿਗ	2
▁ਕੁੱਕੁਟ	2
ਕੈਮੀਕਲ	2
▁ਸ਼ਾਕਯ	2
੫੩੧	2
▁ਸੰਗ੍ਰਹ	2
▁ਦ੍ਰਿਸ਼ਟ	2
ਪੀਜ	2
▁ਗਵਾਓ	2
▁ਬੋਟਯ	2
ਕਦਾਰ	2
ਲੀਡਰ	2
▁ਸਟੇਰਾੱ	2
▁ਕਾੱਮਿ	2
▁ਪ੍ਰੋਜੇਸਟ੍ਰੋ	2
▁ਅਨੁਕ੍ਰਿਤੀ	2
▁ਰਾਜਮਹਿਲਾਂ	2
ਭਾਂਤੀ	2
▁ਵਿਸੇਸ਼ਤਾ	2
▁ਮ੍ਯੂ	2
▁ਪਟਕਦ	2
ਰੀਬ	2
▁ਕ੍ਰੇਨੀਅਲ	2
▁ਅੱਠਕੋਣ	2
▁ਲੈਣਗੀਆਂ	2
▁ਸਤਾਵੇਗ	2
▁ਕੋਲੋਨ	2
ਪਿਕਾ	2
▁ਫ਼ਰੂਟ	2
▁ਗਲਾਈਡ	2
ਁਥ	2
ਡਿਐਟ	2
▁ਛਡ	2
▁ਅਪ੍ਰਭ	2
▁ਹਵਾਸਿਲ	2
▁ਘੋਘ	2
ਜਲਪੀਹੀ	2
ਸੰਸਕ੍ਰਿਤਕ	2
▁ਸਨਾਤ	2
ੈਨਸਿਲ	2
ਜਲਨ	2
ਫਾਨ	2
ਿੱਟੀ	2
▁ਅਰਥਰਾਇਟਿ	2
ਾਇਲਟ	2
ਜ਼ਹਾਜ਼	2
▁ਮੂਸਲ	2
ਮਾਨੀ	2
ਾਈਬਰ	2
ਓਜ	2
ਕਾਂਤੀਵਰਧਕ	2
ਲਾਈਵ	2
▁ਅਭਯਾਰ	2
ਛਰ	2
▁ਵਾਜਿ	2
▁ਤ੍ਰਿਕੁਟ	2
▁ਸੁੰਢ	2
▁ਦੱਤਾ	2
ਅਨੇਕ	2
▁ਵਿਧੀਆ	2
▁ਬੋਲੇ	2
ਲੰਚ	2
ੀਫ	2
▁ਪਰਸ	2
▁ਪੇਰੀਯੋਡੋਨਟ	2
▁ਇਗ	2
▁ਟੇਮਪ	2
▁ਹੈਂਡੀਕਰਾਫਟ	2
ਸਲਫਰ	2
▁ਬਾਨ	2
ਪੀਐੱਚ	2
ਹੁੰਦਾ	2
▁ਪਰਮੇਸ਼ਵਰ	2
ੰਬਲ	2
▁ਇਨਟਰਵ	2
ਵੇਜ	2
▁ਪ੍ਰਕ੍ਰਿ	2
▁ਨੇਰਚੌ	2
▁ਉਫਣਦ	2
ਚਰਜ	2
ਚੌੜੀ	2
▁ਤਰਕਾਰੀ	2
▁ਲਾਂਗਥ	2
▁ਰੋਜ਼ਗਾਰੋਨਮੁ	2
▁ਮਹਾਸੰਘ	2
ਤਾਲੀ	2
▁ਰਾਖਸ਼ਸਤ	2
ਨੋਇੰਗ	2
ਸੰਪਦਾ	2
▁ਕੁੱਕ	2
▁ਏਥ	2
ਪੇਨਕ੍ਰਿਯਾਜ	2
ਫਸਟ	2
▁ਕਟਰ	2
ਮਤਵ	2
ਵਜ੍ਹਾ	2
▁ਚੁਫੇਰ	2
▁ਜੂਨਿਯਰ	2
ਪਾਇਨ	2
ਥਾਲਾ	2
ਐੱਮਬੀ	2
▁ਬਦਸੂਰਤ	2
▁ਨਿਰਝਰ	2
▁ਚੌਲਾ	2
▁ਰੋਸ	2
▁ਰਾਜਮਹਲ	2
▁ਦ੩ਏ	2
ਿੰਜਰ	2
ੰਤਰਣ	2
ਕੱਟ	2
▁ਦਿਵਾਰ	2
▁ਪੁਸ਼ਪਾ	2
▁ਅਜੀਮ	2
▁ਉਥ	2
▁ਵਿਨਯ	2
ਾਇਮ	2
ੂਬਰਟ	2
▁ਬੈਲਜ	2
ਯ੍	2
ਜੀਰਾ	2
▁ਖਸ਼ਰਾ	2
੍ਦੀ	2
ਬੀਡਸ	2
▁ਚ੍	2
ਘਾਤੀ	2
ਟਾਇਨ	2
▁ਚੜਾਵ	2
ਡਾਇਬੀਟ	2
੍ਰੇਣੀ	2
▁ਪੇਮਾ	2
ਜੁੰਗ	2
ੁੰਗਾ	2
▁ਪੇਂ	2
▁ਕਤਰਾ	2
▁ਟਪਕ	2
▁ਵਾਰਸੂ	2
▁ਜਠ	2
▁ਕਟਿਬੰਧ	2
▁ਗਨ	2
▁ਦੰਡਕ	2
ਢਲ	2
▁ਮੈਤਰੇਯ	2
੍ਯਾਨੀ	2
ਤੁਲਸੀ	2
▁ਆਦਤਾ	2
▁ਬੈਕਟੀਰ	2
▁ਇੰਸਟ	2
▁ਸਿਟ੍ਰਕ	2
ਨੀਂਦਰਾ	2
▁ਨ੍ਸ਼	2
▁ਐਵੋਕ	2
ਕੋਰੋਨ	2
ਐਡ	2
▁ਚੰਪਾਕ	2
ਗੰਭੀਰ	2
ਡੋਮੇ	2
▁ਸੈਂਕਚੁ	2
HbA1	2
▁ਨੈਫ਼੍ਰੋ	2
▁ਪੇਲੀਕਨ	2
▁ਏਨੇ	2
▁ਬਡਕ	2
▁ਆੱਕ	2
▁ਪ੍ਰਾਯ	2
ਰਾਜਿਆਂ	2
▁ਵਾਸ਼ਪੀਕਰ	2
▁ਬਰੇਕ	2
▁ਖੇਤ੍ਰ	2
▁ਡੋਗਰ	2
▁ਉਭਰੀ	2
▁ਸ਼ਰਟ	2
ਰਟਸ	2
▁ਰਖਣ	2
▁ਗਢ	2
ਡਲਹੌਜੀ	2
▁ਲਿਕੋਰ	2
▁ਚਹੂ	2
ਿੰਡਾ	2
ਵਧਾਨ	2
▁ਨਾਗੋ	2
ਕੀਰਾ	2
▁ਜੇਲਸੀਮਿਅਮ	2
ੌਂਠਾ	2
▁ਤਲਛ	2
▁ਨਿਸ	2
▁ਪਿਸ਼ਟੀ	2
ਬ੍ਰਾਹਮ	2
▁ਬੀਰ	2
ਲਾਈਡਿੰਗ	2
▁ਕਲੰਕ	2
▁ਵਜਰ	2
▁ਬਾਵੇ	2
▁ਪੌਰ	2
▁ਲੌਰ	2
▁ਖੋਡ	2
▁ਆਸਿਫੁ	2
੍ਕਾਰਾ	2
▁ਪੋਲਿ	2
▁ਸ਼ਲੇਛਮ	2
▁ਵਿਕਟੋਰੀ	2
▁ਖਾਤਿਰ	2
▁ਮਾਧ	2
ਮਹੇਸ਼ਵਰ	2
ਮਾਈਡ	2
੫੩	2
▁ਆਯੋਜਨਾ	2
▁ਕੇਸ਼ਰ	2
▁ਚੈਤਰ	2
▁ਘਸੀਟ	2
ਮਓ	2
ਨੰਤ	2
▁ਕਲੈਰੀਸੇਜ	2
੍ਜੀ	2
ਗਜੀ	2
▁ਵ੍ਰਹ	2
▁ਪੰਛ	2
▁ਸੇਨਟ	2
▁ਪਰਿਵਾਰਜ	2
▁ਝੁੰ	2
ਨਿੰਮੀ	2
ਮੇਥਾ	2
ਨਰਸਿਮਹਾ	2
▁ਪ੍ਰ੍ਯਟਕਾ	2
ਫਰਿਨ	2
▁ਜਲਾਪੂਰਤੀ	2
▁ਅਲਾਉਦੀਨ	2
▁ਐਂਡੋ	2
੍ਯੂਨ	2
▁ਕਰਮਚਾਰੀਆ	2
▁ਅਨੁਸ਼ਾਸ	2
ਛਾਇਆ	2
ਸਬੰਧ	2
ਅਵਲੇਹ	2
▁ਪੁਡਿੰਗ	2
▁ਕਸਟਰਡ	2
▁ਪ੍ਰ੍ਚਾਰ	2
ਕੋਰਮ	2
ਰੱਖਿਅਕ	2
ਮੈਟਾਬਾਲਿਕ	2
▁ਸੰਕਰਾਂਤੀ	2
ਸ਼ਤਰੀ	2
ਾਇਨਾ	2
▁ਟ੍ਰ੍	2
▁ਪੁਲਟ	2
▁ਪੁਸ਼ਾਕ	2
ਊਣ	2
▁ਭੀਮਾ	2
▁ਭਾਮਰੀ	2
ਟਾਇਜ	2
ਕੇਬਲ	2
ਲਾਇੰਗ	2
▁ਦਿਵਾਨ	2
▁ਔਰੇਂਜ	2
▁ਮਹੁੱਈ	2
ਾਦਸ਼	2
▁ਮੈਕਸੀਕ	2
▁ਅਮ	2
ਆਤਸ਼ਕ	2
ਚੰਦਨੇਸ਼ਵਰ	2
▁ਬਿਤਾਓ	2
ਉੱਤਰਕਾਸ਼ੀ	2
ਰਈਸ	2
▁ਸਕਾ	2
ਠਿਠ	2
▁ਪੀਰੂਮ	2
▁੦੧੯੦	2
ਸੰਸਥਾਨ	2
▁ਦਰੱਖ	2
ਮੈ	2
▁ਐਨਟਾਸਿਡ	2
ੇਨਟ	2
ਯੋਮਿ	2
▁ਲਿਲੀ	2
▁ਬਲਿਕ	2
▁ਸੇਕਸੁ	2
ਏਯ	2
▁ਚਤੁ	2
ਮਿਥੁਨ	2
ਸਰਜੂ	2
▁ਗੁਨ	2
▁ਵਿਦਿਆਲਿਆ	2
ਰਮਾਲਾ	2
▁ਮਨਮੋਹਣੀ	2
ਬਾੜ੍ਹ	2
▁ਆਰਥਰਰਾਇਟ	2
ਿਣ	2
ਤਰਾਈ	2
▁ਮਾਸਕਸ	2
▁ਸਾਨਿਧ	2
ਜੰਗਲਾਂ	2
▁ਏਅਰਲਾਈ	2
▁ਸਵਪਨ	2
▁ਅੰਨਾਪੂਰ	2
ਭੋਜ	2
ਫੇਨ	2
▁ਕਕਛ	2
▁ਯਦੂ	2
ਯਾਰੀ	2
▁ਅਪ੍ਰਸੰਗ	2
▁ਗ੍ਰਿਹ	2
▁ਗਲਾਈਕੋ	2
▁ਦੁਰੂ	2
▁ਘੁੱਮਕੜ	2
▁ਸੁਲਫ਼	2
ਸ਼ਿਸ਼	2
▁ਸਨਕੀ	2
ਸਾਧ	2
▁ਮੈਗਸਲਫ	2
▁ਸੀਕੇਡੀ	2
▁ਡਿਸਪੋਜ	2
ਸ਼ਵਭਾਗ	2
▁ਪ੍ਰ੍ਚ	2
ਕਸ਼ੀ	2
▁ਸਹ੍ਬ	2
▁ਓਸਿਟ	2
ਪਜਾਮਾ	2
▁ਕੁੜ	2
ਚੇਤ	2
▁ਵਿਸਾਖਾਪ	2
ੱਟਿ	2
▁ਸਿਲੰਡਰ	2
▁ਰੁਪਈਆ	2
ਰੇਟੋਮਲੇਸ	2
▁ਵੈਜੀਟੇਬਲ	2
ਪਾਸਤਾ	2
ਧਾਤਾ	2
▁ਸਾਈਕਾਲ	2
ਆੱਬਲੋ	2
ਗੇਟਾ	2
ਵਿਸ਼	2
ਪਿਓ	2
▁ਹੇਨਰ	2
▁ਪਾਨਮਸਾਲ	2
▁ਸਦਮੇ	2
ਪਦੰ	2
ਅਰਬ	2
▁ਸਾਈਪ੍ਰ੍ਸ	2
ਸੰਚ	2
ਮੂਨੀਆ	2
▁ਅਮਲਾ	2
ੈਯਾ	2
ਜਿਨ	2
ਕਾਰਡਿਯੋਵ	2
ਾਂਕਰੀ	2
▁ਮਹੱਲਾ	2
▁ਬਾਂਗ	2
▁ਹਰਨੀ	2
ਧਾੜ	2
▁੧੬੨੦	2
▁ਨਿਤਮ	2
ਸੰਤੋਸ਼	2
▁ਆਂਕ	2
▁ਪੌੜ੍ਹ	2
ਿਖਿਆ	2
▁ਸਤਪ	2
▁ਛਾਂਟ	2
ਨਟੂਨ	2
▁ਯੋਜਨ	2
▁ਲੈਡ	2
▁ਅਸਿਟ	2
▁ਲੈਕਟੇਟ	2
▁ਕਿੱਥ	2
▁ਰੇਤੀ	2
▁ਕ੍ਰਿਸ਼ਮ	2
▁ਸਾਵਧ	2
੨੨੫੦ਮੀ	2
▁ਜੈਰੇਨਿਯਮ	2
ਅੱਜ	2
ਯੰਤਰਣਾ	2
ਲਬੇਸਟੇਰ	2
ਬਿੱਲੀ	2
./	2
ਸ਼ੈ	2
▁ਚਿਵੜ	2
ਸੁਮੇਰੂ	2
▁ਪੁਰਸ	2
ਪੈਡ	2
▁ਮੰਜੂ	2
▁ਗ੍ਰ੍ਸ਼	2
ਪੱਕੇ	2
▁ਅੰਧਕਾ	2
ਯੂਬਰਕੁਲੋਸਿਸ	2
ਹਾਯ	2
▁ਪ੍ਰਵਾ	2
▁ਲੱਭਦ	2
ਧੱਬ	2
▁ਮੁਕਰ	2
▁ਜੀਰੋ	2
▁ਸੈਲਫ	2
▁ਐਗਜ਼	2
ਰਾਮਾ	2
▁ਝੜ੍ਹਨ	2
ਡੋਨ	2
▁ਸਰਕੁਲੇਸ਼ਨ	2
ਮੈਰਿ	2
ਆਰਦਰ	2
▁ਭੰਨ	2
ਾਇਦ	2
▁ਝੌਂਪੜ	2
ਹਨਾਂ	2
ਗੋਸਥ	2
▁ਪਾਵੇਗੀ	2
▁ਕਾਫਲੇ	2
ਵਾਜਾ	2
▁ਸੋਸਾ	2
ਰੋਂਗ	2
▁ਈਸਵੀਂ	2
ਇੰਨ	2
ਪੇਕਿਟ	2
ਉਦੋ	2
ਪਾਈਲਸ	2
▁ਧਰੁਵੀ	2
▁ਗਲੇਸ਼ਿਅਰ	2
▁ਅਵਰੁੱ	2
▁ਸਮ੍ਰਿਤੀ	2
ਮੀਡੀਆ	2
▁ਸਫ਼ੁਰਤੀ	2
▁ਸ੍ਰੇਸ਼ਟ	2
▁ਸੰਘਟ	2
▁ਆਸਟਰੇਲੀ	2
ਸਿਟਨ	2
▁ਦਾਨਵ	2
ਡੇਂਟ	2
▁ਐਂਗਲੋਇੰਡੀਅਨ	2
੧੯੩੨	2
▁ਪੱਗ	2
ਗੇਯ	2
ਮੂਰਤੀਆਂ	2
▁ਲਘੂਕਾਲ	2
▁ਈਗਲ	2
▁ਹੱਥੋ	2
▁ਲਿਬਰਟੀ	2
ਸਟਾੱਕ	2
ਫਾਯਤ	2
ਮਿਪਯ	2
▁ਤੁਮਡੂ	2
▁ਪਕਾਉ	2
▁ਬਿਟਾਟ	2
▁ਐਂਡਵ	2
ੰਚਰ	2
▁ਸਥੂਲਭਦਰ	2
▁ਅੰਦੇਸ਼	2
▁ਘਟੀ	2
▁ਊਂ	2
ਨੁਮ	2
▁ਕਾਟੀ	2
▁ਸਰ੍	2
▁ਭਾਸ਼ਾਵਾ	2
▁ਟਿਬੀ	2
ਂਡਾਇਲ	2
▁ਹਿਫ਼	2
▁ਅਰਧਾ	2
▁ਠਿਠੁਰ	2
▁ਕਾਂਵਰ	2
ਿਰੀਆ	2
▁੩੮੯	2
▁ਰੌਦਰ	2
▁ਵੰਛਿ	2
ਿਨੋ	2
▁ਟੇਕਰ	2
ੁੜੇ	2
▁ਅਸ਼ੂ	2
ਤੋਸ਼	2
▁ਧੱਕਣ	2
ਐੱਲਪੀਸੀ	2
▁ਜਲੇਬ	2
ਸੁਭ	2
▁ਅਰੂਚ	2
▁ਐਬਲ	2
▁ਪ੍ਰਤਿੱਗਿਆ	2
੍ਹੇ	2
ਤਰਾਸ਼ੀਗੋਂਗ	2
ਹਾਯਾ	2
ਸਦ	2
ਕੋਹ	2
ੁਵਾਰ	2
▁੮੧੫	2
▁ਪੌਲੀ	2
▁ਲਵੋਗੀ	2
ੋਰੇ	2
▁ਸਮੀਬ	2
ਰਵਾ	2
▁ਅੱਤਵਾਦ	2
ਪਤਲੀਆਂ	2
▁ਅਯ	2
▁ਬਾਗਾਨ	2
▁ਲਿਵ	2
ਕੂੰਡ	2
ਡਿਬਰੂਗੜ	2
ੰਟੀ	2
ਆਯੁਰਵੇਦ	2
▁੧੪੩੩	2
ਜੀਆਂ	2
ੇਣਡਰ	2
▁ਰਿਸਪ	2
▁ਚੜਾ	2
▁ਨਥੁਨਾ	2
▁ਪਤਾਕਾ	2
▁ਅਲਟਰਾਸਾਊ	2
▁ਬੋਰੇ	2
▁ਅਫਾਰਾ	2
▁ਨੀਂ	2
ਨਹਾ	2
ੰਡਾ	2
▁ਟਹਿਲ	2
ੁਪ	2
ਖਾਂਡ	2
ਚੌੜ	2
▁ਪੋਸ਼ਾਕ	2
▁੪੧੫	2
ਟੌਲ	2
▁ਕੈਨੀਅਨ	2
ਦਰਭ	2
▁ਆੜ	2
▁ਡਾਈਬਿਟੀਜ	2
▁ਹੇਲਿ	2
▁ਕਲਖਡ	2
▁ਅਧਿਤਯਕਾ	2
ੱਕੇ	2
▁ਫਾਂਸੀ	2
ਹਾਦ	2
▁ਜੂਝਣ	2
ਸਾਫ	2
ਕੋਬੇਕਟ	2
ਰਿਅਮ	2
▁ਫਾਸਫੋਰਿਕ	2
▁ਜਾੱ	2
ਬੋਨੇਟ	2
▁ਰੇਖਾਂਕ	2
ੱਚੇ	2
▁ਮਿਕਸੋਜ	2
▁ਮੁਕਤਾਵਟੀ	2
▁ਰਹਾਂਗੇ	2
ਪਲਸ	2
▁ਫ਼ਲੈਚੂਲ	2
▁ਮਿਲ੍ਦਦ	2
▁ਸੂਰਯ	2
▁ਸ਼ਰਾ	2
ਪਲਾਮੂਲ	2
▁ਸਿਲਵਟ	2
▁ਪ੍ਰਗਤੀਸ਼ੀਲ	2
▁ਅਟਪਟ	2
ਰੌਲੀ	2
▁ਸ਼ਾਕਤੀ	2
ਪੁਸ਼ਟੀ	2
ਸੁਣ	2
▁ਟੁੱਟਦੀ	2
ੌਕਤ	2
ਪਾੱਟਰੀ	2
▁ਪੈਨਸਿਲ	2
▁ਕਾਨਟ	2
ੁਅਸ	2
ੇਕਟੋਸ	2
ੱਕੋ	2
▁ਸਿਯਾਚ	2
ਲਪਾਤਰ	2
ਸੱਠ	2
ਜਾਇਮ	2
ਪਾਰਟਮੈਂਟ	2
ਇਜਿਪਟ	2
▁ਅਸਚਰਜ	2
ਯੋਂ	2
▁ਥਿਰਕਦੀ	2
ਸਹ	2
ਨਜ਼ਲਾ	2
ਗੁਣ	2
ੇਂਟਲ	2
ਾਂਸੀ	2
ਫ਼ੀਨ	2
▁ਇਕ੍	2
▁ਬਲਿਲੀਯ	2
ਪੀਟੀ	2
▁ਡਿਜ਼	2
ਿਟਲ	2
▁ਵਿਭਿ	2
ਨੇਮ	2
ਸਕੀ	2
ਾਹਰ	2
ਗਾਰੂ	2
ਨ੍ਯੂ	2
▁ਆੱਰ	2
▁ਐਲਬਮ	2
▁ਬੋਲਯੰਤਰ	2
▁ਪ੍ਰਮੋਸ਼ਨ	2
▁ਫ਼ਾਇ	2
▁ਉਲੰ	2
ਪਿਕ	2
▁ਅਕੜ	2
▁ਜ਼ੈਬਰਾ	2
ਵਸਾ	2
ਮੈਗਨੋਲ	2
▁ਸੱਚਾ	2
ਕਾਲੂਨ	2
▁ਮਾਚੇ	2
▁ਪੁਨਰਵਤਾਰ	2
▁ਓਟ	2
ੱਤਿਆਂ	2
ਪ੍ਰੋ	2
▁ਐਂਟੀਫ	2
ੰਗਲ	2
▁ਨੇਪਲਸ	2
ਬੁਰੀ	2
ਿੰਜ	2
ੀਗਨ	2
ਹੋਮਕੁੰਡ	2
ਮੋਨੀ	2
ਨਸੀ	2
▁ਬਾਟਿਕ	2
▁ਕਰਤੱ	2
▁ਬੱਕਰ	2
▁ਥ੍ਰੈਡ	2
▁ਬਾਬੂਨ	2
ਪਯ	2
▁ਚੋਰਵਾੜ	2
ਮੇਟਿਜਮ	2
▁ਲਿਗਾਮ	2
ਸਕਸ	2
▁ਸਪੇਕ	2
ਦਵਾਈ	2
ੜਨ	2
ੈਂਡ	2
▁ਜੋਜੋਬਾ	2
▁ਲੇਟਰ	2
▁ਪਾੱਪ	2
▁ਬੁਰਚੇਲ	2
▁ਪ੍ਰਤੀਕ੍ਰਿਆ	2
ੀਨਿਯਨ	2
▁ਬੁੱਧਸਥਾਨ	2
▁ਕੁਸ਼ੀਨਗਰ	2
ਮੰਨਾਰ	2
▁ਆਇਰ	2
▁ਬੀਏ	2
ਏਫ	2
ਪੋਡਿਯਾਟਰਿਸਟ	2
ਗੋਪਾਲ	2
ਬ੍ਰੈਸਟ	2
▁ਆਰਟਰੀਜ	2
ਇਕੋਨਾਈਟ	2
▁ਰੇਸ਼ੋ	2
▁ਖਜੂਰਾਹੋਂ	2
ਪ੍ਰਕ੍ਰਿਤ	2
▁ਨਾਈਟ੍ਰਿਕਮ	2
▁ਨੱਲਾ	2
▁ਨਿਬਟ	2
▁ਇੰਤ	2
▁ਪੈਰਿ	2
▁ਛਿਪਣਾ	2
▁ਬਦਲਾ	2
ੇਲੀਆ	2
ਫ੍ਰੈਕ	2
▁ਟੈਕਨੋਲਾ	2
ਕਸਬਿਆ	2
▁ਟ੍ਰੇਂਡਸੇ	2
▁ਕਾਸ਼ਤ	2
▁ਪ੍ਰਤੀਮਾਨ	2
ਰਡੀਨ	2
ੱਢੇ	2
ਲਾਈਫ਼	2
▁ਸੰਵ	2
ਪ੍ਰਦਾਹ	2
ਜਾਦੂ	2
▁ਹਿਸਟੋ	2
▁ਅਰਬਨ	2
▁ਫ਼ੰਡ	2
ਗਾਉਂਦਾ	2
▁੧੭੨੨	2
▁ਬੁਧ	2
▁ਦੇਹਰਾਦ	2
ਆਫਿਸ	2
ਫ਼੍ਰੇਟ	2
▁੧੮੨	2
▁ਕਫਜ	2
com	2
▁ਸੰਸ਼ਯ	2
▁ਜੂਲ	2
▁ਅਸ਼ਤਰ	2
ਲਿੱ	2
ਵਾਸਲ	2
▁ਦਾਗਮੇ	2
ਪੜਿਆ	2
ਕੈਨਾ	2
ਜਿੱਥੋ	2
▁ਪਿੰਪ	2
ੰਮ੍	2
▁ਭਿਤੀ	2
▁ਟ੍ਰੈਫ	2
ਵਿਸ਼ਿਟ	2
▁ਐਸਟ	2
▁ਕਲੋਡ	2
▁ਤੀਰਥਾਕ	2
ਗਵਾਲਦਮ	2
▁ਵਿਹਗੰ	2
ਰਾਇਲ	2
ਸਰਦੀ	2
▁ਬਿਲਿ	2
▁ਨਰਸਿਮਹਾ	2
ਟਲਾਂਟ	2
ਵਿਲਡਰਨੇਸ	2
▁ਸੰਗਲ	2
▁ਤੀਸ	2
ਿੱਯਾਂ	2
ਲਛਮਣ	2
ਅਭਿ	2
▁ਉਕ	2
▁ਨਿਯੂਟ੍ਰਿਸ਼	2
ਸਮਝ	2
▁ਦੀਵਾਲੀ	2
▁੩੭੦	2
▁ਵਿਨ੍ਯਾ	2
▁ਪੁਰੂ	2
ਸ਼ੋਤਮ	2
▁ਸ਼ੌਸ਼ਣ	2
▁ਬਾਬਰ	2
ਕੇਮਿਕਲ	2
ਆਸਟਰੀਆ	2
ਹੰਗਰੀ	2
ਯੂਗੋਸਲਾਵੀਆ	2
ਵਾਉਂਦਾ	2
ਭੈਰਵ	2
▁ਆਰਚਰ	2
ਹੋਲ	2
▁ਮਿਨੀਮ	2
ਲਕ	2
▁ਗਲਿਆਰ	2
ਅੰਗੂਠ	2
ਮੁਕਤੀ	2
▁ਸਦੱਸਯ	2
ਸਟ੍ਰੇਲੀਆ	2
ਗੁਲਾ	2
▁ਅੰਗਰੱਖਿਅਕ	2
ਆਇ	2
▁ਐਨਾਫ਼ਲੀਜ	2
▁੧੯੪	2
▁੧੮੪੩	2
▁ਲਾਈਕੋਪੋਡੀਅਮ	2
ਿਪਾ	2
ਸਲੋਪ	2
ਮ੍ਕ	2
▁ਗਾਵਾਂ	2
ਾਈਏ	2
▁ਧਾਗ	2
▁ਨਯੂ	2
▁ਰਮਣ	2
▁ਬਹੁਮੰਜ਼ਿਲ	2
ਮਲਿੰਗ	2
▁ਫ਼ੇਫ਼ੜਿਆ	2
▁ਕੂਲਹ	2
▁ਸਤਾਉਂਦ	2
ਪੁਸ਼ਪ	2
▁ਸੇਂਚੁਰੀ	2
ਬਾਵਰ	2
▁ਝੂਠੇ	2
▁ਚੁਗਲ	2
ਟੈਸਟ	2
ਫਲੂਏਂਜਾ	2
੧੩੪	2
▁ਕੋਲਿਸ਼ਨ	2
ਹਾਈਡ੍ਰਾਕ	2
▁ਡੀਡੀ	2
▁ਅਧਿਕਾਂਸ਼	2
੩੨	2
▁ਘੁਮਾਵ	2
▁ਟੋਂਗ	2
▁ਸ਼ੁਰੁਆਤ	2
▁ਡਿਪਥ	2
੍ਵੇ	2
ਰਵ੍ਹੇ	2
▁ਵਿਯਾ	2
ਮਾਣ	2
ਛੱਤ	2
▁ਚਟਾਉਣ	2
ੁਦ	2
ਕੰਜਕਟਾਇਵਾ	2
ਸਾਈਲ	2
▁ਦੀਰਘਾ	2
ਸਾਨਾ	2
▁ਦੁਸ	2
▁ਢਾਹ	2
▁ਖਰੀਦਿਆ	2
ਮਿਨੀ	2
▁ਐਂਗਲ	2
ਅਪਣੀ	2
ਸਾਰਸ	2
ਭੂਸ਼ਾ	2
ਰਿਵਾਜ	2
▁ਇੰਜੀਨਿਅਰ	2
▁ਅਫਸਰ	2
ਥਰੋਪ	2
▁ਉਕੇਰੀਆ	2
▁ਸ੍ਮ	2
ਹਾਰਮੂਟੀ	2
ਰਥੀ	2
▁ਤਾਦਾਤ	2
▁ਠੱਗ	2
▁ਸ਼ਤਿਗ੍ਰਸ	2
▁ਟਾੱਕ	2
▁ਹਾਈਪੋਥਮ	2
▁ਸੰਦਰਭਣ	2
▁ਵਯਗ	2
▁ਪ੍ਰਾਧਿਕ	2
▁ਡਾਅਰੀ	2
▁ਪ੍ਰੋਟ	2
▁ਰਮੇਸ਼	2
੪੧	2
▁ਕੁੰਡਲ	2
ਅੱਡ	2
▁ਜਿਨਸ	2
ਿਯਾਰ	2
▁ਉਸ਼ਮ	2
ਮੇਟੋ	2
ਿਜ਼ਮ	2
▁ਪ੍ਰਾਧੀਕਰ	2
▁ਅਵ੍ਯਵ	2
ਮਿਨਰਲ	2
ਝੀਲਾਂ	2
ਗਲੋ	2
ੇਨਥੋ	2
ਰਾਤਾ	2
▁ਐਕਸਪ	2
ਲੋਰ	2
ੀਅਤਾ	2
ਸਰੀਰਕ	2
ਟੇਂਟ	2
ਨਰਮਦਾ	2
ਚਟਾਨਾਂ	2
▁ਵਰਗਮੀ	2
ਸਟਸ	2
ਅੰਬਾਲਾ	2
▁ਸਕ੍ਰ	2
▁ਇੰਡੋਥੈਲੀਅ	2
ਮੱਛੀ	2
▁ਹਿਮਲਯ	2
ਛਟ	2
▁ਸਾਂਗਾਨੇਰ	2
▁ਸੁਲਝ	2
▁ਮੋਂਹਦ	2
▁ਦ੍ਰਿਸ਼ਵਲੀ	2
▁ਸੁਜਾ	2
▁ਝ੍ਰਨ	2
ਜਿਵ	2
ਬਦੀ	2
ਚਾਰਕ	2
▁ਕਾਸਟਿਯੂਮ	2
੦੧	2
▁ਵਣਭੋਜ	2
ਿਡਲ	2
ੋਲਾਈ	2
ਓਨ	2
▁ਘੁ	2
▁ਵੇਖੋਗੇ	2
▁ਸਵਰਭੇਦ	2
▁ਸੁੰਗ	2
ਫ਼੍	2
▁ਕਾਨਸਟ	2
ਿਜਿਓਥਰੈਪੀ	2
▁ਏਲਬ	2
ਿਊਮ	2
ਕਦਾ	2
ਮਜ਼ਾ	2
▁ਦਰਸਾਉਦ	2
ਝਪਕੀ	2
ਚਿੱਠੀ	2
ਡਾਇਰੀ	2
ਮੋਜੇ	2
▁ਸਲਵਾਰ	2
▁ਡਾਬਰ	2
▁ਰੇਲਮ	2
▁ਲਭ	2
ਸਵਾਲਾ	2
▁ਮੂੰ	2
ਨਿਰੋਧ	2
ਪਿਸਨ	2
▁ਤ੍ਰਿਪੁਰ	2
ਪਾਈਨ	2
▁ਅਲਟ੍ਰਾਵਾ	2
ਇਲਟ	2
▁ਮੈਕਡੋਨਾਲਡ	2
ਮਕਾਨ	2
ਭੁੱਖ	2
▁ਏਜੰਟ	2
▁ਪੈਰਾਗਲਾ	2
ਅਨਾਜ	2
ਡੀਜ਼	2
▁ਪਟਿੱ	2
ਗਾਂਧੀ	2
▁ਡੀਮ	2
ਭੱਜਦੇ	2
▁ਪ੍ਰਸਿ	2
▁ਛਟਪਟਾ	2
ਿਆਨੀ	2
▁ਹੈਂਡਰ	2
ਸੋਭ	2
▁ਰਮਣੀ	2
▁ਪਰੈਂਸ	2
▁ਫੌਲਾਦ	2
▁ਮੱਹਤਵ	2
▁ਕਿਲਯਰ	2
▁ਐਸਪ	2
▁ਪਰਖ	2
ਨਾਸਾ	2
▁ਬਾਹਵਾਂ	2
ਉਥੋਂ	2
▁ਪ੍ਰੋਜੇਸਟ	2
▁ਗੇਮਿੰਗ	2
▁ਲੱਖਾ	2
ਵੇਂਗਾ	2
▁ਤ੍ਪ	2
ਨਸੇਨ	2
ਪ੍ਰਤਾਪ	2
▁ਵਿਸਰਜ	2
ਤਿਸਾਰ	2
ਹੁਆਗ	2
▁ਲਹ	2
▁ਬੈਰਾ	2
▁ਬਣਾਉਂਦੀਆ	2
▁ਟੈਬਲੇਟ	2
ਗੋਲਾਕਾਰ	2
ਓਂ	2
ਬੂਟੀ	2
੍ਰਾਜ	2
ਵਸਾਯ	2
▁ਉੱਨਾ	2
▁ਵਿਸ਼ਣ	2
▁ਮੈਕਯੂਲ	2
▁ਨਿਵੇਸ਼ਕ	2
▁ਗੂੰਗ	2
▁ਯੂਮੀ	2
ਵੇਦਨ	2
ਗਰਭ	2
▁ਕੂਕੂ	2
▁ਪਾਰਸ਼ਨਾਥ	2
▁ਲਾਈਕੋਪੀਨ	2
▁ਨਿੰ	2
ਪਾਰੋ	2
ਧੱਬਿਆ	2
▁ਅਫ਼ਗਾਨਿਸਤਾਨ	2
▁ਬਾਹਰਲੀ	2
▁ਹਿਅਰ	2
ਨੌਰਮ	2
ਡੈਂਟ	2
▁ਸਪਾਇਸ	2
▁ਕੰਮਪਲੇਕਸ	2
ਮ੍ਰਿਤੂ	2
▁ਸ਼ਰਾਇਨ	2
▁ਆਰਾਧ	2
▁ਡੁਲਾਉ	2
ਸ਼ਿਅ	2
▁ਉੱਡਾਨਾਂ	2
ਆਰਤੀ	2
ਨਕਾਈ	2
▁ਹਾਪਕਿ	2
▁ਫ਼ਾਹ	2
▁ਡਰਾਪ	2
ਵਾਸਾ	2
▁ਉਨਾ	2
▁ਕਰਨਵਾਲ	2
ਿੰਬਧ	2
▁ਗਣਿਤ	2
▁ਸੱਤਿਆਨ	2
ਾਸ਼ੀ	2
▁ਅਗਵਾ	2
ਚਿੱਲੀ	2
ਪਤਲਾ	2
▁ਉੱਪ	2
ਭਾਗਾਂ	2
ਗੋਲਫ	2
੍ਯੂਜ	2
▁ਅਟਟ	2
਼ੇਂਟ	2
▁ਸੈਲਾਨੀਆ	2
ਲੇਟਰ	2
▁ਜੌਲੀਗ੍ਰਾ	2
ਖੱਬ	2
ਬੀ੦ਸੀ੦ਜੀ੦	2
ਸਾਂਭਰ	2
ਡੇਨ	2
ਡ੍ਰਨ	2
ੌਦੀ	2
▁੫੨੫	2
ਪਾਂ	2
▁ਪੀਸੀਆ	2
▁ਡਿਫ਼ਥੀਰਿਆ	2
▁ਬੰਨ੍ਹ੍ਣ	2
▁ਝੁੰਝ	2
▁ਸਾਲਪ੍ਰਣ	2
ੌਰਟ	2
ਐਂਟੀ	2
ਐਸਪਰੀਨ	2
ਪੋਟਾਸ਼	2
ੇਗ੍ਰਿ	2
▁ਪਲਾਜ਼	2
▁ਆਂਢ	2
ਚਰਮ	2
▁ਕੁਕੀ	2
ਬੀਜ਼	2
ਰਿਨ	2
ਲਜੇਸਿਕ	2
▁ਆਯੋਡਾਈ	2
ਰਗਾ	2
ਬਯੂਟਾਜ	2
ੁੰਡ	2
▁ਵਾਤਾਨੂ	2
▁ਠੁਮਕਦ	2
▁ਇਨਸਿਜੀ	2
▁ਇਨਰ	2
ਿੱਕ	2
ੋਨੇ	2
ਖੁੱਲ਼ੀ	2
ਕੈਂਡੀ	2
੍ਪੁਰ	2
▁ਆਰਕੀਟ	2
ਰਕੂਡ	2
▁ਪਹੁੰਚਾਉਣਗੇ	2
▁ਖੁਜਲ	2
▁ਥਿਏਟਰ	2
▁ਲਹਰਾਇਆ	2
▁ਹੰਪ	2
ਬੈਕ	2
▁ਛੁੰਹਦ	2
ਹਜ	2
▁ਜਿਓ	2
ੰਡਰੀ	2
▁ਲੁਭਾਵਨ	2
ਸਟਰੀ	2
▁ਈਸ਼ਾ	2
ਲਟਨ	2
ਸਃ	2
▁ਵਿਸੇਸ਼	2
ਾਊਂ	2
ਲੇਕਟਰ	2
▁ਐਕਟ	2
੧੮੦	2
ੀਏਸ਼ਨ	2
▁ਕਨੇਕਟ	2
ਰਮਾਣੂ	2
▁ਜਟ	2
ੈਟਰੀ	2
▁ਕੜ	2
ਖਲੀ	2
▁ਵਾਤਨਾਸ਼ਕ	2
▁ਟੇਨ	2
▁ਯੁੱਧਾ	2
▁ਹੰਗਰ	2
A	2
ਸਾਈਕੁੰਗ	2
▁ਇਨਫਲੇਮੇ	2
▁ਪਾੱਟ	2
▁ਅੱਠਵੀ	2
੍ਯੂਰ	2
▁ਗਲੂ	2
▁ਫ਼ਿਲ	2
ਐਜਾ	2
ੇਜਿਯ	2
▁ਸਾਗਰਤ	2
▁ਆੱਕਯੂ	2
▁ਲੁਬਰ	2
ਲੇਪ	2
ਬਜ਼ਰਵੇ	2
ੇਨਿਕ	2
▁ਸੇਲੇਬ	2
ਰੋਵ	2
ਜ੍	2
ਦੇਵਲ	2
ਸਮਰਣ	2
ਏਰੀਯੋ	2
▁ਸਦਰਸ਼	2
▁ਛਿਤਿ	2
▁ਚਲਾਕ	2
▁ਟ੍ਰੈਂਡ	2
▁ਭਾਂਪ	2
▁ਧਾਰਮ	2
▁ਪ੍ਰੋਸਟ	2
ੈਕਟੋ	2
ੱਡਾੱਨਿਟ	2
▁ਗਮਸ	2
ਘੁੰਮ	2
ਰੂਵਲ	2
▁ਫਲੋਕਿ	2
ਇੰਡੋਸ	2
ਬਿੰਦੂ	2
ਲੋਮੀ	2
ਡਕਾਰਾਂ	2
▁ਪੇਵਲ	2
ਾਧਾਰਨ	2
▁ਹੇਮੇਟ	2
▁ਡਿਫ਼ਥੀਰੀਆ	2
▁ਡਬ	2
▁ਉੱਠੋ	2
▁ਮੁਹਾਣ	2
▁ਪ੍ਰਾਕ੍ਰਿਰਤ	2
▁ਮੋਬਿਲ	2
ਮਿੱਠਾ	2
▁ਆੱਪ	2
▁ਜੀਕੁਤ੍ਰਫ	2
ਦਮੇ	2
▁ਵਿੰਡਸ	2
ਬਿਗ	2
ਪੈਰਾ	2
ਬਾਜ਼ਾਰ	2
▁ਵਿਯ	2
ਬੀਚ	2
ੀਫੇਨ	2
ੈਲਥ	2
▁ਚੰਦਰਖ	2
ਮਲੂ	2
▁ਡੰ	2
▁ਵਿਵਿ	2
▁ਪਲਸੇਟ	2
ਗ੍ਰ੍ਹਿ	2
ਕਰਾਫਟ	2
▁ਬਿਊ	2
▁ਪਕੌੜੇ	2
▁ਪੂੜੀ	2
ਿਹਰੀ	2
ੁਹਾ	2
▁ਸਵ੍ਰਥ	2
▁ਸਿਲਵ	2
▁ਪੁੰਡ	2
ਲੋਥ	2
ਬਰੀ	2
▁ਜਾਗਰੁਕ	2
▁ਇਸਤਰੀਆ	2
▁ਮਿਚਲਾਉ	2
ਉਪਾਸਨਾ	2
ਇਰ	2
ਟਬਾਲ	2
▁ਲੱਘ	2
▁ਕੰਫ਼ਟ	2
ਖਸਰਾ	2
▁ਹੱਤੂ	2
▁ਮਿਆਓ	2
ਕ੍ਰਿ	2
ਮਚੀ	2
ਦੋਨਗੋਨ	2
▁ਓਰੇਗ	2
▁ਤਾਈ	2
ਨਿਤ	2
▁ਛਿੱਲਿਆ	2
ਦਹ	2
▁ਰੰਗਬਰੰਗ	2
ਪੁਰੂਲ	2
ਹਾਥੀਆਂ	2
▁ਸਾਇਕ	2
▁ਸੈਫ਼	2
▁ਕੌਸਿਲ	2
▁ਮੋਤਰ	2
ਯਾਵ	2
▁ਭਗਤੀਭਾਵ	2
▁ਕਰਾਨ	2
ਵਾਕ	2
ਵਾਸਥ	2
ੋਨਿਊਰ	2
ਕੈਰੀ	2
▁ਆਤਮਵਿ	2
ਖੇਪ	2
hay	2
ਪਰਹੇਜ਼	2
▁ਕਲਿਆਣਕ	2
▁ਸੇਨਾ	2
▁ਪਿਜਾਜਾ	2
▁ਰਿਵ	2
▁ਬੀਪੀ	2
ਸੰਨਿਆਸੀ	2
▁ਸੇਲਯੂਲ	2
▁ਵਰਤੁਲ	2
▁ਇਤਮਾਦ	2
▁ਗੁਸਲਖਾਨਾ	2
ਫੈਕੋ	2
ਮਹਿਲਾਂ	2
ਦੁਭਾਸ਼ੀ	2
ਸਤਕਾਰ	2
▁੧੯੫੭	2
ਗਡ	2
ਰਾਵਣ	2
▁੮੧	2
ਚੁਰੀ	2
▁ਧੰਧ	2
▁ਤਿੱਤਲੀ	2
ਬੇਸ਼	2
ਏਜਰ	2
▁ਸਿਹਰ	2
▁ਮੋਕਲ	2
ਬਾਇਉਟਿਕ	2
▁ਕਹੂ	2
▁ਗਲੋ	2
▁ਝੁਲਸ	2
▁ਅਸ਼ਵਗੰਧਾ	2
▁੧੩੨	2
▁ਡਿਸਕੋ	2
▁੩ਃ	2
ਪ੍ਰਸਤ	2
ਪ੍ਰਿਯਾ	2
ਪਾਓ	2
▁ੱਦੇ	2
ਪ੍ਰੋਟ	2
▁ਕਬਿਰਸਤਾਨ	2
▁ਪੋਲੇ	2
ਨਿਯੂਰੋਥ	2
▁ਤੁਚਾਸ਼ੋਥ	2
▁ਵਿਆਕੁਲਤਾ	2
▁ਵ੍ਰਗ	2
ਦ੍ਰਾਵ	2
▁ਵਿਭਾ	2
▁ਕੈਂਪਸ	2
▁ਪ੍ਰਮਾ	2
ਤਮਾ	2
ਅਟ	2
ਸਿਖਰ	2
▁ਸਟ੍ਰੈਪ	2
ਮਪਲੇਕਸ	2
▁ਕੈਂਡ	2
ਟੋਸਿਸ	2
੮੬੧	2
▁ਭ੍ਰਿਗੁਕੱਛ	2
▁ਚਾਰਪਾਈ	2
▁ਵੀਰਗਾਥਾ	2
੨੨੦	2
▁ਪੁਨ	2
▁ਪਾਨਿ	2
▁ਵੰਡਦੀ	2
▁ਕਾਲਾਂ	2
ਟ੍ਰੋਫ	2
▁ਗ੍ਰਿਫ਼	2
▁ਸਵਰਦ	2
▁ਅੱਲਗ	2
ਗੁੱਡ	2
▁ਪੁਰਾਣੀਆ	2
▁ਚੋਲੀ	2
ੇਂਗਾ	2
▁ਫਫੋਲ	2
▁ਐਕਜ਼	2
ਢੇ	2
ਕਸਰ	2
▁ਵਕਸ਼	2
ਪੇਟਿਟ	2
▁ਨਾਇਟ	2
ਲਾਇ	2
▁ਰੇਸਿ	2
▁ਕਾਸ਼ਤਕ	2
ਜੇਨਾਈਟ	2
▁ਹਿਮਾਲ੍ਯ	2
ਟਰੇਗੋਪਨ	2
▁ਮੌਨਾਲ	2
▁ਮੈਕਡੇਨਿਯਲ	2
ਪਿਟਸ	2
▁ਗੋਠ	2
▁ਚੱਟ	2
▁ਡੁਮ	2
▁ਮੁਜ	2
ੱਫ਼ਰਪੁਰ	2
ਮਮਸ	2
ਜੰਸ	2
ਮਿਲਨਾਡੂ	2
▁ਰਾਧ	2
ਕੱਚ	2
ਗੁਲੇਟ	2
ਸੋਫੇਗਸ	2
▁ਐਕਸਰਸਾਈਜ	2
▁ਸਾੱਕ	2
▁ਹਸਪਤਾਲਾ	2
ਿਅਕ	2
▁ਨਾਜ਼	2
▁ਤਾਪਨ	2
ਡਾਈਟ	2
▁ਬੁਝਿਆ	2
ਟਰੈਕਟ	2
▁ਆਡਿਯੋਮੀਟ	2
ਦਧਾਰਾ	2
▁ਮੂਤਵਾਹਿਨੀ	2
▁ਅਲਪਰਕਤੱਤਾ	2
ਗਣਨਾ	2
▁ਸਿਁਧ	2
▁ਚਾਰੂ	2
▁ਡਿਜਨੀਲੈਂਡ	2
▁ਪਛਤਾਉ	2
▁ਐਨਿਮ	2
ਕ੍ਰਾਫ	2
▁ਗਲੈਕਸੋ	2
▁ਚਪਟੇ	2
▁ਬਾਂਦਰਾ	2
ਆਮਵਾਤ	2
▁ਸੰਧੀਵਾਤ	2
ਟੋਸਟ	2
▁ਐਥ	2
ਪੁਟ	2
▁ਜੇਨੇਟਿਕਸ	2
▁ਪਲਾਜ਼ਮਾ	2
▁ਦੁਰਾਡੇ	2
ਭਿਆਨਕ	2
ਗੀਤ	2
▁ਗਾਓ	2
▁ਫੈਂਟ	2
▁ਚਿੱਤਾਰੀ	2
▁ਕਮਿਊਨਿ	2
ਸੋਸਿਏਟ	2
▁ਸਰਗੁਜਾ	2
ਮਰੀਜ਼	2
▁ਪਾਉਂਦ	2
▁ਮੇਧ	2
ਦੁਸ	2
▁ਪੈਪਸ	2
▁ਸਵਰਗਰੋਹਿ	2
▁ਬਕੂਲ	2
▁ਸਵਰਾਜ	2
▁ਝਕ	2
ਪ੍ਰਦਾਨ	2
ਿੰਮੇਵਾਰ	2
▁ਨੋਵੋਗ	2
▁ਤਰੀਫ	2
▁ਘੋੜ	2
▁ਨੋਕੀਲ	2
▁ਧਵ	2
ਪਸ਼ਨ	2
▁ਵਰਜੀਨ	2
ੁੰਦਾ	2
▁ਐਂਜ	2
ੈਲਿਕ	2
▁ਨੌਜੁਵਾਨ	2
ੋਵੇ	2
▁ਹਸ	2
▁ਗਾਲੀ	2
▁ਪਹਿਣੇ	2
▁ਲਾਉ	2
▁ਯੂਨਾਨ	2
▁ਤੁੰਗਨਾਥ	2
▁ਫੀਡ	2
▁ਸੈਂਸ	2
ਨੋਰੀਆ	2
▁੮੯	2
▁ਦਿੱਲੀਵਾਸੀ	2
▁ਬਰਹਾ	2
▁ਪੁਰਾਤ	2
ਤਿਵ	2
ੱਯਲ	2
▁ਯੋਨਿਗ	2
ਕਤੀਆਂ	2
▁ਬ੍ਰਿ	2
▁ਯਕੀ	2
▁ਬਾਲਸਮ	2
ਬਈ	2
▁ਪੁਸ਼ਪਕੁੰਜ	2
▁ਰੋਜੈਲੀ	2
ਲੈਡ	2
▁ਆਲਚ	2
ਮਾਨ੍ਸ	2
ਰੇਟਿਨ	2
ਤਗੰਗਾ	2
ਰਗਾਂ	2
ਪ੍ਰਮ	2
ਵੀਡੀ	2
▁ਦਫਤਰਾਂ	2
▁ਕੋਰੋ	2
▁ਸਵੇਦਕ	2
▁ਕਾਂਸੀ	2
▁ਬਸਕੁਨੀ	2
▁ਮੂਲਬੰਨ	2
ਉਡਡੀ	2
ਾਮੁੰਡ	2
▁ਆਲੇਖ	2
▁ਪੈਟਰ	2
▁ਏਲੀਵੇਟਰ	2
▁ਨਿੱਕਲਣ	2
▁ਸਨੋਰਿੰਗ	2
ਲਾਖੀ	2
▁ਇੰਟੇਸਿ	2
▁ਦੁਖਦ	2
ਨੇਤਰ	2
▁ਖੁਲਾਪਣ	2
▁ਪੇਚ	2
ਮਸਾਲਾ	2
▁ਗਁ	2
▁ਜਾਮਨ	2
ਮਿਨਾ	2
▁ਜੇਨੇਟਿਕਲੀ	2
▁ਕਦੋ	2
ਸ਼੍ਅ	2
▁ਉਧ	2
ਬਾਬਾ	2
▁ਜਿਲ	2
▁ਦਰੱਖ਼ਤ	2
▁੩੩੦	2
ਲੀਡੋਨਿਅਮ	2
ਵੇਨ	2
▁ਲ੍	2
੍ਬੇ	2
ਰਵੇਂ	2
ਲੇਜਿਯ	2
ਰਵਤਾ	2
▁ਫੁਆਰ	2
▁ਲਸੀਲ	2
▁ਟ੍ਰਾਈਗਿਲਸਰਾਈਡ	2
▁ਵਾੜੇ	2
ਜੰਮੂ	2
▁ਆਰਚ	2
▁ਅਮੀਬਾ	2
ਕਵੇਟ	2
▁ਆਟਰੀ	2
▁ਸ਼ੈਸ਼	2
ਏਬਡੋਮ	2
ਪੋਸ਼ਕ	2
▁ਮੈਰਿ	2
▁ਸ਼ਾਇਨ	2
ਮੇਲਿਸ	2
▁ਆਲੂਬੁਖਾਰ	2
ਚੁਣ	2
▁ਨਤਿਜ	2
▁ਕੈਵੀਟੀਜ	2
▁ਚਿਲਮ	2
ਗਾਣਿਆਂ	2
▁ਤਿੱਬ	2
▁ਫਸਾਦ	2
ਖੰਗਾ	2
▁ਸਹਾਨ	2
▁ਲਾਹਲ	2
ਜਿਰਾਫ	2
ਬਾਂਦਰ	2
ਵਾਟਿਕਾ	2
ਚੇਨ	2
ਲਾਮਾ	2
▁ਊਂਟ	2
ਆਰਟੀ	2
▁ਕੰਡ	2
▁ਰਮਨੀ	2
▁ਅਨੇਸਥ	2
▁ਇਲੀਨ	2
▁ਬਸਾਈ	2
ਤੇਲਾ	2
ਨੇਸ	2
▁ਸੀਸਾ	2
▁ਕੂੜੇ	2
ਵੁਲ	2
▁ਊਦਬਿਲਾਵ	2
▁ਗੋਦੀ	2
▁ਆਸ਼ਿ	2
ਸ਼ੂਟ	2
▁ਸਹਿਤਮੰਦ	2
▁ਉਮੜਦ	2
▁ਹਾਸਪੀਟਲ	2
ਸਟਰੇਸ	2
▁ਅਨਸ	2
ੀਮੈਂਟ	2
ਬਾਂਗ	2
ਮਾਕ	2
੍ਯੂਬਰਕੁਲ	2
▁ਏਕਾ	2
ਬੁਲਿਮਿਆ	2
▁ਜੈਟ	2
੍ਰੋਫਾ	2
▁ਸਨਮੁਖ	2
ਬੋਗਰੀ	2
ਨੋਜ	2
▁ਜਾੱਬ	2
ਵਾਦਿ	2
▁ਐਂਗ	2
▁ਦੁਬਲੇਪ	2
ਦੂਜਾ	2
▁ਵੀਰਭਦਰ	2
▁ਖਯਾਤਿ	2
ਸਟੇਸ਼ਨ	2
ਦੁਆਰਿਕਾ	2
ੇਲੇ	2
▁ਕੈਬਿਨ	2
ਰਕਾ	2
▁ਪਰੀਕਥਾ	2
ਭਰਪੂਰ	2
▁ਚਕਰਤ	2
ਵਰਗੀ	2
ਪਵਿੱਤਰ	2
ਜੇਂਡਰ	2
▁ਪ੍ਰ੍ਸ਼ੰਸ	2
ਵਾਰਾ	2
▁ਜਮਾਵ	2
▁ਪਿੰਡਵਾਸੀ	2
ੜਾਘ	2
ੁਮੜ	2
▁ਏਪੋ	2
ਰਾਲੀ	2
ੰਡਾਣੂ	2
ਬੇਸੀਲਸ	2
ਲੇਪ੍ਰੋਸੀ	2
▁ਵਰਗੀਆ	2
▁ਸ਼ਿਕਾਇਤਾ	2
▁ਵਿਸਾਖ	2
▁ਥਾਰਪ	2
ਸਵਦੇਸ਼ੀ	2
▁ਈਟ	2
▁ਅੜ੍ਹ	2
▁ਘੋਘਰਾ	2
ੂਸ਼ਾ	2
▁ਨਿਕੋਟ	2
▁ਅੰਜਨ	2
ੇਰੀਜ	2
ਸ੍ਰੀ	2
ਸਾਹਿਬ	2
▁ਟੁਥ	2
ੰਤਰਾਵ	2
▁ਨੇਸ਼ਨਲ	2
ਰਿਜ਼ਮ	2
▁ਰੈਜੀਮੈਂਟ	2
ਅਰਦ	2
ਰਿਮਝ	2
▁ਹੇਠਾ	2
▁ਉਠਾਵ	2
ਹਾਰਾ	2
▁ਕੰਪਲ	2
▁ਵੱਡੀਆ	2
▁ਕਢਾ	2
▁ਵਿਟਾਮਨ	2
ਬੁਰੇ	2
▁ਗ੍	2
▁ਵ੍ਰਿ	2
ੁਈ	2
ਪ੍ਰੋਵੇਰਾ	2
ਨੋਰਿਸਟੇਰੈਟ	2
ੜ੍ਹ੍ਣ	2
▁ਸ਼ਿਵਾ	2
▁ਟਾਂਸ	2
▁ਪੈਨਸਿਲੀਨ	2
ਜੌਲ	2
▁ਕੰਗੂਰੇ	2
ਨਕਸ਼	2
▁ਬੜੋਦਰਾ	2
▁ਸਬਮ੍ਯੂਕੋਸਾ	2
ਰਨਮੈਂਟ	2
▁ਸੈਨੀਟ	2
ਰੇਸ਼ਮ	2
▁੩੦੮	2
▁ਲਾਇਸੈਂਸ	2
ਪੁਰਾਣੇ	2
▁ਸਲੈਬ	2
ਸ਼ਰਟ	2
▁ਪਿਰੋ	2
ਦਰੁਸਤ	2
ਚਿਕ	2
▁ਇੱਕੱਠ	2
ਦਿਸੰਬਰ	2
▁ਫਾੱਰੇਸਟ	2
ਟੀਆ	2
ਪਦਾਰਥ	2
▁ਕੇਦਾਰਡੋਮ	2
▁੧੧੯੨	2
ਰਸਤ	2
ਡਾਲਾ	2
▁ਕੈਲੇਫੋਰਨੀਆ	2
▁ਗੁਟਖ	2
ਢਵਾ	2
▁ਹੀਮੋ	2
ਟਾਂ	2
▁ਪ੍ਰ੍ਕਿਰਤ	2
ਲੋਹਾ	2
▁ਸਿਟ੍ਰ੍ਕ	2
▁ਮੰਗਾਉਣ	2
ਹਿੰ	2
ਘੁੱਟਿਆ	2
ਵਨਾਤਮਕ	2
▁ਟਕਰਾਉਣ	2
▁ਆਭੂਸ਼ਨ	2
▁ਬਰਮਾਨ	2
▁ਥੂ	2
▁ਪੇਡੀ	2
▁ਘੋਲਾਂ	2
ੁੱਜ	2
ਨਿਸਬ	2
▁ਕਾਠੀਨਾਇਤਾ	2
ਕਾਂਦੱਲੂਰ	2
ਕੁੜੀ	2
ਸ਼ਿਰੋ	2
▁ਵੇਹੜ	2
▁ਬਿਜੋਲੀਆਂ	2
ਨੀਸੋਲ	2
ਾਈਨਾਂ	2
ਥੱਲ	2
▁ਤਪਤਪਾਣੀ	2
ਬਲੱਡਪ੍ਰੈਸ਼ਰ	2
ੱਜੀ	2
▁ਹਾਪਾ	2
▁ਮਲਟੀਵਿਟਾਮਿਨ	2
▁ਨਿਗਾ	2
▁ਗਾਰ	2
▁ਡਿਸਕਸ	2
▁ਨਿਰਗਮ	2
▁ਕੋਰਿਯਾ	2
▁ਹਿਜੜ	2
▁ਸ਼ੋਥਹਰ	2
▁ਰਕਤਪਿਤ	2
▁ਵਿਛਾਈ	2
▁ਮਛੇਰੇ	2
ਥਪਥ	2
ਫਿਲਿਪ	2
▁ਮਿਸਟ	2
ਰਦਿਆ	2
ਸਫ	2
ਉਮਰ	2
ਤਾਲਾ	2
ਰਾਈਲ	2
▁ਬੋਗਨਵੇਲੀਆਂ	2
▁ਝਿਲਮਿਲ	2
▁ਗਲਹਿਰੀ	2
▁ਸਲਫ਼ੇਟ	2
▁ਵਿਭੀਸ਼	2
▁ਕਸਰ	2
▁ਫ਼ਰਾਸ	2
▁ਇੰਡੋਮੇਟ੍ਰ	2
▁ਏਡਿ	2
ੋਮਾਯੋ	2
▁ਵਿੰ	2
ਯਮੁਨੋਤਰੀ	2
▁ਜੋਤਸ਼ੀ	2
▁ਸੌਂਮੋਗੇ	2
ਵੋਗੇ	2
ਗਲਾ	2
▁ਸਟਾਪਓਵਰ	2
ਬੋਡੋ	2
▁ਹੋਣਗੀਆ	2
▁ਅਧਿਪਤਯ	2
▁ਸਾਇਪ੍ਰ	2
੍ਸ	2
ਗਾਂਗ	2
▁ਮੈਨੂ	2
▁ਟਾਫ਼ੀ	2
▁ਜਾਇਜ਼	2
ਕੇਸਰ	2
੍ਰਤਾ	2
▁ਅਡਿਕਸ਼	2
▁ਸਾਖ	2
▁ਸੁਮਦਾਇ	2
ਖਾਂਸੀ	2
ੀੜਾ	2
▁ਨਿਰਪੇ	2
▁ਪ੍ਰ੍ਸਤੁ	2
▁ਫੜ੍ਹਿਆ	2
ਧੀਯ	2
ਚਛ	2
੍ਵ੍	2
ਹਾਈਡ੍ਰੋਫੋਬ	2
ਖਾਸੀ	2
▁ਰੁਝੇਵੇ	2
▁ਵੁੱਡ	2
▁ਸਿਟਮ	2
ਜਾਈਮ	2
ਮੂਤ	2
▁ਟ੍ਰੰਕ	2
ਜਿਕ	2
▁ਗੋਲਪਾ	2
ੀਰੂ	2
▁ਲੈਂਵੇਡਰ	2
▁ਟਰਮਿਨ	2
▁ਬਿਗੜ	2
▁ਤਪਸਥਾਨ	2
▁ਸਿੰਕਵੇਰਿ	2
▁ਏਅਰਪੋਟ	2
▁ਸ਼ਵਾਸ	2
▁ਮਹੋਗਨੀ	2
▁ਥੁ	2
▁ਬੁਖਰ	2
▁ਕੁਆਲ	2
ਮਪੁਰ	2
▁ਟੱਪ	2
▁ਉਗੜ	2
▁ਤੋਹਫਾ	2
▁ਤਬਾ	2
▁ਆਧਿਕ	2
▁ਤੇਲਗੂ	2
ਨੇਚਰ	2
▁ਛਪਣ	2
ਹਨੂੰਮਾਨ	2
▁ਥਿਮ	2
▁ਝੀਂਗਾ	2
▁ਭਵਾਈ	2
ਮੁਗਲਸਰਾਏ	2
▁ਪਵਾਇਜ	2
▁ਏਜੰਸੀ	2
▁ਹਾਈਡ੍ਰੈਸ	2
▁ਕਰੇਂਟ	2
▁ਬੇਂਜਾਇਨ	2
▁ਚਿੜਚਿੜ	2
ਟਜ਼	2
ਅਲਟਰਾਸਾਊਂਡ	2
ਫੁੱਲਣ	2
ਿਜਿਟ	2
ਡੱਚ	2
ਿਆਰ	2
▁ਮੱਧਯੁੱਗੀ	2
ਤੁਲਸੀਸ਼ਾਮ	2
੍ਰਾਯੋ	2
ਪ੍ਰੈਸ	2
ਪਿਟੇਟ	2
ਰਦੀਆਂ	2
ਵਰਤਨ	2
੬੬	2
▁ਪੁਸ਼ਾਕਾਂ	2
ਨੋਤਰੀ	2
ਫ਼ੇਯਰ	2
▁ਕਵਾਲੀ	2
▁ਦਿੱਖ	2
▁ਬੇਸਿਕ	2
▁ਮੇਰੀਅਨ	2
▁ਸਵਰਣਮ	2
▁ਆਯੋਜਕ	2
▁ਰਾਬਰਟ	2
▁ਮੋਰਚ	2
ਪੁੰਨ	2
▁ਪ੍ਰਕਾਸ	2
▁ਇਕੱਠੀਆ	2
▁ਪੱਦ	2
▁ਟੇਡ	2
▁ਕੈਪੀ	2
ਉੱਬਲ	2
▁੨੭੫	2
▁ਗੁਰੂਪਦਮਸੰਭਵ	2
▁ਛੰਦ	2
▁ਅਨੁਸ਼	2
▁ਸਪ	2
ਵਾਰੀਆਂ	2
ਧਤੀ	2
ਮਬੇ	2
▁ਵੇਰਾਵ	2
ਵੇਮਬਨਾ	2
ੋਮੇਟ੍ਰਿ	2
▁ਛੂਹੋ	2
ਫ਼ਿਜ਼ਿ	2
▁ਜਲੇਬੀ	2
▁ਸਮੋਸ	2
ਫ਼ੈਲ	2
▁ਗਲਤਫ਼ਹਿਮੀ	2
ਸਾਧਾਰਣ	2
ਿਟਿਸ	2
▁ਏਰਾਵਤ	2
ਾਣਾ	2
ਰੈਂਡ	2
ਐਨ	2
ਿਥੇ	2
ੋਕਾ	2
▁ਭੂਮੀਸਥ	2
ਪਦਾ	2
ਸਲਨਾ	2
▁ਬੋਲੋ	2
ਕਾਯ	2
ਰਾਥਨਾ	2
ਂਹ	2
ਬਿਤ	2
▁ਮ੍ਰ	2
▁ਰਾਮਗੜ	2
▁ਵਿਸ਼ਣੁ	2
ਬ੍ਰਾਇਓਨਿ	2
▁ਖਾਮ	2
▁ਬਾਬਰਡ	2
ਥ੍ਰੇਡ	2
▁ਨਾਈਸ਼ਨਾ	2
੍ਰਸ਼	2
▁ਮੁਰੀ	2
▁ਅਰਧਚੰਦ	2
▁ਆਬਜਰਵੇ	2
▁ਟੇ	2
ਸ਼ਾਲ	2
▁ਵ੍ਰੱਤਾ	2
▁ਸ਼ਰਾਵ	2
ਡੀਏ	2
▁ਸੰਗ੍ਰਾ	2
ਮੰਜ਼ਿਲਾ	2
▁ਸੁਸਜਿ	2
▁ਪ੍ਰਭ	2
▁ਅਣਹੋ	2
ਲੇਕਸ	2
▁ਚੇਤਿਯਾ	2
▁ਅਮੈਰਿਕ	2
▁ਆਫੀਸੀਨੇਲਿਸ	2
▁ਰਾਮਚ	2
▁ਰੀਸਰਫ	2
▁ਭੌਰ	2
▁ਬਾਵਡੀ	2
▁ਡਿਯੂਡੇਨ	2
▁ਕਨਫਿਊਜ਼	2
ਭੁ	2
▁ਫ਼ੌਯਾਸਾਗਰ	2
ਈਸ	2
ਗ੍ਰੇਡ	2
ਜੈਮ	2
▁ਪ੍ਰੋਤ	2
▁ਮੰਗੋਲੀਆ	2
ਮੰਗਲਮ	2
ੱਖੜ	2
▁ਚੜ੍ਹੇਗਾ	2
ਜੈਧਰ	2
ਟਾਟਾ	2
ਗ੍ਯਾ	2
ਵਿਦਾ	2
ੰਥੇ	2
ਦਰਸ਼	2
▁ਨਿਕਲ੍ਦ	2
▁ਐਡਵਾਈਜ	2
▁ਅਮੇਰੀਕ	2
▁ਬੋਰਰਾ	2
▁ਉਖੜਨ	2
ਦਸਤੇ	2
ਕੀਰਤੀ	2
▁ਪੈਨਿਕ	2
▁ਥ੍ਰੋਮਬੋਸ	2
▁ਪੇਸਟ੍ਰੀਜ	2
ਾਗਡੋਰ	2
▁ਕਾਰਨਿਵ	2
▁ਰੇਸਤਰਾ	2
▁ਸਾਬੂਦਾ	2
▁ਮੁਰ	2
ਰੀਪਰ	2
ਮੇਲੀ	2
ਰਮਨ	2
▁ਠਿਠ	2
ਡਯਾਰ	2
▁ਇਮਾਰਤਕਲਾ	2
ਊਮੇ	2
▁ਰੁਮਾਂਚਕ	2
ਗ੍ਰਾਫ਼	2
▁ਕੀਟਾ	2
ਮੱਲਾ	2
ਸ਼ਵਰਧਨ	2
▁ਐਂਟੀਬਾ	2
ਡਿਪ੍ਰੈਸ਼ਨ	2
▁ਵਿਖ	2
ਅਜਮੇਰ	2
▁ਰਜਵਾੜ	2
ਟਾਓ	2
ਇਕਾਦਸ਼	2
▁ਝਿਲਮਿਲਾਉ	2
ੋਵੇਰਾ	2
▁ਬ੍ਰ੍ਜ	2
ੰਟਸ	2
▁ਪਾਊਂਦ	2
ਛੜ	2
ਘੁਮ	2
▁ਸਨਾਯੁਤੰ	2
▁ਥਪੇੜ	2
ੱਰਥ	2
▁ਤਾਲਾ	2
▁ਪੀਐੱਚ	2
▁ਮੁਖਰ	2
▁ਕਾਰਜਕ੍ਰਮਾ	2
ੜਪਿੰਡ	2
੍ਰਾਂ	2
ੱਪਰ	2
▁ਵਿਰੇਟ੍ਰਮ	2
ਤਾਸ਼	2
ਕਰੀਮ	2
ਬਹੂ	2
▁ਨਸਾ	2
▁ਘਬਰਾਉ	2
▁ਚਕਾਉਣ	2
▁ਸਪੋਟਸ	2
▁ਅਕਤ	2
▁ਸੇਰਾਵ	2
ਬ੍ਰਿਜ	2
ਲੀਪ	2
▁ਅਸਪ	2
▁ਮਿਲਮ	2
ਿਬਰੂ	2
▁ਜੇਰੂਸ	2
▁ਬੈਬ	2
ਹੱ	2
ਰੰਜ	2
▁ਹਿਲੇਰੀ	2
▁ਧਰਮਪਤਨੀ	2
ਸਟੋਮਾ	2
ਡੇਕਸ	2
ਧੂ	2
▁ਇੰਨਜੁਆਏ	2
ਪੰਪ	2
ਕਸ਼ਯ	2
ਸਟਰੀਨ	2
▁ਅਨਵੇਸ਼ਕ	2
੬੧	2
ਟਃ	2
ਰਿਐਕ	2
▁ਤਰਾਸ਼ੀਗ	2
▁ਸਿਲਿ	2
▁ਉਦਯ	2
▁ਅਹੱਲਿਆ	2
▁ਔਸ਼	2
▁ਭਯ	2
▁ਬਲਾੱਕ	2
▁ਪਦਯਾਤਰਾ	2
੦੭	2
▁ਓਪੀਅਮ	2
ਸੈਪਟ	2
ਕਿਯੂ	2
ਯਾਦ	2
▁ਕੈਨ੍ਯਨ	2
ਿਟਨੇਸ	2
▁ਫ਼ੇਸਿ	2
ਬੈਠੇ	2
▁ਇਸ਼ਾਰ	2
▁ਲੇਵ	2
▁ਪਕੌੜ	2
ਜੋਸ਼ੀਮ	2
▁ਬ੍ਰੀਦਿੰਗ	2
▁ਪੈਦੀ	2
ਬੂਤਰਾ	2
▁ਗੰਗੋ	2
ਹਾਈਪਰਥਾਈਰਾਏਡਿਜਮ	2
▁ਦੌਰਿਆ	2
ਕਨੀਸ਼ੀਅਨ	2
ਾਂਡੀ	2
▁ਨਿਪ	2
ਆਈਪੀ	2
ਦਾਂਗਚੂ	2
ਰਾੱਇਡ	2
▁ਗੈਸਟ੍ਰੋਏਟ	2
ਰੋੜ	2
▁ਆਂਡ	2
ਭਾਂਡਾ	2
ਟੇਸਿਸ	2
▁ਮਾੱਨ	2
ਿਟਰ	2
ਝਾੜ	2
ਰਿਮ	2
ਯੂਟ	2
▁ਏਰਾ	2
▁ਸ਼ਾਕਸ਼ੀ	2
▁ਸਰਪੀਲਾ	2
▁ਬਲੈ	2
ਕੋਸ਼ਕਾਵਾ	2
ਾਧਾਰਣ	2
▁ਬਾਨੇ	2
ੰਮੀ	2
▁ਗੇਰੂ	2
ਘੋਸ਼	2
ਪੂਨੇ	2
ਝੰਡੇ	2
ਟਾੱਲ	2
ਫ਼ੁ	2
ਅਨੋਖ	2
ਸਿਨਕੋਨਾ	2
▁ਇਨਸੀ	2
▁ਪਿੱਤਰ	2
ਕਾਂਟੀਨੈਂ	2
▁ਪ੍ਰ੍ਸੰ	2
▁ਕਲਿ	2
▁ਸਰਗਰਮ	2
▁ਟਰਾਂ	2
੍ਰੀਜੇਂਟ	2
▁ਵਿਸ਼ੇਸ਼ਗਾ	2
▁ਖੰਬ	2
▁ਕੇਨਿੰਗ	2
ਕੈ	2
▁ਅਨੰਤਕਾਲ	2
ਸ਼ਾਯ	2
▁ਬਲੱਡ੍ਪ੍ਰੈਸ਼ਰ	2
▁ਕਾਮੋਤੇਜ	2
▁ਜਨਮਦਾਤ	2
ਸਵਾਦ	2
ਮਸ਼ਵਰ	2
ਕੋਲਾਜਿਸਟ	2
▁ਰਿਕਾਰਡਸ	2
▁ਇੱਕਠੀ	2
▁ਸ਼੍ਰੇਣੀਆ	2
▁ਲਤੀ	2
ੁਆਰੀ	2
ਅਚਬਲ	2
ਸੜੇ	2
▁ਬਾਈਕ੍ਰੋਮ	2
▁ਆਲਿੰਗ	2
▁ਰੇਡੀਯ	2
▁ਚਿੰਤਾਮਣੀ	2
ਰਸਵਤ	2
ਚ੍ਯੂ	2
▁ਲੁਟੇਰ	2
ਲੀਅਨ	2
▁ਰਾਜਪੂਤਾ	2
▁ਅੰਜਾਮ	2
▁ਜਾਂਦ	2
ਕੋਏਗੁਲ	2
ੋਡਿਯਾ	2
ਪੌ	2
▁ਪੱਤੀਆ	2
▁ਸ਼ੁੰਕ	2
▁ਘੁਲਦੇ	2
ੀਪ	2
▁ਜਿਊਂਦ	2
▁ਗਾਉ	2
▁ਨਾਗੀ	2
ੂਜ	2
ਸੀਕਿਵਲ	2
▁੧੭੦੦	2
▁ਸ਼ੌਲ	2
੦੫੦	2
.(	2
▁ਸਮਰਿਤ	2
ਸੇਫਾਲ	2
▁ਮੰਨਦੀ	2
▁ਨਾਗੇਸ਼	2
ਆਯਾਮ	2
▁ਅਨੁਸ਼ਠਾਨ	2
▁ਪਛਾੜ	2
ਮੇਕ	2
ਾਫਟ	2
▁ਰਹਿੰਦ	2
▁ਸੋਪਾਨ	2
ਪਰਲੀ	2
ਿਆਵ	2
▁ਜਾਨਕਾਰ	2
ਗਿਣਤੀ	2
ੋਢਿਆਂ	2
▁ਚਕੌਰ	2
ਚੈਤੀ	2
▁ਸਿਕਿ	2
ਕੁਚਲ	2
ਜਨਪਦ	2
▁ਯੋਗਾਭਿਆਸੀ	2
▁ਮਹਾਕਾਲ	2
ਚਣ	2
ੁੰਗਲਾ	2
▁ਏਜਿ	2
▁ਦੱਖਣਪੱਛਮ	2
੧੩੫	2
▁੩੮੮	2
▁ਪੇਟਦਰਦ	2
▁ਨਿਗਿਆਨ	2
▁੧੮੩੬	2
▁ਰਿਸ਼ਟ	2
▁ਕੇਪ੍ਰਿ	2
ੋਜਨ	2
ੂਠੀਆ	2
ੀਤਾਲ	2
▁ਮਹੱਲਾਂ	2
▁ਭਾਸ਼ਨ	2
▁ਆਬਜ਼ਰਵ	2
▁ਗੁਰਸੇਂਧ	2
ਝੱਜਰ	2
ਪਾਰੋਚੂ	2
ਪਰਿਕ	2
▁ਊੱ	2
▁ਫੈਤ	2
▁ਸਾਈਕੋਲਾਜੀ	2
▁ਕਥਕ	2
▁ਪਾਖ	2
▁ਕ੍ਰੋਮ	2
▁ਕਲੋਰੋਫ	2
ਪ੍ਰ੍	2
▁ਮੁੰਡਮਾਲ	2
ਹਿੰਦਾ	2
ਰੇਕਿੰਗ	2
▁ਮਯੂਰਭੰ	2
▁ਮੁੰਨਣ	2
ਿਗਾਮ	2
ਲੜੀਆਂ	2
▁ਬੁਰਜ	2
ਰੋਹਿਤ	2
▁ਜਕੜੀ	2
▁ਦੇਵਜੀ	2
▁ਉਕੇਰੀ	2
▁ਪਤਰ	2
▁ਸ਼ੇਵਿੰਗ	2
▁ਕ੍ਰ੍ਣ	2
▁ਕਲ਼ਾ	2
ਖਵਾਉਣ	2
ਯਃ	2
▁ਜਿੰਦਾਦਿਲ	2
ਉਬਲ	2
ਮੋਨਾਲ	2
▁ਦੇਖ੍ਣ	2
▁ਕੋਲੇਸਟ	2
ਪਾਂਡਵ	2
ਰਾਮਚੰਦਰ	2
ਹਨੂਮਾਨ	2
▁ਰਾਣੀਆ	2
▁ਯੂਗੋਸਲਾਵੀਆ	2
ਮੁਲ	2
▁ਸਾਈਕ	2
▁ਪੁਨਰਜ	2
▁ਬ੍ਰਾਂਚ	2
ਫੀਲੀਆ	2
ਸਿਯਾਂ	2
ਬਹਾਦੁਰ	2
▁ਨੈਸ਼	2
ਲ੍ਹੇ	2
ਧੂਪੀ	2
ਥੋਟ	2
▁ਅਸ਼ੁ	2
▁ਗ੍ਰਾਹ	2
ਭਾਵਿਤ	2
▁ਵੰਸ	2
ਵੀਰਜਵਧਾਊ	2
▁ਡੇਖ	2
ਲੈਪ	2
ਹਿਰਨ	2
▁ਨਿਰਭੈ	2
▁ਪਹਿਨਾ	2
ਨਿਨਜਾ	2
▁ਘੋੜਬੰਦਰ	2
▁ਮੱਠਾ	2
ਦੁਲ	2
ਥਾਪਿਤ	2
ਪੰਜਵੀ	2
ਸੋਫ਼ੇਗ	2
▁ਮਾਰਵ	2
▁ਟਾਕਸ	2
▁ਅਰਸ਼	2
ਲਾਪਣ	2
▁ਘੀਆ	2
ੱਕੜੀ	2
ੱਛ	2
▁ਸੰਭਾਵਨਾਵਾ	2
▁ਪਣਚੱਕੀ	2
ਥੀਆ	2
ਮਊਨ	2
▁ਸਟੀਮਯੂਲੇ	2
▁ਚੋਖੋਰ	2
ਾਰਨਾ	2
ਲੈਂਸ	2
▁ਨਿਯੋਰ	2
ਸਿੱਖਿਆ	2
▁ਗ੍ਰਾਹੀ	2
▁ਨਲਦੇਹ	2
ਲਸਨ	2
ਪੀਡ	2
▁ਐਕਟਰ	2
▁ਐਨੇਸਥੇਸ	2
ਰੂਸੀ	2
ਸਿਮਪ	2
▁ਬਘ	2
▁ਕੋਲੈਸਟਰ	2
ਨਿੰਬੂ	2
▁ਕਾੱਲਰਾ	2
ਐਡਵੈਂਚਰ	2
▁ਪੈਰਾਡਾਈ	2
▁ਸੇਨਕਚੁ	2
▁ਬਨਾਉ	2
ਖੁਸ਼ਕ	2
ਮਿਸਟਰ	2
▁ਪਰਿਵਰ	2
▁ਬਹੁਮੁੱਲੇ	2
▁ਮੀਨਾ	2
ਕਾਬ	2
▁ਲੋਬੇ	2
▁ਫਿਜੀਓਥੇਰੈਪ	2
▁ਪਰਕਾ	2
ਰਿਟੇਨ	2
ਰੇਡੀਕਲ	2
ਕਥਾ	2
▁ਕਿਰਚ	2
ਲਿਟਿਕ	2
▁ਝੌਂਪੜਾ	2
▁ਤਾਲਕ	2
▁ਆਮਰ	2
ਐਕਰੀਲਿਕ	2
▁ਸ਼ੋਭਾਯ	2
▁ਗ੍ਰਾਫ	2
▁ਕੇਸ਼ਵਰ	2
▁ਦੂਧ	2
ਖੁਸ਼ੀ	2
▁ਸਰਾਣ੍ਹਾ	2
ਸੋਲੀਡੇ	2
ਰਬਾਨ	2
ਕਲੋਰੋ	2
▁ਸੰਗਡਾ	2
▁ਕਸ਼ਨੀਜ	2
▁ਖੁਰਦਰਾਪ	2
▁ਪ੍ਰਯਟਕਾ	2
▁ਅੰਬਿਕ	2
▁ਕੈਵਲ	2
▁ਬ੍ਰਾਈਟਨ	2
ੱਲਈ	2
▁ਆਨਾ	2
▁ਰੇਜੀਡੇਂਸੀ	2
▁ਮੋਸਕ	2
▁ਥੈਲਾ	2
▁ਪਰਾਬੈਂਗ	2
▁ਨੁਰਬਾ	2
▁ਮਿੱਸ	2
▁ਰੋਂ	2
▁ਬਹੁਮੂਤਰ	2
▁ਪਟੌਦੀ	2
▁ਪੁਸ਼	2
ਚਾਲਕ	2
ਮਰੂ	2
ਕੌਸ਼ਲ	2
ਫੋਕ	2
ਕੋਇਮ	2
ਲਸੀ	2
ਫੀਕੇਸ਼ਨ	2
▁ਉਠਾਉਣੀ	2
ਮੇਂਡੇ	2
ਸੇਬ	2
▁ਅੰਤਰਰਾਸ਼	2
ਮਿਬ	2
▁ਪਲੇਟਲੈਟਸ	2
ਈਪ	2
▁ਬਗ	2
ੈਡ	2
▁ਖਾਲਸਾ	2
▁ਕੰਜੇਨ	2
▁ਕਲਾਈਮਬ	2
▁ਅਭ	2
▁ਗੁਰਜ	2
ਮਿਲਦੇ	2
▁ਛਿੰਨਮਸਤਿਕਾ	2
ਣ੍ਡ	2
▁ਚੂਸਨਾ	2
▁ਗਿਰਜਾ	2
▁ਗੁਆਂ	2
▁ਅਸ਼ੁੱਧੀ	2
ਬੇਸਡ	2
▁ਧੀਵਰ	2
ਿਆਸਾ	2
ਨਿਕੀ	2
▁ਬਾਇਓਕੈਮ	2
▁ਇਲੈਕਟ੍ਰੋ	2
▁ਮੈਗਨ	2
ਿਯਰ	2
ਂਕਾਇਟਿਸ	2
▁ਕਾੱਪ	2
▁ਤਿਕਤ	2
▁ਵੀਰਯ	2
▁ਰਕਤਸ਼ੋਧਕ	2
ਹਾਰਾਜਾ	2
”	2
▁ਸ਼ਾਲਾ	2
▁ਪਟਰ	2
ਯੂਸਿਸ	2
ਕਾੱਯ	2
...	2
ਗ੍ਰ੍ਤਾ	2
▁ਅਆਪ	2
▁ਹੌਕਸ	2
▁ਡਾਈਰੇਕਟ	2
▁ਆਵਜ	2
ਟਰੀਟ	2
▁ਓਪੀ	2
ਆਪਣੀਆਂ	2
ਲੋਹਾਘਾਟ	2
ਕਾਪਰ	2
▁ਦੀਵਾਨਗ	2
▁ਰੇਸਟ	2
ਾਨਟੇਨਾ	2
ਖੂਹ	2
ਭੁਜ	2
▁ਪੀਤਾਂਬਰ	2
▁ਕਾਰਡਿਯੋਵਾਸਕ	2
੯੧੦	2
ਬਰਾਹ	2
▁ਝਿੰਗਣ	2
੯੨੧	2
▁ਰਥੀਦਰ	2
ਫ਼ਾਈਲ	2
▁ਮੱਧਕਾਲ	2
▁ਸਕਵੈਸ	2
▁ਜੂਨਿ	2
▁ਬੰਡੇ	2
▁ਫ਼੍ਰੇਂਡ	2
ਆਰਸੈਨਿਕ	2
▁ਟਾਨਸਿਲ	2
▁ਇੰਗਜ	2
ਧਿਆਨ	2
ਲੌਂ	2
▁ਰੋਜਮਾਊ	2
ਓਸਟੋ	2
▁ਤੇਲਪਾਤਰ	2
ਨਾਉਣਾ	2
ੰਜਨਾ	2
▁੩੬੦	2
▁ਇਜਾਰ	2
▁ਦਿਖੀ	2
▁ਸ਼ੇਥ	2
ਯੂਲਿਨ	2
ਪ੍ਰ੍ਕਾਸ਼	2
▁ਅਪਰੇਟਰ	2
▁ਰੈਫ਼ੀਨੋਜ	2
ਡਕੋ	2
▁ਬਾਲੋ	2
ਾਦਿਤ	2
ਪੁੰਜ	2
▁ਬਚਾਉਦੇ	2
▁ਸੋਰਿਯ	2
ਬਹ	2
▁ਗੁਲਜ	2
▁ਬਧਪ	2
▁ਰੀਵਰ	2
▁ਦ੍ਯਾ	2
▁ਸਮਝੋਗੇ	2
▁ਗਲੂਕੋਜ	2
▁ਨਿਰਵਿਕਾਰ	2
▁ਤੈਲਚਿਤਰ	2
▁ਤੇਜਸ	2
▁ਡਰਮਟਾ	2
▁ਨਿਯੂਟ੍ਰੀਸ਼	2
ਾਸ਼ੋਥ	2
ਸਿਜ	2
▁ਯਸ਼ੋ	2
▁ਮਹਿਜ	2
▁ਜੈਲ	2
▁ਮਲਯ	2
ਸਹਿਣਸ਼ੀਲ	2
▁ਸੰਗੀਤਕ	2
▁ਮਾਨਤੁੰਗਾਚਾਰ	2
ਕਰਮਾ	2
ੈਨਸ	2
▁ਮੁੱਕੇਬਾਜ਼	2
ਰੋਬੇ	2
▁ਮੁੱਖਃ	2
ਦੋਂਗ	2
▁ਨਜ਼ਲ	2
ਪੇੜ	2
ਸ਼ਾਠਾਨ	2
▁ਦੇਸ਼ਨੋਕ	2
ਉਦੈਪੁਰ	2
ਰੇਨਾਈ	2
▁ਮੁਰਸ਼ਦ	2
▁ਕੋਹੜ	2
▁ਕਏਅ	2
▁ਵੈਭ	2
▁ਮੰਗੋਲੀ	2
▁ਨੇਤਰਰੋਗ	2
▁ਸ਼ਨੈ	2
▁ਐਸਟੇ	2
ਤਿਹਾ	2
ਕੈਲੋਰੀ	2
ਵੀਆਂ	2
▁ਧੁੰਨ	2
ਆਰੇ	2
▁ਚਟਾ	2
ਪੁਲਿਸ	2
▁ਭੰਜ	2
ਿੱਜ	2
▁ਅਧੂਰ	2
▁ਝਪਕਾਉਂਦ	2
ਨਿਮੋਨੀਆ	2
▁ਡਿੰਬੀਕਰ	2
ਸੈਲਾਨੀ	2
ਾਨੇ	2
▁ਛੋਟੋ	2
▁ਖਾੜ੍ਹੀ	2
▁ਅਜ਼ੀਮ	2
ੰਗੂ	2
ਬਲਾ	2
ਸਰਜਨ	2
▁ਬਕਸ	2
▁ਰਹੋਗ	2
▁ਰਿਲੇਕਸ	2
ੈਨ	2
ਸ਼ਪ	2
▁ਡਾਇਰ	2
ਤਿਥ	2
ਵਾਰਫੈਰੀਨ	2
▁ਅਛ	2
ਟਿੰਬਧ	2
▁ਘੁੰਮੀ	2
ਕੂਨ	2
▁ਤਰੂ	2
ਭੀਮਤਾਲ	2
▁ਵਿਸੰਸਰ	2
ਮਸ਼	2
ਸਬਕਯੂਟੇਨਿਅ	2
ਾਰਥ	2
ਵਾਸ਼ਨਾ	2
ਮੌਤ	2
▁ਸਨਰਾਈਜ	2
▁ਸੁਨੀ	2
▁ਕ੍ਰੇਨ	2
▁ਟੈਕਸਸ	2
▁ਚੜ੍ਹਦੀ	2
ਸੱਤਰੀ	2
▁ਅਭਿਅਸ	2
▁ਆਵਰ	2
ਚੌਪ	2
▁੨੪੫	2
▁ਕੋਠਾਰ	2
▁ਊਡਾਨ	2
▁ਵਾਟਰਫ਼ਾਲ	2
▁ਐਲਰਜ	2
ਈਟ੍ਰਾਸ	2
ਫੀਨ	2
▁ਇਸੋਫ਼ਲੇਵੋਨਸ	2
ਤਿਉਹਾਰ	2
ਮੁਹਾਨ	2
▁ਡਾਇਬਿਟ	2
ਨਿਰਭਰ	2
▁ਸਿਫ਼ਾਰਿਸ਼	2
ਹਰਤ	2
ਿਚਕਾ	2
ਸ੍ਰੇਸ਼ਟ	2
▁ਭਗਤਜਨਾ	2
▁ਸਦੀਆ	2
▁ਵਾਸੁਕ	2
▁ਪੋਨਮੂ	2
ਟਰਗ੍ਰੀਨ	2
▁ਅੰਨੇ	2
▁ਬੁਰਾਂਸ	2
▁ਵਰਹ	2
ਇੰਡ	2
ਧੋਣ	2
ਵਰਿਸ਼	2
▁ਸਾਂਬਰ	2
▁ਹਾਇਨਾ	2
▁ਭੋਜਪ	2
▁ਪੇਅ	2
ੁਫ	2
▁ਸੁਬਰ	2
ਚੰਗਾ	2
▁ਧਰਮਪ	2
▁ਅਧਿਆਪਕਾ	2
ਥੋਰ	2
ਹਾਰਨ	2
▁ਐਸਟ੍ਰ	2
▁ਸਰਫ਼ਿਗ	2
▁੯੬੫	2
ਦੁਖ	2
ਨਿਯਰਸ	2
▁ਕਰਿੱਪ	2
ਪੂਰ	2
ਭਦਰਾ	2
▁ਕਫ਼ਜ	2
ੱਪੇ	2
▁ਮੋਢ	2
▁ਹਾਈਪੋਥਾ	2
ਦਭਾਂਡ	2
ਕੁਸ਼ਟ	2
ਦੇਸ਼ੀ	2
▁ਭਿੱਜਣ	2
ਕਫਨ	2
▁ਅਟੈਚੀ	2
▁ਟੇਂਪਰੇ	2
ਕੇਰੀਆ	2
੍ਸਿੰਗ	2
▁ਖੱਟਾਪਣ	2
▁ਤਪੋਬਨ	2
▁ਦਾਗ਼	2
ਵਾਡਾ	2
▁ਐਬ	2
▁ਧੌਲਾ	2
▁ਖਗੋਲਵਿਦ	2
▁ਫ਼ੁੱਲਦਾਨ	2
▁ਮਨੀਪਲਾ	2
ਚੰਦਨ	2
ਰੋਜ਼ਵੁੱਡ	2
▁ਮਿਨ	2
▁ਪੈਥੋਲੋਜ	2
▁ਤਹਾ	2
▁ਬਲੀਚ	2
▁ਚਕਨਾ	2
ਾਰਣਾ	2
ਭੰਜ	2
ਲੂਰ	2
ਅਰਜੁਨ	2
ੇਰਿਸ	2
▁ਨੇਤਰਹੀਨ	2
▁ਪੇਨੇਨਸੁਲ	2
▁ਸਪ੍ਰ	2
▁ਮਾਹਿ	2
ਤੂਤੀ	2
▁ਪ੍ਰੋਟੀ	2
ਇਨਕਾ	2
▁ਆੱਗ	2
ਥੈਲੀ	2
▁ਕਾਰਤੀਕੇਯ	2
▁੧੮੯	2
▁ਹਿੰਮ	2
ਅੰਧਤ	2
ਏਕ	2
੧੫੧੭	2
▁ਨੇੜ	2
▁ਪ੍ਰੈਗਨ	2
ਉਪਚਾਰ	2
▁ਸੁਥਰੀ	2
▁ਝਾਂਜ	2
▁ਤ੍ਰਿਗੁਣ	2
ੌੜੇ	2
▁ਪਹਿਨਾਵਾਂ	2
▁ਵੁੰਮਥਾਂਗ	2
ਅਮ੍ਰਿਤ	2
▁ਬਲੂਆ	2
੨੦੦੩	2
੨੦੦੪	2
▁ਪਾਲਣਹਾਰ	2
▁ਧਰਮਵੀਰ	2
ਟ੍ਰੇਕਟ	2
▁ਮੈਟਰ	2
▁ਪੋਚਾਰਡ	2
ਾਗਲੇਨਿ	2
▁ਦੋਹਰਾ	2
ਝਾਂਸੀ	2
▁ਖੁਦਾ	2
▁ਸਭਾਵਾਂ	2
▁ਖਟਿਆ	2
▁ਅਨੀਮਾ	2
▁ਚਿਕਿਤ	2
▁ਡੰਬਲ	2
▁ਚੰਪੀ	2
▁ਸਟੀਰਾਇਡ	2
ਮਫੀਟਾਮੀ	2
ਜੇਮੂ	2
੍ਸਾਰ	2
ਧਿਕਾਰੀ	2
▁ਜੋਧ	2
▁ਆਫਰਨੇਜ	2
ਔਲੀ	2
ਗੁਲਮੁਰਗ	2
ਤੋਲਾ	2
ਧੂਰਾ	2
ਟਾਵਰ	2
▁ਹਾਈਡੋ	2
ਜਵਾਹਰਾਤ	2
▁ਲੁਣਤਰਾ	2
ਸਾਨ	2
▁ਹੌਜ਼	2
▁ਬੇਰਮੀ	2
ਅਗਸਤ	2
▁ਅਜਿ	2
▁ਸਪਿਰ	2
ਗਨੋਸਿ	2
ੇਟਿਲ	2
ਨ੍ਹਾ	2
▁ਅਨਿਯਮਤਾ	2
ਫਲੇਕਸ	2
ਅਪਣਾ	2
ਿਜ਼ਮਾ	2
ਕੌਂਚ	2
ਜੀਰਣ	2
▁ਬਜਰੰਗ	2
▁ਸਰਵਮਾਨ	2
▁ਅਨੂਸੰਧਾਨ	2
▁ਏਜ਼ਾਈਮ	2
ਮੋਨ	2
▁ਲਿਓਨਾਰ	2
▁ਫ਼ੁਲਕ	2
ਸ਼ਲ	2
ਮਾਲਿਨੀ	2
▁ਆਰਕਿਯੋਲਾਜੀ	2
▁ਰੋਸ਼ਨਦਾਨ	2
▁ਆਈਬੂਪ੍ਰੋਫ	2
▁ਜਿਮਨੇਜ	2
▁ਗਣਨਾ	2
▁ਅਲਪਕਾਲ	2
ਰਿੰਦਰ	2
▁ਮਹਾਕਾ	2
ਜਾਲੌਰ	2
ਸੀਡੇਂਟ	2
ਜਰਾ	2
ਟੇਟ	2
ਿਰਡ	2
ਕੁਸ਼	2
ਗਾਰੋ	2
▁ਕਾਕਣਾ	2
▁ਆਂਡਾ	2
ਭ੍ਯ	2
ਮੇਟਰੀ	2
▁ਭਿਤਿਚਿੱਤਰ	2
▁ਪ੍ਰਸ਼ਾਸਕ	2
ਪਰੰਪਰਾ	2
▁ਬੋਰੇਕ	2
▁ਲੈਂਜ	2
ਟਾਈਫ	2
▁ਜਗਮਗਾਉਦ	2
▁ਫਾਸਫੋਰੀਕਮ	2
▁ਵਿਰਧਾ	2
ੀਤੀ	2
ਪਤਲੀ	2
▁ਪੁੱਜੇਗ	2
ਿਹ	2
▁ਪੀਵੀ	2
ਸੰਦ	2
▁ਚਿਕਿਤਸਾਃ	2
▁ਡਿਜਿਟੇਲਿਸ	2
ਫ਼ੈਨਥ	2
▁ਅਨੀਮ	2
▁ਸੱਦ	2
ਲੱਦਾਖ	2
ਯੋਜਨ	2
▁ਫੈਰੀ	2
▁ਕਤਰਨ	2
▁ਅਕਾਊ	2
ਸਿਲੀਨ	2
▁ਧਾਤ	2
ੋਨਮ	2
੍ਯਾਤਰਾ	2
ਲਿਫਿ	2
ਚੰਦਰ	2
ਘੋਰ	2
▁ਕਸ਼ਯਪ	2
ਕ੍ਰੋਮ	2
ਰਿਟੀ	2
ਫਤੇਹ	2
ਫਾਰ	2
ਡ੍ਰਾਈਵ	2
▁ਨਹਾਈਏ	2
ਥੋਂ	2
▁ਦੇਵਨਗਰੀ	2
ਵਹਾਰ	2
▁ਸਾਮੁਦਿ	2
▁ਕਲਮ	2
▁ਖਾਟ	2
ਨਾਜੀ	2
ਦਰਾਸ	2
▁ਕਰੇਨ	2
▁ਚੁਭਾਈ	2
ੀਨਸ	2
ਮੁਗਲ	2
▁ਸ਼ਬ	2
ਫ਼੍ਰੰਟ	2
ਗਵਾ	2
ਨਿਰਧਾਰ	2
▁ਭਗਰਾਵਸ਼ੇਛ	2
▁ਉਬ	2
▁ਪੁੜਪੜੀ	2
▁ਮੰਗਵਾ	2
ਬੋਨੀ	2
ਗੁਫ਼ਾ	2
▁੪੩੦	2
ੇਨੀਅਮ	2
▁ਬਣਾਈਆ	2
ਤੇਨਜ	2
▁ਡਿਲ	2
▁ਬਲਿਊ	2
▁ਡੀਲ	2
▁ਕਾਂਚ	2
ਣੂ	2
▁ਸਿਇ	2
ਹਾਵੜਾ	2
ਗਾਸਨ	2
ਿਸੰਸਰ	2
ਗੰਢ	2
▁ਟੈਰੇਸ	2
ਗੜਵਾਲ	2
੨੬੮	2
▁ਅੰਤਰਜਾਤ	2
▁ਅਰਿੰਡ	2
ਵੇਸਣ	2
ਕੁਲਰ	2
▁ਭੈਣਾਂ	2
▁ਝਾਂਕੀ	2
ਮਿਲਮ	2
▁ਥ੍ਰੋਮਬੋਸਾਈਟ	2
ਰਕੋ	2
▁ਰਾਮਦੇਵ	2
▁ਅੰਡਰਵ	2
▁ਪਤਿ	2
▁ਗਹਿਮਾ	2
ਗਹਿ	2
▁ਮੰਜ਼	2
ਨਿੰਦਰ	2
▁ਅਪ੍ਰ	2
ੁਮਲਾ	2
▁ਭਿਣਕ	2
▁ਸਿਰਜਨ	2
▁ਸਹੇ	2
▁ਘਾਂਘਲ	2
▁ਪ੍ਰਯਟ	2
▁ਚੋਰ	2
▁ਭਿੰਨੀ	2
▁ਸ਼ਸ਼ੰਕ	2
ਕਾਉ	2
▁ਲ੍ਯੂਕੀਮਿ	2
ਪ੍	2
▁ਟੈਮਪ	2
▁ਇਟੇਲ	2
▁ਰਸ਼ਮ	2
▁ਏਪਨੀ	2
▁ਸੋਲਾ	2
▁ਵਰਾਂਡ	2
੍ਰਿਗੂ	2
ਅੱਧੀ	2
ਜ੍ਯੰਤ	2
ਪਾਟ	2
ੋਸ਼	2
▁ਪਤਬਤ	2
▁ਪੀਦੇ	2
ਿਸੀ	2
▁ਸਟੇਮ	2
ਚਾਖ	2
▁ਦਬਾਉ	2
ਤਰਤਾਲ	2
ਕਲਕੱਤਾ	2
▁ਇਜਾਫਾ	2
▁ਉਫ	2
▁ਐਨਸੀ	2
ੰਤਰੀ	2
▁ਰਾਈਨੋਸੇਰੇ	2
ਬੇਟਿਕੋਰ	2
ਮਾਰਾ	2
ਲਾਖਾਂਗ	2
ਰਕਾਤਾਰੀ	2
ਨਧਾਰੀ	2
ਕੈਂਪਸ	2
ਚਾਇਨਾ	2
ਰੇਜ	2
▁ਸੋਚੀ	2
▁ਸ਼ਾਕਤ	2
▁ਗਰਜਨ	2
ਲਾਉ	2
ਠੇ	2
ਨਾਗਰਾਣੀ	2
xy	2
▁ਕੰਡਿਆਲੀ	2
▁ਸ਼ਤ	2
▁ਸਵਛ	2
ਗਿਯੋਟ	2
▁ਕੈਜਪੁ	2
ਨੇਕ	2
ਦੂਤ	2
▁ਉਡੇ	2
▁ਸਨੇਹਤ	2
▁ਸ਼ਿਥਿਲ	2
▁ਐਪਲ	2
▁ਰਾਮਕੱਲਮੇਡ	2
▁ਸਿਮਰ	2
ਲਿਗ	2
▁ਐਟੋਨ	2
ਮਹਿਕਦੀ	2
▁ਪਲੀਹ	2
▁ਸਵਾਸ	2
▁ਤਿਗੁਣ	2
ਚਕੇ	2
▁ਮਾਲਕ	2
▁ਰਸਗੁੱਲ	2
੧੬੨੧	2
▁ਚੈਂਪੀਅਨਸ਼ਿ	2
਼ਈ	2
▁ਸਮ੍ਰਤ	2
੍ਰਿਕਾ	2
ਜੀਭ	2
▁ਗੰਭਿਰ	2
ੀਟ੍ਰੇਟ	2
▁ਮੀਰਾਮ	2
ਜੋਨ	2
▁ਇਹਨੀ	2
ਈਰਾਨ	2
▁ਕਾਲਾਗੜ੍ਹ	2
▁ਤਮਾਸ਼	2
ਕਟਿਬੰਧੀਯ	2
ਸ਼ਾੱਟ	2
▁ਦਰਸ਼ਨਾ	2
ਫ਼ਲੇਮੈ	2
ਾਸਿਬ	2
ਸਟਰਾਲ	2
ਬੈਡਮਿੰਟਨ	2
▁ਫ਼ੇਨ	2
▁ਹਜਾਰ	2
ਯੁਤ	2
▁ਟਰੇ	2
▁ਪ੍ਰਬਤਾਰੋਹੀ	2
ਸੰਪੂਰਨ	2
ਫੀਸ਼ੀਅ	2
▁ਥਰਡ	2
਼ੀਲ	2
▁ਪਿਟਸ	2
ਟੇਰਾ	2
▁ਯੂਨੀਸੇਫ	2
▁ਲਾਹ	2
▁ਇੰਨਟ੍ਰਾ	2
ਗਣਿਤ	2
▁ਰਿਲੀਜ਼	2
ਡਿੱਗਣ	2
ਯੂਲਿਮ	2
▁ਮੰਜੀਠ	2
ਖੁਜ	2
ਵਾਇ	2
ਛਿੱਕ	2
ਠੁਰ	2
▁ਵੈਗੋਟਾਮੀ	2
ਧਾਰਕ	2
▁ਗ੍ਰੀਸ਼ਮ	2
੧੬੬੭	2
ਂਫ	2
▁ਇੰਫੀਥ	2
▁ਝੇਲ	2
ਵਾਰਡ	2
▁ਕਾੱਲੇਸਟੇਰਾ	2
ੇਰੋਸ	2
▁ਸੁੰਗੜੀ	2
▁ਨੀਲਾਂਚ	2
ਚੰਡਾਕ	2
ਤ੍ਰਿਮ	2
▁ਬ੍ਰੈਸਟਫੀਡ	2
ਬਲੂ	2
▁ਲਾਇਟ	2
▁ਲਚਕ	2
▁ਮਿਲਦੀਆ	2
▁ਸੇਮਾ	2
▁ਤਿਰੂਰ	2
ੋਡ	2
ਿੱਪਲ	2
ਜਾਏ	2
▁ਕਮਰੂਨਾਗ	2
▁ਪਹਲ	2
▁ਸੰਗਲਾ	2
▁ਭੁਰ	2
ੋਨੀ	2
▁ਤ੍	2
▁ਪੋਸਤ	2
▁ਗੋਵਰਧਨ	2
▁ਡਵੈ	2
▁ਸਪੋਣਡੋਲਾਇਟਿਸ	2
ਟ੍ਰਾਂਜਿ	2
▁ਯਾਬਿਸ	2
▁ਖੁਰਦਰਾ	2
▁ਹਿਰ	2
▁ਵੇਂਕਟੇਸ਼	2
L	2
ਾਂਗਚੂ	2
ਰਿਲੈਕਸ	2
ਟੇਪਰਿਕਾਰਡਰ	2
▁ਅਕਰ	2
▁ਝਪਕਾਉ	2
▁ਜੜਿਆ	2
▁ਨਾਨਵੈ	2
ਫ਼ੋਰਥ	2
▁ਅਫ਼ਸਰਾ	2
▁ਸੇਤੁ	2
ਰਥਰ	2
▁ਫੋਲਡ	2
▁ਫਿਜੀ	2
▁ਪਟੇਰ	2
ਡੂੰਘ	2
▁ਮਾਰਜੀ	2
▁ਚ੍ਯਾਪਚ	2
▁ਸਮਝਾਉ	2
ਟਾਕੇ	2
ਾਯਕੋ	2
▁ਵੰਦਨਾ	2
ਡਵ	2
ਟ੍ਰ੍	2
▁ਐਰੋਮ	2
ਕਾਨੇਰ	2
ੌਜੂਦ	2
▁ਪ੍ਰਤੀਲਿਪੀ	2
▁ਅੰਬਰ	2
▁ਲੇਡ	2
ੀਪਾਤ	2
▁ਭਿਖ	2
▁ਜਮਾਵੜ	2
ਵਾਸ਼	2
ਜਸਵੰਤ	2
▁ਗਹਣ	2
ਘਟ	2
▁ਕਟਿ	2
ਉੱਤਾਨ	2
ਟੋਰ	2
ਛੂਹਣ	2
ਣਿਡ	2
▁ਸਹਿਕਰਮੀ	2
▁ਪਾਇਲ	2
▁੪੪੪	2
ੀਘਾਟ	2
▁ਸਿਕੰਦਰ	2
▁ਦਿਲਰੋਗ	2
▁ਘਟਦ	2
ਿਵਾਲ	2
ਮੁਹੱਲੇ	2
▁ਪੂਰਣਮਾ	2
▁ਵੈਬਸਾਈਟ	2
▁ਹੈਂਡਬੈਗ	2
▁ਦੁਉ	2
▁ਕੇਵਿਟੀ	2
▁ਚਮੜੀਰੋਗ	2
ਸਿਲੀਸੇੜ	2
ਟੀਨਾ	2
▁ਐਥਲ	2
▁ਫਿਰੋਜ	2
▁ਦਿਗਭ੍ਰ	2
▁ਤੰਜਾਨ	2
▁ਵੈਜ਼ੀਟ	2
ਕਸ਼ਮੀ	2
▁ਗੁਜ਼ਰੇ	2
ਜਾਨਾ	2
ਮਿਨਰਲਸ	2
ਸਿੱਧੀ	2
ੰਡੇ	2
▁ਨਿੰਬ	2
▁ਅਸ਼ਵੇਤ	2
▁ਵੇਲਲੂਰ	2
▁ਪੁੱਠੇ	2
▁ਪ੍ਸ਼ੂਆ	2
▁ਐਕਜੀ	2
ਟਾਇਲ	2
▁ਐਗ	2
▁ਸੀਜੇਰ	2
▁ਗ੍ਰੀ	2
ਰਛਿਪ	2
▁ਸਿੰਘਲੀਲ	2
▁ਭਾਸਕਰ	2
ਵਾਡੇਲ	2
▁ਪੌਸ	2
ਘੂੰ	2
▁ਸਿਜ	2
ਸਤ੍ਰਾ	2
▁ਸਪੋਨਟੇਨਿ	2
ਰਤਬ	2
ਯਕ੍ਰਿਤ	2
ਸ਼ਾਸ਼ਤਰ	2
▁ਚੁੰ	2
▁ਦਾਖ਼ਲ	2
▁ਉੱਤਰੋ	2
੍ਰਿੰਗ	2
ਯਤ੍ਰ	2
੭੮	2
▁ਸ਼ੱਹ	2
▁ਮੱਛੀਆ	2
ਲਚਾਲ	2
▁ਕਲਾੱਕ	2
▁ਬ੍ਰੋਨਕਾਈਟਿਸ	2
▁ਬਿਸ	2
▁ਫ਼ਾਈਲੇਰੀਆਂ	2
ਹਿਲਯ	2
▁ਫਾੱਸਫ	2
▁ਹੁੱਕਾ	2
ਟ੍ਰਾਲੀਬ	2
▁ਟ੍ਰਾਮ	2
▁ਦੇਹਰਾ	2
▁ਡ੍ਰਾਈਨੈ	2
▁ਉਮੇਦ	2
▁ਮਹਰੌਲੀ	2
▁ਵਿਨੋ	2
ਸਾਊ	2
ਂਟਰੀ	2
▁ਚਾੱਪ	2
▁ਕਰਦ	2
ਫੂਡ	2
▁ਅਭਾਗਾ	2
▁ਸਿਉਂ	2
▁ਜੈਕ	2
ਲੋਹਰਦਗਾ	2
ਹੈਦਰਾਬਾਦ	2
ਟ੍ਰੇਕ	2
▁ਰਚਿਤ	2
▁ਏਫ	2
ਭਾਸ਼ਾਵਾ	2
▁ਮਨਜ਼	2
▁ਰਿਐਕ	2
▁ਪਾਉਦੀ	2
ਬਿਰੰਗ	2
▁ਮੰਤਵ	2
▁ਕ੍ਰਸ਼ਕਾਯ	2
ੋਬੇਲ	2
▁ਉਗਣ	2
▁ਜੀਜੇ	2
▁ਰਿਸੇਪਟਰ	2
▁ਤਿੰਨੋ	2
▁ਸੱਜਣਗੜ	2
ਤੱ	1
ਣਿ	1
▁ਪ੍ਰੋਸਟੇ	1
ਨੀਵੇ	1
ਸ਼ਕਾਂ	1
ਨੇਟੀ	1
ਤੀਕਾਰੀ	1
ਉੱਥੋ	1
ਦਨ	1
ਨਾਗਾਲੈਂਡ	1
▁੨੦੨	1
ਅਗਿਆਤ	1
▁ਅਤਿਅ	1
ਵੱ	1
ਟਿਰਨਿ	1
▁ਬਿਰਤਾ	1
Round	1
about	1
▁੨੬੫	1
ਰ੍ਯੋਗ	1
ਥੱਕੀਆਂ	1
ਫਲਸ	1
ਖਵਾ	1
▁ਖਿਚਣ	1
ਬੇਰਿ	1
▁ਮੋਲੇ	1
▁ਜ਼ੁ	1
▁ਫ੍	1
▁ਮੋਕਸ	1
ਸਰਪੀਲਾ	1
▁ਰਹਿਣਗੀਆ	1
▁ਗਾਂਧੀਨਗਰ	1
ਟੈਰਾਈ	1
▁ਪਵਾਉਣ	1
ੁੰਚਿ	1
ਸ਼ਾਸ਼ਤ	1
▁ਰੋਡੋਡੇ	1
ਡਰਮ	1
▁ਪ੍ਰਾਈ	1
ੋਲੇਨਿ	1
▁ਗੜਸੀ	1
ਇੰਜਰੀ	1
ਹਿਜ	1
ਮ੍ਹਾਂ	1
▁ਏਰੋਮਾਥੈਰੇਪ	1
▁ਸਮਾਜਿ	1
▁ਸਰਕੂ	1
ਵਾਰਣ	1
▁ਨੌਸ਼	1
ਰਵਾਨ	1
ਿਕਤਿਸਕ	1
ph	1
pint	1
maharashtra	1
tourism	1
gov	1
ਡੋਮੀਨ	1
ੰਪ	1
▁ਟੈਕਸੀਆ	1
ਤਿਰਪ	1
▁ਫ਼੍ਰੇ	1
ਸਕਾਂ	1
ਕਾਨੂੰਨ	1
ਫੈਟ	1
▁ਕੋਨ	1
▁ਲਿਓਨ	1
▁ਅਮ੍ਰਿ	1
ਬ੍ਰੈ	1
ਬ੍ਰਾਹਮਣ	1
ਫਰੈ	1
ਰੰਡਾ	1
ਾਁਜ	1
▁ਦਿਗ	1
ਲੇਨੋਸਾਈ	1
ਸੰਤੋਖ	1
ਜੀਰ	1
▁੦੮	1
▁ਪ੍ਰ੍ਵਤਾਰੋਹ	1
ਬਿਲਕੁਲ	1
ਰਮਣੀਕ	1
ਗਟਨ	1
▁ਕੂਕ	1
▁ਖੁਸਰ	1
ਚਾਹੀਦੀ	1
▁ਨਾਈਟ੍ਰੋਜ	1
ਾਪਾਮ	1
ੋਲਾਪ	1
ਫ੍ਰੇਕ	1
ਬੂਦ	1
▁ਨੋਵ	1
ਦਿੰਗ	1
ਿਆਸੀ	1
ਤਾਰਾ	1
▁ਪ੍ਰ੍ਸ਼ਾ	1
▁ਪ੍ਰ੍ਕ੍ਰਿ	1
ਮਾਰਕੀਟ	1
ਇਤਿਹਾਸਕ	1
ਅਤੀਸ	1
ਗੁੱ	1
ਮਹਿਸੂਸ	1
▁ਸਨੈ	1
ਖ਼ਾਸ	1
ਾਲਿਨ	1
▁ਆਸਟਰੇਲੀਆਂ	1
ਅਧਿਸ਼ਠਾਤ	1
ਿੜਕ	1
ਰਧਾ	1
▁ਦੋਹਾ	1
ਵਸਥਿਤ	1
ਮੰਨਣ	1
ਹੋਣਗੇ	1
▁ਜੀਵਨਦਾਇ	1
▁ਡਾਈਵਰਸ	1
mg	1
ਕਾਰਯ	1
▁ਸੁਰੰਗਾ	1
ਲੇਗਮਾ	1
ਊਸ਼ਣ	1
ਣੌਤੀ	1
ਤੰਗ	1
ਡ੍ਰਿਨ	1
ਲੋਸ਼ਨ	1
ਰਥਾਤ	1
ਟੀਆਕਸੀਡੈਂਟ	1
ਬਾਈਕ	1
▁ਉਲਟਨ	1
▁ਕੰਟਰਾਸ	1
ਿਤਸਾ	1
ਹੁਡ	1
▁ਰੈਡਿਕ	1
▁ਸਟ੍ਰੋਫ਼	1
ਹਿ	1
ਭਲੇ	1
ਾਯੋਟਿ	1
▁ਚਿੰਨ੍	1
ਹੀਰਾਮ	1
ੜਗੰਗ	1
ਰੋਮਾਂਚ	1
ੁਦਰ	1
▁ਸਨੇਕ	1
ਮਣੀਪੁਰ	1
▁ਸਟੋਨਸ	1
ਨਾਗਾਰ	1
▁ਊਠਾ	1
▁ਟ੍ਯੂ	1
ਵਿੰਡਸ	1
▁ਪ੍ਰ੍ਯਾ	1
ਹਕੀਕੀ	1
ਓਲ	1
htt	1
jktdc	1
co	1
ਹਲਦੀ	1
▁੧੩੩	1
▁ਫ਼ੌਯ	1
ਚੂਕ	1
▁ਐਕਜ	1
ਬੈਸੀਲ	1
▁ਭਾਵਨ	1
ਹਰਿਆ	1
ਧਿਪਤਯ	1
ਸਿਗਰਟ	1
▁ਚੈੱਕਪ	1
ਮੱਛਰ	1
ੱਕਲ	1
ਜਿਨਸ	1
ਅੰਨਾ	1
ਨਹਿਰੂ	1
ਮਹਾਤਮ	1
ਕੈਥੇਡ੍ਰਲ	1
▁ਉੰਚ	1
▁ਬੂਰ	1
ਮਿਯ	1
ਿਨਿ	1
▁ਆਂਚਲਾ	1
▁ਡੱਚਾ	1
ਚੰਦਰਕ	1
ਪਗਡੰਡੀ	1
ਬ੍ਰਾਇਓਨੀਆ	1
ਿੱਪੀਆਂ	1
▁ਜਨਸ	1
ਮਾਨਯ	1
੧੦੩	1
ਸੇਵਕਾਂ	1
ੀਲਿੰਗ	1
ਿਹਰਾ	1
ਤਿਜਾਰ	1
ਹਾੜੀ	1
▁ਸੁਕਾਉ	1
▁ਪੌਂ	1
ਵਰਣੀ	1
▁ਪਹਿਣਨ	1
੧੯੫੫	1
▁ਛਿਦਰਾ	1
ਆਸੇ	1
ਬਾਗਾਂ	1
▁ਤਿਥ	1
▁ਤੁਹਾਡੀਆ	1
ਗੈਲ	1
ਚੀਰਾ	1
ਹਿਰਾ	1
ਮੋਟਾਪ	1
ਚੌੜੀਆ	1
ਪੁਕਾ	1
੧੬੬	1
ਲੋਥਲ	1
▁ਦਮਕਤ	1
ਬਹਾ	1
ੇਸਟ੍ਰ	1
▁ਔਲੀਆ	1
ਜਗਹ	1
▁ਮੁਹ	1
ਰਜਕ੍ਰਮ	1
▁ਸਰਕੁਲ	1
▁ਬਾਈਕ੍ਰ	1
ਗਜ	1
ਕਾਬਲ	1
ਰਟੀਕਲ	1
ਜਾਮਾ	1
ਰਗਾਮ	1
ਹੇਜ	1
▁ਖਾਰਸ	1
ਉਂਦੀ	1
ਸੜਕ	1
▁ਸਰਵਸੁ	1
▁ਧਿਆ	1
ਨੋਸਿ	1
▁ਮਾਹਿਰਾ	1
▁ਚਿਪਚ	1
ਪਾਉਣ	1
ਵੰਨ	1
▁ਮੋਨੋਪ	1
ੌਜ	1
▁ਵਿਖਾਉਂਦ	1
ਾਜੀਤ	1
ਸੁੰਗੜਨ	1
▁ਆਰਕਿਟ	1
▁੨੦੩	1
▁ਝਾਲਰ	1
▁ਮਲਬਾ	1
ਖੀਆ	1
ਨਾਜ	1
ਵਧਿ	1
▁ਸੋਡ	1
ਜਹਾਜ਼	1
▁ਰੈਸ	1
ਤਿਆਰ	1
ਨੁਭਵ	1
▁ਗੁਲਦ	1
ੀਕਾਰਕ	1
▁ਐਟੀ	1
ਪੁੱਜਦੇ	1
ਵਿੱਦਿਆਲਯ	1
ਵਿਕਟੋਰੀਆ	1
ਗੋਟੇ	1
ੰਗਾਬਾਦ	1
▁ਖਰਗ	1
ਤਾਈਵਾਨ	1
ਜਪਾਨ	1
ੰਬੋ	1
ਜਾਵਾ	1
▁ਤੋਲ	1
▁ਮਾਈਸ਼ਚਰ	1
ਰਦਾਨ	1
▁ਊਸ਼ਣਕਟੀ	1
ਹੁੱਡ	1
ਰੇਸਤਰਾਂ	1
▁ਨਿਵਾ	1
ਪੇੱਟ	1
ataroact	1
▁ਮੈਕੁਲਰ	1
ਡਿਜਨ	1
maculardlgemerati	1
ਡੈਕਸ	1
ਿਗਰ	1
▁ਥੇਰਾ	1
ਸਿਡਿਟੀ	1
ਨ੍ਯੁ	1
ੂਗਰ	1
▁ਸੰਵੇਦਨ	1
ਚੱਲ	1
▁ਟਰੱਕਾ	1
ਬਾਸਾ	1
▁ਜਵਾਹਰਾ	1
▁ਗਨੋਰੀਆ	1
▁ਆਯੂਰ	1
▁ਕਾੱਲਰ	1
▁ਟੰਗੀ	1
ਮ੍ਸ	1
▁ਪੋਡ	1
ਰੇਸ਼ੇ	1
▁ਬਾਜੇ	1
ਿਸਿਸ	1
ਕਾਸ਼	1
ਝਾਂ	1
ੁੱਕਣ	1
ਜੀਓਗ	1
ਰਾਫੀ	1
ਏਨਾ	1
▁ਗਲੂਕ	1
ਾਗੋਨ	1
ਤਖਤ	1
ਆਲਿਆ	1
▁ਹੋਮੋਸਿਡ	1
ਘੁੱਟ	1
ਚੌਸਿੰਗ	1
▁ਪ੍ਰ੍ਜ	1
ਨਾਨਾ	1
▁ਘੋੜੀ	1
▁ਸਨਗਲਾਸ	1
ਂਤਰਿਕ	1
▁ਬਚਦੀ	1
▁ਕਏ	1
ਸੰਧਿਵ	1
ਬ੍ਰਹਾ	1
ਉੱਪਰ	1
▁ਡ੍ਰੈ	1
▁ਅਦਰ	1
▁ਛਿਲ	1
ਕਲਕੱਤ	1
ੱਠੀਆਂ	1
▁ਵਰਿ	1
ਪੜ੍ਹੇ	1
▁ਮੀਨਾਰਾ	1
ੇਬੇਲ	1
ਸਾਰਸਾਪ	1
ਨਕਸਵੋਮਿਕਾ	1
ਹੋਇਆ	1
▁ਗਠਾਨ	1
▁ਬੁੰ	1
ਛੰਦ	1
ਬੁਝ	1
ਕੱਡ	1
ਜੋਤਿਸ਼	1
ਮੈਂਬਰ	1
ਰੇਗਿਸਤਾਨੀ	1
ਭੇੜੀ	1
ਇਨਕਲ	1
੯੫੭	1
ਡਿਜ਼ਾਈਨ	1
ਵਿਵਸ	1
▁ਚਪਟ	1
ਸਟ੍ਰੋਲ	1
ਲਾਸ਼ਪੁਰ	1
▁ਹਨੂੰਮ	1
▁ਤਖਤੇ	1
▁ਸਿਲੀ	1
ਕੋਨ	1
ਅਸਤਰ	1
ਭਾਰੀਪਨ	1
ਉੱਡ	1
▁ਫ਼ੈਕਟਰੀ	1
▁ਜਾਗੇ	1
▁ਮੱਛ	1
ਵੇਂਟ	1
ਜਾੜ੍ਹ	1
▁ਛਿਪੀ	1
ਕੇਸਰੀ	1
▁ਲੈਵੇ	1
ਮ੍ਡ	1
ਗ੍ਰ੍ਸਿਤ	1
▁ਹਾਥੀਪ	1
▁ਛੱ	1
▁ਕੁਪੋਸ਼ਨ	1
ਬਦਾਮ	1
▁ਐਸੇਸ	1
▁ਤ੍ਰੀਪੁਰ	1
▁ਸੈਪ	1
▁ਚਲਾਉ	1
ਕੁੰ	1
ਮਾਰਤ	1
ੰਯਮ	1
ਰੋਜ਼ਮ	1
▁ਕਸੌ	1
▁ਤਿਰੂ	1
ਚਿਰਾਪ	1
▁ਪੈਰਾਸੇ	1
ਸਿਤ	1
ਕਲਸ਼	1
▁ਪ੍ਰ੍ਵਤਾਰੋਹੀਆ	1
ਾਨਾਸ਼ਕ	1
▁ਬਰਤਨਾ	1
ਪਾਚਯ	1
ਚਮ	1
ਖੁਰਦਰ	1
ਆਉਣਾ	1
ੁਨਾ	1
ਲੂਲ	1
ਗਰਤਾ	1
ਸੱਜੇ	1
ੰਮਕਾ	1
▁ਵਿਟਾ	1
ਖਿੜੀ	1
▁ਡੋਡ	1
ਤੂਰ	1
ਬਾਊਲ	1
▁ਜ਼ਹਾਜਾ	1
ਸਮਾਂ	1
ਟਾਉਣ	1
ੁਹਾਰ	1
ਰੇਟਿਨਾ	1
▁ਝਰਨਿਆ	1
▁ਹਾਈਡ੍ਰੈ	1
ਂਟੀਗ੍ਰੇਡ	1
ਰੋਮਾਂਚਕ	1
ਸ਼ੁਕਰਾਣੂ	1
ਗ੍ਰਹ	1
ਕੈਲੋ	1
ੌਕਸੀ	1
ਮੁਹਾਂਸਿਆ	1
▁ਕੰਪਾਊਂਡ	1
▁ਪ੍ਰ੍ਜਾਤੀਆ	1
▁ਨੁਕਸਾ	1
ੌਣ	1
▁ਬ੍ਰਾਹਮਣਾ	1
ਚੋਗੇ	1
▁ਖੁਲਦ	1
ਪ੍ਰ੍ਯੋਗ	1
੨੮੦	1
ਨੀਮ	1
▁ਕਾਸਮੇਟ	1
▁੬੮੬	1
ੋਂਡਲਾ	1
Acute	1
Bronchits	1
ਸ਼ਵਸਨੀ	1
ਆਤਮ	1
▁ਹਾਈਡ੍ਰੋਕਲ	1
ਵਹੇਲ	1
▁ਸਪੋਂਡ	1
ੁਲਿ	1
ਤਪਦ	1
ਗੜਗ	1
ਿਤਿਜ	1
ਛੁ	1
▁ਸੰਪਦ	1
੍ਰਾਇ	1
ਬੱਚੇ	1
ਰਿਟੇ	1
▁ਆਯੁ	1
ਟਲੈਂਡ	1
▁ਐਲਕੋ	1
▁ਔਰੇ	1
ਲੇਰਮੋ	1
ਭੁੱਲਣ	1
▁ਸੈਫ	1
▁ਸ਼ੁਕ	1
▁ਰਿਸੇਪ	1
ਵਰਲਡ	1
ਾੜੀ	1
ਬਣਾ	1
▁ਡਿਜਨ	1
ਡਿਪ੍ਰੇਸ	1
▁ਸਹੂਲ	1
▁ਦਿਸ਼ਾਵਾ	1
ਭੰਡਾਰਾ	1
ਥਾਈਲ	1
ਾਊਂਟੇਨ	1
ਸਤੁੰਸ	1
ਠਲਾ	1
▁ਅਰਾਧਿ	1
ਸਟਮ	1
ਫਿਲੀਪ	1
▁ਗੈਸਟ੍ਰੋਏਟ੍ਰਾ	1
ਵ੍ਰਸ਼ਿ	1
ੌਂਸ	1
ਗੁਸ਼ਠ	1
▁ਸਕੂਨਦਾ	1
ਮਸਲਨ	1
ਬਸਤਰ	1
▁ਰੋਡੋਡੇਂਡ	1
ਪੰਜਾਹ	1
▁ਫ਼ਾਸ	1
ੰਨ੍ਤ	1
ਘਿਓ	1
ਚਦਾ	1
▁ਸਟੂ	1
ਮੇਲੇ	1
ਬੱਕਰੀ	1
▁ਟਾਲਰੇ	1
ੋਲਡ	1
ਨਾੱਰ	1
ਪਾਅ	1
ਸਹਾਰੇ	1
ਤਮਾਲਾ	1
ਕੱਦੂ	1
ਗਾਜਰ	1
▁ਝੰਡ	1
ਸਰਜਰੀ	1
▁ਧਨਵਾ	1
ਰੁਪਏ	1
▁ਅਟਕਾ	1
▁ਨਲਕ	1
▁ਕਰੂ	1
▁ਰੈਟਿਨਾ	1
▁ਅਤਿਬਲ	1
▁ਮਹਾਬਲ	1
ਪਰਿਨ	1
▁ਲੈਪਲ	1
ੀਡੀਅਰ	1
ਪੰਜਿਆ	1
▁ਕੋਮਬਾ	1
▁ਉੱਤਰਕ	1
ੱਦੀਨ	1
ਫੈਮੀ	1
ਹਾਈਡ੍ਰ	1
ਟ੍ਰੇਟ	1
ੱਤੀਆ	1
ਾਵੇ	1
ਫੋਰਨੀਆ	1
▁ਸਪਤਧਾ	1
ਅਪਣੇ	1
ਅਸਵੀ	1
ਅਜਿਹੀ	1
ੋਕਸੀ	1
ਵੈਸਟ	1
ਸਾਇੰਸ	1
ਬ੍ਰਹਿਮੰਡ	1
ਮੈਡੀਸਨ	1
ਘੁੜਸਵਾਰ	1
ਟਰਸਟੀ	1
▁ਅਨਿਮ	1
ਪੀਸਾ	1
ਗੋਸ਼	1
ਮੰਡੂ	1
▁ਇਮਾਰ	1
ਪੋਖਰਾ	1
ਸ਼ਿਚਮੋ	1
ਮਹਿਰਾਬਾਂ	1
ਰਿਕਸ਼	1
ਸਮਰਾਟ	1
ਰਬੀਨਾ	1
ਲਾੱਜ	1
▁ਏਸ਼	1
ਖਤਰ	1
▁ਮੁੱਛ	1
ਹੜੀ	1
ਯੋਗਪ੍ਰਦੀਪ	1
▁ਕਰਨਵਾਲੀ	1
ਚਬਾਉਂਦੇ	1
▁ਵੈਵਸ	1
ਗੁਲਮ	1
ਸ਼ੌਪ	1
▁ਪਿਪ	1
ਵੇਲਕ	1
ਲੱਗ	1
ੇਨਮ	1
੍ਹੋ	1
ਸੋਮਨਾਥ	1
ਪੈਲ	1
▁ਸਵੇ	1
ਜਾਂਚ	1
ਸੈ	1
▁ਰੁਮਾਂ	1
ਸੰਗ੍ਰਹਿ	1
▁ਵਾਲਿ	1
▁ਹੀਮੋਫਾਈਲ	1
ਨਸਯ	1
▁ਜਵਾਰੀ	1
▁੧੨੯	1
▁ਇਜ਼ੀ	1
ਬੁੱਢਿਆਂ	1
ੀਐਂਟ	1
▁ਪਿਯ	1
ਟੇਨਸ	1
▁ਲਿਪ	1
ਹੱਸਦੇ	1
▁ਅਨੋਖੀਆ	1
▁ਉਠਾਈ	1
ਗੱਦੀ	1
▁ਢੱ	1
ਪਨੀਰ	1
ਹਜ਼ਰਤ	1
▁ਹਿਸਾ	1
▁ਵੈਸ	1
ਗੋਲਿਕ	1
ਿਲਾਵ	1
▁ਰਿਸੇਸ	1
ੁੰਡਾ	1
ਕੁਰੀ	1
ਬਿਨਾ	1
੦੪	1
ਨਦੀਮੁਖ	1
ਡੰਗ	1
▁ਰਗ	1
▁ਆਬਜ਼	1
ਜਕਰਤਾ	1
Lec	1
Lemon	1
ਥੈਲੀਅ	1
▁ਨਾਈਟਰ	1
▁ਕਮ੍	1
▁ਬਾਨਗ	1
▁ਕਲੋਜ	1
ਨਡ੍ਰੋਮ	1
ਪੋਟੋ	1
ੈਂ	1
▁ਮਹਾਭ	1
ਤੀਜ	1
ਖਵਾਇਆ	1
ਕੰਬ	1
ੱਡੂ	1
ਚੇਨਈ	1
ਬੰਗਲਾ	1
ਹੋਣ	1
▁ਰਾਫ਼	1
ਨਵੇਲੀ	1
▁ਰਾਨੀ	1
ਸਿਸੁ	1
ਸਾਸਾ	1
ਤੜੀਆ	1
ਯੂਡੀ	1
▁ਵ੍ਰ	1
ਪਾਰਸ	1
ਨਿਰ੍	1
ਬਲਤਾ	1
ਕਾਂਗ	1
ਆਂਡਿਆ	1
ਰੀਅਤਾ	1
▁ਕੁਦ	1
ਅਸਰ	1
ੁਗ	1
ਸਟੇਰ	1
ਦਵਾਰਕਾ	1
ਲਗਮ	1
ਸੋਇਆਬੀਨ	1
ਛੋਲੇ	1
ਟਲਾ	1
ਬਰਾਮਦਾ	1
▁ਮਹਾਂਸ਼ਿਵ	1
ਲੇਹ	1
▁ਛੋਟਾਨਾਗ	1
▁ਮਤਸਯ	1
ਛਿਆ	1
ੈਗਜ਼	1
▁ਮੋਟੀਆ	1
ਵਿੱਤਰ	1
ਮਾਰੂ	1
ਨਿਊਰ	1
ਾਨਤਾ	1
ਬਲੋਨ	1
ਅਨਵੇਸ਼ਣ	1
▁ਪੱਤਰਕਾਰਾ	1
▁ਕਸ਼ਟਦਾ	1
▁ਐਜੇ	1
▁ਮਸੱ	1
ਪ੍ਰਧਾਨ	1
▁ਆੱਸਿਟ	1
ੀਕਿਰਿ	1
▁ਹੇਂਗ	1
▁ਸਰਵਸ਼੍ਰੇਸ	1
▁ਆਸ਼ਯ	1
ਲੀਲ	1
▁ਫ਼ੈਲਿ	1
▁ਧੜਕ	1
▁ਯੁਸ	1
ਨਸਕ੍ਰੀ	1
▁ਰਾਜਨੀਤ	1
ਸਾਜ	1
▁ਟਾਊ	1
ਿਡੰਗ	1
੧੧੯	1
ਹਿੰਗਾ	1
ਧੁਮੇਹ	1
ਸ਼੍ਰੀਮ	1
ਵੈਕ	1
ੁਟਿਕ	1
▁ਕਾਰਡਿਯੋ	1
ਟਾਰਟਰ	1
ਿਮਾਲੀ	1
ੋਮੀਟਰ	1
God'	1
Own	1
ountry'	1
ਈਸ਼ਵਰ	1
▁ਗਿੱ	1
ਫੌਰ	1
ਬੁਝਾ	1
ਮਰਨ	1
▁ਭਗਨ	1
ਿਣੀ	1
▁ਚਮਚਮ	1
▁ਪੋਸ਼ਾਕਾ	1
▁ਸਮਾਉ	1
ਿਟਨ	1
▁ਅੰਸ	1
▁ਦਰਾਰਾ	1
▁ਕਨਵੇ	1
▁ਸ਼ੁਭਾ	1
▁ਪਦਾ	1
ੈਸੀਲੀਨਮ	1
▁ਝੋਕ	1
ਮਾਊਂ	1
ਬੋਲੇ	1
ਪਿਥੌਰਾਗੜ੍ਹ	1
▁ਗਿੜ	1
▁ਟੈਂਪਰ	1
ਮੂਤਰਾਸ਼	1
ੋਕੋਟ੍ਰਾ	1
▁ਕਰਵਾਏਗ	1
੍ਕਾ	1
ਣਕਾਰੀ	1
ਿਜਿਯ	1
ਸਥੀ	1
▁ਬਾਂਕ	1
▁ਖੋਣ	1
▁ਖੇੜਾ	1
ਟਿਆਂ	1
ਕੰਜ	1
ਿਊਮਰ	1
▁ਕਲਾਸਾ	1
ਲੀਜ਼	1
▁ਨਿਬ	1
ਜੜ੍ਹ	1
ੋਇਆ	1
▁ਖਿਜ	1
ਬੇਕਰੀ	1
ਟਾਇਰ	1
ਰਣਥਮਭ	1
▁ਬਜਾਉ	1
ੰਗਾਂ	1
ਆਜੀ	1
▁੧੯੦੦	1
▁ਸੱਕ	1
▁ਭੁਜਾ	1
ਟੀਬਾਡੀ	1
ਯੂਮਿ	1
▁ਅਯੁ	1
ਨੁਏ	1
▁ਪੁੱ	1
ਰਾਤਾਤਵਿਕ	1
ਘੋੜ	1
ਾਮਦੇਵ	1
ੈਰੇਪੀ	1
ਕਲਪਨਾ	1
ਬਲੈਕ	1
▁ਰੂਮਾ	1
ਨਿਯ	1
▁ਕੈਲਕੇਰ	1
ਕੋਇਲ	1
▁ਸਵੱ	1
▁ਮਾਈਕਲਏ	1
▁ਤਾਨਾਸ਼ਾਹ	1
ਸਮਰ	1
▁ਠਿਕ	1
ਮੌ	1
▁ਉੱਚਾਈਆ	1
▁ਨਾਗਨ	1
▁ਅਦਭ	1
ੰਮਤੀ	1
▁ਅਫਰਾ	1
ਸਾਇਆ	1
ੂਝ	1
ਝੋਪੜ	1
▁ਸ੍ਰੀਮੁ	1
ਵਕੁਟ	1
ੁੰਬਕ	1
ਪਾਉ	1
▁ਦੋਵ	1
ਪਾਂਡੇਚ	1
ਜਾਗਿੰਗ	1
ਪੌੜੀ	1
▁ਸਾਮੋ	1
Alzheihmer	1
Disease	1
੯੭੬	1
ਕਾਇਟ	1
▁ਵੰਨਗੀ	1
▁ਨਸ਼ਿਆ	1
▁੩੦੪	1
ਯਾਂਸ	1
▁ਰਾਠੌ	1
ੀਜ਼ਾ	1
ਬੇਥ	1
ਲਿਖ	1
ਖਿਚ	1
▁ਗਿਆਰ੍ਹ	1
▁ਲਖਨ	1
▁ਉਦਯੋਗੀਕਰਣ	1
ਕਿਸਾਨ	1
ਹਾਨ	1
▁ਚਿੜ੍ਹੀਆ	1
▁ਗਰਦ	1
ਰੂਆਤ	1
ਸਲਾਹ	1
▁ਅਰਾਧਨ	1
▁ਨਾੱਰ	1
▁ਮਜ	1
▁ਤਾਪਕ੍ਰਮ	1
▁੧੪੧	1
ਪੁਸਤਕ	1
ੜਗੜਾਹਟ	1
ੜਕਨ	1
▁੧੬੩੨	1
ਂਗਤੋਂਗ	1
ਨਾਗਿਨ	1
ਥਰੈਪੀ	1
▁ਸਪੈ	1
▁ਛੂੰਹ	1
ਿਲਕੇ	1
ਾਇਟੀ	1
▁ਨਿਯੰਤ	1
ਬ੍ਰੋਮਾ	1
▁ਪਰਸੈ	1
ਰਾਯਲ	1
ਕੰਟੀਨ	1
▁ਤੌਲ	1
਼ੀਏ	1
▁ਟੈਂਕੀਆ	1
ਥਰਾ	1
▁ਏਨੋਰੇਕ	1
▁ਖੜ੍ਹੀਆ	1
ਫੇਰੀ	1
ਾਰਨ	1
▁ਸੇਂਚੁ	1
▁ਧਨਸਿਰੀ	1
▁ਪਸ਼ੂਪਤ	1
▁ਚਟਾਉ	1
▁ਕੌੜ	1
ਵਗੈਰ	1
▁ਯਾਨ	1
▁ਵਿਸ਼ੁ	1
ਾਮਚੂ	1
Wine	1
▁ਤਾਮਸ	1
ੇਟਿਸ	1
▁ਬ੍ਰੋਮਾਈ	1
ੂਏਂ	1
ੂਬਰ	1
ਕ੍ਰਾਂਤੀ	1
▁ਮਯੂਟੇ	1
▁ਬਿਗੁਲਵਾਦ	1
ਰਿਯੋਜ	1
ਮਯੂਜਮ	1
ਾਚੀਗਾਮ	1
▁ਅਸਵ	1
ਮੇਯ	1
ਸਕੇਟ	1
▁ਸਕੇਟ	1
ਤਕਰੀਬਨ	1
▁ਅਲਟ੍ਰਾਵਾਈਲ	1
ਛੱਡ	1
ਯੂਕੋ	1
ਕਾਬਰ	1
19	1
ਸ਼੍	1
ਿਆਸ	1
ਰੂਰ	1
ਫ਼ੜ	1
▁ਵੱਟ	1
▁ਮੂਰਛ	1
▁ਬੇਕਰ	1
▁ਚੋਲ	1
▁ਡਿਜੀ	1
ਲਗਿਰੀ	1
▁ਬ੍ਰਹਾਮ	1
ੌਂ	1
ਠੰਡੇ	1
▁ਤਪੋਬ	1
▁ਆਦ	1
ਸ਼ੰਕ	1
ਾਤਰ	1
ਥਲਗ	1
~!	1
ਵਰਸ	1
ਗਨਾ	1
੪੫੦	1
▁ਪੰਚਰ	1
▁ਚੈਂਪ	1
ਿਸੀਜ	1
▁ਸਾਧਾਰ	1
ਸ਼ਾਣ	1
ਨਯਾਸ	1
ਥੇਲਿ	1
▁ਸੋਚਨ	1
ਰਕਸ	1
▁ਟ੍ਰੌਂ	1
▁ਕੋਟਟਾ	1
ਵਲਸਾ	1
ਪੰਜਾ	1
ਅਰਬੀ	1
ੇਦਾਨੀ	1
ਾਫ਼ਟ	1
▁ਰਾਮਚੰਦ	1
ਏਂਟੀ	1
ਮਕਰ	1
▁ਨਿਸ਼ਕ	1
▁ਸ਼ਹੀਦਾ	1
ਸੁੱਤੇ	1
▁ਦੁਭ	1
ਪੀੜ	1
Thermal	1
pools	1
ਬੇਕਰ	1
ਸਕੈਬ	1
ਬਿਜਨ	1
ਡਮੈ	1
ਣਡੂ	1
▁ਐਲਗੀ	1
ਟੁ	1
▁ਅਵਸ਼ੇਸ਼ਾ	1
ਮੋਦੀ	1
ਦਿਵਾ	1
ਰਸੇਨ	1
ਸ਼ਿਸ਼ਟਤਾ	1
▁ਪੈਰਾਥ	1
ੀਸੀਆ	1
ਇਲਾ	1
ਯੁਵ	1
ਹਤ	1
ਠਾਨ	1
▁ਪੇਸ	1
ੰਜਰ	1
ਸ਼ਿਸ਼ੂ	1
▁ਸੌਕੀਨ	1
ਗਿਰਿ	1
▁ਸਮੂੰਦਰ	1
▁ਸਮਰਿੱ	1
ਸਵਾੜ	1
ਸਵਰਨ	1
▁ਲਿਕੋਰੀ	1
ਪੂਜਨੀਕ	1
▁ਸ਼ਿਖ	1
▁ਉਲਝਣਾ	1
ਪ੍ਰ੍ਵ	1
੍ਯਮ	1
▁ਟਿਕਾਣਿਆ	1
▁ਹੋਇ	1
▁ਸ਼ੋਲਾਪੁਰ	1
▁ਚੇਲਾ	1
ਰ੍ਚ	1
▁ਸਿਡਨ	1
ਪੀਕਾਕ	1
ਮੰਜ਼ਲੀ	1
▁ਤਮੰ	1
ਜਮੇ	1
ਊਸ਼ਣਕਟੀਬੰਅ	1
▁ਪ੍ਰਸਤੁ	1
ਕਾੱਲੇ	1
▁ਗਹਿਰ	1
ਉਰਵ	1
ਕਤੀਪੀਠ	1
▁ਮਾਸਪੇ	1
ਅਸ਼	1
ਮੇਛ	1
ਸਮਾਧੀ	1
ਨੂਕੂਲ	1
ਕੈਮੋ	1
▁ਚਿੜਚ	1
ੜਾਪਣ	1
ਜਗਨਨਾਥ	1
ਬਲਦੇਵ	1
▁ਬ੍ਰੋਕਾਇ	1
ਵੇਸ਼ਟਨ	1
ੋਡੈ	1
ਮੈਕਸ	1
▁ਪਰੌ	1
▁ਇੰਜੀ	1
▁ਅਦਵਾ	1
ਰਸਤੇ	1
▁ਫ਼ੈਮ	1
ਜੰਮ	1
ਪਰਿਸਥਿਤੀ	1
ਟੇਸਟੀ	1
▁ਰਿਟ	1
ਫਿਊਜ਼	1
▁ਖਿੜਖਿੜਾ	1
ਲੈਕ	1
ੇਲੋਪ	1
ਚਾਣਿਆ	1
▁ਪ੍ਰੋਸੈ	1
▁ਮਾੱ	1
ਨੇਸਟ੍ਰੀ	1
▁ਤਾਮਰਯੁ	1
ਸੈਕਸੁਅਲ	1
ਗਵਰਨਰ	1
▁ਪ੍ਰ੍ਧਾ	1
▁ਉਠੋ	1
ਨੈਨ	1
ਧਸਾ	1
ਨਾੱਨ	1
ਕਰਾ	1
ਝੁ	1
ਕਾਰਡ	1
▁ਕੇਲੋ	1
ੀਗੜ	1
ਟਿੱਬ	1
▁ਨਸ਼ਤ	1
ਾਵੜਾ	1
▁ਚਾਂਪਾ	1
▁ਕਲਾਵਾ	1
ਨਿਸ਼ਕਿਰਿਆ	1
▁ਨੁੰਹ	1
▁ਇਕੋਕਾਰਡਿਯੋਗ੍ਰਾਮ	1
	1
▁ਫੁਲਕਾ	1
ੋਟਿੰਗ	1
ਰੂਜੈ	1
▁ਅਗਨ	1
ੀਤੋਛਣ	1
▁ਐਲੋਪ	1
ਾਲੀਆਂ	1
ਫਲਾਈ	1
ਤਪੁੜਾ	1
▁ਮੱਧਪ੍ਰਦੇਸ	1
▁ਚੋਣਵੇ	1
ਕਰਕੇ	1
ਲਾਦੇਸ	1
▁ਆਰਥ੍	1
ਾਉਦੇ	1
▁ਘੱਘਰ	1
▁ਸ਼ਿਖਾ	1
ਦੇਵਤਾ	1
ੋਪਿੰਗ	1
ੇਟਟੀ	1
▁ਰੌਸ਼ਨ	1
ਮੈਸੂਰ	1
▁ਦਾਅਵ	1
ਟੱਟ	1
▁ਸਪੂਨਰ	1
ਕੇਨਯਾਨ	1
▁ਪਲਾਜ	1
▁ਓਵੇ	1
▁ਦਰਸਾਉਂਦੀਆ	1
▁ਚਾਲਾ	1
▁ਟਾੱਨ	1
ਚਮਕੀਲ	1
ਚੁਏ	1
ੋਬਾ	1
ਡਲਜ਼	1
ਾਜਿਕ	1
▁ਕ੍ਰ੍	1
ਦਾਰਨਾਥ	1
ਵੀਰਾਨ	1
੨੯੦	1
੪੨੦	1
}	1
▁ਲੁਟਾਉ	1
▁ਬੈਲੂਨ	1
▁ਕਾਨਫਰ	1
ਟਾਇਆ	1
▁ਜਨਗ	1
ਨਣਾ	1
੮੫੧	1
ਬੈਂਡ	1
ਸਜਿਦ	1
ਬਾੜਾ	1
ੰਨਣ	1
ਮੂੰਗ	1
▁ਨ੍ਯਮ	1
ਲਜੀ	1
ਡਿਫ	1
ਮੈਕੇਨਿਜ਼ਮ	1
ਿਊਕੋਸਾ	1
▁ਆਈਸਕਰ	1
ਸਾਥ	1
ਇੰਨ੍	1
▁ਦਹਾ	1
ਰਮਨੀ	1
▁ਸੈਲਿਸਿਲ	1
ਫ੍ਰੈ	1
ਚਾਕ	1
ਨਿਖਾ	1
▁ਚੁੰਮ	1
ਫੇਸ	1
ੈਲਫ	1
▁ਕੈਮਰ	1
ਡਰਲ	1
ਮੇਨੋਪਾੱਜ	1
▁ਬਖਤ	1
▁ਆਟਰ	1
ਵਿਟਾਮਿਨਸ	1
▁ਬੀ੧	1
ਵਿਵਾਹਿ	1
ਢੇਰ	1
▁ਭੀਲ	1
▁ਬ੍ਰਹਮਪੁ	1
ਕਿਸ਼ਤੀ	1
▁ਸਰਵਨ	1
ਅਨੁਕੂਲ	1
▁ਵਿਘਟ	1
ਅੰਨ	1
ਮਾਇ	1
▁ਨਜ਼ਾ	1
ਕੋਸ਼ਿਸ਼	1
ਨਾਈਟ੍ਰੋ	1
ੋਡੀਨ	1
ਆਇਰਨ	1
▁ਗ੍ਰ੍	1
ਮਨਭਾਉ	1
▁ਜਾਗ੍ਰ	1
ੁਰਸ਼ਤ	1
▁ਨੋਟਿਸ	1
ਟਾੱਨਿ	1
ੂਰਾਮ	1
▁ਹਾਇਪਰ	1
▁ਬਰੋਕ	1
▁ਯੂਰੋਪੀ	1
▁ਨਵਦੰ	1
ਕਲਪਤ	1
▁ਬੋਟੇ	1
▁ਕੰਡਾ	1
੧੭੫੯	1
ਲੇਮੇਟ	1
▁ਪ੍ਰ੍ਮ	1
▁ਮਹਾਬਲੀਪੁਰ	1
ਪ੍ਰੋਸੈਸ	1
▁ਲੈਫ	1
ਟੀਨੈਂਟ	1
▁ਭਰਾਵ	1
▁ਵਿਚਾਰਧ	1
▁ਆਰਾਮਦਾ	1
▁ਡਾਕਟ	1
▁ਪੈਰੇਲ	1
ਫਾਈਨ	1
▁ਯੂਨੀ	1
▁ਕਾਰਬਾੱ	1
੧੨੫	1
ਆਰਥਰਾਈਟਿਸ	1
ਕਿਸੰਸ	1
▁ਸ਼ੌਚਾਲ	1
ਤਾਮਿਲਨਾਡੂ	1
ਆਂਧਰਾ	1
▁......	1
ਿਸਾ	1
੭੧	1
ਗਜੋਤ	1
ਸੈਲਾ	1
▁ਫੀਸ	1
ਰਹਿਣ	1
▁ਸ਼ਾਰਦ	1
ਵੇਂਕਟ	1
▁ਧਵੰਸ	1
ਾਵਸ਼ੇਸ਼	1
▁ਰੋਟੀਆ	1
ਵਿਅਕਤੀ	1
ਅਸੰਖਿਆ	1
▁ਵਿਖਰ	1
ਾਇਬਿਟੀਜ਼	1
▁ਬੇਂਗਲ	1
ਖੰਨ	1
ੱਟੋ	1
ੌਂਫ	1
▁ਭਰਮਾ	1
▁ਦੰਤਕਥ	1
▁ਖੁਲਣ	1
▁ਮੈਮ	1
ਗੰਗੋ	1
ਹਾਰੇ	1
▁ਫੜਫੜਾ	1
ਕੇਰਲ	1
▁ਜਾਲੀਆ	1
▁ਬ੍ਰਾਇਓਨ	1
ਅਲੰਕਰਣ	1
▁ਵਿਸ਼ਿਆ	1
ੁਸੀ	1
▁ਚਿਤ	1
▁ਨਸ਼ੀ	1
▁ਸ਼ਿਵਗੰਗ	1
ਰਾਪੱਲੀ	1
ਰਾਮੇਸ਼ਵਰਮ	1
ਘੰਟਿਆਂ	1
▁ਕਿੱਲ੍ਹ	1
▁ਕੋਹਲਾ	1
ਛੀਆਂ	1
ਵੋਕੈ	1
ਬੋਲੀ	1
▁ਚੇਰ	1
▁ਰੇਡੀਉ	1
ਸਿਆਵਾਂ	1
▁ਖਿਲਾਉ	1
▁ਅਥਾ	1
ਲੀਵਸ	1
▁ਸਟੋ	1
ੋਚਾਂ	1
▁ਡੋਡਡਾ	1
▁ਜੀਉ	1
ਮਨੋ	1
▁ਸਾਜ	1
ਸੱਜਾ	1
ਹਮਲਾਵਰ	1
▁ਵਿਖੇਰ	1
▁ਸਿਲੇ	1
ਲੀਕਰ	1
▁੬੪੦	1
ਖਿਚਵ	1
▁ਇਨਯੁਰਿਜ	1
▁ਗਰਭਗ੍ਰਹ	1
ਕਦ੍ਫ਼	1
ਟਿਊਬ	1
ੌਜੀ	1
▁ਬਣਾਵੇ	1
▁ਮੋਨੇ	1
ਰੂਬੇ	1
ਦ੍ਰਾਸ	1
▁ਯੌਂ	1
ਪੁਕਾਰਦੀ	1
੍ਰ੍ਟਾ	1
੬੯੧	1
▁ਡੇਨਿਸ	1
▁ਐੱਲਡੀ	1
ਹੈਪੇਟਾਈਟਿਸ	1
▁ਮਲੇਰ	1
ਸਰੋਤ	1
ਗ੍ਰਾਫ਼ੀ	1
▁ਚਿੱਤਰਾ	1
hbaic	1
▁ਟੇਮ	1
ਸਡ	1
ਲੈਪਰੋਸਕੋਪ	1
ਕੋਸਟਲ	1
▁ਮਸ਼ੀਨੀ	1
ਆਵਾਜ਼	1
ਨੁਰ	1
ਮਰੂਸਥ	1
▁ਉਬਲੀ	1
▁ਪੋਰਟਰਾ	1
ਘੁਮਾ	1
▁ਡੋਜ	1
▁ਬਲਾੱ	1
ਆਫ਼ਿਸ	1
ੁੰਮਦ	1
ਡਕਾਰ	1
ਉਛਲ	1
ਪੌਦਿਆ	1
ੱਥੇ	1
ਬ੍ਰਿੰਦਾਵਨ	1
▁ਧੂਰ	1
ਖੰਭਾ	1
੧੧੭	1
ਾਉਂ	1
▁ਪ੍ਰਭੂਪਾਦ	1
▁ਤਖਤਾ	1
▁ਡੋਮ	1
ਲਗ	1
ਬਣਦੇ	1
ਡਾਇਟ	1
▁ਰਤੌ	1
ਕਲਿ	1
▁ਸਾਇਟਿਕ	1
▁ਕਾਰਜਕਰਤ	1
ੱਥਾ	1
ਪੋਪ	1
ਵਾਜੀ	1
ਤੇਜ	1
ਨਾਸ਼	1
▁ਫ਼ਰੈ	1
ਇਥ	1
▁ਹੋਲਡ	1
ਸਵਰਥ	1
▁ਪਰਬਤਰੋਹੀਆ	1
ਪਿੱਪਲ	1
ਨਿਯੰਤਰਣ	1
▁ਕੈਮੋ	1
ਇੱਧ	1
▁ਸਪਤਸ	1
ਰੋਜਮ	1
ਕੈਨਥਰ	1
ਟ੍ਰੇਡ	1
▁ਗਲੇਸ਼ੀ	1
ਾਯੋਕੈਮ	1
ੈਡੀਕਲ	1
ੈਨਸ਼ਨ	1
ਚਾਂਦਬ	1
ਰੇਸ	1
ਇਅਸਦ	1
ਨੰਗੀ	1
ਡਰਾਉਣੀ	1
ੰਗੜੀ	1
sking	1
ਬ੍ਰਹਮਾ	1
ਕਯਾਕਿੰਗ	1
▁ਵਿੰਟ	1
ਜੋਏ	1
▁ਖਰਾਸ	1
ਸਵਸਥ	1
▁ਕੈਰੋਟ	1
▁ਮ੍ਯੂਕੋਸ	1
ਉਤਮ	1
ੇਨਿਯਲ	1
▁ਹਲਦ	1
▁ਮਿਰਜ	1
ੱਕ੍ਲ	1
▁ਬਾਰਸੂ	1
੍ਰਿਟ	1
ਧੋਤੀ	1
▁ਮੁਦ	1
ੱਈ	1
ੂਲੇਂ	1
▁ਆਸਮ	1
▁ਕਲਿਕ	1
ਁਗ	1
▁ਥੇਰ	1
▁ਫਲੋਰਾ	1
▁ਫਾੱ	1
ਸਰਵਸ	1
ਗੁਪਤਾ	1
ਮਹਿਸ	1
ੱਕਾ	1
▁ਹੀਮੋਸ	1
ਗੈਲਰੀ	1
▁ਬ੍ਰਿੰਦਾ	1
ੈਨਾ	1
ਲਿਸਫੀਕੇਸ਼ਨ	1
ਸੇਲਾ	1
▁ਪਸੰ	1
▁ਜੂਨਾ	1
▁ਬਟਾਲ	1
▁ਟਕ	1
ਨੀਟੋ	1
ਈਨ	1
ਗਾਬਾ	1
▁ਪ੍ਰੈਗ	1
ੋਬਾਲ	1
ਐਤਵਾਰ	1
ਲਭੁਲਈਆ	1
▁ਗੋਤਾ	1
ਰਟਾਲ	1
▁ਗ੍ਰਿਫ	1
ਖੰਘ	1
ਤਰਕਾਰੀ	1
▁ਜਗਮਗ	1
▁ਪਿਪਲ	1
ਆਲਮੰਡ	1
▁ਐਵ	1
ੋਕਾਰ	1
ਪ੍ਰ੍ਤੀਸ਼ਤ	1
ੋਨੀਆਂ	1
▁ਮੀਠਾ	1
ਵਿਯਾ	1
ਮਢ	1
ਨੇਪਾਲੀ	1
ਪੱਤੇ	1
ਕੇਟ	1
▁ਗਧ	1
ਦ੍ਰਵੀਪ	1
ਰ੍ਯ	1
ਮਿਲਦਾ	1
ਕੈਪ	1
ਸ਼ਾਰਟ	1
▁ਹੇਮਾਰ	1
ਵਸ਼	1
▁ਵੇਜੇ	1
ਨਾਈਲ	1
ਲਾਹੌਲ	1
ਨਿਰ	1
:-	1
▁ਆਁ	1
ਲਿਲੀ	1
ਲੱਛਮੀ	1
▁ਵਿਧੁਤੀ	1
ਰੂਲੀ	1
ੋਪਚਾਰ	1
ਆਉਲੇ	1
ਜੋਤ	1
▁ਅਤੀਸ਼	1
ਜੜੀ	1
▁ਅਧਿਸ਼ਠ	1
ੂਸ਼	1
▁ਖਗ	1
ਰਮਣੀ	1
ੰਬਾ	1
ਹਾਇਡ੍ਰੇਸ਼ਨ	1
ਧੌਲਾ	1
▁ਮਾਸਚਰ	1
▁ਐਂਟੀਬਾਡੀ	1
▁ਸਾੱ	1
▁ਬ੍ਰਿੰਦਾਵ	1
▁ਦੇਵੇਂਗ	1
▁੧੯੧	1
ਕਲੋਡ	1
ਜੈਬਰ	1
ਜੁਟ	1
Leuk	1
Exit	1
▁ਤਰ੍	1
ਪਸ਼ਯ	1
▁ਗਿਰਜ਼ਾ	1
▁ਸਵਯੰ	1
ੋਰਨ	1
ਘੁਸੇ	1
ਰੋਵਿਨ	1
▁ਰੁੱਝਿਆ	1
▁ਮਦਮਹੇਸ਼ਵਰ	1
ੰਜਕ	1
ਹਮਲੇ	1
ਲੋਕਾਂ	1
▁ਅਫਜ	1
▁ਨਹਾਉ	1
ਜੀਰਮ	1
ਮੇਨੋਰ	1
▁ਲਗਦੀਆ	1
੮੬੦	1
੍ਛੀ	1
▁ਯੋਨਿ	1
ਚੁੱਪ	1
ਕਹਲ	1
ਫੰਗ	1
▁ਰੂਮੇਟ	1
▁ਅਁ	1
ਨੋਰ	1
ਈਪੀ	1
ਰੋਟੋਨ	1
ਸੋਮੇਟ	1
ੋਸਟੇ	1
▁ਤਕਨੀਸ਼	1
▁ਖਰਬ	1
▁ਬਿਲਕੁ	1
ਲੋਭ	1
▁ਵਿਸ਼ਰਾਮਗ੍ਰ	1
ਸਤਰੇ	1
ਟੀਗਰੇ	1
ਭਯੰਤਰ	1
ਬਾਲਟ	1
ੋਰੋ	1
ਸਮੱਗਰੀ	1
▁ਹਕਲਾ	1
▁ਗਲੇਸ਼ੀਅ	1
▁ਜਲਪੰਛੀ	1
ਭਗਤ	1
ਕਿਰਾ	1
▁ਸੈਨਿ	1
▁ਰਾਜਪੁਰ	1
▁ਮ੍ਰਦਭਾਂਡ	1
▁੩੫੬	1
੨੬੫	1
▁ਨਾਗਵੰਸ਼	1
▁ਪੱਛੇ	1
ਯਾਵਰਣ	1
▁ਜਿੱਦ	1
੍ਰੋਇਨਟ	1
▁ਸਹਯਾਦਰ	1
੍ਰ੍ਤਿ	1
ਬਿਰਧ	1
ਿਲਾਸ	1
▁ਮਾਂਪ	1
ਘਿਆੜ	1
ਰਫਾਰਮ	1
ਿਸਨ	1
ਬਜਰੰਗਵਾਣ	1
ੁਁਤ	1
ਕਿਉਲਸ	1
ਟਮੈਂਟ	1
ੋੜੀ	1
ਪਵਾਤ	1
੍ਰਾਫੀ	1
ਲੰਕਰਣ	1
ਯਰਸ	1
▁ਆਈਡ	1
ਟੇਸਿਟ	1
੫੩੮	1
ਮਹਾਰਾਜ	1
▁ਆਰਥਾਰ	1
ੀਟਿਸ	1
▁ਸ਼ੁੱਕਰ	1
ਤਿਰ	1
ਭਗਤੀ	1
ਟ੍ਰਮ	1
ਨਰਸਰੀ	1
ਸ਼ੇਡ	1
ੋਲਸ	1
▁ਧੋਂ	1
੫੬੫	1
▁ਡੂੰਘੀਆ	1
ਗਰੁੱਪ	1
ਰਫਿਨ	1
▁ਚਿਨੀ	1
▁ਨਿਕਲੀਆ	1
ਆਕਸੀਡੈਂਟ	1
ਪੇਟਾਈਟਿਸ	1
distant	1
Attunement	1
▁ਤਿਉਹਾਰਾ	1
ਰਮੇਨ	1
▁ਮਾਊਂਨਟੇ	1
ਮੈਨਸ	1
ਲੂਫ	1
੍ਯੂਲ	1
ਆਰੂ	1
▁ਪ੍ਰਾਰੰ	1
ਥਿਤੀ	1
ੰਝ	1
ੱਫ਼	1
ੱਗਣ	1
ਜੈਸਲਮੇਰ	1
ਉਦੇ	1
▁੧੭੩	1
ਨੋਪਾਜ	1
▁ਓਵਰੀਜ	1
▁ਹਾਰਮੋਨਜ	1
▁ਹੰਮਾਯੂ	1
ਕੈਨਾਬਿ	1
ਬਦਲਾਵ	1
▁ਪਾਲਨ	1
▁ਪੌਡ	1
ੋਫਿ	1
ੋਏਟ	1
▁ਭਿੰਨਤਾ	1
▁ਬੀਤਦੀ	1
▁ਝਿਲਮਿਲਾਉਂਦੀ	1
▁ਸੁਰੀਲੀ	1
ਰਭ	1
▁ਸੁੰਘਾ	1
ਿਧਤਾ	1
ੀਯਾਰ	1
ਗੁਆ	1
ਅੰਡਾ	1
ਬੀਨਸ	1
ਰਾਈਸ	1
ਪਟੈਟੋ	1
ਨੂਡਲਸ	1
▁ਹਾਈਪਰਥਾ	1
ਏਡਿਜਮ	1
▁ਫ਼ਿਰੋਜ	1
▁ਕਾਰਨੀਵ	1
▁ਖਿਲਨਮ	1
▁ਸਾਈਂ	1
▁ਸੇਂਡ	1
▁ਰਮ	1
ਮੈਨਾ	1
ਬਯਾ	1
ਕਤਦਾਨ	1
੨੧੩	1
▁ਬੁੜਬੁੜਾ	1
ਹੇਰਿਟ	1
ੋਲਿਥ	1
ਸਾਰਾ	1
ਾਈਗ	1
▁ਪ੍ਰਾਚ	1
ਮਕਣ	1
ਮਿਸ਼ਰਣ	1
▁੨੯੦	1
ਮੋਟਰ	1
ੋਰਿਕ	1
ਕਰਾਂਤ	1
ਡੋਸ	1
ਬਿਟ	1
ਡਿਟਰਜ	1
ਤਿੱਖਾ	1
ਬਿਊ	1
ੱਲੀਵਾਸ	1
ਕਿਲਿਆਂ	1
ਮਾਰਚ	1
ਤੁਲਿਤ	1
▁ਉੱਜ	1
ੈਡੂ	1
ਕੇਦਾਰਡੋਮ	1
ਤੋਪੰਥ	1
▁ਜਲਪ੍ਰਾ	1
ਸ਼ੀਤ	1
▁ਕਾਯ	1
▁ਗਤੀਵਿਧ	1
▁ਵਿਸਫ	1
ਸੰਬੰਧਿ	1
ਇਲਾਹਾਬਾ	1
ਸ਼ੀਏ	1
ਖਰੋਟ	1
▁ਪੁਨਰਨਿਰਮ	1
▁ਨੌਸੈਨ	1
▁ਭੁਵਨ	1
ਭੁਵਨੇਸ਼ਵਰ	1
▁ਮਹਾਪ੍ਰਸ	1
▁ਯੁਗੀ	1
ਕੋਲਨ	1
ਇਗਨੇਸ਼ੀਆ	1
ਮੇਰਾ	1
ਗੈਗ	1
ਟਾਂਗ	1
▁ਹੀਰੋ	1
ਸੰਵਾਰ	1
ਫ਼ੈ	1
ਡ੍ਰੋਨ	1
ਸੰਤਰਾ	1
ਡਿਯਾਟ	1
▁ਮਲ੍	1
▁ਐਲਕ	1
▁ਥੋਰ	1
▁ਖੀਸ	1
ਿਓਰ	1
ਸਲਫੋ	1
ਰਾਫੀਨ	1
▁ਸ਼ੰਖਾ	1
▁ਕਲੈ	1
ਮੰਜ	1
ਗੋਰਾ	1
ੱਝ	1
ree	1
Radicals	1
▁ਫ਼ੜਿਆ	1
▁ਟੀਸ਼	1
ਲ਼ੀ	1
▁ਝਿਲ	1
ਸੱਚ	1
▁ਹਾਰਬਰ	1
ਦਕਿ	1
▁ਮੁਕੱਦਮ	1
ਰਿਕਾਰਡ	1
▁ਥ੍ਰੋਮਬੋ	1
ਸ਼ਟਰਪਤੀ	1
ਰਜੀ	1
ਸ਼ੁਆਂ	1
ਸੇਰਾਵ	1
▁ਪੂਰਨਤ	1
ਲੇਕਸੋ	1
ਟੇਂਬ	1
ਮਦਾਇ	1
▁ਮੈਕਲੁਸਕੀ	1
ਸੱਪ	1
ਅਜਗਰ	1
ਾਂਗਣ	1
ਪਹਿਰਾਵਾ	1
ਰਿੰਜ	1
ਂਧੀ	1
ਇੰਮਪ	1
ਕਵਾਇਰ	1
▁ਕੈਥੀਡਰ	1
ਸੰਘ	1
ਮਰੋੜਾ	1
▁ਰੀਤ	1
ਬਿਟਾਟ	1
ਲਾਕਿ	1
ਚਿੰਤ	1
ੈਲਿਸ	1
▁ਥੂਜ	1
ਰੋਮਾਥੈਰੇਪ	1
ਕਛਾਰ	1
ਥਿਕ	1
ਪਮਾਨ	1
▁ਡਾਈਟਿ	1
▁ਹਵਾਈਜ਼ਹਾਜ	1
ਡ੍ਰੇ	1
ਾਰਸੀ	1
▁ਪ੍ਰਤੀਨਿਧੀ	1
ਢੰਗ	1
ਦੀਨਾ	1
ਹਿਸਟ	1
▁ਚਾਲੁਕ	1
▁ਮਹਾਂਕਾਲ	1
ੈਜੂ	1
ਖਜੁਰਾਹੋ	1
▁ਕਰਾਉਦੀ	1
ਡਵਾ	1
ਪੱਟੂ	1
ਵੈਲਮ	1
ਾੱਰਡ	1
ਗੁੱਡਾ	1
ਸੰਘਾਰ	1
ੋਰੋਥ	1
▁ਚੇਂ	1
▁ਨਿਕਾ	1
▁ਲ੍ਯੂਕ	1
ਪੋਂਟੇ	1
▁ਦੋਸਤੋ	1
ਏਸ਼ਮੋਲ	1
ਡਿਨਰ	1
▁ਮਹਿੰਦਰ	1
ਨਿਟਰ	1
ੇਮਪਾਕ	1
ਸੇਰੀ	1
ਹੀਮੋਸਿਡ੍ਰ	1
ਸਟਾਰ	1
ਵੈਟਰ	1
ਟੋਸਾ	1
ਅਮਲਪਿੱਤ	1
ੰਸਕ	1
ਬਲਿਕ	1
ਦਰਖਤਾਂ	1
▁ਕੰਧਾਰ	1
▁ਉਦ੍ਯੋ	1
ਮੁੜਦੇ	1
▁ਪੇਚਿਸ	1
ਖਤਾਂ	1
ਸਫ਼ੈਦ	1
ਬਾਈਟਿਕ	1
ਫੋਬੀ	1
ਸੋਰੀ	1
ਨੀਲਮ	1
▁ਪੁੱਟ	1
▁ਚਿਕਿਤਸ਼ਾ	1
▁ਆਧਿਪਤ	1
▁ਪਰਸ਼ਿਸ਼ਨਿ	1
ਟਵੁ	1
ਸੰਬਲ	1
ਬ੍ਰੋਮਾਈਡ	1
ਘਰਵਾ	1
ੇਟਰੀ	1
ਕਲਿਕਾ	1
ਵੀਰਯ	1
▁ਵਰਦ	1
▁ਗਰਭਗ੍ਰ੍ਹ	1
▁ਹੱ	1
▁ਟੋਕਰ	1
▁੯੩	1
ਦਿੱਤਾ	1
ਨਵੀਂ	1
ਬੁੱਕ	1
ਟੀਬਿਟੀ	1
ਟੂਣ	1
ਮੁਕਤੀਧਾਮ	1
ੁੰਮ	1
▁ਬੇਵਜ	1
ਭੰਨ	1
ਾਜੂਲੀ	1
▁ਇੰਪਲ	1
ਡਿਕਸ਼	1
ਛਾਤੀ	1
ੇਟਿਡ	1
▁ਮਾਇ	1
▁ਬਾਈਕਾਰ	1
▁ਭਟਨ	1
ਰਚਿਡ	1
ਝੂਲ	1
ੋਡੇਨਡ	1
ਗੋਲਡ	1
▁ਚੇਰੀ	1
ਗੌਲ	1
▁ਨਿਕ੍ਲ	1
ਕੋਹਰਾ	1
▁ਪਰਫ	1
ਬਾਹਰਲੀ	1
▁ਜਗਮਗਾ	1
▁ਟਾਇਲ	1
ਬੈਂਗਣ	1
ਹਮੇਸ਼ਾਂ	1
▁ਅਲਪਾ	1
ਨਾਪ	1
ੁਦੀਨ	1
▁ਦੁਖਦੀ	1
▁ਹਿਸਟ੍ਰੋਸਕ	1
ਜ਼ਾਹ	1
▁ਬਾਲਾਸ	1
ਸੈਪਿਟ	1
ਲੇਨਿ	1
ਦ੍ਰਿੜਤ	1
ਕਯ	1
ਾਰੋਹਣ	1
ਪ੍ਰ੍ਸਾਦ	1
ਮੰਗੋਲ	1
੬੨੧	1
ਾਇਲੀ	1
ਰਿਤੀਆਂ	1
ਮਕੀਲੀ	1
▁ਡਿਜਿਟੇਲ	1
▁ਸ਼ੈਲੀਆ	1
ਖਿੜਿਆ	1
▁ਕ੍ਰੀਡਾ	1
ਂਗਨ	1
ਕੁਜੀਨ	1
ਟੇਬਿਲ	1
ਗਗਲਾ	1
▁ਇਨਫਲ	1
ੋਂਪਾ	1
ਸੰਪ	1
ਲਬੂਲ	1
▁ਉਪਲੱ	1
ਰਿਅਸ	1
੍ਰੀਮ	1
▁ਮਹਾਂਨਗਰਾ	1
ਪਹਿਚਾਣ	1
ਪਈ	1
▁ਛਿੜ	1
ਅਵਸ਼ੇਸ਼	1
▁ਆਰਕੀ	1
ਪੇਲੇ	1
▁ਸਾਕ	1
ਿਡਨ	1
▁ਥਿਏ	1
ਵਿਸ਼ਵਾਸ਼	1
ਬੇਜ	1
ੈਟਰੋਲ	1
▁ਨਾਹਰਲ	1
ੀਮਤ	1
ਸ਼ੇ	1
ਨਿਸ਼ਚਤ	1
ਲੁਲ	1
ਮਲਿਕ	1
▁ਝੂ	1
ਤੀਰਥੰਕਰ	1
▁ਭੌਰੀ	1
ਲੀਟ	1
ੀਯੋ	1
▁ਲਿੰਗਾਮੇਂਟ	1
▁ਸਤਪਹ	1
ਟਾਨਾ	1
▁ਪ੍ਰਾਯੋ	1
▁ਪੈਠ	1
ਚੇਅਰ	1
ਰੋਪਵੇ	1
▁ਜਾਗਰੂਕਤ	1
▁ਵੱਲੋ	1
ਜੁਲੀਆ	1
▁ਆੱਗਸ	1
▁ਕਠ	1
ੁਵਾ	1
ੰਗਾਮਾ	1
▁ਡੂਗ	1
ਗੋਹ	1
ਸੁਪ	1
੯੭੩	1
੮੨੯	1
ਉਤਰੋ	1
▁ਸੰਭਾ	1
ਾਚਾਰੀ	1
ਰਤੱਖ	1
੍ਰ੍ਟ	1
▁ਬੈਕਟ	1
ਪਰਿਵਰਤਿ	1
▁ਡੀਐ	1
ਖੁੱਲਾ	1
ਧੂੰਏ	1
▁ਗੈਂਡਿਆ	1
▁ਖਿੱਲ	1
ਨੁੰਹ	1
ਭੇਂਟ	1
ੌਗ	1
▁ਮਿਨਸ	1
▁ਏਬ	1
ਸਿਲਕ	1
੍ਰਾਈਟ	1
ਮਲੋ	1
ਸਰਜ	1
ਉਪਸਥਿਤ	1
▁ਸੁਹੱਪ	1
ਸਿੰ	1
▁ਹੈਪੇਟਾਈਟ	1
ਸਵੀਕਾਰ	1
ੀਨੇਸ਼ਨ	1
▁ਸਿਟ੍ਰ	1
▁ਬਰਗਮ	1
ਪਟੈ	1
▁ਝਾਲ	1
ਚੀਤ	1
▁ਨਵਾਜ	1
http	1
sikkimhotelpham	1
rong	1
ਨਿਰਮਾਣਤ	1
ਜ਼ਿ	1
ਦੁਨੀਆ	1
▁ਉਜ	1
▁ਬਾਰਾਂਸਿੰਗ	1
▁ਡਾਈਟੀਸ਼	1
▁ਡਗਮਗਾ	1
▁ਉਅਪ	1
▁ਖਗੋ	1
ਤਲੇ	1
ਸੇਮ	1
ਸੰਮਤੀ	1
ਰੇਕ	1
▁ਮਸਤਿ	1
▁ਸ਼ਾਕਾਹਾਰ	1
▁ਫਲੋ	1
ਪਚਣ	1
ਹਵੇਲੀਆਂ	1
ਗੌਰੀ	1
▁ਇਤਹਾਸ	1
▁ਨਿਰਦੇਸ	1
ਚੋਟੀ	1
ਭ੍ਰਿਗ	1
▁ਬਬਲ	1
ਰਤੀਆਂ	1
ਤੀਸਗੜ	1
ਪੀਲ	1
▁ਰਾਜੇਸ਼	1
ਪ੍ਰਾਕ੍ਰਿਤ	1
ਪ੍ਰ੍ਮੰਨ	1
ਭੋਪਾਲ	1
▁੧੩੮	1
▁ਲੜਿਆ	1
▁ਇਸਟ੍ਰੋ	1
gastro	1
esphageal	1
sphincter	1
ਟਮਸ	1
▁ਨੁਓਵਾ	1
ਜਾਂਦਾ	1
▁੧੮੫੪	1
ਸੰਥਾਲ	1
ਟੇਗੀ	1
▁ਪਦਮਾ	1
▁ਅਪਾਰਟਮ	1
ਟ੍ਰ੍ਨ	1
ਦੱਖ	1
▁ਏਪ੍ਰ	1
▁ਏਸੀਟ	1
੍ਰੰ	1
੧੨੦	1
ੁਜਾਮ	1
▁ਦੀਰਘਕਾ	1
ੱਚਣ	1
▁ਨਿਊਟ੍ਰੀਸ਼	1
ਡਾਈਆਕਸਾਈਡ	1
ਗਾਉਂਦੇ	1
ੋਮਾਈਟ	1
▁ਸਾਈਕੋ	1
▁ਚੱ	1
ਸਵਰਣ	1
▁ਹੌਦਾ	1
ਪ੍ਰਯੋਗ	1
▁ਸੌਂਣਾ	1
ਮਹਾਯਾਨ	1
▁ਖੁਸ਼ਨ	1
▁ਨੈਟ	1
ਖੌਲ	1
ਦੁਨੀ	1
▁ਸਰਪਾ	1
ੁੰਝ	1
▁ਸ਼ਿਕਾਕ	1
▁ਓਵਰੀ	1
▁ਪ੍ਰਸਵਕਾਲ	1
ਕੱਟਣ	1
▁ਟੈਕਨਾਲ	1
▁ਐਨਿਮਿ	1
▁ਯੋਗਨਿਦ	1
▁ਜੰਤੂਆ	1
▁ਏਪ	1
Rhone	1
▁ਕੀਟਨਾਸ਼ਕਾ	1
ਪਭੋਗ	1
▁ਨਿਸਰਗ	1
▁ਡੀਵ	1
▁ਯੰ	1
ਗੰਗ	1
▁ਤਕਲੀਫ਼ਾ	1
ਮੰਗਲਾ	1
▁ਫੇਨ	1
ਆੜ	1
▁ਡਾਇਰੈ	1
▁ਸੰਸਥਾਵ	1
ਪਿਗ	1
ਬਜ਼ਾਰ	1
ਬਖਸ਼	1
ੇਸ਼ੀਆ	1
▁ਨਿਯੰਤਰਿ	1
ਸਟ੍ਰੇਟ	1
ਹੋਸਿਸ	1
ਸ਼ੋਬ	1
ਚਸ਼ਮ	1
▁ਪਛਾਨਣ	1
ਨਮੈਂਟ	1
ਯੂਕੇਲਿਪਟਸ	1
▁ਦਹ	1
ਸ਼ਤਿ	1
ਾਲਾਜੀ	1
ਨਕਾਸ਼ੀ	1
ਰੇਤ	1
ਕੰਕਰ	1
ਕਿਫਾ	1
▁ਬੇਫ	1
▁ਵਸਣ	1
▁ਪ੍ਰੇਸ਼	1
ਸਟੀਟਯੂ	1
▁ਰੇਡਿਕਲ	1
਼ਤ	1
ਛੱਲ	1
▁ਰੇਟੀ	1
▁ਐਕਟੀਵ	1
▁ਐਸਪਰ	1
▁ਅਲਬਯੂਮ	1
ੈਂਬਰ	1
ਕਿਵ	1
ਨੌਂ	1
ਫਾਰੀ	1
ਣਿਕਾ	1
ਮਫਾਲ	1
ਦਿਤੀ	1
ਗਲੀਆਂ	1
ਅਧੂਰਾ	1
ਰਸੌਲੀ	1
ਮੋਰਾ	1
ਗੁਰੀ	1
▁ਮਾਨੇਸ	1
ਅਫ	1
▁ਦਫ	1
ਛੋਪ	1
ਇਨਰ	1
▁ਪੇਂਡ	1
▁ਪ੍ਰਾੱਸਥਾੱਡਾੱਨਿ	1
▁ਆਰਟੀਫਿਸ	1
▁ਲਚੀਲ	1
▁ਹਿੰਦੂਆ	1
▁ਗੁੰਬ	1
ਤੋਲੀ	1
ਸ਼ੀਸ਼ਮਹਿਲ	1
ੁਛਵਾ	1
ਵੰਬਰ	1
ਸ਼ਵਸਨ	1
ਸ਼ਹਾਲੀ	1
ਸਾਢ	1
ਸਰਦ	1
ਤੀਜੀ	1
▁ਚੇਰਾ	1
੍ਰਯ	1
▁ਪ੍ਰੋਜੇਸ	1
ਪਰਬਤਾਰੋਹਣ	1
▁ਚਾਹੀ	1
▁ਦਿੱਲ	1
ਬੁੱਢਾ	1
▁ਧਰੁਵੀਆ	1
Tolerable	1
Upper	1
Lntake	1
UL	1
ਭੱਜਦ	1
ਚੱਪਲ	1
ਦਾਤਰ	1
ਸੰਮ	1
▁ਕੰਕ	1
੍ਰੀਟ	1
ਮੇਨਟ	1
wine	1
testing	1
ਪੁਰਸ਼ਾ	1
▁ਮ੍ਯੂਕੋ	1
ਚਮਚਮਾਉਂਦ	1
ਨੁਕਸਾਨ	1
ਇਲੈਕਟ੍ਰ	1
▁ਟੈਂਕੀ	1
੧੧੧	1
ਮੋਟੀ	1
▁ਸਤਰਕ	1
▁ਨੌਜਵਾਨਾ	1
ੜਦੇ	1
ਕੁੱਲੂ	1
▁ਸੰਪ	1
▁ਬਾਰ੍ਹ	1
▁ਚੁਗ	1
ਏਸੀਪ੍ਰਨ	1
▁ਬੇਚ	1
ਹੇਠਾਂ	1
ਵਿਚਕਾਰ	1
ਗਦ	1
ੋਵਾਂ	1
▁ਕਢ	1
ਸ਼ਾਇਨ	1
ਯੂਟ੍ਰਿ	1
▁ਭਰੂ	1
ਥਾਵਤ	1
ਕੂਲੀ	1
▁ਮੰਡਲੀ	1
▁ਸਿਟਿ	1
ਕਿਵੇਂ	1
▁ਭੁੱਲਦੀ	1
ਹਲਕੀ	1
▁ਹੇਪੇਟਾਈਟਿਸ	1
ਟਾਈਟਿਸ	1
▁ਬਾਗਡੋ	1
ੱਲੇ	1
ੋਸ੍	1
▁ਪੈਨ	1
▁ਪੈਨਿ	1
ਨਾਥਪੁਰੀ	1
ਹਸਤੀ	1
▁ਗਿਰਫ	1
ੇਦਿਨੀ	1
ਠਖੇਲੀਆ	1
ਪੋਰਬੰਦਰ	1
▁ਏਕੋਨ	1
▁ਛਟ	1
ਕਲੇਰੀਸ	1
ਲਚਕ	1
▁ਨੰਗੀ	1
ਵਰਗਾ	1
▁ਵਾਟਰਪ	1
▁ਪਰੰਪ	1
੦੦੧	1
ਦਲਾਨ	1
ਇਲੈੱਕਟ	1
੍ਰੌ	1
ਵਾਰਿਸ	1
▁ਖਿੜਖਿੜਾਉ	1
▁ਬੇਮ	1
ਪੁਆ	1
ਮਿਲਣ	1
ਤਰੀਕੇ	1
▁ਮਾਈਕਲ	1
▁ਕੋਛ	1
ਰੈਸ਼ਨ	1
ਸ਼ਰਧਾਲੂ	1
▁ਦ੍ਰਿਸ	1
ਗੁੰਡਲ	1
ਪਾਚਣ	1
ਾਈਡ੍ਰੇਟ	1
ੇਟਾੱਲ	1
▁ਮਾਥਰ	1
▁ਗਲਤਫ	1
ਹਿਮੀ	1
▁ਘੜੀਆਂ	1
▁ਚੇਲੀਡੋਨ	1
ਰੇਚ	1
▁ਅੰਤਰਰਾ	1
▁ਪੇਨਾ	1
ਗੁੱਸਾ	1
ਨਮਕ	1
▁ਡਿਵੈਲ	1
ਿਸਟਰੋ	1
▁ਵੇਜਾ	1
▁ਨਾਪਿਆ	1
ਚੰਵਰ	1
▁ਸਿਧਾਂਤਾ	1
▁ਕਨਫਿਊ	1
ਲਟੀ	1
▁ਖੱਟਾਪ	1
▁ਡਾਇਲ	1
ਚੀੜ	1
ਅਥਾ	1
ਊਦ	1
▁ਗਰਭਨਿਰੋ	1
ਖਿਲੀ	1
ੂੰਝ	1
ਨੀਲੀਆਂ	1
ਰੀਯਾ	1
▁ਟੌਫੀ	1
ਸ਼ਿਕਾਰਾ	1
ਬੱਸ	1
ਪ੍ਰਬਤਾਰੋਹ	1
ਾਲਿਕਾ	1
▁ਆਪਾਤ	1
ਲਿਹਾ	1
ਨੀਲਗਾਂ	1
ਰਸਟਾਕ	1
▁ਝੀ	1
ਅਟਕ	1
ਮੰਗਲੂਰ	1
▁ਵਣਖੇ	1
glutathione	1
trocotrinol	1
ਪ੍ਰਾਸਾਦ	1
ੋਰਾਈਡ	1
ਗੁਆਂਢ	1
ਪੇਡ	1
▁ਪਵ	1
ਪ੍ਰਤੀਕਾਰ	1
ੇਸਡ	1
ੀਡੇਸ	1
ੈਸਟੀਨ	1
▁ਬਯੂਟਾ	1
ਸੀਰਮ	1
▁ਦ੍	1
▁ਸੁਦ	1
ਬੇਲਗਾਮ	1
▁ਪੋਖ	1
ਗਾਮੇਂਟ	1
ਪ੍ਰ੍ਤੀ	1
ਦਸ਼	1
ਫਿਲਟ	1
ੈਲੀਸਿਲ	1
ਮੌਸਮ	1
ਮੁਰਾਦਾ	1
ਨਿਕਾ	1
ਸੌਂਦੇ	1
ਪ੍ਰਕਿਰਤ	1
ਬਧੀ	1
ਰੋਂ	1
ਗੈਰਸ	1
ੈਣ	1
ਫੈਂਟ	1
▁ਤਲਵੇ	1
▁ਖੁੱਲ਼	1
▁ਆਸਿਟ੍ਯੋ	1
ਨੇਰੇ	1
ਸੜਕਾ	1
ਆਰਮ	1
▁ਲੰਬੀਆ	1
▁ਬ੍ਰ੍ਹ	1
▁ਮੈਕਸੀ	1
ਕੈਬ	1
ਲੈਕਟੋ	1
ਕਿਹਾ	1
ਲ੍	1
ੈਡਮਿ	1
▁ਟਰਾਲੀ	1
੍ਰਿਸਟਲ	1
ਈਨਟ	1
ਿਟੀਜ਼	1
▁ਨਦ	1
ਾੱਰੇਸਟ	1
ਆਟ	1
ਕਾਂਕਰ	1
▁ਰਾਜਮੰਦ	1
ਨੀਵੀਂ	1
ਨੰਦਾਕੁੰਡ	1
ਪਾਲਕੀ	1
▁ਆਯੋ	1
ਨਾਲਾਗ	1
ਾਪੇ	1
ਪ੍ਰਿ	1
▁ਲੈਂਡਸ	1
▁ਕੋਂਕ	1
ਗੂੰਠ	1
ਫਲਸਰੂਪ	1
ਚੇਂ	1
ਉਗ	1
ਹਾਂਗਕਾ	1
ਭੂਰਾ	1
ਡੋਂਗ	1
▁ਬੱਦਰੀਨ	1
ਟਾਨੀ	1
ਠਿਆਈ	1
ਚਮੇਲੀ	1
▁ਲਿਖੀਆ	1
ਸਾਈਕਲਿੰਗ	1
ਰਿਸ਼ੀਕੇਸ਼	1
▁ਬਲਵਧ	1
ਲਾਈਨਰ	1
ਲਮੋ	1
▁ਜਲਵਾ	1
▁ਮੈਕ	1
ਮਾਸਟਰ	1
ਬਿਰਛ	1
ਜਾਨ	1
ਮੁਹਾਂਸੇ	1
ਚਿਹਰੇ	1
ਕਾਲਾਪਣ	1
ਸੰਵੇਦਨਸ਼ੀਲ	1
▁ਲਿਜ	1
੍ਰਿਟੀ	1
ਪ੍ਰਵਾਸੀ	1
਼ਰਨਾ	1
ੰਧਯ	1
ਅਸ਼ੋਕ	1
ੱਸਣ	1
ਸੇਲੀ	1
ਰੂਦ	1
▁ਇੰਫ਼	1
▁ਚਿੜਚਿੜੇ	1
▁ਠੀ	1
ਪਰਕ	1
▁ਪ੍ਰਵਿਰਤ	1
ਯੂਮਿਨ	1
ਰੇਲਵੇ	1
ਆਤਮਵਿਸ਼ਵਾਸ	1
▁ਵਿੰਡ	1
ਡ੍ਰਾਪ	1
ਟ੍ਰਾਲੀ	1
▁ਭਰ੍ਪ	1
▁ਡਬੋ	1
ਾਲਾਮ	1
ਏਅਰ	1
▁ਚਿਕਿ	1
ਯੂਨਾ	1
▁ਕੰਡੇ	1
ਡੀਕ੍ਰਾਫ	1
ਚੰਡੀਗੜ੍ਹ	1
ਓਵਰ	1
ਟਵ	1
ਉਲਾਲ	1
ਬਾਯ	1
੧੯੨੦	1
ੀਮਾਰ	1
ਮਠਿਆਈ	1
▁ਨ੍ਰਿਤਗੀਤ	1
▁ਸੰਖਿ	1
ਠਲ	1
ੁਰਾਕ	1
ਕਹਿੰਦੇ	1
੧੪੬	1
▁ਸੁੰਦ	1
ੁਭਾਸ਼	1
ਤਿਰੂਵਨੰਤਪ	1
ਪਟਨੀਟਾਪ	1
ਪੁਸ਼ਾ	1
ੂਮ	1
ਚੋਲਾ	1
ਖਾਲ	1
▁ਸੰਗੀ	1
ਓਲਾਜੀ	1
▁ਕੋਸ਼ਕ	1
gi	1
ੈਫ਼ਰ	1
ਾਈਗਰ	1
▁ਟਿਮ	1
ਾਮਨਗਰ	1
ਜਿਉਂ	1
▁ਲਾਈਨਿ	1
਼ਿ	1
ਡੀਸ	1
ੈਜਲੀਨ	1
▁ਲਿਕਿ	1
ਰੋਕ	1
▁ਦਿੱਤ	1
੍ਰਿਸ਼ਟ	1
ਰੁੱਕ	1
ਸ਼ਾਸਕ	1
▁ਪ੍ਰੋਵਿ	1
ਨਸਾ	1
ਸਾਈਕਾਲ	1
ੈਟਰਿਕ	1
ਸ਼ਵਾ	1
ਲਾਵਰ	1
ਪਟੋਪ	1
ਯੂਮੇਟ	1
ਵਿਛ	1
ਨਰਤਕ	1
ਸੌਦ	1
ਕੋਸੀ	1
ਆਕਸ	1
ਅਸਮੀਆਂ	1
▁ਮਿਟਾਉ	1
▁ਦ੍ਰ੍	1
੍ਰ੍ਤੀ	1
▁ਅਲਗੋਜ	1
ਰਾਧਨਾ	1
ਨੌਲ	1
ਬਾਹਯਾਭਯੰਤਰ	1
ਾਰਜਕ੍ਰਮ	1
fever	1
asthma	1
ਾਈਟ੍	1
▁ਫਾੱਰੇ	1
▁ਸੁਧਾਰਾ	1
▁ਉਁ	1
▁ਪੁਸ਼ਪਾਪ	1
▁ਪੁਲਮੇਡ	1
ਤੂਸ਼ਿਲਪ	1
ਨਹਾਉਣ	1
ਦਿੰਦੇ	1
ਉਤਰਾਖੰਡ	1
ਡਬਲ	1
ਬੈੱਡ	1
▁ਮੇਟਾਬਾ	1
▁ਕਲ੍	1
▁ਉਸਤੋ	1
▁ਕਮੋ	1
▁ਕਾਰਡਿਯੋਵ	1
ਸਕੂਲ	1
▁ਐਕਸਰ	1
▁ਕੁਮੈਂਟ	1
ਸਕੋਲੀ	1
ਸੌੜ	1
ਧੂਲ	1
ਗਿਸਤਾਨ	1
ਜਵਾਲਾਮੁਖੀ	1
▁ਸਬਸਿ	1
ੇਨਾਈਟ	1
ਵਿਸਤਾਰ	1
ਰੇਸਤਰਾ	1
ਬੱਲ	1
ਦਸੰਬਰ	1
▁ਟੈਲੀਫ	1
ਪ੍ਰਚਾਰ	1
▁ਸ਼ਮ	1
ਬਾਥ	1
੍ਫ਼ੇ	1
ਦੂਜੀ	1
ਮੋਤ	1
ਮੁੜ	1
▁ਪੈਰਾਡਾ	1
ਇਜ਼	1
▁ਹੈਬਿਟ	1
▁ਮਹਿਫ਼	1
ਲੰਗਾ	1
ਮਾਂਗ	1
ਖੇੜ	1
ਡਾਣਾ	1
ਰੈਂਚ	1
ਪੀਲੀਆ	1
▁ਧੋਨ	1
▁ਮਧੂਕ	1
▁ਵਾਤਪਿਤ	1
ਪ੍ਰਸ਼	1
ਆਈਣਟਮੈਂਟ	1
ਆਲਿ	1
ਰਪੀਨ	1
ਬੋਕ	1
ਲੋਸਿਸ	1
ਿਡਾ	1
ਐੱਸਡਿਟੀ	1
▁ਰੀਤੀਰਿਵਾਜ	1
▁ਸੰਮੇ	1
ਪ੍ਰਵਤ	1
ਕਰੋਧ	1
▁ਫ਼ਲੈ	1
ਖਸ਼ਤ	1
ਮੋਇਰ	1
ਮੋਬਾਇ	1
▁ਬੋਟੇਨ	1
ੰਗਤ	1
ਗੁਣਾ	1
▁ਸੁੰਨਾਪ	1
▁ਏਲੀ	1
ਮਕੋ	1
ਮਾਨਵ	1
ਪਿੰਜ	1
▁ਨੇਪਟ	1
ਿਊਨ	1
ੁਲਫ	1
ੈਬ	1
ਸਿਗ	1
ਦੁੱਖਦਾ	1
ੋਰੀ	1
ਸਿੱਧੀਆਂ	1
ਜਿੰਨ੍ਹਾ	1
ਪੁਈ	1
ਯਨਤਰ	1
ਕਿੰਨਾ	1
ਵਿਭਿੰਨ	1
ਪੜ੍ਹਨ	1
ਵਿਹ	1
ਦੋਨੇ	1
ਪਰੇਟਰ	1
ਿਟਕਲ	1
▁ਯੂਰੇਥ	1
▁ਇਨਗ	1
▁ਬਯੂ	1
ੀਜੈਂਟ	1
ੂਆ	1
੧੧੬	1
▁ਸਪੇਨਿਸ	1
▁ਕਿਲਨਕ	1
ਪਾਸ਼ਾਣ	1
▁ਅੰਧ	1
▁ਮਰੀ	1
▁ਤੁਤਲਾ	1
▁ਘੰਮ	1
▁ਮੈਗੋ	1
▁ਆਉਣਗੀਆ	1
▁ਸ਼ਬਜ਼ੀ	1
ਿਪੋਲੀਆ	1
ਧੱਕਾ	1
▁ਬਾਰਡ	1
ਅੜਚਨ	1
ਸਾਡੀ	1
ਪਦ	1
ੰਚਾਉ	1
ਤੰਤਰਿਕ	1
ਤਾਈਵਾਨੀ	1
ਜੈਟ	1
ੋਯ	1
ਲੱਗਿਆ	1
ਹਿਸਤ	1
▁ਏਕਵ	1
ੈਲੋ	1
▁ਸ਼ਾਨੋਸ	1
ਕੂਰਮਾ	1
ਤਪਤ	1
ਸਕੇਟਿੰਗ	1
ੁਟ	1
ਫ਼ਾਰਮ	1
ਪਾਮ	1
▁ਜਾਮ੍	1
ਕਟੋਸ	1
ਮੀਡੋ	1
ਜਣ	1
▁ਟੈਂ	1
▁ਮਾਈਲ	1
ਮਦਾਰੀ	1
ਬਾੱ	1
▁ਨਿਜ਼ਾ	1
▁ਰੇਵ	1
ਯਾਰਣ	1
ਰੋਸਕ	1
▁ਰਹਿੰ	1
ਾਲਿਸ	1
ਚਿਤਰਕਾਰ	1
ਕਾੱਮ	1
ਧਰਮਸ਼	1
▁ਅਪ੍ਰਿ	1
ਡਲਾਈਟਿਸ	1
▁ਫ਼ਾਊਟ	1
ਬਡ	1
ਨੇਰਾ	1
ਚਿੜਚਿੜਾ	1
ਦੌਰੇ	1
ਪੇਚਿਸ਼	1
ਦੁਨੀਆਂ	1
ਖੰਨਾ	1
ਸਰਤ	1
▁ਬਾਟ	1
▁ਸੁਮੇਰ	1
ਕਾਰਖਾਨ	1
ਧਣਾ	1
ਫਰਕ	1
ਸਟ੍ਰੇਸ	1
ਦਿਮ	1
ਹਿੰਦ	1
ਂਚੇ	1
ਜੇਨਥ	1
▁ਗਿਰੀਆ	1
ਾੱਰੇਨਹਾ	1
therapeutic	1
dose	1
ਸੰਕਰਮਣ	1
▁ਪਰਤਦਾ	1
੧੯੧੧	1
ਬਰੰਗੀ	1
ਕਾਊਂਸਲ	1
ੈਲੀਫੋ	1
▁ਲੜੀਆ	1
ਗੋਵਾ	1
ਵਿਸ਼ਰਾਮ	1
▁ਕ੍ਰਿਸ਼ਣਾ	1
▁ਵਾਨਰ	1
ਮੱਕੜੀ	1
▁ਕਰਵਾਏਗੀ	1
ਵੈਤ	1
ਭੂਮੱਧ	1
ਦੇਖਿਆ	1
▁ਕੰਟ੍ਰ	1
ਾਸਟ	1
ਟੀਵਿਟੀ	1
ਮਾਇਡੀਯ	1
ਮਿਨਾਡ	1
ਪੈਰਾਡ	1
ਸੇਰੇਨ	1
ਯਤਰੀ	1
ਵਿਲਾਸ	1
ਸਕੈਨ	1
▁ਦੱਬੀ	1
ਪਲੇਟਲੇਟ	1
ਕਿਰਤ	1
ਐੱਚ੦	1
ਨਟਲ	1
Acquired	1
aginal	1
Hydrocele	1
ਂਡੇ	1
ਮੂਰਤ	1
ਅਨਾਰ	1
ਅੰਗੂਰ	1
ੰਕਰਮਣ	1
▁ਇਸ੍ਦ	1
▁ਇੰਸਪ	1
▁ਫ਼ੈਲੀਆ	1
ਰਿਵਰ	1
▁ਸਮੁਦ	1
ਹੋਯਸ	1
ਰਾਈਟਸ	1
ੌਂਦੇ	1
▁ਕੈਨਟ	1
▁ਲਿਕਿਰ	1
▁ਖਾਲਸੀ	1
vaginal	1
hydrocele	1
ੈਪਡ	1
ਕੰਚਨਜੰਗਾ	1
ਲੋਹਤ	1
ਧਿਵਾਤ	1
▁ਤਲਾ	1
▁ਪ੍ਰਬੰਧਕਾ	1
▁ਮੈਗਜੀਨ	1
▁ਟੇਬ	1
▁ਮੂਤਰਕ	1
▁ਚੌਮੁ	1
▁ਸ਼ਾਸ਼ਤਰਾ	1
▁ਯੁਕਿ	1
▁ਫੀਲ	1
▁ਦਰਖ	1
ਸਾਊਥ	1
ਲਾਜ	1
ਮੰਨੋ	1
ਚਤੁਰ	1
ਕਰਸ਼	1
▁ਛੁਹ	1
ੈਂਟੀ	1
▁ਮੈਲੀ	1
ਪਰਾਯਾ	1
ਝਾਉਣ	1
ੰਨਣਾ	1
ਕਰਾਸ	1
▁ਓਸ	1
ਪ੍ਰ੍ਤੱਖ	1
ੰਬਲਿੰਗ	1
ਪਿਨਾਕ	1
ਸਿਹਤਮੰਦ	1
ਰੀਘਾਟ	1
ਜਰਡ	1
ਸੁਧ	1
▁ਵਾਸਤ	1
ਮੰ	1
ਦਾਖ	1
ਬੰਗਲ	1
▁ਤਰਬੂਜ	1
ਮੋਪ	1
ਘੜੀਆਂ	1
ਖਿਸਕ	1
▁ਭੌਂਕ	1
ਨਿਹਾਰ	1
ਵਿੰਟਰ	1
▁ਚਾਰਲ	1
ਸਟਰਾ	1
ਸੇਂਸ	1
ਰਖਤਾ	1
ਪਾਨੀ	1
ਫਲੇਕ	1
▁ਖੰਡੇ	1
ਅਪਰ	1
▁ਨਹਿ	1
ਲੇਸ਼	1
ਫ਼ੇਕਸ਼ਨ	1
▁ਇਅਸਦ	1
ੂਟਾ	1
ਾਲਿਯ	1
ਚੋਟੀਆਂ	1
ਅਲੁਕ	1
ਪਟਾ	1
ਿਕਟ	1
▁ਹੇਪੇ	1
ੁੱਕੇ	1
ਗਿਰ	1
ਬਿਲਟੀ	1
ਹਾੜੀਆਂ	1
▁ਥੈਲ	1
▁ਪਾਟਣ	1
▁ਵਾਦੀ	1
ਫਲੈਕਸ	1
▁ਬਿਊਰ	1
pollen	1
grains	1
ਲੰਗੂਰ	1
ਮਿਸ਼ਨ	1
ਕੁਰੇਦ	1
▁ਚਿਥ	1
ਯੂਕੇਲਿਪਿਟਸ	1
ਕੁੰਜ	1
ਚੇਪਡਯੂ	1
▁ਕਿਸ਼ੋ	1
▁ਹਁਡੀਆ	1
▁ਤਮਿਲਨਾਡ	1
▁ਕਾਨਿ	1
▁ਦਮਿਸ	1
▁ਪੁਸਤ	1
▁ਨੋਬ	1
ਬਲੈੱਡ	1
ਲਿਯਨ	1
ਉਤਕ	1
ਗੁਲਾਬ	1
ਇਮਾਨ	1
ੜ੍ਹਦੇ	1
ਚਿੰਨ੍ਹਾ	1
▁ਮਜਬ	1
ਪਿੱਛ	1
▁ਲੰਗੂ	1
ਯੋਗਤਾ	1
ਇਨਸ	1
ੇਨਿਟੀ	1
ਵੇਲਸ	1
ਸਲੀਪ	1
ੁਮਾ	1
ਿਛਾ	1
▁ਸਰਸਵ	1
Sinapis	1
Alba	1
ਖਰੀਦਦਾਰ	1
▁ਅਲਪਰਕ	1
ਤੱਤਾ	1
ਲੀਫ	1
ਡੀਯੋਲਾ	1
ਾਕਿਆ	1
ਮਹਾਨ	1
਼ਿਸ਼	1
੍ਕ੍ਰਿਤ	1
▁ਪਤੰਗਬਾਜ਼	1
▁ਇੰਦ੍ਰ	1
▁ਪ੍ਰਤੀਰੋ	1
ਡੇਂਚਰ	1
ਸਵਾਗਤ	1
▁ਅਥ	1
ਵੇਦ	1
ਲਰੀਜ	1
▁ਹਾਰੂ	1
▁ਅੰਦ	1
▁ਟੋਟ	1
ਤ੍ਰਿਤ	1
ਕਾਈ	1
ਸ਼ਠਨਾਸ	1
ੱਠਭੂਮੀ	1
ਜੋਧਾ	1
ਵਿਟਾ	1
ਂਦਰਾ	1
▁ਕੌਟ	1
ੱਲਿਆ	1
੧੦੯	1
ਜਵਾਰ	1
ਜਾੜ	1
ੈਗ	1
▁ਇਨਜ	1
▁ਘਟਨ	1
਼ਕ	1
▁ਡਿਸਕਵਰ	1
ਸੱਜੀ	1
▁ਅਧਿਸ਼ਠਾ	1
ਰੋਜੇਨ	1
ਚਯੂਰੀ	1
▁ਪਯ	1
੍ਰਾਯ	1
੍ਯੂਮਿ	1
ਲੈਕਟ	1
ਵਿਕਰੀ	1
▁ਹੈਂਡੀਕ੍ਰਾ	1
ਮਪੂ	1
▁ਧਾਵ	1
Bakery	1
amily	1
ਪਵੇ	1
ਾਲਡ	1
ਮੈਲਿਸਾ	1
ਬਲਾਕ	1
ਫ਼ਿਰ	1
▁ਗੁਸਲਖ	1
ਿਚਿੱਤਰ	1
ਪਿਆਉਣ	1
ਹਵੇਲੀ	1
ਨੋਜ਼	1
ਐਂਟੀਏਜਿੰਗ	1
ਪਾਂਜ	1
ਆਲੂਬੁਖਾਰ	1
ਗੈਸਟ	1
▁ਦੰਤਮ	1
▁੩੬੫	1
▁ਗੁਪ	1
▁ਉਦ੍ਯ	1
ੌਗਿਕ	1
ੋਸ਼ਾਣ	1
▁ਮੰਗੇ	1
ੀਕੇਸ਼ਨ	1
ਕਸ਼ਮ	1
ਇੰਟਰਨ	1
▁ਬਾਣਾ	1
ਰਗੜ	1
▁ਮੌਕਿਆ	1
▁ਰਿਪੋ	1
ਟੋਇਆ	1
ਣੇਸ਼	1
▁ਨੰਹ	1
ਲਕਿ	1
ਨਿਟੀ	1
ਕੀਤਾ	1
▁ਪਕ	1
▁ਗੈਸਟ੍ਰੋਏਟ੍ਰ	1
▁ਅਦਮ	1
ਫਲੋਜ	1
▁ਮ੍ਧੁ	1
▁ਸਾਇਟਿਕਾ	1
▁ਸੁਸ਼ਮਾ	1
▁ਚੁਰਨ	1
ਬੂਟੀਆ	1
ਕੇਂਡ	1
▁ਕੋਟਨ	1
▁ਪਾਸਿ	1
▁ਕਲਾਤਮ	1
ਅਭਿਯਾਰਣ	1
ਟਿੱਕ	1
ਕਾਨਸ	1
ਾਊਂਟ	1
ੁਰੇਟ	1
ਚਮੜੀਰੋਗਾਂ	1
੍ਯਾਮ	1
ਕਾਰਜਸ਼ੀਲ	1
ਖੇਡ	1
▁ਟਰਸਟ	1
ਪਚਾ	1
ਐਲਜ	1
ਫ਼ੇ	1
੪੧੦	1
▁ਅਭਿਆਯ	1
▁ਛੱਤੀ	1
▁ਚੌਹਾਨਾ	1
ਲਮਿਲ	1
ਫਟਿਆ	1
ਸੈਨ	1
ਡਿਯਾ	1
▁ਬੁਝਾ	1
▁ਗੁੱਥੀ	1
ਔਸ	1
▁ਨ੍ਯੂ	1
ੋਰੇਕਸ	1
ਆਬ	1
ਨੰਦੀ	1
ਮੱਥਾ	1
▁ਝੱ	1
ਈਡਨ	1
ਅਵਧੀ	1
▁ਐਗਜ	1
▁ਹਸਤਕ	1
ਰਘਾ	1
▁ਅਜੰ	1
ਾੜੂ	1
▁ਜਿੰਜੀਵਾ	1
ਸ਼ੱਕਰਰੋਗ	1
ਵਾਤਰੋਗ	1
ੜਤ	1
ਿਯ	1
▁ਰੰ	1
ਖਦੇ	1
ਿਆਲਿਆ	1
▁ਉਲਕਾਪ	1
▁ਇੰਫਲੇਮ	1
ਲਯੂ	1
ਮਾਈਕ੍ਰੋਮਾ	1
ਟੋਸਿ	1
ਮੋਨੀਆ	1
ਡੈ	1
ਸਥਾਪਨ	1
ਲੋਬਲ	1
ਾਰੋਪਣ	1
ਸਤੰਭਕ	1
ਕੇਟਿੰਗ	1
ਤਖਤਾ	1
▁ਮਟਮੈਲ	1
ਯੂਨੀਵਰਸਿਟੀ	1
▁ਵਿਗਿਆਪ	1
ਕਿਹੜੀ	1
▁ਸਟਰੇ	1
ੀਚੇ	1
ਟਾਣੂ	1
ਕਿੰਨੌਰ	1
▁ਪੀਡੀ	1
ਮੁਕ	1
▁ਮੰਜ਼ਲਾ	1
▁ਜੁਗਲ	1
ਵਿਕਸਿਤ	1
ਹਿਮਾਲਿਆ	1
▁ਸੋਮ	1
▁ਇੱਥ	1
ਫ਼ਲਾ	1
ੁੱਬ	1
ਰੋਜ਼ਗਾਰ	1
ੋਂਠ	1
ਚਮਾਉ	1
ਨਿਕੋਟੀਨ	1
▁ਪ੍ਰਚ	1
ਿਲਤ	1
ਾਈਕੋਮ	1
▁ਚਲਾਉਂਦੀ	1
▁ਸਾਂਭ	1
ਸਰੋਂ	1
ਖ਼ਰ	1
▁ਵ੍ਚ	1
ਬ੍ਰੋਨਕਾਈਟਿਸ	1
ੁਰੂਆਤ	1
ਫੇਫੜਿਆਂ	1
▁ਜੀਵਾ	1
ਦਰਵਾਜ਼ਾ	1
੧੦੩੦	1
ੰਬ	1
▁ਉਤੀਕ	1
▁ਕੁਮਰ	1
▁ਡਿਹਾ	1
ਡ੍ਰੇਸ਼ਨ	1
ਇੰਟਰ	1
ਨਿਆਗ੍ਰਾ	1
ਸੂਈ	1
ਸਿਵਮਿੰਗ	1
▁ਭਿਣ	1
ਭਿਣ	1
▁ਕੋਹੜੀ	1
ਡਿਆਂ	1
ਲੈਮ	1
ਪ੍ਰਸੰਨ	1
▁ਅਸੀਮਿ	1
ੋਫ਼ਲੇ	1
ਮਾਈਨੋ	1
ਮਾਂਡੋ	1
ਟੀਮੇਟ	1
ਟੀਨੇਸ਼ਨ	1
ਰਹੱਸ	1
ੱਖਣ	1
ਬਣਾਇਆ	1
ੋਦ	1
▁ਪੀਸੋ	1
ੋਹਰਤ	1
▁ਅਜਵਾਇ	1
▁ਮਾਨਯ	1
ਜਿਯੋਗ੍ਰਾਫ	1
▁ਹਜ਼ਾ	1
▁ਸੰਨ੧੮	1
ਗ੍ਰੇ	1
▁ਬੁਖੁਰਤ	1
▁ਮਾੱਡ	1
▁ਮੁਨੀਆ	1
ੋਮੋਜ	1
ਯੰਤ੍ਰ	1
▁ਗੜਬੜੀਆ	1
▁ਸਟਾੱ	1
▁ਸ਼ੌਕੀਨਾ	1
▁ਅਚੇਤ	1
ਿਆਚਾਰ	1
▁ਘੁੱ	1
▁ਅੱਤ	1
▁ਨਿਕੋਬ	1
▁ਲੋਹਗੜ	1
ਰਾਮਮ	1
ਗਰੁੜ	1
ਲਾਇਡ	1
ਅਧਿਕਾਰੀ	1
ਸਪੇਸ	1
▁ਓਡੀਸੀ	1
▁ਸਪੋਡ	1
ਫਿੰ	1
ਛਵਾ	1
ਪ੍ਰਤੀ	1
ਵਿਧੁਤ	1
ਸੰਜ	1
▁ਮਯੂਟੇਸ਼	1
▁ਹੀਮੋਫ	1
▁੯੪	1
ਵਾਪਸ	1
ਕਰਾਂਤੀ	1
▁੬੯੦	1
ਓਕ	1
▁ਨਸ਼ੀਲੀਆ	1
ਡਮ	1
ਸਕਵੈ	1
▁ਬਾਈਸ	1
ਜੇਸ਼ਨ	1
ਫ਼ੈਸ	1
▁ਰਹਿੰਦਿਆ	1
ਲੋਹੇ	1
▁ਯੁਵਤੀ	1
▁ਬੈਦ	1
ਸਮੁੰਦਰਤੱਟ	1
ਕਸੀਡੈਂਟ	1
ਖੁਬਾਨੀ	1
੍ਰ੍ਯਾ	1
੧੨੬	1
▁ਬੇਅ	1
ਪ੍ਰਾਰਥਨਾ	1
ozoena	1
▁ਅਵਯ	1
▁.....	1
▁ਪੁੱਜਦੀ	1
ਲਿਖਣ	1
ਕੌਟ	1
੍ਰਿਲ	1
ਕੋਬਰੀ	1
▁ਬਵਾਸੀ	1
ਮਾਸਨ	1
ਆਕ੍ਰ੍ਸ਼	1
ਂਗਲੁ	1
ਰੀਐ	1
▁ਨੂਡਲਸ	1
▁ਐਰੋ	1
ਕਮਜ਼ੋਰ	1
ਮਨਾਸ	1
ੋਮੇਟਿ	1
ਕਿਨਾਰ	1
ਆਕਸੀਡੇਂਟ	1
▁ਮਹੇਸ	1
▁ਸੌਵੋ	1
▁ਚੋਟੀਆ	1
ਬੇਨੇ	1
ਸਟੋਰੇ	1
ਟਾਰ	1
ਸੇਲੀਨ	1
▁ਸਰਫ	1
▁ਇਅਸ	1
ਤਾਲਪਤਾ	1
▁ਪਿਰਾਮ	1
ਵਪਾਰ	1
ਸ਼ਿਸ਼ਨ	1
▁ਬਿਟ	1
ਦੇਵਗ੍ਰਾਮ	1
ਕਲਪੇਸ਼ਵਰ	1
ਪਨਾਰ	1
ਅਦਭੁ	1
ਪੀਪਲ	1
▁ਹੁਡ	1
ਿਲੋ	1
▁ਏਕਸੈ	1
▁ਸਕਾਈਲ	1
▁ਸਵੀਕਾ	1
▁ਸ਼ਿਕ	1
ਯੂਰੋਪ	1
ੇਨਿਅਮ	1
ਲਕਾਵਾਂ	1
▁ਸੱਜ	1
ਵਿਰੋਧਾਭਾਸ	1
੪੪੨	1
kwashiorkor	1
ਕਰਾਊ	1
ਆਕ੍ਰਸ਼	1
▁ਕੰਟੀ	1
▁ਪਰਵਾਸ	1
ਧਾਰਮ	1
▁ਚੰਦਰਨਾ	1
ੱਖਿਅਕ	1
ਨਛੱਤਰ	1
▁ਪਛ	1
ਿਯੋਜਨਾ	1
ਰਾਕ	1
ਜ਼ਾਇ	1
▁ਲਕਜ	1
▁ਵੇਬਸਾ	1
▁ਚਕੋ	1
ਟੇਰੀ	1
▁ਡਾਇਬਟੀ	1
▁ਗੈਰਹ	1
▁ਮ੍ਰਦ	1
ਸਦਮਾ	1
ਕੁੜੀਆਂ	1
ਡਿਪ	1
ਘਿਉ	1
ਅਪ੍ਰੈਲ	1
ਕਾਮਨ	1
ਅਡ	1
▁ਮੈਕੇਨਿਜ	1
▁ਬ੍ਰਹਮਾਪੁ	1
ਁਤਰ	1
▁ਆਸ਼ੀਆਨ	1
▁ਕਛੂ	1
▁ਯੂਨੀਕੰਪਾ	1
▁ਤ੍ਰਿਵੇ	1
ਨਾਈ	1
▁ਲਾਲਕਿਲ	1
▁ਪੇਰੀਟੋ	1
[...]
